[SEP]
[UNK]
[CLS]
[PAD]
[MASK]
!
#
$
%
&
(
)
*
+
,
-
.
/
0
1
2
3
4
5
6
7
8
9
:
;
=
?
@
\
^
_
a
b
c
d
e
f
g
h
i
j
k
l
m
n
o
p
q
r
s
t
u
v
w
x
y
z
{
}
~
¡
¢
£
¥
§
¬
®
°
±
²
³
µ
·
¸
º
¼
½
¾
¿
×
ß
æ
ð
÷
ø
þ
đ
ħ
ı
ĸ
ł
ŋ
œ
ſ
ƒ
ƕ
ƿ
ǝ
ȣ
ɐ
ɑ
ɒ
ɔ
ɕ
ə
ɛ
ɡ
ɣ
ɤ
ɨ
ɪ
ɫ
ɬ
ɯ
ɲ
ɾ
ʀ
ʁ
ʂ
ʃ
ʊ
ʌ
ʏ
ʒ
ʔ
ʕ
ʰ
ʲ
ʷ
ʹ
ʻ
ʼ
ʾ
ʿ
ˈ
ˌ
ː
˚
ˤ
΄
α
β
γ
δ
ε
ζ
η
θ
ι
κ
λ
μ
ν
ξ
ο
π
ρ
ς
σ
τ
υ
φ
χ
ψ
ω
ϑ
ϒ
ϕ
ϙ
ϝ
ϫ
а
б
в
г
д
е
ж
з
и
к
л
м
н
о
п
р
с
т
у
ф
х
ц
ч
ш
щ
ъ
ы
ь
э
ю
я
ђ
є
ѕ
і
ј
љ
њ
ћ
џ
ѡ
ѣ
ѥ
ѧ
ѩ
ѫ
ѭ
ѯ
ѳ
ѵ
ѹ
ѿ
ґ
ғ
ҕ
җ
ҙ
қ
ң
ҧ
ҫ
ҭ
ү
ұ
ҳ
ҵ
ҷ
ҹ
һ
ӄ
ӈ
ӏ
ӕ
ә
ӡ
ө
ԓ
ա
բ
գ
ե
թ
ի
լ
խ
կ
հ
ղ
մ
յ
ն
շ
ո
չ
պ
ջ
ս
վ
տ
ր
ց
ւ
ք
א
ב
ג
ד
ה
ו
ז
ח
ט
י
ך
כ
ל
ם
מ
ן
נ
ס
ע
פ
צ
ק
ר
ש
ת
ء
ا
ب
ة
ت
ث
ج
ح
خ
د
ذ
ر
ز
س
ش
ص
ض
ط
ع
غ
ـ
ف
ق
ك
ل
م
ن
ه
و
ى
ي
پ
چ
ژ
ک
گ
ہ
ی
ە
ܥ
अ
क
ख
ग
च
ज
ञ
ठ
ड
ण
त
थ
द
ध
न
प
ब
भ
म
य
र
ल
व
श
ष
स
ह
ा
ि
ी
ॊ
ो
ং
অ
ই
ক
গ
ঘ
ঙ
চ
জ
ট
ণ
ত
দ
ন
প
ব
ম
য
র
ল
শ
স
হ
া
ি
ী
ে
ਬ
ਰ
ਹ
ਾ
ਿ
ા
க
த
ய
ா
ி
ు
ರ
ಸ
ಾ
ು
ก
ง
จ
ช
ด
ต
ท
น
บ
พ
ม
ย
ร
ล
ว
ส
อ
า
เ
แ
ไ
າ
་
ཀ
ག
ང
ཇ
ཏ
ཐ
ད
ན
པ
བ
མ
ཟ
འ
ར
ལ
ས
ა
ბ
გ
დ
ე
ვ
ზ
თ
ი
კ
ლ
მ
ნ
ო
პ
რ
ს
ტ
უ
ფ
ქ
ღ
ყ
შ
ც
ძ
წ
ჭ
ხ
ჯ
ᄀ
ᄁ
ᄂ
ᄃ
ᄅ
ᄆ
ᄇ
ᄉ
ᄋ
ᄌ
ᄎ
ᄐ
ᄑ
ᄒ
ᅡ
ᅢ
ᅣ
ᅥ
ᅦ
ᅧ
ᅨ
ᅩ
ᅪ
ᅬ
ᅭ
ᅮ
ᅯ
ᅲ
ᅳ
ᅴ
ᅵ
ᆨ
ᆫ
ᆯ
ᆷ
ᆸ
ᆻ
ᆼ
រ
ᠠ
῾
‐
‑
‒
―
‛
‟
†
‡
•
‰
′
″
‹
›
⁄
⁰
₤
₩
₫
€
℃
ℓ
№
ℝ
™
℮
⅓
⅔
←
→
↔
⇋
⇒
⇔
∀
∃
∅
∆
∇
∈
−
∙
√
∞
∧
∨
∪
≈
≡
≤
≥
⋅
■
▪
●
♣
♥
♦
♭
。
い
う
お
か
き
く
け
こ
し
そ
た
ち
つ
て
と
な
に
の
は
ひ
ふ
ま
み
む
も
ゃ
ゅ
よ
ら
り
る
ろ
を
ん
ァ
ア
ィ
イ
ウ
ェ
オ
カ
キ
ク
ケ
コ
シ
ス
セ
タ
チ
ッ
テ
ト
ナ
ノ
ハ
フ
ホ
マ
モ
ラ
リ
ル
ロ
ワ
ン
・
ー
一
七
万
三
上
下
世
中
主
之
九
乡
书
事
二
五
井
交
京
亲
人
代
们
仮
仲
会
体
佛
作
使
信
儒
元
兆
先
光
克
党
內
八
公
六
兵
冀
农
初
利
别
前
劇
力
功
労
勇
動
化
北
区
十
千
午
南
卫
原
友
发
古
史
号
司
合
吉
名
君
周
味
命
和
品
唐
善
四
回
园
国
國
地
城
場
壇
士
外
多
大
天
太
夫
女
如
始
子
孔
字
孟
学
孫
學
守
安
宋
宗
宝
宫
宮
家
密
察
寿
尔
尚
尼
尾
山
岩
峰
島
崎
川
州
巴
巻
市
帝
師
平
府
康
式
影
御
德
心
忍
思
憲
成
戦
所
手
拉
拳
提
握
撃
攻
政
教
文
斯
新
无
日
明
星
昧
時
普
智
書
會
月
朗
朝
木
本
李
村
杠
杯
東
松
林
株
森
極
楷
槓
標
権
機
次
歌
正
武
殿
母
氏
民
气
気
氣
水
汉
江
沙
河
治
法
波
洋
洞
海
源
準
漢
火
無
爾
版
物
特
狐
玉
王
玛
珠
生
用
田
甲
町
画
發
白
百
的
皇
皖
看
真
石
社
神
禪
秋
穆
空
立
端
竹
節
篆
米
粤
紀
紫
組
経
經
经
罪
羅
美
義
者
聖
育
自
舞
舟
艦
良
色
花
茶
草
菜
菩
葉
薩
藤
虎
行
術
衛
表
西
見
觀
訓
記
語
読
論
警
语
豫
賈
贾
軍
輩
运
通
進
道
郎
郡
部
里
野
金
鉄
長
門
間
闘
阳
阿
院
陳
陽
隊
隠
雨
電
青
革
韓
音
風
食
首
香
馬
高
鲁
麻
黄
黑
龍
ꙋ
ꙑ
ꙗ
ꞌ
）
，
￼
##о
##х
##у
##л
##и
##α
##υ
##ρ
##ο
##β
##λ
##χ
##ι
##е
##г
##а
##н
##т
##д
##в
##с
##ф
##з
##р
##ж
##я
##u
##p
##f
##e
##r
##м
##l
##i
##a
##n
##к
##c
##t
##v
##x
##ь
##п
##ч
##ъ
##d
##g
##б
##o
##s
##ц
##щ
##9
##0
##5
##b
##ю
##h
##z
##m
##ш
##8
##ˈ
##θ
##ə
##1
##3
##y
##j
##k
##η
##ł
##w
##ν
##ω
##q
##π
##ε
##σ
##њ
##6
##4
##7
##2
##τ
##ا
##ه
##γ
##і
##º
##ा
##क
##ل
##ق
##ذ
##ف
##ـ
##ة
##ы
##ı
##ɑ
##ː
##ŋ
##э
##ς
##ј
##ĸ
##ン
##φ
##δ
##κ
##μ
##ѫ
##ѧ
##æ
##ћ
##ა
##რ
##თ
##ვ
##ე
##ლ
##ბ
##ი
##य
##ו
##מ
##צ
##א
##უ
##ჯ
##ო
##ᅥ
##ᆫ
##ᄇ
##ᅮ
##ᆨ
##ð
##ה
##ד
##ᠠ
##ᅡ
##ᄀ
##द
##र
##न
##थ
##ա
##կ
##ո
##վ
##ն
##ß
##ɪ
##ל
##ן
##ϒ
##י
##ә
##و
##س
##ى
##ψ
##ζ
##ب
##ج
##ط
##な
##る
##ø
##ʊ
##ن
##ز
##ر
##ت
##ル
##љ
##ی
##ா
##ե
##տ
##ր
##ս
##ҕ
##ѿ
##ᅧ
##ᄌ
##ѣ
##ხ
##მ
##ב
##ᅪ
##ᆼ
##ᄒ
##ᅢ
##ւ
##ң
##ي
##ȣ
##ʼ
##པ
##འ
##ो
##श
##ѡ
##ξ
##ѹ
##ɛ
##ס
##ט
##נ
##く
##は
##ѵ
##ꙋ
##þ
##კ
##ᅵ
##ロ
##タ
##ク
##シ
##ध
##ि
##च
##त
##ם
##ɡ
##ɔ
##ژ
##گ
##د
##م
##ᅩ
##ᄂ
##ᅳ
##ᆯ
##া
##ᄋ
##ᅯ
##ᄃ
##ქ
##є
##ղ
##ջ
##ش
##ー
##ʲ
##ک
##წ
##ფ
##ع
##ং
##স
##র
##ร
##ม
##ย
##ɣ
##ས
##མ
##ག
##ར
##ნ
##ग
##ʻ
##ʾ
##ট
##ғ
##ᄅ
##ᅦ
##ת
##ח
##प
##լ
##ר
##ש
##ɯ
##བ
##ང
##ʃ
##ল
##ᄉ
##ᄐ
##ಾ
##ђ
##ө
##ᅭ
##ᄎ
##か
##ʒ
##כ
##ᅬ
##ყ
##ტ
##น
##ك
##শ
##ᄆ
##յ
##შ
##ᆷ
##म
##ꞌ
##อ
##ʹ
##ە
##व
##დ
##រ
##ѭ
##œ
##প
##জ
##ি
##ত
##ᅴ
##ص
##ע
##ウ
##の
##テ
##ィ
##ի
##ɐ
##һ
##ᆻ
##ʷ
##ˤ
##ح
##ན
##ზ
##ᆸ
##ラ
##コ
##จ
##ก
##ล
##ા
##خ
##ק
##リ
##џ
##ӏ
##đ
##ು
##ү
##ს
##ァ
##イ
##オ
##ठ
##ӄ
##ז
##ء
##り
##ड
##ই
##ト
##ʁ
##ɾ
##ण
##ʿ
##ワ
##ッ
##カ
##ਰ
##ਬ
##ਾ
##ん
##ち
##າ
##า
##ว
##ช
##ง
##フ
##ɒ
##ǝ
##ʌ
##ɨ
##ѥ
##ℓ
##қ
##भ
##स
##پ
##ज
##غ
##გ
##գ
##ʰ
##ཟ
##হ
##ঙ
##մ
##շ
##ᅣ
##ゃ
##ア
##ナ
##し
##ც
##პ
##ন
##ে
##マ
##թ
##ʕ
##ᅨ
##ท
##เ
##พ
##ด
##ी
##ħ
##ɬ
##ろ
##ら
##い
##ふ
##き
##み
##ゅ
##פ
##ʔ
##ɕ
##ѩ
##ி
##ལ
##ま
##ಸ
##ರ
##ᅲ
##µ
##ल
##ჭ
##ホ
##ث
##ᄑ
##ض
##ী
##ך
##ҳ
##ス
##チ
##ম
##য
##ष
##ძ
##ケ
##モ
##ॊ
##て
##چ
##ཐ
##ɤ
##ց
##ไ
##บ
##ᄁ
##ব
##た
##け
##ు
##ʂ
##ג
##ք
##つ
##ய
##そ
##う
##と
##ҫ
##ɫ
##よ
##む
##ѳ
##ұ
##দ
##ノ
##গ
##ԓ
##բ
##ѕ
##キ
##չ
##ঘ
##ェ
##ܥ
##ʀ
##ϕ
##ต
##セ
##を
##ক
##ཏ
##ञ
##ҙ
##ハ
##お
##ſ
##ส
##ʏ
##ਿ
##ꙑ
##ꙗ
##ਹ
##ད
##խ
##ღ
##ہ
##ণ
##ҷ
##চ
##ӕ
##こ
##ख
##հ
##ह
##ひ
##ཀ
##に
##ɲ
##க
##ϑ
на
##ни
##ат
##ст
##ра
##ва
##то
##ре
##ри
##те
##на
##но
##ли
по
##ата
от
##ен
##ск
за
##ot
qu
quot
##ро
##та
се
##ия
##ле
##ве
##ди
пре
ко
##во
##ите
##ър
##ла
##ка
##ло
##не
##ко
##ти
из
##ма
##да
##ви
съ
ра
да
##де
##ния
го
##по
##че
##ме
са
до
##га
##ци
то
не
##ато
##ми
през
19
ма
##ние
про
си
##го
##ер
при
##зи
##ните
##ната
об
##ки
##ъл
##ски
##ор
##ча
ка
##ват
##си
##лед
##ру
раз
##ля
##па
##ста
те
ре
въ
##се
##сти
##мо
като
##за
##ът
##же
##пи
годи
##до
ме
##ция
##сто
но
##бо
##ване
##ство
че
къ
##он
де
##ито
##чи
##ръ
во
мо
след
му
##ска
##ги
##би
##00
##ан
##рия
ви
които
##ще
##гра
##ско
##лу
##пе
па
##со
гра
ст
##ща
##ската
##мен
пе
##рат
##ур
##лно
година
ве
та
##ския
##вър
ми
ро
##ден
##са
##ето
##жа
ста
##ят
би
пред
##ява
ос
пър
това
##ел
под
сре
##ран
##ду
##ност
ча
кра
##вен
##нието
18
##ца
##жи
кон
##ба
ди
##вата
##хо
ба
##бе
##лен
##ката
бо
##жда
ин
наи
##щи
##ълга
тои
ли
##ното
##ем
##ку
към
##лю
пра
бълга
##ник
им
##що
##кто
##вите
##ати
фи
##ването
##ше
##дно
има
##ства
##кт
20
##ските
##зо
вре
##вия
бе
##ман
тя
со
##зва
200
въз
##из
ле
##лия
ар
све
##фи
##нов
##ши
време
##дин
ва
##ън
ня
дру
него
##ря
##ството
##след
ан
вои
##ха
или
##пре
##вер
##це
##ври
##лото
##пу
##чва
##лко
##ците
мно
във
ни
##рен
пи
ку
##лни
част
ха
##она
##ент
##стро
спо
##жду
##лите
##рите
##дна
##пра
запо
##ято
##рт
ду
##чни
ав
между
жи
##дат
##ин
##зе
##сте
##пол
само
ру
сво
201
око
стра
##им
##кти
което
##ният
много
##нето
##кс
##чен
##ке
град
ком
която
##стве
със
##став
няко
един
##ското
години
##сно
##мира
ти
##зна
##вете
над
##цията
##клю
##гу
##кри
рабо
ки
##мия
##лна
ус
ор
полу
българ
##бра
##ките
##ту
##ша
##ържа
##гат
голя
##кан
##чава
пла
##циа
##бли
става
##чно
##ници
##съ
гла
уча
ал
около
199
гру
##ции
запа
##ред
##при
изпол
хо
##ул
насе
##ики
##дите
##нд
##мата
##чески
преди
194
##ува
##сите
висо
сто
##ня
произ
##чите
##ради
също
##вет
##фе
сред
маи
##ате
вла
##ложе
##ну
този
##пер
##зда
вто
слу
га
фа
##лата
##рио
##върш
##ене
вър
ге
15
бъ
краи
населе
##дето
цент
##лиза
##ията
##щата
##дъл
ев
##вор
##пъл
12
три
##чки
##нията
разли
разпо
ри
север
оста
пло
име
##гато
хи
ло
започва
##нг
вси
така
##чна
##вест
век
##ък
където
може
деи
##ьо
път
нача
##тро
зае
##мври
##бу
##раз
когато
##про
##er
##ята
##ността
##ари
създа
##мери
други
##ван
##рата
изто
##пис
17
##дни
тур
дъл
см
##вна
же
198
##вни
срещ
още
ла
##лище
фон
##ев
##сен
##ун
два
както
16
осно
фор
##вно
##нист
##зира
уни
##стоя
отно
10
##нски
##стта
##лява
сте
поли
##мет
извест
чи
##гани
##рии
учи
късно
##жен
тях
мал
доб
##вя
живо
##ся
13
##лната
пу
##мина
една
##ар
общи
##нове
су
197
послед
пове
ръ
##фор
спе
село
##дата
кла
без
зна
българия
продъл
##вършва
мар
голе
##ков
##бор
196
14
кар
##вод
##тен
##ември
##цата
вклю
##мер
##тата
чер
##тер
##зия
##рията
##хи
тър
връ
воен
##сия
използва
##рак
държа
оби
все
##прав
191
##чина
193
тези
цър
##цион
всички
##стра
исто
органи
воина
мя
##стъ
192
тази
кри
##циона
според
##меи
##дена
срещу
##лага
##фия
няколко
място
обла
11
евро
намира
игра
##кре
##вото
гер
##лет
ii
##нт
авто
края
перио
дъ
бро
##сла
дж
еле
##тър
откри
раи
##стви
##ква
195
повече
##дава
бъде
##ърт
началото
свето
пол
##рати
души
km
##жение
ок
##гия
роден
##нат
ско
##щите
основ
пар
първия
##on
##in
##иски
##вин
##тре
##вява
амери
##an
тре
юж
ту
фран
фил
някои
##бер
##пен
кръ
дне
##къ
завършва
едно
##лните
ези
ад
##ут
##лиз
обе
две
##кар
работи
заедно
це
следва
##нти
бу
опи
##ление
##два
##лъ
анг
населението
##ху
сти
лу
##кедо
ита
##ове
##ският
семеи
##ход
универ
##ву
##дени
##тат
##тите
получава
##чение
тех
ша
##or
македо
ще
##риа
##атор
мест
разви
##пата
##кра
##деля
национа
190
ши
##ставя
пр
##вител
##жава
##гла
река
син
кора
##тан
##зват
##щия
полити
##рд
##стъп
##кия
##щест
прави
##ar
първата
##рез
##ктор
селото
##вре
##тни
името
университе
##мите
реги
##мор
хра
##вежда
##кси
често
наро
тъ
нико
##връ
остро
разположе
управ
рез
участва
плани
##нен
върху
##обра
##ге
##en
хри
ху
##об
##преки
въпреки
##бва
##пте
музи
вече
зе
##лния
нау
проти
##ника
##тира
фе
ги
##ург
##казва
изпъл
##дж
##ема
вели
##рито
##доб
ико
поради
##зон
##чат
##ров
града
бил
##ланд
##дове
##стига
##чните
##os
ио
##ствие
##ура
##ческа
свър
мъ
съвет
##птември
първо
малко
ця
##рабо
чу
крал
чрез
##гата
##дър
##яват
септември
различни
##чната
ръко
рим
сла
мла
части
побе
армия
але
св
зем
чове
американ
имат
##лии
лю
##бург
##es
##лин
##държа
авгу
##гле
##гава
тря
опре
##они
##ил
##от
нари
юго
коман
кул
##нал
софия
##фа
док
##ниците
кни
училище
##мпи
гръ
трябва
##жите
член
##спо
терито
##дия
успе
запад
##сни
187
##мент
дви
август
##тия
бри
##стите
брат
страната
ци
оба
##писа
##рта
##at
смърт
##чително
публи
специа
отново
##ьор
##тел
##лов
офи
импе
юли
тра
##гре
албу
предста
присъ
##юз
##чват
юни
ис
жите
##чо
основа
окто
##логи
##мента
уби
обаче
обя
постро
гу
ше
##нали
бла
##нение
живе
##лното
октомври
гър
неи
##станов
провин
##времен
севе
сащ
##мъ
стро
апри
могат
30
##кло
##връща
импер
там
яну
дек
##ген
##лят
##дел
голяма
височина
пъ
##мож
окръ
##al
##бира
център
189
##дра
група
април
##дри
##чели
скоро
##ница
##рна
000
##тра
усп
бра
##дател
центра
изда
чети
пос
25
иконо
нея
##нима
##лат
##чени
осман
систе
януари
дре
##бите
помо
##щер
##писва
##лови
докато
площ
км
##шен
##му
пет
март
##деле
страна
##ческата
##ъм
епи
##нача
същест
университет
##чин
ноември
##виси
##ждат
тру
##стия
екс
вер
ек
##is
##тва
##минава
община
пле
италия
##бро
бър
##дар
право
днес
сезон
##ic
##вните
##чка
били
ке
##us
изгра
гене
##цен
фо
##стру
##граф
теле
хе
декември
език
##дер
спа
наре
първите
##говор
##мати
##вени
награ
поч
##ател
френ
##изто
тогава
дан
минист
арх
##ii
##нира
поя
инте
##град
баща
гръц
прое
188
български
северо
тъи
##запа
##шение
съп
дър
##нени
##нии
##дения
благо
##нер
империя
##воре
пер
бли
изслед
##бата
бор
вид
води
църк
##вната
граф
първи
зат
##минист
поз
соб
дъщер
втората
##рира
парт
представ
резул
сра
геор
##тие
##вател
възмож
нарича
##he
##жество
##насти
##ини
своя
кли
правител
групата
харак
реа
отбор
съпру
админист
обик
##ститу
кре
друг
първият
##щото
музика
##мест
коле
##ус
света
тео
образ
защи
##цо
елект
##пан
възра
търго
##вски
живот
##ложен
##рон
##мно
организа
репу
бре
##менти
фут
играе
##мат
съюз
ата
##рал
пис
футбо
##бри
##яване
неза
##чаи
##ена
сър
##сет
няма
македония
##твър
осо
обра
##кува
ap
##лина
северна
месе
вся
сл
ден
цар
област
отбо
##пла
##иския
##стран
##мът
обще
##нява
##шно
гор
ог
подоб
свети
близо
обикнове
##шава
##род
кор
море
##ствено
алекс
##рото
жители
фев
остава
##пада
##лож
февру
население
републи
цел
четири
дъщеря
герма
оръ
##стои
февруари
изб
##зова
мили
##пуска
георги
всеки
##вена
изку
##сил
продължава
##шна
##бле
##вар
помощ
бя
##нска
включва
##дент
##зите
бал
периода
##кта
първонача
фло
бан
##нската
ако
мор
големи
страни
сгра
алексан
икономи
освен
провинция
дължи
##гур
##волю
европе
ска
##цер
##нася
твър
дими
2010
мон
диа
проце
времето
##вобо
печели
##тур
##вате
сту
##яването
кита
иде
изклю
##пания
##нати
уче
роля
##стан
система
връз
##ина
бит
смъртта
бер
манасти
поле
резултат
осъ
##кция
свърза
период
коло
фина
21
сви
100
кам
##зем
германия
ака
участи
##сна
apos
произве
църквата
световна
същата
хер
голям
##берг
окръг
особе
тран
никола
##каз
истори
##it
##вори
##el
##дио
междуна
дра
попу
##чев
пари
##су
##пло
##тар
зако
отде
##вят
##ности
кари
клу
съста
европа
воината
умира
##ствен
проду
22
вътре
франция
акти
##лност
хор
класи
сили
##жат
почти
##зар
шампи
пъти
двете
сан
профе
предсе
заради
##мени
успява
24
##рин
веро
лите
##дица
##въ
широ
др
##вния
начин
##чния
достига
##оръ
спи
пат
кате
##циите
освобо
дава
тан
##сън
##логия
##пример
император
##морска
например
назна
напра
##ходи
хора
##джи
тит
##еди
пъл
анти
##рани
род
обикновено
мина
дже
##сква
собстве
администрати
възраст
русия
стру
езе
худо
инди
##щава
социа
опе
нови
дире
общината
##бър
ново
186
иван
##сел
дори
програ
##нския
жени
прин
##дение
##ческия
герман
наслед
нем
бъдат
участ
##нга
##шни
##лича
дома
##кото
форма
##ет
##ческите
официа
##ране
свобо
интер
посо
the
учите
среща
влиза
##лиан
излиза
##иската
##ъра
##ляр
надморска
остана
##лит
била
акаде
посе
револю
##чество
кан
##ческо
##нова
литерат
регион
мате
разпро
деист
столи
вода
23
##ждава
##мена
режи
##ac
##фри
комп
##вън
нор
меди
50
##бре
##чита
##лизира
преминава
свет
съот
случаи
тро
препо
##re
теат
##стър
##лан
всяка
##ян
голямата
##лог
семеиството
ана
2000
диви
мач
влия
важ
нова
използват
пише
##форма
фун
##ит
твор
##зни
подкре
вероят
iii
##кро
работа
##гне
акт
сим
южна
състе
повечето
пози
##рация
прези
ню
##as
предпо
гро
##тно
##вият
въста
##il
христия
##лението
песен
места
##зен
##ol
##вди
##лер
гражда
стан
средно
поста
кара
църква
##чена
##лист
христо
##стре
##листи
юг
япо
българската
##рес
##вания
##тието
голямо
изток
##вува
##станти
дни
отбора
бел
##сло
остров
##беля
институ
##висимо
сп
##крат
ну
тем
##нос
фило
водо
28
##бен
##дено
##грани
разположен
уве
##скоп
стати
еди
тради
малки
##мир
ран
иг
изи
27
##бю
производ
пара
##кови
сед
демо
раиона
покри
теж
сло
живее
джа
40
тек
26
председател
първоначално
преда
известен
ръково
степен
наб
##мис
гим
константи
мача
комите
##om
##уа
конс
своите
добре
република
стре
##тин
##бия
създава
представлява
гри
контро
установ
##деи
##запад
пробле
##нови
##чета
##ум
разположено
дво
близ
##рис
мето
своята
британ
##сят
##сии
кому
загу
##шната
##работ
##пус
съби
##ган
команди
смята
мъж
##шните
##вол
пръ
шве
жен
прия
дя
всич
##дро
##ur
нео
особено
приема
##следствие
##рият
практи
##стен
##хвър
османската
##мират
позво
гео
##лени
александър
##стат
нар
съдържа
##цент
##тру
##фо
шампион
бур
нов
##каза
съвремен
генерал
защита
грани
##дор
гърция
краице
започват
завръща
заема
сце
##ени
##кул
2011
състоя
вън
##et
мю
коре
компо
##хия
семеиство
##лено
ори
гимна
областта
ква
##глежда
##жения
##шки
територията
2007
##ul
##хва
вероятно
обу
големия
##лка
наблю
тер
данни
нама
живота
##чават
тук
##лът
съеди
сме
##жението
изп
ох
##ion
деца
бив
##рение
2006
##ера
кня
вест
връща
##бива
##гото
капи
маика
оси
##рих
стои
изо
образова
аб
първен
неговата
##вено
##нин
##ландия
##ерата
##рина
2008
парти
изра
шо
друга
крат
##бан
определя
служ
брои
ат
албум
иор
роман
как
свои
##тор
##нения
общо
##фан
##шите
опа
зад
участие
коли
изпра
провежда
велико
силно
материа
##мба
##мин
2009
##мя
защото
##ново
##ис
##щат
бързо
двамата
##един
съществува
порт
бого
##лива
кос
групи
избран
власт
съответ
##стъпва
множество
##50
средата
историята
договор
хората
непо
състав
##чу
стар
взе
##дина
##кин
било
кали
##щност
##кции
воиски
академия
първото
##зви
##джа
въл
##зма
##кла
##чното
##вка
##дели
xi
##нена
ща
култур
еми
##шения
##реи
пловди
##знава
допъл
геро
##ристи
опит
история
1944
##къс
##ръб
съв
съд
##ид
крепо
манастир
изди
кана
рели
##лища
2012
##рана
кур
американски
напре
##тания
дебю
дълго
характер
архи
фили
изобра
ара
##вното
##перат
##am
архите
вис
деиност
прину
миха
секре
въпро
##нисти
бои
завър
телеви
памет
причи
пси
проте
италиан
##тина
60
състеза
##ствена
управление
ман
аре
температ
напа
реда
сел
##ствени
##ляват
човек
култу
29
93
##сан
укра
91
неговите
въоръ
пловдив
комитет
партия
прев
съгла
министър
финан
фри
##кон
##временно
мета
##лник
каза
едва
компа
##тропо
еки
четвър
втори
расте
отли
##меня
вра
физи
##лището
иска
техни
възду
предимно
злат
народ
##лена
напуска
макар
##статъ
дълбо
експе
любо
##дител
##ложение
##лон
югоизто
2005
поня
тръ
състои
##урата
крити
димитър
##варя
щата
арти
назначен
##бни
##ток
##тна
##тон
##иска
радио
присъедин
унга
авст
##сем
гре
ефе
прове
големите
пов
земята
##чеството
озна
наме
##жде
публикува
##ствата
стат
анд
останалите
##дан
организира
##шка
##годи
сс
##къл
##тег
##кви
париж
##ing
##гот
събра
##ждане
служи
архитект
##le
##вал
филма
##строи
макси
командир
##имен
включително
##слав
състава
дължина
##шния
представя
автор
мат
административен
добро
филосо
североизто
мария
българи
##фика
учител
##гъл
есте
усло
информа
##зъм
80
##десет
лято
ам
##чението
##лизат
раион
дости
вар
##кова
##ления
##пите
31
превръща
2004
сръб
##зата
##вяват
пехо
деиствия
##ia
засе
##сата
статисти
джон
видове
##слу
казва
##лато
линия
##довете
зо
енер
президент
##ch
##жават
сега
необ
st
184
##овате
##дон
##юр
##un
уи
##мар
##деж
маши
полк
гори
музе
впо
черно
афри
185
вя
ограни
решава
влади
##лината
впоследствие
постоя
връзка
##вора
софи
образува
оли
лон
##лис
уе
погре
##дви
##um
строите
съществу
виза
тип
##карва
шест
##жан
военно
##лииски
сер
дивизия
##сор
##вид
свят
##лф
доку
##менно
извън
##дят
##вед
коми
англия
живеят
зато
цялата
##зване
филм
популяр
здра
против
оти
##ловина
топ
##фици
##вла
битката
iv
##графия
##ed
##казват
ръковод
месеца
разру
българска
мона
лъ
владе
##вета
излъ
ред
високо
зве
управлява
отбеля
##мни
2013
худож
междунаро
насо
in
занима
##жие
предизви
градът
##нението
условия
васил
характе
херцо
##иските
седми
прите
##зона
обо
определе
##никът
редица
##бет
еги
##рни
##лд
##ждането
##мага
другите
пое
двата
##пълно
поре
##стри
милиона
носи
2001
сила
джо
хиля
##вица
##степен
основно
представите
ета
мястото
последните
##риан
трен
връх
##щият
слън
необходи
песни
##кове
противо
клуб
недо
70
нав
ката
същото
##нес
##къв
неговото
реката
##рени
##туа
независимо
главно
гр
електро
държава
дина
бивш
##сов
поставя
обеди
приро
идва
##ологи
малка
сен
работ
##лният
самия
петър
##id
лятото
америка
площта
##жва
##чване
успех
##мс
съпруга
инстру
##емат
правителството
##нато
патри
##дии
1990
списа
##ro
зи
феде
##заи
##тров
двигат
всичко
##тън
фер
##път
гимназия
##спе
медици
##три
##нав
2014
дву
##лн
##дем
балкан
развива
зву
##зията
##лети
бар
напо
структ
##леи
разпростра
служба
зам
шко
кораб
известно
##лира
##ad
дипло
##цио
ен
продължение
##лежи
##сиона
183
##ствието
##чено
##лията
мис
поддържа
издава
##пет
предо
избо
##ср
управлението
прода
проект
отго
хан
директор
##кат
##фли
главен
унищо
зада
разши
бря
##ряд
зим
маг
епископ
##хан
хар
##стояте
означава
упо
сцена
равни
##миш
увели
известни
##тици
воде
таки
солу
##лкото
##вода
##пар
сътру
следващата
ря
консул
de
##рена
университета
лига
##вич
##гер
##цето
##кцията
свързани
разположени
огро
метра
политически
желе
песента
правителство
вида
кораба
поме
##соб
точка
такива
mm
рам
региона
бог
резер
##явява
образование
лип
оказва
парла
##крати
##лект
концер
2002
##щен
скло
##мани
##нските
##стем
земе
малък
##щето
90
исти
таи
##стор
бр
##сът
##кът
##зу
карл
организация
напълно
създаването
съпро
постоян
##щаин
бун
##хран
развитие
2003
##гнат
появява
сна
##лица
##въз
разлика
епо
xv
##тели
оке
##хода
следващите
позволява
##гио
движение
##рате
омъ
##шо
театър
открива
##кога
##ческото
министер
намират
щати
първа
карти
##чност
##върх
##кият
опо
##ra
пости
прив
цен
##рява
цели
##рил
##лкова
опера
сериа
##ица
предлага
опитва
##нет
госпо
##жени
##ter
##000
##лив
##зион
духо
клет
##зването
самостояте
повърх
дете
##гва
задъл
понякога
##мна
смет
испания
бло
митропо
##яло
сина
##ционен
ссср
англии
систем
дет
международ
влияние
##хе
отношение
##дал
##кли
##дате
инду
приятел
ели
класа
изпълнява
себе
професиона
допълните
херцог
##зин
констру
пие
опер
иорк
великобри
съпругата
##моби
записва
възник
32
произход
##тът
шу
бряг
китаи
1941
великобритания
##лагат
кър
постепен
##требите
##мън
мре
обрат
центъра
xix
началник
армията
единстве
прибли
преме
35
съще
дале
стефан
оцен
##сните
държави
изключително
##op
ер
мир
ролята
пови
##кен
##вел
секретар
стават
езерото
развитието
доста
награда
##скат
сигур
режис
##ствената
##лността
##вил
жан
упра
команд
замест
свързва
##рид
изпрат
подпо
##юл
свеще
компози
##ционни
прото
ля
##od
краибре
апо
съсе
автомоби
ца
гръцки
родена
1945
египет
столицата
психо
##чения
върхо
##вали
пан
мину
##денти
план
##дне
2015
жена
of
хр
разположена
отказва
осигур
##пти
проф
##нопол
тялото
разделя
значително
книгата
##ним
##ури
##ио
арест
албума
кораби
182
архе
вина
москва
извършва
основните
##лев
##рането
гола
##фон
стил
##ut
нощ
въстание
жела
##ig
фро
##разява
затова
стара
южно
меха
##стове
##рова
##прия
известна
##цяло
##шката
възможност
компле
военни
гол
раке
кръг
артиле
##уд
дове
новата
##уват
изцяло
##щение
поло
лан
кариера
целия
чуж
етно
азия
тор
##ец
1991
византи
ел
an
##шното
титлата
техните
католи
##рски
кот
##дъ
събира
постепенно
течение
аз
носите
фами
##чело
разбира
цари
кило
българските
пен
##тация
вене
изпълните
африка
комунисти
##вец
помощта
транспо
сестра
серио
толкова
пило
##ос
часа
цяло
##фер
##дните
1999
бю
работата
неговия
пристига
бен
изу
мер
чув
##вето
доба
##жо
обявява
годишна
ch
1900
##лски
##ленове
лати
показва
епизо
осъщест
180
техно
##нско
##бна
широко
членове
##стват
##кп
##дрих
счита
губи
гъ
##уван
сезона
земи
ари
убе
седем
синг
жер
принци
състояние
1989
после
родо
човека
сметка
лондон
разкри
фла
заги
компю
##зиран
бива
##мон
##гент
патриар
##оте
##ec
премина
пръв
занимава
употре
значение
среднове
изпраща
филип
източна
##иско
дел
северозапад
чиито
поне
преми
причина
руски
запазе
паза
основава
1992
отделя
181
получи
изпи
сам
взи
пото
##метра
##дко
хаин
марк
##сети
герои
апа
басе
екипа
##чето
испан
мъже
##логията
##вани
значите
западна
флот
уста
##зно
##im
##ферен
проекти
централна
децата
официално
взема
конфли
##гите
десет
##ir
хил
##ционна
книга
първенство
##ана
2017
михаил
нали
##лъж
капитан
втория
търгов
нара
англииски
2016
градове
интерес
полша
южната
художе
втора
решение
1943
1998
националния
нито
прие
политика
изкуство
##нено
земя
пътя
книги
вме
##новете
обща
мари
##няват
северната
половина
територия
##цу
представител
ави
разно
фридрих
канди
богат
##сява
острова
библи
##ent
пролет
своето
убии
религио
##лям
кру
##рди
участват
начело
##вник
##iii
##над
приклю
информация
##шко
добри
проу
установява
for
съоб
код
интере
хит
##ика
##iv
скорост
литература
##гло
##чис
властта
висока
северно
планина
1997
изче
хър
позиция
заместник
редо
оку
бито
средства
##ow
фир
момент
предполага
##пия
##сък
професор
придо
1980
##хвърля
##ставят
купата
##мах
##бина
##дителите
ак
транс
##зов
##лие
срещат
деиства
##нското
животни
дело
близост
##пър
годината
негов
отбра
спорт
присъединява
##чов
##кръ
почи
простран
##нев
уме
югозапад
##шението
компанията
производство
охрид
заминава
ед
елементи
##мов
николаи
45
##нс
общ
##гна
берлин
##атори
500
сградата
##сени
36
електри
правят
праз
руската
33
маса
поко
варна
функ
##тика
конгре
константин
сли
зона
вижда
възстанов
##зират
##ръж
избя
##рове
##гон
планината
##шата
1912
поема
1996
френски
създаден
оце
##стани
дьо
изследвания
проблеми
построена
хъл
австра
библиоте
1994
неиз
благода
мм
катего
треньор
дати
водата
вяр
българското
процес
институт
точки
точно
##сната
маги
последва
##рови
източно
брази
пря
##тъ
##нените
##ag
ива
дис
организацията
1913
поп
папа
1995
факул
брего
разработ
##мяна
анто
плен
завърш
посещава
автоно
отговор
##емати
култура
хиляди
българско
150
вместо
есен
модел
##лати
##80
попада
ир
максима
##сюл
##шени
луи
маси
факулте
вз
леген
пак
търговия
1878
##уга
ниво
##ателно
##ation
##дил
мин
брак
##кса
джор
формата
##дже
спомена
третия
вторият
пада
океан
нас
джу
кал
кост
1942
##хваща
##блъ
възможно
##имс
чин
промени
музеи
##мана
##вният
западната
принад
камен
достатъ
дворе
##неи
179
кю
##шев
големият
месец
промиш
стъ
източни
старо
запла
изя
1970
сътрудни
воини
бежан
започна
джи
включват
подкреп
1940
млн
същия
ада
турни
военна
новия
пристани
хими
1993
благодарение
кралство
укре
##делен
посока
устрои
препода
версия
експеди
##ворите
индуст
призна
оттег
кратко
военен
музиката
хаинрих
##em
пора
звез
математи
изби
##държат
кариерата
##хен
##пие
полуо
отбелязва
##лва
##лежите
славя
двама
форми
добър
краицера
ефекти
##жни
##вност
япония
##дови
аси
сравните
строител
открити
склю
забо
##чата
##нента
българския
турция
сграда
##гро
##мос
основната
цялото
##жена
събрание
косми
селище
долината
западно
разполага
1960
съпроти
##сове
полуостро
села
говори
разре
тома
ван
местните
ау
##влад
изисква
##работва
затвор
формира
##ay
аи
виде
исторически
сле
##печат
описва
езици
среди
имало
рис
##мената
спря
вестник
налага
##новен
длъж
победа
именно
осем
компания
убит
олимпи
коро
34
##шена
воиници
кирил
източната
границата
остават
##сови
предна
раиони
##бъл
жа
##нис
вну
##лищ
партиза
ул
модер
винаги
боле
##мбо
ориги
трите
##чаква
ол
хен
оръдия
##цеп
правосла
ие
##лета
продължите
твърди
ръководството
разстоя
##сово
##кур
##рииски
философ
сва
##st
дого
##лки
любов
отива
конститу
трети
##лини
забра
съществуват
пост
##рие
##мии
редактор
##мост
##нген
болни
телевизион
##дру
рамките
пода
##ково
домакин
игри
##дие
княз
механи
##oc
мюсюл
##насят
##атели
избу
представители
дали
##гор
иоан
##мене
сул
приток
##ият
острови
мекси
получават
столица
закон
##пор
##моти
спече
300
попа
неговият
постига
създадена
направи
роб
подход
системи
мол
био
обект
##рист
индия
производството
ато
наречен
1950
срав
##работе
##атора
училището
митрополит
приблизите
##ворен
шар
##чник
кварта
ясно
##бъ
обви
##ино
целта
вил
##писан
атана
плат
##стира
##хел
am
уси
бата
##казател
контрол
краси
вариан
турнира
##ьон
cm
специално
##кър
##нета
жителите
##колкото
катедра
индиви
##зии
фигу
сравнително
традицион
##дов
##писи
хаи
температура
двигате
##20
основни
графи
крепост
##днага
младеж
наблюдава
дружество
негово
веднага
маха
брига
спор
##зина
наричат
##детел
държавата
минава
##чването
дю
национален
парламента
араб
конти
рок
##стата
участието
помага
##нети
##мит
##сва
дунав
##мера
жур
мак
актьор
серия
програма
##зови
яд
противопо
мом
симво
фото
изигра
##ложението
постъпва
##графи
екзар
##коп
архие
предпри
идеята
бкп
##бита
1986
храм
местността
##овател
доктор
взима
ов
наса
фра
описа
моми
португа
##70
стихо
1920
вмо
кръст
проекта
разпростран
бру
##тогава
константинопол
разделе
##ляване
превзе
тим
##глед
способ
стопан
ради
клас
##лове
неината
##тов
лин
лекар
##сон
##стина
видео
1918
преподава
последовате
vi
мала
отда
унгария
##фт
##40
забе
дом
основата
пълно
мен
произво
стена
колони
##and
##дръж
писател
системата
комплекс
##ску
лети
дола
##зация
омъжва
използвани
практика
иохан
различните
преобра
подгот
централната
премества
защитава
одри
произвежда
##60
краина
##стрира
пътува
38
сю
променя
бое
1988
##ризира
къщи
успяват
брега
фести
xx
##чаване
внима
хърват
отборът
обса
1939
##успе
елиза
1934
цариград
120
##формира
1928
##гас
предава
съю
разнообра
никога
##лек
1905
##пка
строе
##роди
области
битка
##шават
##дарт
пале
васи
влизат
предназна
заво
##лизация
основан
носител
сърбия
ръководител
географ
офор
##лос
##чието
##шено
стига
##елен
рано
швеица
побеждава
пребро
труд
прос
##иското
##рено
стади
следващия
престо
отделни
съответно
мра
подгото
самият
уда
енергия
отношения
съвмест
списание
езеро
журнали
водят
нуж
рядко
генера
притежава
петер
популя
общество
тяхната
##кани
ото
настоя
##пита
възста
ръце
последната
пъте
##женер
едноимен
превър
непре
достъп
контра
брон
##тото
чар
самолет
трудно
джордж
##гри
асо
граница
немски
кръсто
левски
##сова
стане
преслед
дебе
##лация
1974
##мини
партията
школа
##рацията
оригина
негови
##рик
окон
##рджи
тю
вал
##дението
австрия
вул
дърво
загуби
##рет
реко
##дото
димитров
шоу
червен
##монт
такъв
епар
достатъчно
борис
сигурност
биз
среда
командва
футболист
##разу
фол
1968
потребите
мине
огън
написа
избира
издига
щат
##рети
открит
##мп
новите
астро
пру
1930
горе
издаден
въве
калифор
вморо
литератур
отколкото
слабо
##хард
солун
приз
чест
зависимо
обита
продължават
изви
титла
веще
футбол
подписва
филми
кмет
накра
българите
бомба
случа
югосла
просто
1923
промен
##est
##пански
активно
обратно
##ложи
извърш
нару
мощ
писа
##чката
единствено
средната
заповед
ски
##сев
орден
права
1985
създават
##циони
##ov
уо
##леп
1971
пор
построен
преоб
джеимс
експери
революция
отряд
##жеството
##лова
канада
##рами
##шенията
al
##хожда
##ьора
##тя
##стието
двор
##дя
сгради
цвят
десети
епоха
##вато
произведения
народен
##сли
1981
семеиства
дълги
вери
произлиза
манастира
##ri
шах
##30
1948
##лита
статистиката
конта
момента
накрая
нещо
##гар
##ъгъл
##рец
база
##стин
##бир
разу
1979
храма
когото
реките
клю
1987
##тати
факултет
растите
ген
жерт
мито
##тните
краицери
прекарва
##метър
ръка
едновременно
кандидат
елизабет
европеиски
етнография
навлиза
успешно
извър
хро
глава
подкрепа
спечели
румъ
##земат
фронт
всъ
главния
жъл
##бел
въвежда
обръ
обико
борба
##дените
използването
страте
последният
турски
##кер
##жието
##минира
траки
километра
1984
прекрат
##чният
прекъс
теория
##вро
демократи
изстре
види
1972
посвете
##атов
румън
корпус
съединени
материали
##лето
1946
1982
работят
али
##пове
бази
42
спира
##дента
цвето
зави
гло
##стън
форму
оставя
ника
независи
##рано
##мето
всъщност
##тев
1947
##яна
гора
1976
кава
размери
броя
##уване
1978
la
цвет
слож
##чик
изградена
##гли
типи
основен
минути
работни
вен
завърши
лен
полет
парк
настъп
остан
морски
заго
37
##нала
зас
вилхел
1975
появяват
достигат
изпратен
##нец
дебютира
##берт
##чността
реи
лично
осъществява
предви
##ьори
##сков
полуостров
фу
##og
номер
##нята
##ap
##сред
доби
евре
отнася
чита
инженер
##тник
1919
##чие
беи
клуба
румъния
иници
есента
археологи
обез
последния
1969
##ктори
подобно
стоиност
направ
избра
##рения
##стер
бели
обществе
ули
крепостта
културата
второ
фре
обедин
офицер
бара
капа
1938
плато
шан
##сния
1903
израз
високи
##лковник
1973
##шаване
висок
норве
конкур
обяс
гръцката
пролетта
дар
главата
югославия
изследва
хол
виена
1967
сингъл
##тирани
##разуме
##ксо
разказва
павел
петро
братя
хитлер
##рещ
друго
австрии
огла
##надесет
##мети
##гръ
##ждението
55
##ксуа
компютър
пример
фабри
1962
софииския
##гане
площа
римската
стари
технологи
австралия
##писват
норма
##шия
аристо
un
награди
победи
унгар
континента
##риите
##мед
##ляните
75
преимен
##лници
##рад
съм
типа
неуспе
знае
каф
##дители
американската
миналото
1966
велики
учени
##шният
франк
39
##сар
твърде
##лика
супер
командването
микро
##джър
намалява
##10
скри
непосред
##ill
транспорт
споменава
##маи
##нъ
##това
##тори
##лес
престъп
##пени
1965
добра
събития
храна
взаи
пока
1936
всяко
експло
осигурява
##дават
турската
трак
архиепи
ес
влива
значи
тодор
заве
дават
##ствия
иран
изключение
камък
et
ас
продължи
1983
сара
##бран
##ял
##тък
селата
лице
родния
изго
##долф
напус
старите
##пов
птици
неините
търговски
голямото
уч
кисе
напред
скопие
завлад
бело
обхваща
##менен
източници
##ливо
световната
еду
кло
предизвиква
кори
споразуме
##ta
християни
##ип
бол
##ковски
електрон
ян
маиор
залив
жените
високата
##дка
##ланти
кън
разби
1000
избори
обекти
##ard
определени
взаимо
музикан
боя
съз
ориен
възпри
съхран
четата
родителите
дебют
броят
мрежа
обучение
1963
съюза
##бла
градче
1977
##лс
##ела
1949
##несе
##сеи
еже
##дс
владимир
министерството
средна
образуват
отдел
власти
народна
малките
консер
вока
кле
върха
зависимост
##чия
##ine
маистор
##ud
##метри
територии
украина
еска
поче
евреи
1964
##лега
специ
пти
положение
оре
многобро
засел
поръ
удар
чия
долара
селището
утвър
стандарт
##сбург
##ti
тяхното
1924
хре
подчи
400
ид
иденти
специализира
покра
вилхелм
климат
##кара
##ula
неу
мюн
ражда
племена
щаб
сбор
връзки
икономически
паша
##ложени
##двиг
социалисти
църко
посред
продава
продукти
годините
арестуван
чиято
увеличава
##av
1925
##хар
кино
##форми
##жът
деиността
термин
прего
земедел
главната
оръжие
къщата
гърци
свидетел
науки
наградата
уилям
преобла
##земно
130
##щения
потвър
пана
количество
девет
кв
пропа
##форд
националната
##жата
##ne
изглежда
##ers
##пускат
самоу
##бин
статистика
вм
1935
млад
френската
тракия
1904
отговаря
офице
мага
забележите
1961
вила
1926
започ
##зирана
железо
ева
концент
1956
обществото
дума
беше
##стика
мора
думи
ситуа
зимата
дължината
уа
поро
атина
воиска
зала
2018
играч
персо
организации
##тове
##хаим
##гел
##лизъм
##рит
разпре
филмът
мини
1958
басеин
бул
##ряване
впечат
##женията
едуар
удо
ум
наля
обича
43
##варите
учеб
сблъ
заба
разглежда
конфликт
юно
баи
фин
подобни
служите
оче
пя
стаби
кир
езика
##нъж
1959
1933
анна
##ie
хим
##кора
произведен
пък
негова
члено
печат
##ждават
турнир
##лово
124
победата
##чества
операция
##чината
стату
къща
лесно
тона
##сира
цяла
членовете
##дът
##шат
използван
1922
##гове
ранните
подходя
##ell
демон
всичките
сне
##кански
присти
бела
принц
to
кро
160
бизнес
1927
ръководи
##ce
41
прево
меч
моно
собственост
заявява
линии
##лум
##еми
публику
##менова
военните
неиното
##ae
##ливи
отра
зва
##зор
кьо
диалект
финала
хвър
##ub
устието
белград
откъ
ar
наречена
нидер
услу
люби
архиепископ
гара
младия
##шестве
програмата
закри
албан
соф
важна
седмици
калифорния
деиствие
##рю
1908
комисия
##дната
промишле
империята
изчис
съде
депу
пехотен
сним
моде
партии
##ктно
реки
политическа
израел
##qu
поддръж
##сича
1915
необходимо
гне
44
отглежда
оте
мексико
65
царство
провеждат
шот
военната
издание
писмо
методи
##ано
очаква
##бар
постоянно
причини
##зан
дъж
##зъ
48
добрите
##вати
противни
швеция
бразилия
##сур
творби
албумът
растения
запазени
1914
com
врата
открито
нараства
##жна
##правя
##бах
##гнал
северозапа
##тана
##кун
периоди
стрел
повре
фан
##хт
второто
стадион
##лян
заку
забеля
държавен
re
изграждането
ся
маща
место
западните
театра
режисьор
##бера
изкуството
##ик
общата
1952
сравнение
владетел
бургас
преподавател
бомбарди
оттегля
линията
кюстен
нах
обор
романа
тяло
превод
сведения
1937
фк
привър
хаджи
местни
единственият
федера
подо
създаване
локо
елена
наименова
североизток
##гията
търново
1932
слънче
чета
воден
злато
камъ
известните
материал
ала
##цки
глед
1951
##читат
запознава
руско
местен
планински
form
спрямо
аф
определен
възви
загла
структура
статут
назва
дат
залива
скул
##дуа
трета
дружи
съоръ
русе
тежки
дворец
въстанието
краицер
такава
претър
философия
гаи
играят
чис
световното
циви
##нант
1957
турците
укреп
##бове
178
телефон
чете
рода
1953
пав
етни
думата
число
специфи
премест
##хол
повърхност
канал
вол
##гъ
##фен
пазар
равно
1917
полета
ботев
изоб
затвора
##вана
##бани
пресе
##риди
##ета
размер
##мове
##вала
гост
дон
##кратно
##ал
47
кампания
конгрес
радо
1929
даден
##ложения
локомоти
записа
воиските
атмос
излож
излъчва
върне
римски
няка
режим
##таи
##елд
френския
флота
асоциа
##рието
протича
плевен
съветския
съгласно
##грира
##90
биват
характеристи
изиграва
кула
югозапа
управител
##ляз
играта
152
замък
поход
##али
##мисъл
средиземно
отри
лаге
докла
ети
воивода
представляват
##лона
нямат
##ините
показват
горна
силата
старата
##бени
кънчов
заслу
търси
##джан
племен
относите
изме
италиански
гле
въпрос
одоб
гале
данъ
##оби
скулп
францу
дио
черве
основна
иванов
оконч
югоизток
движението
доказател
имена
##нден
##глеждат
принадле
1954
запазва
цска
леите
едни
изучава
дро
атака
човеш
законо
1921
скан
лудвиг
публика
изоста
повърхността
formula
##хата
предприя
обши
##родни
строителството
фамилията
срещи
##пят
орке
стоя
робърт
sp
национално
вкарва
отразява
деко
защите
177
тера
документи
отря
каро
носят
1877
моби
армен
ширина
наци
гради
бори
##кет
освободен
избух
аген
претен
1906
международни
##кват
##мирал
карта
свещеник
живопис
кръв
изка
туристи
лидер
изграден
деиствите
стран
принуден
##вността
общност
##пси
реле
##ab
опита
and
убити
склонове
он
тече
52
относно
пространство
сх
самата
приет
конферен
##тански
правото
селища
##фера
##ционната
филмо
##ловината
стено
нати
организ
##дник
закона
##водни
техника
издател
нощта
индиан
бежанци
прилага
скали
каби
##art
машини
##зирани
оценка
le
наследник
краибрежие
бон
кат
рисува
кола
образованието
златен
ем
глас
##нят
моги
неиния
125
научни
##фикация
скъ
границите
автомати
железопът
страните
хипо
народно
аку
храните
увелича
лица
реин
1902
млади
института
въпроси
##уването
използване
мърт
##лския
натат
премах
неа
педа
кюстендил
цк
измер
пеи
програми
##рово
##поли
невро
1910
##ционните
състез
##лим
краля
издадена
двигател
##пат
тема
##къде
##вката
1931
мюнхен
поредица
изпълнение
продаж
академи
бригада
посла
нахлу
стъл
##син
подкрепя
проя
##чини
древно
дълга
нищо
лов
въоръжение
интернет
апосто
равен
псев
каи
автори
наричан
##лаи
горната
източник
открита
##ева
привлича
предварите
снаб
разпада
bl
балканската
новото
христос
суб
поля
силите
ефект
свири
надпис
островите
студент
светлина
преброяването
yo
отличава
чо
моти
##бал
##гнали
прито
псевдо
##зани
партн
пожа
обявен
кг
мост
събират
месо
аржен
##стка
самолети
третата
##хията
##тура
титу
1955
какво
художник
петербург
швеицария
кин
лагер
##дъх
##ph
хенри
квали
##творе
##ятат
ниско
училища
46
##тю
функциони
##дис
ранг
##чил
зрите
моле
леитенант
бран
140
освобождението
вле
дн
застра
шумен
македонски
##шинг
176
разузна
##ническата
промяна
каме
консу
климент
големина
помощник
завръщането
андже
драмати
президента
местното
основана
текст
архитектур
вследствие
вице
убииството
600
мани
новият
##стъпи
##връщат
##if
##знание
независимост
##кана
приемат
гот
червено
##летия
##магат
тата
##ствените
марга
епархия
обър
родни
морето
пом
медал
градовете
паметник
оглавява
избор
##гии
монго
важни
##бно
държавна
борбата
##рдия
братята
приблизително
##жия
##стване
##кала
##тиран
смятат
национална
##фра
##гледа
51
леи
концеп
военното
монар
##четата
##новена
употреба
минера
en
осъден
библиотека
тен
рица
черна
придобива
дер
беле
трябвало
принце
вариант
49
1907
##ind
##пки
главните
взри
наем
етап
##вление
##фект
криста
британската
##ферата
рези
ползва
##лик
170
южен
стени
##родица
турци
нужда
пече
опти
пери
##ностите
иоси
корабите
##деление
##гър
##сие
56
##ума
##вести
##вицата
проучва
начало
сцени
##нит
прежи
икономика
богородица
швед
смо
вдъх
превзема
##лец
##бълга
отстран
##съюз
свобода
психи
подготовка
разка
годишен
##пто
##тични
##циан
##ваи
53
##денията
##прави
руския
едуард
зависи
яр
##вю
##чани
междувременно
##носа
модели
космо
кои
цере
рекла
хори
##igh
##сена
##ip
##ваики
южните
процеса
методии
спарта
алба
ne
полковник
##стори
пореди
леко
##all
##деиствие
градски
широка
индивидуа
проблем
54
тежко
ръцете
##рението
##зеф
броне
постанов
лека
земедели
плът
##пс
гар
##лизма
седа
несъ
базата
64
наред
колум
чисто
наличието
загора
еко
илия
преминават
кол
бяга
софту
гроб
северните
марки
##спи
симе
стария
##дния
##стията
##твор
годишно
лове
обем
насочва
атакува
боини
наси
сухо
##ant
##вки
##чаването
85
зъ
##зер
простира
инициати
##гати
##таря
1916
езера
модерни
##мната
северния
дефи
##ставка
хода
специалност
##io
сор
фаза
лео
##ционно
претърп
##ord
зав
граничи
том
формула
логи
##стоичи
мести
капита
повлия
намери
##линг
сици
другия
черни
##ess
непрекъс
сериала
##нан
##дово
вед
принцип
педаго
конкре
избяга
прео
американския
признава
##чените
орбита
##ak
ресур
мери
моду
самото
губер
индустриа
th
британски
илю
##рените
##ментите
храни
слънцето
##щението
##жу
стоян
##дното
##рав
##цин
имал
1911
огра
##лска
##цвет
адво
авиа
##тис
останали
селско
завод
римска
влиянието
атланти
зло
##бере
##дията
приятели
дипломати
тима
лат
сцен
начина
купа
южния
даде
250
##летие
важен
##бана
уре
веднъж
##зву
##жаване
мартин
продукт
телевизия
##ждение
създадени
изследване
депа
предприема
зър
колкото
съпруг
##лър
##ено
##дието
бащата
опити
михаи
##кос
политиката
допълнително
харт
секун
обичаи
уника
горно
vii
германски
възниква
нарежда
хоризон
писате
##вът
земите
мало
звезда
##писите
основате
1901
58
мила
175
1909
##нар
##дова
##скар
старши
хю
##тъл
##мби
специални
фрон
127
стените
обслу
##чард
правата
вди
настъпва
сцената
култури
придоби
буди
регистрира
споделя
лор
отваря
пау
орган
62
##дки
долина
газ
марш
разстояние
иск
символ
федерация
договора
##дената
руските
лос
функции
анализ
##лате
свое
елемент
деня
природата
##там
##12
иконоста
снаря
смисъл
конку
задача
леги
изборите
##ческият
##фал
позиции
вход
##сио
водос
изобраз
седмица
увол
пряко
окончателно
моли
времена
хам
катастро
##теи
обработ
присъеди
малкото
онова
хидро
метод
епизод
хран
##аторите
деивид
вещества
царе
окупи
буква
покраи
заста
проявява
гала
134
1873
торпе
загуба
язови
потен
диза
списъ
белгия
##ходите
медицина
привле
замъ
свързан
обръща
учре
офицери
##bo
коста
##елс
вмро
съвета
факт
научно
пети
ричард
андре
липсата
роди
безо
##тател
допри
погребан
либера
студио
спомен
последователно
##стки
##ващи
##лар
световен
съединените
стартира
международната
отне
##нтия
76
дотогава
християн
александ
##пул
##мията
потом
##сер
##лацията
##делите
председате
##мести
тън
носе
европеиския
предпочита
##лас
другата
използвана
построени
контакт
##тият
##рок
##бии
##наде
мени
##шаването
костур
поред
спът
пехотна
апарат
прием
варира
162
бреговете
сътрудничество
последното
квартал
##ου
##мил
##щери
163
свързана
интен
препоръ
дела
церемо
прека
откриват
дипломира
гьо
идеи
##15
американските
##ct
##рън
дълбочина
инструменти
съдове
създаде
източните
граждани
##up
##цип
разслед
пропаган
95
##ринг
##ненията
следват
парале
въгле
##ряват
средното
ама
довежда
оон
##ляването
двора
останки
песните
фолкло
батал
внимание
придру
кама
борда
графство
корпу
##кус
категория
султан
комуника
клетки
висш
ока
пресича
военномор
жу
плу
показа
##тират
##вие
вашинг
църкви
първенството
##рка
корабо
##бул
##мените
1885
еи
ръководство
графиня
неща
синът
обозна
гю
##18
малката
отбори
привърже
обвин
популярност
нер
жп
##тс
164
##ist
ниска
осигу
прими
ирак
съдържание
депутат
съчета
##ънс
присъства
преве
поредицата
##нери
##вието
следи
##ens
продуцент
##спекти
регу
икони
##85
курс
тръгва
избират
говор
хел
холанд
изградени
наследство
чието
държи
дядо
чужбина
##тв
##трин
капаците
фердина
понеже
добру
архитектура
трибу
експедиция
що
##тича
палу
##лената
съвсем
подви
##ством
поставени
##тка
младо
традиция
sh
видин
музикални
разгро
##стов
##баи
скоростта
икономиката
##атри
зана
##стоява
пус
парламент
##сене
##ляни
преврат
включени
##въд
единствената
посредством
гнез
отстъп
##каните
##ментира
жив
противоре
вне
изва
##пува
награден
повод
пътища
##хът
градина
теодо
ган
клон
##копа
познат
бял
##новъ
синте
##зени
високите
класира
##хра
чак
хари
случва
72
братов
томас
изпада
същевременно
сливен
спуска
полза
индо
##лио
кралица
157
отношенията
връзката
доброво
вин
квад
внук
##клон
неизвест
излизат
##нам
преименува
оказват
##сето
подраз
kg
свръ
заоби
##вършен
1895
##кира
155
украин
братовче
финал
165
135
санкт
##совата
съветски
сюже
изтег
браун
причината
пясъ
63
имената
##уса
керами
гроби
силен
##джо
възможността
династията
предоставя
ляв
позна
някога
императора
направени
технически
въздуха
##we
##маните
фар
1899
пилот
800
зелен
факта
провинцията
статии
mar
стопанство
сар
кули
охридски
ранен
трима
финанси
проби
##зие
отбраната
недостатъ
потенциа
десен
тала
отдале
гли
кипър
##ьов
132
бяла
##кво
придви
тегло
чичо
##рос
##щават
##стена
турне
западния
наго
решават
156
57
##урен
наказа
коме
стък
гали
диаметър
нато
набро
диск
четирите
подпомага
изтребите
молеку
##вле
теро
166
1896
екзе
ученици
вътреш
##зните
вале
теорията
боли
битоля
криза
футболен
средновекови
##сено
кампа
меда
характеризира
ур
##вили
самолета
##шал
129
търговията
долната
опози
ае
ими
мощност
гимназията
състезанието
оу
##тната
##били
##шкия
снима
обиколка
коали
планини
важно
мех
станция
фанта
##каля
##сега
136
заклю
##ктора
##стени
поет
##ционния
григо
бук
съвременните
съпротива
изле
##хер
##линд
##лската
##иците
##рус
подписа
мачове
##риса
болница
невъз
конрад
цезар
##вина
северен
появата
газо
окръж
текстове
академията
заха
отсъ
##мото
##кович
събор
междусъюз
бремен
влю
убива
строи
дои
окупа
гледа
##стент
##кистан
лицето
задължите
ено
маикъл
определят
##пва
моди
принцеса
ъгъл
копия
куро
оцеле
сват
уз
европеиската
##гов
##долу
##бои
процеси
поставят
вашингтон
австро
##работени
третият
стратеги
##сват
роли
директно
##пля
ангел
храмът
##16
задържа
##мня
петров
преу
колеж
добавя
con
##тията
москов
пее
риба
мюсюлман
отделение
алко
спре
##драта
камъни
откло
емигра
97
заемат
дружина
изследовате
##ack
##19
паси
168
затворе
цял
киев
126
астроно
##сност
стана
налягане
##рета
събо
сутрин
##варят
##нически
маиката
софтуер
фердинанд
улица
моха
сексуа
##канската
вярва
екзеку
##дам
прилеп
паци
110
започне
##пр
съставя
##био
133
##годишен
документа
адвокат
абсо
символи
пристанище
отделните
определена
запази
##ft
154
инвести
153
скоп
династия
подно
изследовател
вътрешните
сръбски
неин
дири
анга
европеиските
дял
съществуването
дисцип
междусъюзническата
##рят
изкуства
тури
предпа
##вои
вален
домакинства
агре
департа
##вяване
pr
различен
трона
##кте
коор
римляните
виет
фал
##гната
почина
произхожда
167
археологически
промишленост
подава
отпа
банка
компании
наполе
рене
##ug
младе
сражение
оръжия
отделе
сити
споразумение
обучението
1876
поставен
топо
##писването
149
основният
ени
##11
напи
ломба
86
главният
##ъг
##дира
авио
стръ
##дрид
зап
годишни
1880
пуска
народи
абсолю
bo
us
оборуд
инци
##работен
предотв
чувства
поту
дружеството
128
източния
напрежение
98
водите
равнина
непосредствено
деиности
експо
##бят
спон
кавале
изнася
##увани
далеч
1897
вътрешността
асен
различна
145
единици
корея
операции
цялост
принадлежи
99
функция
съвместно
66
лиде
командване
наста
национални
##кле
решението
основател
адмирал
1898
участък
приключва
вло
##лищата
изразява
долна
викто
знак
пристигат
предшестве
74
##шан
семина
конкурен
прикри
174
посве
##мисията
характерни
мъжете
положите
луции
68
звезди
##рк
средновеко
amp
водосбор
частично
състезания
хоризонта
бат
мисия
лабор
опитват
автономен
възпита
работе
британските
отхвърля
##рират
прес
думите
96
надеж
дадена
дол
разп
норвегия
неиният
международен
сценарии
изри
предвид
##графски
172
поведение
ники
склон
##диен
илинден
идея
ати
дал
иосиф
емо
държавната
германската
състезава
четвърти
##дец
##сам
##тинг
двои
длъжност
67
##тния
##нина
уеб
##наи
основното
активи
значителни
яи
съпер
чужде
##готвя
картини
силни
гаран
велик
кав
кафя
блок
##еи
кала
подро
революционен
абат
##хау
чуждестран
заме
бие
cl
техния
любовта
широк
титли
перси
##14
##новено
младите
реализира
атанас
тъл
здраве
коне
нелега
страда
близки
французите
##жден
дълъг
албания
tr
прести
ниски
експлоата
##ice
народното
рекорд
вечер
##тии
изнена
##жества
въоръжени
напусне
уд
рибо
съобщава
реду
##итове
датира
звание
##тови
минима
##бек
82
локомотив
отка
централния
замен
##черта
##куват
господар
##вените
ваи
137
георгиев
прогре
външните
mac
лине
##ровка
многоброини
преобладава
испански
господ
фонда
танц
br
еволю
временно
se
139
състезание
ирландия
подготвя
ах
жесто
англича
местния
изпълняват
затру
собствена
бившия
дървета
кау
анали
##бето
##новени
идват
силна
сталин
успо
асистент
анджелис
##th
отворе
мадрид
арте
##фил
назначава
##енето
зара
лечение
##деиства
88
квар
режисьора
59
##мения
##зацията
##ight
##ik
съда
173
държавни
повтор
##совете
контрола
##налите
сериал
бед
вят
##щане
деиствието
вземат
княжество
магистър
##вяването
никои
неут
иму
факти
кореспо
разделят
двореца
##вакия
съдържат
плоча
##вядва
землището
корпуса
he
предмети
терен
рота
луис
температурата
квадрат
иса
полуфи
търсене
свързано
##ast
viii
##ас
югоизточна
sa
кано
##бена
развиват
екзем
патриарх
отхвър
откриването
92
##нел
##гант
полицията
научава
##сул
##хов
наука
художници
персона
льо
старото
прага
германските
me
##рони
159
малкия
андреи
решения
84
122
португалия
##жно
1894
драма
архео
сино
парак
терминът
релеф
качеството
##денция
##тек
културно
обле
машина
мерки
летище
pro
##чене
пълна
условията
артилерииски
пазара
фигури
латински
космически
лау
педагоги
невъзмож
виетнам
общото
лука
иордан
дух
123
манд
десетилетия
съветник
оттогава
течението
допълнителни
реч
дълбоко
откъдето
##ge
##ковете
пусти
отча
изгу
##ручик
xiv
##сец
науките
##графията
стоянов
състезател
##ърс
трето
ученик
бле
наречени
плане
опъл
нивото
световно
##тиране
юна
нос
основано
обяснява
помежду
извършват
сектор
прехвър
сау
##лози
алтер
##нге
маршру
врат
устоичи
зая
нива
самостоятелно
загива
притоци
##шу
##рев
половината
саксо
такти
sc
разо
ритуа
бозаи
шоуто
изпълнението
вътрешната
санд
сериозно
##лост
##ствения
крим
разкрива
участник
##17
гарни
147
армии
##инт
англииския
замъка
##дън
тропи
тежка
##ob
резултати
слои
настро
натру
##ложена
бяло
виктор
средство
1890
разширява
##фур
##лт
##кис
концерт
77
83
мрамор
##коман
##ian
напускат
ръкопо
махала
случая
пун
юриди
досега
комби
важните
канад
физика
##сията
слага
древните
700
интелект
оскар
научен
племето
удосто
печелят
##амери
напада
##сиа
двоики
##хите
краицерите
##ire
прене
такова
актриса
поколение
единица
##правят
##рно
включен
държавния
политическата
##мяната
1879
шампио
##загла
страх
##чинява
противопоставя
ловеч
##гнати
къс
##геи
спартак
симеон
69
интензи
##ждения
##лизацията
вертика
ужа
##новски
разрушите
магни
ву
##шър
дисер
климатът
ази
##гаря
теми
издания
близък
##сиони
##стие
усе
##und
разпространява
противника
разделени
сума
значителна
технологии
етаж
идеа
относително
монети
##13
десния
представен
xviii
пеиза
##мните
специален
##ловие
ела
сми
наследява
##менено
##гръц
сформира
##пал
териториа
нидерландия
ангажи
##рел
основите
##влича
##ропе
ленин
знаме
предаване
православна
изработ
142
преговори
##рните
попов
мнозин
буда
вза
леви
франци
##листите
##ената
зали
разкази
левия
труда
джеи
комисията
##бон
желя
израства
безопа
##тична
сирия
романи
църков
интервю
брю
##прева
останалата
87
##рене
разкоп
метро
законодател
ане
##кали
граници
1870
изгражда
забран
стани
религиозни
собствени
устроиства
превъз
планира
успехи
теорети
операти
очите
##ира
##ib
пропаганда
лъв
##пли
насеко
достигне
146
горното
##нович
асоциация
реши
калибър
партньор
руска
##дев
частни
народни
планините
международния
блу
гран
подобен
родното
предаването
съхранява
комбина
##логични
ломбардия
##ok
изписа
сама
приложение
##честър
##сета
контролира
устроиство
аржентина
##тацията
метъл
десан
##щем
пал
стоки
характеристики
мете
подкрепата
ресурси
агент
номина
ордена
алтернати
тюр
##зана
##създа
науката
##чките
образо
агне
социални
представителите
максимална
прова
закони
емигрира
клубът
73
лито
138
бронира
версии
89
баба
провинции
вълна
срещата
авторите
иоа
композитор
талант
78
копри
многократно
119
##вис
преду
144
необи
карт
##зовава
принуждава
епизода
инспе
169
творчеството
защо
##илд
##ace
палео
журналист
##маистор
наши
тодо
централен
##ive
вулкани
##гард
ками
свободна
очи
извор
саи
николов
гръцките
грижи
##гват
въздух
министерство
люк
художествена
##ряването
интерпре
екипажа
цветове
достав
властите
заболява
мино
инж
имали
червената
##тени
зася
##тус
покрива
отпада
##пена
ано
##чева
небе
мъжка
преодо
so
##uc
##стиан
конвен
##новява
##няване
карте
##джиев
деиствията
бала
практически
дизаин
оркестър
причините
##ходни
##ica
анима
##зел
порта
черен
исля
протежение
стома
##дес
плочи
be
византия
венеция
фирмата
каменни
неутра
##вци
засил
избе
##стовете
буку
продуци
сериозни
##змът
кръво
събитията
ph
листа
направен
is
##лицата
пиво
лаи
ислям
селскосто
адолф
##фони
##шел
##бя
коо
##кол
мас
желание
мед
виктория
сребър
местната
задачи
народа
наход
оттам
загиват
взаим
##нау
##ента
кален
вниманието
##мостта
издават
серии
корен
проник
музея
жо
иер
десетки
анаста
водещ
нагоре
##вии
височината
1892
следовате
гражданската
xvi
завзе
проучвания
букурещ
обсъ
предложение
воиската
известния
крило
насър
деле
полице
концерти
василии
зало
##жаването
##уз
##пати
##редото
съветската
##щни
##стя
следните
дата
##вателни
услуги
##куп
1881
възможности
pl
##дит
времен
златни
##зена
дърве
бяха
женен
нави
размно
##пад
подчерта
##фов
##кел
##бат
днешна
наричани
музикален
казах
яко
##ети
##шките
ветро
монте
избухването
оде
публиката
##съл
##органи
отблъ
##скват
##лева
марко
пояс
фигура
киселина
сицилия
##жните
полага
съсредото
##европе
##крация
##юва
играчи
разпространение
двигатели
уил
изсел
##ксън
шпи
##ος
нераз
малкият
1893
##мунд
свободно
кер
##зната
предлагат
фаи
публикуван
измис
раждането
доминира
фаса
херман
мото
минута
79
мър
1500
правила
учители
корона
наше
##лират
волф
самолето
претърпява
сон
##цов
романът
фамилия
франц
фирма
арабски
бюдже
обявена
близкия
##вателна
фабрика
телефонният
##жната
час
##лница
британския
строежа
##иският
дикт
музикална
дебелина
алпи
##мона
просвет
зони
дания
148
съвременната
карто
съветските
събитие
съпрово
##фрид
намаляване
богос
религия
катедралата
милиар
##деиствието
##нският
##редно
##лените
прехвърля
пътят
114
1886
позволяват
поезия
школата
сключва
##неното
температури
отец
##вели
тъмно
върховен
функционира
липса
##ows
конференция
отправя
дош
усилия
средновековието
wind
ремонт
##денбург
армеи
холандия
плодо
1884
обществени
стандар
ежего
##лаин
досто
добива
оператор
##защи
раих
декла
1883
осъще
ключо
##рино
принос
анге
политик
алекси
##нка
конституцията
наполеон
възро
спечелва
кисло
##стоятел
1889
предвижда
##іі
свободен
женските
разпространени
щур
училищ
чика
пазарджи
кавказ
аро
##енти
##чево
външната
писатели
фестивал
хипоте
хъ
гориво
възприема
##ствите
християнски
секунди
среден
##емата
##произ
балти
гражданска
115
губят
3000
##хим
##ld
лошо
установяват
съседните
капацитет
ске
стотици
официален
хребе
входа
пренася
белите
вземе
озву
##шва
колекти
отбрана
кинг
ix
разкло
##жените
158
президентът
fr
неф
разра
мащаб
кало
105
##телите
бавно
перу
самите
поети
пап
двадесет
еро
вардар
съди
роби
наричана
запис
приви
лока
##суване
документ
квалифика
центрове
пътуване
администрация
приеме
адап
лии
##ези
##воен
участъ
##славя
дебър
древна
щаба
полски
специална
китара
женски
конструкция
##зад
конкурс
ани
##мато
регент
текса
индустрия
енерги
рекон
1860
екип
ланд
##тик
плодове
доброто
построяването
представяне
##que
заре
##ентите
хоен
поставена
указ
##ver
човешки
съдбата
едната
##ock
rec
##зко
##личат
##дика
превода
##станция
сръбската
##рната
говорят
##фурт
пещер
##ционер
професионален
тримата
съставена
покрити
изобразява
животните
предмет
##лене
антон
уефа
самостоятелна
екзархия
##хват
##ком
##ственото
христов
азер
верига
въг
соли
позицията
котловина
почетен
удоб
биологи
ход
143
съвременни
въпроса
сол
активна
загубата
четвърт
излъчване
упраж
проку
наброява
сат
хон
соло
резултатите
##фелд
##вария
##ковата
##мино
шампионската
приблизителна
момиче
##рели
##рида
изгаря
спект
пълен
##структ
колежа
студенти
японски
едини
качества
xvii
доказателства
шампионата
##пел
произвеждат
антони
##нците
надолу
общински
построява
1891
шампионат
армения
батальон
##мък
##стант
намерени
поражение
фраг
следователно
it
написва
кова
as
хх
##пела
лед
главна
френските
теодор
##възгла
титуляр
бакала
##пуск
научна
казан
експеримента
служители
вел
##ателите
частици
експедицията
##нистите
##стни
флорен
висше
разработва
##end
племе
видът
отборите
добруджа
wor
детаи
##илър
работници
отстъпва
##чер
обкръ
##таркти
##стването
##ресе
промо
габро
зограф
картината
озагла
биха
данните
собствен
падането
организират
##ate
интереси
младият
##прият
поглед
запи
дено
лива
хомо
едноименния
заселват
саксония
##шкото
положението
пиано
азбу
аеро
##оните
дание
конфи
купува
влияте
шарл
on
смър
мъжките
природа
кози
измене
обработва
воиниците
цилинд
##мация
светлината
нападение
епохата
обстоятел
манастирът
скла
масово
варнен
омъжена
краибрежието
ex
##фу
попо
подобна
##дене
термина
чехо
##начало
михаилов
бавар
##фери
турските
експер
скала
обединява
хребет
остатъ
##сица
нои
жертви
водени
богата
109
универса
дадено
дели
македонския
политическите
##ландски
##способ
##тично
сало
оръдие
посочва
споко
112
дъното
балканите
печата
##ложено
олимпииски
уро
##вс
##жване
отмъ
прости
представена
предприятия
християнството
хали
присъединяват
оформя
висшето
##баиджан
издигнат
##фицира
##творите
##дание
мъжки
мюсюлмани
глоба
##тал
инфе
инфра
1882
ежедне
зале
същи
наблюдават
екземпля
##жки
##сяват
дъждо
германците
сътрудник
ракети
транспор
гледна
занаят
иеруса
##te
##чар
мотиви
еге
световни
автомобили
считат
боги
италианския
##лем
превежда
сърцето
наподоб
съоръжения
лаборато
##кване
българо
възпол
##водство
реакция
съюзниците
катастрофа
касти
немските
популярни
сваля
##кторите
пирин
118
изключите
германския
непрекъснато
възгле
издаването
бакалавър
go
wwe
виру
прав
връщат
добровол
цикъл
лагера
глу
искат
чехосло
or
леки
кел
ува
##хор
##ковите
книжо
изображения
предварително
##нува
напр
##бол
воиво
1872
иерусалим
co
##бната
##шън
изпо
площад
натиск
##лирани
##мерите
долно
конту
населени
нарко
възстановява
##вов
питър
##ест
##тех
##сис
тютю
##мберг
електрически
строителство
азербаиджан
мнение
финансови
избухва
пътеше
воините
македонска
кодът
нес
влак
общини
стихотворе
математика
чарл
1888
артилерия
разделена
музиканти
ma
##тип
##хем
##лекти
##кор
долното
класацията
евен
##вения
макс
граду
рудолф
използваики
изграждане
растителност
окта
дребни
предупре
##лката
##кола
купол
##one
жене
##чков
деици
театъра
изпратени
рисун
отриц
списък
медицински
##лом
воля
мозъ
жиз
написана
нататък
превръщат
русна
фара
немската
двигателя
настоява
гости
чере
жилищ
създадено
осигури
94
##рита
ток
съставлява
прусия
оран
##mp
##лиране
пределите
бира
разго
оставка
околните
братовчед
отве
маин
издадени
дисертация
my
##ад
деви
остане
##рината
реформи
##скоро
босна
фини
спосо
земет
века
алу
изход
съобра
представени
институции
шотландия
##тски
месеци
своиства
доведе
сестри
основаването
col
op
##натор
##мовете
принудени
you
##зят
сал
овце
смит
виен
пиемонт
##кал
##гиз
последен
мандат
плит
ние
windows
##гни
##нор
изсе
санта
свободата
допълнение
лигата
стефа
##цел
##стични
##гун
фау
американска
притежават
артилерии
дървени
георг
паметници
установи
##корабна
триум
удъл
детето
приета
неделя
парка
македоно
браи
филология
древен
изчезна
бене
находи
провъзгла
екра
кожа
подготовката
пала
листата
последовател
инструмент
антаркти
реконстру
##дици
##правед
основават
погребе
басеина
цветовете
mus
##пеи
самолетоноса
мака
гръцкото
##зува
отначало
непри
мемо
адриа
водач
половин
популярен
интелектуа
##изма
тихо
предим
тух
1887
повишен
##жка
##ленията
бакте
представят
проблемите
наложи
пресел
пиа
петко
##ватели
##работена
галакти
##новите
лам
##сексуа
##совите
##ветен
##матика
икономическа
северозападно
##ево
##мония
инста
кума
служе
османските
наречено
##земни
ом
##мони
лири
1871
разстоянието
неапол
традиции
престола
направление
##ъс
##мум
неофи
повторно
изма
пеще
подводни
##стката
дуп
##феи
гръцко
присъедини
огромен
фронта
дка
случи
убие
врати
уелс
изтича
поддържат
##стено
карди
инициатива
##нст
##тора
##тичен
##лностите
известната
##годишна
навод
произведение
преображен
кожата
мил
структури
аба
ск
##тера
планове
спаси
линеи
твърдо
възстановяване
митология
сменя
грави
фоку
публикувани
сътрудничи
неврокоп
отказа
##вети
##ity
преживява
##тант
кралят
освобожда
джак
cr
учен
##тки
същите
сил
##хаи
околната
единствен
##ius
тег
студиен
попадат
at
вито
харес
габрово
##ang
количества
задачата
##тници
##чко
водни
##ass
земетресе
##итед
населява
свръх
планетата
wh
##носи
лицен
автобу
плати
пона
##роден
мело
вино
фонд
симпто
близките
списъка
зиг
бракът
есто
покро
луната
редки
разпределе
тексас
fl
крака
виждат
стила
задви
съгласява
хилядо
конституция
обсадата
изследователи
##рек
службата
##нство
кору
македонската
културни
народната
колумбия
губернатор
потъ
подре
анато
единственото
заплаха
независима
ръкоположен
папата
##цев
куче
хотел
близко
динами
желанието
чан
##ep
##гау
благоев
жертва
##ium
117
родината
##иди
куку
търже
независимостта
отсе
##гово
отделен
хамбург
формират
списанието
##бло
##лили
дие
##изъм
##спосо
собственик
основателите
gr
неве
липсва
седалище
##фър
##щица
##унс
стивън
защитата
жената
обосо
барба
средновеков
ut
участниците
експлоатация
весе
##чници
популярна
югозападно
увеличаване
##лил
движи
френска
комитета
запазена
снимки
##тово
##лации
османски
североизточна
марица
легенда
ил
мати
##мета
1875
помогне
обвинява
##бява
##жено
лазар
107
насам
исла
външен
##холм
ето
##скор
съставен
гъсто
##бните
бога
играл
югоизточно
англииската
##ницата
сеинт
бавария
##стоящем
##ort
охла
дълбока
огромни
мл
мур
боина
затруд
вит
различава
##миниран
бари
мисията
понастоящем
##ске
ранени
раионът
ad
тихия
западен
горски
британците
хвърля
кани
грузия
марке
вътрешни
##брехт
базилика
изве
вож
мира
##рант
трени
немския
поддръжка
стрелба
бз
баро
боините
замръ
ракетата
##коза
##ath
атаки
писме
понятието
традиционно
record
масата
##рур
балан
##фанзи
проектът
пристигането
отказват
кап
варови
##ндия
търсят
каса
певец
централно
pop
бах
глави
практикува
шахмат
евентуа
ro
истан
изтък
вирджи
международно
употребата
##хин
113
книгите
##вления
##вален
чувствите
длъжността
читалище
галерия
##тари
лаза
полиция
крис
земеделието
истанбул
пребива
дрехи
детски
стихове
пожар
юнаитед
поток
обре
диско
кучета
бюро
основния
изпа
свещен
пони
дама
пиро
102
шести
зип
върховния
никакви
ренесан
изгна
търговец
##член
##цбург
архан
изстрел
##нези
нена
##фин
затворен
огромна
възстановяването
муску
османците
активен
##дски
заменен
фестивала
евреите
посланик
lov
##нели
валу
апси
##сберг
чехия
##зиране
##ust
затваря
богати
##пно
мая
##дом
##дорф
таино
огъня
сутринта
лят
усъ
идеите
протестант
докторска
##дати
##ue
##сион
116
телевизията
горите
рио
##ненти
дъщерята
клубове
катедрата
манчестър
международна
##лък
синовете
критика
флаг
чеш
уволнен
обстре
юноше
##скет
арсе
застава
опро
##жност
лева
моря
състоянието
обучава
ситуация
названието
вюр
##ара
дам
##ьорите
правоъгъл
отбраните
обитава
васа
построи
комунистическата
отдава
стаи
##тирана
комунистическа
оборудване
тон
##стови
маркграф
допринася
##ици
лом
антио
завършват
xiii
певица
усъвършен
хла
дъщери
##tv
тренира
##ровки
##бърг
стреме
##пур
##бие
##ксон
гръцка
ранна
ернст
чува
##вената
тясно
лар
революционна
богороди
кръвта
хранят
лун
заменя
хаб
фактори
отделно
личност
победител
футболна
класиране
атен
възо
богато
китаиски
физически
народния
сест
вое
##менят
местност
атаката
##дясно
заболявания
##рини
преход
алек
прегра
бележи
джаз
търговци
##тил
пиер
плаща
северозападната
забелязва
снабд
мля
животи
уол
xii
мега
целият
чужди
представи
гръцкия
участници
домаки
литературата
истински
##нци
##az
решите
милан
източен
уиля
стандарти
табли
климати
милано
##пване
каца
валежите
висшата
барсе
митрополия
##шер
префект
холи
1869
премиер
завива
прекалено
уин
набор
финландия
корабостро
тодоров
##пола
кулата
активност
##ect
схема
##еве
различно
англо
трае
учениците
корени
редовно
римския
1867
смесено
североизточно
1848
изложби
уилямс
пля
##гно
боже
възоб
лек
българският
структурата
оп
ману
##силвания
творчество
естествено
модела
##зми
нанася
меи
вали
кви
ямбо
едноименната
афгани
ион
приказ
##динг
числа
бзнс
мле
##ратор
##мул
божи
ледни
благородни
публикувана
зал
##сиите
резо
певицата
чили
свързват
##iss
хърватия
##тани
орга
англичаните
елит
киното
настъпление
яро
цена
олимпиа
##чал
конфе
върнат
спасява
деноно
##тино
различават
съюзници
съдържанието
главнокоман
обединение
албрехт
язовир
te
възела
##бърн
белги
##етите
тенис
хуан
географски
агнес
##нк
паи
главни
албуми
литературен
термо
съединение
югоизточната
отделят
легендата
птиците
##лизиран
присъстват
изпълнители
##вици
одрин
##мят
##ix
##na
качество
петков
твърдят
възвишение
григории
world
##имън
рит
административно
селското
джоу
разнообразие
##нър
##ber
##синг
мирен
хуба
неини
брака
хло
мане
отглеждат
отсла
посветен
оча
сърде
обслужва
кое
обеща
вътрешно
смес
проучване
трон
##храни
сек
стамбо
хирур
третото
желае
патриаршия
no
андро
пристанището
фраи
малцин
уско
##ксел
##ляво
опитите
помещения
кьолн
##рица
##тена
##лият
сергеи
стената
императри
двоика
конфликти
конгреса
ac
ера
цин
отстра
##тации
докто
##джу
детска
югозападната
астронав
5000
служат
1200
триъгъл
предоста
циф
италианската
разнообразни
останките
сток
лудо
##ich
студен
повтаря
new
пуснат
##вище
##ктивни
храбро
колония
продукция
обединеното
прослед
##пани
базиран
форт
определи
цо
провер
атлети
алго
евге
военния
световния
функциона
завършването
болести
##раи
векове
освет
собствено
постра
преиз
##демо
##скопи
##ьои
##ore
фено
необходими
барселона
##иму
премиерата
фирми
диригент
рин
доцент
##зас
моста
##ам
106
почви
опашката
##опа
норман
палуба
пазарджик
променят
вли
опу
включена
гигант
слава
1874
женската
информацията
цената
удари
##рам
утвърждава
илинденско
преображенското
##бела
тибет
гви
хал
скот
обработка
кен
сигнал
##рун
фера
бунде
пенсиони
##плат
1864
зрители
##фалц
наде
##канския
черти
обявяват
адам
главнокомандва
овлад
##пле
##новата
сала
стая
околностите
етнически
аван
прозо
##хово
наистина
декорати
карлос
креди
желез
колониа
косово
мах
обгра
2019
обекта
социална
гроз
какви
филипи
наименованието
##ια
##бърт
заговор
разказ
подхран
корпо
мигра
красо
записи
славата
колона
получил
man
допуска
inter
даже
търнов
изкачва
отнема
председателя
възрожден
купи
руското
##личават
магистра
резолю
ab
##циг
##лииския
количеството
уест
серви
название
par
##сина
петри
съединения
изпрати
##годишната
постоянен
замър
празник
разпространен
бозаиници
насекоми
разграни
кеи
извори
марка
движения
мисъл
хълма
химия
постъп
тар
пилоти
нататъ
кван
##жела
къси
##хове
ликви
1868
княже
аш
старият
трапе
интели
благотворите
социално
японската
щип
тела
репре
бас
##консул
подножието
откъс
присъствие
присъствието
североизточната
древногръц
оц
срок
##сро
завежда
субе
разположение
кралската
рязко
агенция
гон
##чан
инструмента
ценни
определено
заболяване
прекратява
records
адел
##декс
подси
последно
кримина
кампанията
лекции
##ционното
днешния
флорида
свидетелства
разпръ
виж
##ходен
низина
благород
драго
пощен
общия
запазен
следващият
потвърждава
предотврат
къл
##шков
##рас
живи
маршал
вяра
коалиция
осе
##фиилд
атмосферата
яица
топло
сибир
роме
югослав
публично
350
##ношение
процесът
1866
творбите
жак
телевизионни
мениджър
гърба
защитник
писма
камбана
официални
натова
предво
фео
музикално
турнири
въглища
ску
рак
говоре
приготвя
общест
кири
момче
деиствителност
00
отро
станал
антропо
пирами
треви
гил
бунто
партизански
##ази
победите
личности
##сното
##пват
отре
парите
берн
висши
аполо
уру
отток
ресто
риби
хру
дивизии
опасност
остри
млрд
##лога
камера
краката
съответствие
молдова
екзархи
радика
очеви
хабсбург
съхра
##кеан
108
иозеф
посрещ
класически
гражданите
сложни
холмс
##ys
##дале
сън
издателство
адрианопол
коз
успеха
усилията
вирджиния
##гнато
османска
спада
наименование
кислород
##знат
целите
екате
списания
разрешение
превземането
посвещава
##нора
непро
андер
фактор
посветена
влезе
разчита
тени
заселници
доклад
споменат
##нберг
##неца
##шево
владения
широки
##българ
живя
сърце
варшава
съществуване
удостоен
вку
окс
изт
ниската
джамия
мъжкото
##idae
задължително
военача
яма
##радо
##люс
кух
правило
видеокли
еванге
могила
##фите
примери
изпълнител
турска
##ong
културен
сблъсъ
##ченията
проход
аргу
успешен
замяна
##води
специалисти
окръга
станцията
читалището
каче
реформа
развити
учените
островът
здраво
преследва
отряда
азиат
умират
отвъд
заб
##зини
терена
компи
##миране
интегра
баня
произведени
разкопки
вгра
турско
значението
незаба
ранната
резерват
опожа
атлантическия
риболов
car
##сани
повто
копа
каа
игрален
републикански
отиват
милиарда
##ология
##гру
##кру
повди
родители
бир
феновете
цир
бяг
събрани
чарлз
чл
откро
##рол
##полис
депре
##сяване
колонии
враца
чаи
кили
критикува
##мър
##толе
отнасят
извежда
посетите
художника
##ide
значителен
избягва
генералния
внеза
пфалц
##зано
констан
глад
произведенията
операта
каролина
люксем
богородично
стю
лежи
картина
стипен
максималната
прекъсва
уст
##скон
масло
обещава
възрастните
боевете
канали
известният
приемането
бунт
премине
консервато
северозападна
самостоятелни
мв
познава
##кио
великите
диаман
заболяването
пир
постигне
хълм
нуждите
параклис
надежда
##веи
сава
приложения
годишната
падат
бомбардирова
##ost
съответства
самостоятелен
младши
наподобява
1850
леон
плава
направена
стокхолм
##бват
##вола
##пин
миро
националното
битки
1863
конкурса
юлии
нао
##ans
кралски
вестника
противник
зеленчу
##снен
делега
региони
вещество
очерта
sy
оф
оказа
##зра
##енер
##тини
##знанието
##вниците
стреми
кратък
въздушни
естествени
мисли
склоновете
##уе
##iz
##теля
селяните
кафе
диску
градския
артисти
##никата
##лозите
издъл
сами
предната
ансам
риск
отличие
венециан
резиденция
уот
##гът
##бур
##бров
##соа
планинска
исус
животът
спортни
##лините
нера
каси
рома
формат
древни
##фицирани
алкохо
люксембург
торино
полската
тунд
работил
реал
характерна
900
ебер
жле
##океан
##юн
копи
дани
тоест
лих
алън
националните
милион
граждански
молба
впечатлява
бакалавърска
афганистан
анри
териториите
характерно
психоа
виз
пио
санда
блек
##рер
техният
слънце
византииската
##ff
природ
разделен
вита
планета
##ателни
освободите
светло
амби
католическата
инфраструкт
буш
танка
имо
##нент
негати
носа
хау
103
максими
ханс
асе
сдру
урав
1861
извира
показ
възлиза
изобре
покровител
##ъла
държавните
освобождава
външно
имуще
гарнизон
we
##фред
преко
пречи
давид
превземат
описание
маро
посре
##кратен
корабът
библиотеката
кралицата
куба
##ere
изпълни
равнище
земеделие
##хме
##лство
грамо
духа
самоков
маистори
владение
##ond
местно
##човете
полети
югозападна
водещи
консервати
възползва
заса
##печата
пази
сражения
ким
синове
104
цигу
психология
засне
шел
##брия
казахстан
61
вите
щаст
##раните
разград
##паси
великия
##данов
водоиз
бившата
хълми
департамент
захран
##гал
иконите
посочено
извърши
заобико
изтегля
##вския
куби
##днал
участия
елемента
национал
зелени
британска
зоната
плъ
групите
огне
смятан
умения
вятър
метео
##сту
##товата
прозор
кристо
започнали
сри
##юри
тол
неочаква
##дателите
автомобил
изчезва
олтар
##гара
мел
лет
датират
ава
серията
издържа
съкро
познати
1862
вълни
сериалът
##хаузен
кореспон
ag
деспо
операцията
gre
##вската
##фат
замина
късните
##вяне
социалистическа
разоча
utc
сати
явява
отличават
##работи
##годишно
саму
млада
музикалната
числе
мем
##емите
детството
случаите
желязо
чикаго
мъл
##зли
##ъри
причинява
грама
кръстонос
##ливост
##нни
мул
вави
##морф
1865
медии
владичество
болестта
дипломирането
##тене
##виан
лист
служби
убежи
изследванията
инспектор
четник
мисте
##зони
популярните
sch
назад
##рации
неправи
##гос
съотбор
нападат
цвета
##глу
деец
чифли
синьо
великата
атанасов
традиционните
василев
лорд
съдия
чинов
червена
кралския
древността
секретаря
музикант
пещерата
##татели
копие
##дани
##говете
спомагат
болест
оправ
миг
подвод
лим
##зено
пласт
стиму
оценява
местопо
човешкото
водосборния
##ah
диони
##ленд
стоиности
звук
резерва
престол
троя
външни
кожи
##подоб
истории
##морски
човешката
дясната
панаи
дефинира
##зду
валежи
##морската
обществено
динамо
званието
жре
англ
морска
разпространението
хранителни
равенство
благоевград
тат
увре
##тичната
##пред
тъмни
емил
завършен
конфеде
ери
помагат
марс
червени
убииство
старт
появи
изображение
изпитва
телевизионен
заглавие
комбинация
исляма
букви
сръбско
изпита
потребителите
скро
##нея
базира
##гнала
##рея
гласа
разполагат
психологи
беларус
градуса
ере
раковски
пропо
централните
епиде
стъпка
плана
глаго
краино
членки
стенописи
спри
##ros
франсоа
нападател
продадени
противополож
птоле
сдел
наблюдение
ограничава
cor
##вост
съу
##зец
въоръжените
фернан
искър
доказва
вио
дит
ръката
делчев
онлаин
окръжния
love
гоце
произхода
лаип
безпо
##лиев
пома
похода
прието
##дол
нил
турнето
националният
испанската
##енбург
##прием
##карват
съвременния
сражението
##фициран
бундесли
облек
небето
размерите
полка
честота
гръбна
дървен
ракета
брюксел
цу
марио
##грама
хипер
герб
пространството
признат
##нът
биб
ползват
свищо
героите
##мски
##ниите
##сково
мишев
##ранява
##плани
вестници
нападения
генерален
доказа
поведението
владетели
търговска
забранява
антонио
тони
херце
изпращат
софииската
написани
архитектурно
психоанали
##ликата
обер
робо
бест
способността
ленинград
##рео
изде
##дания
северното
пиесата
католици
избрана
оранже
пещера
теглото
05
предложението
баскет
избегне
предход
##шеви
алжи
безплат
бъдещия
стоиността
хън
##листа
##нерите
марков
използвано
##ann
политическо
зеландия
земната
обикновен
историци
водеща
технология
принадлежа
чуждестранни
наве
собствените
растение
жълто
офанзи
##ure
##pt
произнася
епир
оръдията
постоянна
византииски
завършване
продължителност
въвеждането
ямбол
прекра
##ателен
реално
морската
предназначени
##бил
таина
мило
административни
журналисти
керамика
лето
##сп
набира
##стът
##носен
обстанов
ролите
спорове
младата
външна
взимат
чехословакия
водоизмести
##мощ
##стоят
курсове
##ung
недовол
ембле
вицепре
другият
богослов
възгледи
##ав
водещите
испанците
popul
усил
##бори
бащи
хеи
китарист
славянски
иеро
лента
сяр
архангел
##арт
обявено
паметта
избора
унищожени
ага
компен
високото
активни
завършил
флоренция
изгнание
##глъ
##рован
десни
##фик
джоунс
възстанови
##ани
темата
муста
иера
пул
##дела
##сиран
филмите
##ork
успешни
случаино
духовен
преминаването
all
рицар
браиън
##порт
приле
мнозина
цело
хесен
текста
общности
лаипциг
сма
проч
справед
делото
разликата
почвата
пиеси
земеделски
cod
##клет
бохем
суве
помпеи
##лън
##ниран
захар
##дад
##деното
регистър
##налд
херо
морското
тежък
боговете
предизвика
конструкцията
ескадра
инцидент
преста
разбо
меж
близна
видят
##суват
природни
еман
##рично
незна
номиниран
##лович
новосъзда
привлечен
сеи
##гането
контек
##ентъ
трав
възможни
##пуснат
##динами
вратата
сбли
разнови
##датели
механизъм
заглавието
##дност
изработва
монасти
##гин
стър
живопи
спасите
##бридж
завзема
опусто
прера
анар
актуа
гражданство
кандидати
писане
холиву
450
mic
злата
поди
съчи
##кинг
какъв
##oll
лявата
концентрира
натиска
сватбата
участъци
кааза
тридесет
търсе
##листни
епизоди
подразделе
храброст
##дари
гари
излизането
словен
изложба
координ
мляко
залата
имала
услож
местата
чудо
отделна
съпротивата
избрани
ез
придружава
заловен
азбука
отпечат
рефор
европеиска
строеж
ситуацията
фалши
стръмни
##pl
каже
##шин
главното
историк
проведени
магазин
фю
##рената
ниските
##бият
отчасти
опълчение
алгорит
##брат
##лиран
отвори
##зания
боб
окръжен
европеиското
всякакви
ранно
голмаистор
##зък
некро
празни
##лков
##сякъде
регистри
строго
историческа
установка
композирана
преименуван
самоубии
вкус
##ич
##пир
балет
държавите
обикаля
храната
блока
фроид
взето
демонстра
демонстрира
##гене
##фар
##яни
почита
1830
кърджа
цан
вете
заповядва
определяне
семинария
##днат
отче
животновъ
вътрешна
режима
##ach
тежките
владислав
сената
##гън
##жват
##пъ
възел
обществена
творба
херцего
дън
ерик
укри
##лити
##диците
дванадесет
петте
минало
възрастни
разрушен
редовен
корабостроите
mag
швар
настъпи
колко
##пота
воиводство
фели
екви
струма
употребява
рекор
експерименти
вилаетите
скъпо
доброволец
мохамед
##лието
процент
##хара
##хил
гърците
единият
норвеж
преговорите
написан
##низма
##ходно
##бус
открития
републиката
литературни
модул
оха
огледа
понти
##oth
графството
увеличи
подполковник
осигуряват
лагери
квинт
визуа
09
ър
##конти
издръж
теже
групо
гал
##берто
развита
редакти
духовна
формирането
еваку
##ровете
##вез
арка
свете
рид
днешните
кралството
образуването
англииска
тимът
излезе
fo
гъл
##мния
клави
покрита
мрежи
невъзможно
сарди
пакистан
инва
##държи
сърби
предаде
el
##фюр
нещата
баден
дубла
##полд
предишните
известност
##мерно
императорът
##нгам
истината
картаген
инжене
алжир
тексти
метали
същество
сингъла
отразяваща
бръ
##мърт
характерен
##сара
плановете
лоз
смяна
преброяване
мехмед
оря
деистват
командващ
иерар
монастир
1856
делегат
do
къде
късната
рос
запозна
рус
##греб
френско
софииски
разузнаване
прогреси
лв
отпла
##лах
кеч
колеба
атакуват
завършена
имигра
ура
съкра
гората
##anc
растенията
изриг
явление
мону
събиране
##ational
емоциона
##ies
прилича
мори
видовете
изкуствата
даниел
съветска
побеждават
##ick
скалата
възникват
разбират
##сток
##бели
монтана
историческите
##ith
##ланта
гражданин
договорът
заети
огромно
##емост
тира
предават
записват
вирт
##совото
##enne
османското
вътрешен
блокове
улрих
възстановен
имоти
промените
нисък
##тури
пълново
индииския
техники
организирани
максим
подкрепят
някаква
проро
1800
кладен
днешното
подобрява
##edo
философията
игу
уор
коня
мрежата
полите
колекция
незакон
революцията
убеждава
признание
публикации
разгра
##сори
##ънк
разработката
църковно
стенописите
##новъзду
##тически
изработени
##мият
геи
##сенето
безде
бъдеще
наследници
първенства
контакти
концепцията
средните
женска
италианските
златна
1859
попадения
доказателство
александров
засяга
фелд
набе
лични
градската
организма
бъдещето
блан
##amp
еквивален
ина
##теро
заси
тере
възка
борд
драмат
композиция
туристически
##ry
същият
мисио
грузи
първична
германска
антонии
привиле
##фата
потре
военновъзду
слоеве
архитектурата
салоника
##хри
наклон
записан
теса
##бележи
римските
корне
поета
унищожава
херцогство
швеицар
организми
календар
светия
кристиан
намеса
вярата
обединени
звукоза
преобладават
азо
##урите
типове
хоро
драматичен
пче
##брю
##ърд
нее
##елни
##фикацията
изучаване
екипаж
шотланд
убежище
дуз
стигне
данък
издигната
религията
псевдонима
насилие
per
ефи
##кател
##тиката
ливър
крит
враже
започнал
записани
данъци
флу
##вници
пола
броня
китаиската
дебюта
пункт
ввс
##ателното
грешка
момичета
##цла
набли
разработен
нобе
освете
часова
##are
##логично
апостол
настрое
засилва
gl
##чът
##зиа
##ляна
##вница
квартала
идването
градска
вечерта
генерира
футболисти
лъчи
##гваи
испанския
преместен
4000
отраз
санти
##хаид
диалекти
танкова
концерта
болницата
радиа
десетилетие
лидери
свищов
##ης
селяни
##кула
основи
любите
##oman
починал
кардинал
излага
союз
траге
племената
задната
родопи
племенник
комбинира
коефици
рен
кости
общият
номинира
##канските
канала
насау
завладява
фрагменти
отчита
кош
##гона
##читан
##скопа
веле
оспор
крале
хумани
реаги
клетъ
преобразу
разпадането
младежи
04
секция
окси
скор
трудове
задължения
тракииски
усеща
отпра
същ
##бит
стопански
способност
непосредствена
буквално
постове
##тара
откриване
балканските
жертвите
ожени
##ществува
##обще
гроба
човекът
енергията
погреба
скандина
писателя
кене
дея
дена
населено
##берат
зени
велика
свободни
покривка
ограничен
снаряди
теилър
усво
позната
##лизирани
британското
охрана
брегове
свещената
ивица
##рът
потър
запъл
коте
тел
##мора
халки
рилски
парчета
##тирането
собствената
наблюдения
съхраняват
своеобра
##ain
покан
миси
правилата
курфюр
интересува
##бърен
ядрото
дипломатически
вдо
еф
шри
силните
мека
сребро
безкра
храмове
нападението
помещава
почивка
фактически
екатерина
разве
##лур
руме
##ьол
народите
компютри
четвъртфи
херцеговина
##нинг
изли
##стична
сурови
полето
замъкът
линеини
тота
печал
сребърен
##ленбург
въздеиствие
лерин
##къла
траи
класическа
сръбска
протока
авиация
магистърска
кук
страници
днешно
статия
конфликта
оттеглят
jo
##ническа
готов
##дона
могъ
дистан
отношението
американците
солунската
станало
изтла
заи
бож
##увана
карло
отрича
академик
##ловете
износ
мисии
възна
позволи
апарта
общността
учебната
легион
вк
слиза
поручик
мали
дует
осъзнава
класическата
##ъфт
промяната
прис
конго
покрив
намали
арсенал
sm
отворен
##бовете
иони
балканския
продават
##лси
нака
изявява
##пии
пеене
вазов
##вателен
учебни
принципа
тюрк
##уи
##снати
профи
##нгви
безс
##нео
нере
призовава
мусо
часов
запада
патрио
летището
преобразува
снимките
кабинета
аин
зев
референ
##берии
лече
##лниците
частност
шиш
бургу
единствения
изпитания
вдовица
##ничка
разказа
социалните
легендар
човешките
пренебре
аделхаид
джаксън
кабинет
донася
красно
пита
дъб
минават
сарафов
многоброините
ая
оск
намест
##дили
хищ
##крацията
подобряване
скални
подходящи
изобщо
коопе
неверо
##рион
##чици
##яваики
тогавашния
сръбските
липсват
добрич
##ели
##ier
скалите
двоино
ензи
арестувани
направят
фреде
шанс
щи
накло
##нон
зака
надви
##ina
##reti
навлизат
факултета
##като
##шване
комента
неко
##физи
авторът
монаси
##довлет
служител
принадлежат
космоса
франциско
прочут
gt
##hn
спорта
средния
домашни
финансова
градини
хилядолетие
wr
наш
пушки
капиту
принципи
находки
онези
##удва
пропуска
лев
научната
убиват
постижения
взаимно
##лци
мачовете
тежи
ръкопис
образец
процеду
##ite
навсякъде
изисквания
tim
##твори
##ial
течения
националисти
особен
независими
сборник
##др
##ων
клавди
социал
бивши
въоръжена
четвъртия
population
71
##лизират
изте
марин
дизаи
вселената
богатите
##age
превърне
маисторство
хомосексуа
ливърпул
сфери
хин
дока
кадри
гранд
ширината
##тниците
бурга
1858
comp
главнокомандващ
кр
турското
кръгове
политическия
неина
сражава
морските
особености
актьори
напомня
управите
chreti
свален
тенден
курорт
рон
##бру
литва
полица
американското
връщането
фланг
каменна
символизира
евреиски
маргарета
macedo
пустинята
des
трио
чака
площи
перспекти
позициите
портрети
чувство
08
елен
счу
велес
кръга
следващото
##ata
предизвикват
хаиду
мнозинство
руснаците
енд
##ящи
нан
саво
западното
специалист
танкове
mon
гва
##ук
##рим
реми
##сос
стр
държавно
френският
покрит
четвърта
изпит
macedoine
завръщат
##мая
раждат
##кум
влашко
##хими
изграждат
посещение
висшия
художествената
красива
катедрала
тихоокеан
##демократи
##зка
добрата
боепри
улиците
наказание
гарантира
изненадва
хля
откра
вити
подписват
играчите
##цента
1840
насле
овча
популяризира
ярко
81
##кциите
загреб
реген
базирана
хасково
дивизията
феода
chretienne
##ment
##незия
условие
открие
изяви
автоматично
незабавно
амат
крите
##вара
прилагат
душата
събитието
протести
препоръчва
селскостопан
полузащи
геолож
боеве
противоречи
охаио
06
##бс
##саи
фила
емилия
стъпа
music
харесва
ино
хун
ната
загра
##неса
##ерн
##няването
краината
слави
трупа
четирима
законите
провеждането
холивуд
сев
подзем
хосе
горния
##act
ограничена
варианти
07
##ждания
кутия
##дително
знаци
намиращ
успение
джамията
метал
лондо
престъпления
заобикаля
междин
изказва
доставя
тесни
течност
частите
##днали
черния
взаимоот
будапе
##дство
##гови
крепости
отгоре
постоянни
умерено
бараба
окупация
стюарт
птолемеи
##гимна
икономическата
отговорен
задълбо
птица
заслуги
##лирана
##стично
ограничения
цару
австрииската
електронни
##ходна
врагове
черномо
поеме
покои
аристократи
дитрих
оставят
##орите
##se
##ma
##man
седи
колата
късо
##метрия
ръст
##варва
официалната
фунда
съвпада
почива
агреси
dv
пф
сет
##ловата
либия
южното
##грират
комедия
##национа
състоят
мара
прово
примера
надпрева
историческата
бившите
селски
резервата
договори
спортен
прокуро
разходи
депор
стри
запазват
краините
форд
теории
портрет
румънски
работниците
дроб
регистрирани
оксфорд
сем
прогимна
лодки
бърза
кратки
жестоко
кореспондент
net
##унд
##дара
доро
русен
комнин
получат
автономна
сканда
ha
аги
сно
##зки
корито
рафа
вика
##дуин
разширение
подпоручик
dis
нации
отказ
коко
частен
западни
живеещи
##рисата
международните
скопския
ежегодно
уроци
коруп
сардиния
##ьона
##бов
лега
множеството
всеоб
първоначалното
въпросите
резерво
трудности
съзнание
##совия
##ксид
панте
стихос
мечта
занаятчи
животински
##лските
##рични
закре
варират
тяхна
##сяването
славия
клини
##снаб
направено
троица
враг
картините
короната
фондация
сферата
##ke
##мови
получаване
успешна
чужден
паса
жива
##слава
царството
монах
клетка
военноморски
##лците
заря
реше
роза
източното
фос
функцията
слова
##сността
##сието
личен
##шира
спомени
##ателя
добрия
##стъпен
изоставя
здравето
повишава
иън
##инс
днешната
тъкан
научните
администрацията
бандата
линко
аромат
шва
диферен
нюр
комплекса
уотсън
иб
##bs
пропор
##зал
депо
##ателна
непод
растеж
приети
базиликата
волга
акции
ост
##урни
руският
##тук
персии
постави
организирана
младежки
цивилизация
снаряда
газове
туризъм
зевс
внася
##ous
##ниа
сант
##стаби
образа
сградите
машината
занимават
царя
производители
астрономи
ветрове
попъл
залож
годишния
##щенията
соко
целу
икономическо
външния
златната
преминаване
обитават
вмс
##ron
илиев
алфред
критиката
международното
слънчевата
императрица
фьо
##льо
##страт
изкопа
##вио
##бови
мои
бод
знамени
изпълнена
икона
провеждане
сливането
роднина
взаимоотно
##ери
##плъ
##лоза
смя
техниката
масачу
способности
съедин
##зовата
правосъ
естествен
тене
разговор
##беи
воиник
гама
маркси
горните
компоненти
бронзов
извършени
необходимостта
някакъв
днк
изделия
ахе
##мания
подписан
министъра
момчета
етио
опла
улес
##ux
нике
##провод
1300
1857
функциите
настъплението
бург
тест
##жил
##канска
алберт
перник
литекс
ранното
щит
праи
основание
строят
нефт
тясна
тимо
неино
любомир
монаше
бившият
сатур
доброволци
##жба
поглъ
##мес
японските
##кинс
сигурността
замества
иро
насла
##стичен
##int
боиното
владее
железни
описани
##рингия
сандански
прекръ
недале
##гони
##мова
роджър
лоя
участвал
бързи
животно
традицията
вражде
разрушена
джовани
саит
разход
##стини
##гиня
##ктове
управляват
официалното
установено
датата
звукозапис
les
кома
доми
докт
спомага
##редни
човечеството
родопите
железопътна
пивовар
рисунки
обстрел
бърз
проблема
патриарши
паралелно
находища
каспи
пето
ограничени
##ционери
поредни
успоредно
екрани
последователни
ферари
очевидно
фул
##мел
нел
масови
предстоя
плаване
рила
##ern
изпълнени
съгласие
нужди
сухопът
синтез
акция
мнението
прибира
разчлен
видни
баг
многото
общинския
##спект
океана
разработка
аудио
посветени
обединяват
примирие
мандата
стихосбир
сни
уди
къса
##лности
социо
летя
върви
сумата
посоката
гробни
география
професионална
клавдии
##нало
прилож
разбива
хард
общините
спекта
цига
публии
трасето
диапа
съществено
седемте
хрони
библията
гур
зря
шум
##af
задово
кале
рено
##сение
##зово
##ствията
орел
##рико
##лиса
поемат
неви
гласи
текстовете
смесени
сценарист
стъкло
затворени
юлия
отвор
прочу
дево
хана
гласовете
знамето
присъда
езикът
френското
върхове
стъпки
трибун
хребета
хва
##ризма
##ливите
просъ
десе
близка
##митрии
прояви
леополд
вюрте
урал
##кати
отбележи
завла
метропо
##изер
##ветата
деивис
##план
освобождаването
блат
##тинген
изре
##город
автора
трево
стилове
нидерланд
вратар
ядро
##рои
##писване
практиката
съответните
достигнат
трансфер
вицепрези
02
отдясно
##неско
изпрева
сушата
планинските
съвременна
професионални
барабани
преместват
максимилиан
масачузе
уго
начини
радва
симон
риф
движат
защити
учителка
мюзи
растението
съобщения
##oft
коса
прост
лиса
мъг
симфони
установки
музеят
комисар
готфрид
живял
енг
кем
насил
##рево
речни
##логична
социалната
издигат
предназначение
стадиона
роднини
секс
##пети
трикорабна
шекс
екран
разбиране
вокалист
war
цю
яку
##уми
престои
обли
чудови
петна
метални
осигуряване
отдавна
оставяики
франкфурт
върховенството
пли
пато
гове
пехота
палестина
повреди
концепция
##xt
замис
контин
##стъра
траги
изследването
сърбите
резултатът
хартия
терористи
неофициа
гвинея
дмитрии
тв
##емо
##тес
прето
токио
алфа
##фикации
1849
##марк
артилерията
растителни
татар
алкохол
bill
##овете
##ренията
разглеждат
##сал
##чената
поражението
железопътната
блус
##сър
иза
рестав
мит
жилища
хели
класирането
алексии
невероят
##тното
детро
##живява
клау
реакции
##лизирана
врача
сегашното
електрома
октавиан
вюртемберг
бето
илино
густав
четвъртата
изпълнителен
бреговата
започнат
измерване
обвинен
ec
себа
##пено
бона
шосе
художникът
разпространена
масив
екзархията
нуждае
алексеи
сян
##гности
муск
випуск
вестникът
изобразите
жанр
производител
завое
възстановена
средновековна
алуми
съхранение
нат
##тос
синд
пътуването
наградите
борби
отиде
медицинска
киргиз
маинц
ова
прат
прате
##дват
степ
възрастта
изискванията
кръстьо
необичаи
едри
пета
базирани
##мански
ривър
##ish
светилището
немците
медиите
демокрация
буря
металур
крум
звездите
казанлък
оле
натура
##кона
##гова
девето
мотор
различия
местности
танци
##ome
оценки
атанасии
епархията
църковна
##тизъм
##месе
сигнали
ректор
паму
360
празници
индивиди
мнозинството
водоизместимост
##чове
изхвър
##гана
припо
рецеп
предател
средствата
турския
обяви
сериозна
ирланд
саита
будапеща
03
вдови
##елект
##яла
##нава
##лищен
зачис
престоя
римско
възможностите
католически
партизани
производите
откъм
захари
събота
експози
стихотворения
##здра
##енберг
полукръ
световните
кеш
##статък
серти
същества
станислав
сро
##реца
костен
приба
анда
крие
връзките
формално
представянето
ефективно
##каф
спират
предизвикател
обединените
младотур
##рона
прена
старта
праве
##нус
иоха
автомобила
продължителността
медали
оди
##ив
почва
прови
аркти
частна
парче
влизането
станции
отече
##ps
##новия
##вопо
дадени
##сипи
водена
личността
писто
слово
премести
композиции
отговорност
##раната
коди
бостън
бомби
пик
##берку
пръстен
софииска
насочени
осъществи
поканен
##кому
неот
турби
##борд
съставени
продукцията
##ваиг
александрия
яице
сдо
хv
##tt
##мине
мек
разпоре
##ert
античността
словакия
тръби
пленен
##графии
платото
покраини
##даване
##деми
мазни
##люби
лорен
образи
луиза
одеса
диего
##хон
отляво
варша
##вска
прах
финали
стомана
вселен
кръсте
финансите
##освобо
sk
##упо
##лда
##носите
реста
библе
##хам
орби
алфон
кръстен
банк
приятелите
обединението
разработването
считан
##риен
поряд
сидни
водна
фикси
##ions
вериги
асоциацията
гласува
##тено
измък
реоргани
##довата
четници
моне
часо
##куван
хоп
##държан
формации
напрежението
болшеви
увеличават
ser
бият
обвър
##тенберг
##лииската
критиците
единствените
разраства
вка
уха
##грява
##стел
##стати
##лоу
##дант
ремо
фаши
##ровъ
##илс
актрисата
кърва
оборудва
потомци
усъвършенства
бн
преработ
комер
неприя
селската
##дателя
потребители
персонал
юноша
##ling
такси
оцелели
##дек
##цикло
проток
възпроиз
надписи
парази
зоо
платформа
председателят
московския
годишнината
блестя
воиводата
подразделения
бокс
ливан
директ
богатство
отглеждане
естония
micros
заряд
горен
сини
##бират
##менени
стен
конструи
византииския
уред
поти
бути
построики
връщане
магда
изучаването
откаже
ами
юнеско
##дим
туберку
адрес
македонските
black
предшественик
лудого
тениси
ed
аспекти
##год
основопо
произведението
повишаване
добавят
генер
създател
продажби
лари
справя
##рьо
излита
мозък
бару
околия
правилно
провинциа
колеги
240
комунистически
извършено
сложна
преслав
изляз
прозви
приорите
използвали
##натите
образци
студена
четвърто
природен
атмосфера
ювен
предгра
##лника
дърветата
оглед
1854
компют
предназначен
валтер
влошава
##ον
тоска
дружества
кръста
благоприя
защитени
ирина
изписва
герхард
шива
геометри
строителни
катарина
фрак
##ρι
поща
##рум
пере
##вене
воин
евти
техен
единия
гриин
канони
##континента
дрез
уел
насти
слуша
сула
суша
царица
електрическа
подаръ
бранденбург
каквито
чър
##тателите
наема
сира
автен
орна
1600
персия
бягат
творбата
тръгват
1853
допълнителна
космическа
менидж
обозначава
санджа
фланд
##ченото
къп
подписването
##хождат
днешен
искане
заселени
сериозен
обвинения
привърженик
разгром
депресия
бундеслига
pe
##афри
##вра
##носни
220
посещават
християните
игло
приятелски
специфични
опозиция
злати
поиска
равна
##поста
##мец
воюва
професия
дългогодишен
машин
костю
обсада
стълби
потенциал
dvd
спла
##товете
събу
##дея
##глас
ранни
четвъртият
топлина
системати
обширни
ора
рю
##фта
##pr
##ple
##ien
сму
знания
##ходство
изпълнения
##raph
забранено
насърчава
студентите
пая
тара
единство
##геров
шесто
първоначалната
учението
##кенщаин
споразумението
дръ
##ие
сег
сева
домини
българин
##ктивен
останал
георгиос
изпък
специализирани
космонав
обстоятелства
мусолини
##зиви
включваща
манастири
свещеници
кафяви
нюрнберг
зу
##лял
предска
товар
средни
галия
маркс
търсенето
оръдието
зима
демократична
деспот
шен
отвън
гото
##дот
##цела
заета
словения
богдан
гъби
църковни
церемония
ювентус
акро
еу
настав
заем
дарява
пишат
организиран
треска
##делят
книжа
светилище
изправя
дълбоки
фолклор
комуникация
тухли
метеоро
езерата
ия
##гс
##sc
поляр
лингви
##мерят
съединението
intern
codice
аск
хі
селе
изво
моменти
лацио
победен
##цови
пълни
изобразени
въведен
оцелелите
дупница
гълъ
##визия
мичи
##дителен
напуснат
##номи
лота
спорти
впечатление
##board
##хат
##ническите
кази
размера
рида
##orn
слаби
програмиране
учителства
интересите
чарли
обиколки
унгарската
предприятие
дисциплина
исландия
вним
наскоро
пон
богове
поръчка
цюрих
rock
рмс
ула
костов
годишният
моза
дим
гау
намаляват
грешки
1835
староза
разследване
гробницата
##крият
##ител
автобио
адре
гърдите
метода
абду
отличен
постигнат
убеди
повлиян
квадратни
юн
##атура
паро
##вника
силистра
джонсън
селскостопански
екземпляри
разочарова
##пън
##мид
кухи
миналия
таината
просве
гробница
##лот
долу
прикре
роу
дубли
експре
континентален
заведения
индианците
заменени
явления
##yl
приспосо
мечка
могли
##era
##ict
съюзник
практики
поречието
литературна
аран
аква
##пт
семе
прогон
леона
##логичен
сбир
уто
##лок
краят
държавното
движе
монта
отряди
##ique
##ничество
небла
##ким
някъде
##чителни
карбо
украса
критици
заседание
категории
покана
учред
привърженици
изселва
ябъл
прид
разходите
##шените
бек
арда
джър
историческия
взети
магьо
строежът
компютърни
пасища
абатството
sl
##хберг
##сили
гласове
пълното
ранния
театрални
лаборатория
монумента
описват
яна
##шница
##тона
часове
надморската
направил
екипи
взаимодеиствие
хранене
предотврати
никифор
кореспонден
microsoft
устата
разпи
грамати
##риране
обособ
балкански
предоставят
магазини
възвишения
писателите
κα
дръж
наказател
молит
летните
##рииската
плеи
пазари
подходящ
тин
осми
градчето
съветът
терми
топка
топката
обединена
самолетите
заселва
gro
греи
##рала
##ношението
##виа
високият
остави
шеи
шеф
живели
японците
понятие
ауди
еману
##мут
##итер
съзнанието
маври
късния
##рян
имперски
кеим
проведе
излъчват
примити
мохаме
спектър
съща
мелни
светите
възраждане
англииските
апарати
обстановка
полузащитник
учат
##кои
хамил
дървена
партнира
постигане
оже
намерят
##зис
лили
стопа
рисуване
##евски
намиращи
##рдски
фенове
чуде
паметника
протест
##ivers
бежанско
предавания
ориентира
изменения
кеимбридж
##ада
##тери
преглед
##несени
##ковия
добли
меко
арно
хижа
полит
обявяването
изискват
латинска
румънската
влюбва
асенов
пота
мано
кулите
тирол
тракт
##графска
естествена
далеко
легенди
смърто
dr
##чията
нестаби
репер
четите
плоско
послу
освободи
популярността
стрелбата
сребърни
mo
хитове
##pe
семена
##тизма
общите
белия
сочи
радиоа
апарата
добив
добитък
асфал
сблъсък
проявяват
апостоли
облекло
##мю
##ничеството
обмен
въже
можем
бъдещата
2500
религиозна
изписана
промоция
##циклопе
атели
хем
##мено
рожде
енциклопе
##гръцки
неуспешен
студиото
женева
стипендия
вкл
ибн
ge
##хла
##лското
##зния
##жното
##нито
##дее
##ляска
пело
осве
въртя
##ale
##леиман
наличие
цветя
улици
отглеждането
фредерик
асте
##наги
бедните
цените
зет
етажа
потоци
департамента
аиз
удовлет
претор
##ory
държат
героин
##шов
##хеми
мюсюлманите
##бъри
завладяването
ескадри
продажба
дефини
гьоте
ликвиди
пластма
jav
po
вро
вляз
##ала
##тката
##стките
записите
стигат
икономическите
stat
комикс
спечел
павлов
отстрани
делегация
аматьор
аде
сфера
##жния
##ly
завода
силе
нож
##нджи
гено
марси
черната
амстер
иконостаса
армеиски
мвр
мисисипи
##co
##ризират
приходи
##пулос
##правител
судан
писмени
командира
въоръжен
ценности
ляво
типичен
фабриката
съпругът
вардарска
заснема
met
##пя
изгот
суфект
##ance
кратка
полуострова
философски
настоятел
амстердам
##цлер
зараз
##ловите
изготвя
##пот
сиво
звучене
блоки
предприемат
катрин
##ife
картечни
богинята
резолюция
цве
##осно
попре
придава
##социа
таини
хано
построяване
официална
боици
енерге
съседни
1821
прекъсване
бати
##снява
прозра
##можен
##кети
имението
изключен
струми
##ame
##веднъж
жанра
носители
последователи
завинаги
##несена
преселници
гостува
браунш
дрезден
бате
##дък
##рето
изложени
призем
разстрои
зенит
##стител
симпати
##urn
сръбския
##нецът
дебютния
вилает
саунд
бездетен
комерсиа
##ρα
##пването
сена
##лея
боен
сочат
американският
противници
класациите
търговско
##own
узбе
полицеиски
обществен
мембра
плате
##ъка
берг
##итс
постигат
изпратена
традиционната
разгрома
отпадъ
прохода
димо
##нгер
присъдата
поезията
установени
религиозните
вицепрезидент
брауншваиг
##дният
димит
шампиони
филипо
подпомо
максимално
момчето
цветът
плътност
живков
удря
##bc
##лани
измест
##цира
##ild
героя
статус
обществения
преводач
чен
##зното
##ктен
##цъфт
##вард
##препят
предишния
слаба
хекта
недости
кърмо
пенсилвания
премиера
султана
андреа
уилсън
дошли
озаглавен
фр
отлага
##вес
изпла
##дос
кларк
щети
##линни
бивша
изобразен
федерацията
спортна
гвар
##аторът
петка
екстре
диагности
постижение
славяни
албански
6000
агра
походи
пано
##ндър
##зирането
##минация
класове
използвал
##ровката
бялата
опазване
елиминира
минимум
умре
латвия
преселва
военачалник
ep
lt
амо
##дп
##ve
разбере
реван
личния
игрите
художествени
потушаването
симптоми
emp
вили
станали
марката
завърне
отговарят
красиви
вулкан
бюджет
фундамента
billboard
фен
##мила
бистри
##ждани
канта
унгарски
##нятия
ансамбъл
##нера
номера
пътници
крила
дъно
синх
славеи
хет
колорадо
патру
##ланка
комунистите
излъчен
иваи
предимство
просъществува
бнт
нашите
марина
билото
диска
купола
дупки
маик
франко
енту
отговори
равнове
синод
детаили
еберхард
can
пънк
шер
##пява
следването
##урна
беля
дирекция
арабите
берлинския
електронна
рап
долен
лекува
ник
гласуване
влага
краищата
добрият
африкански
одринското
щатски
нормално
илюстра
континент
##land
поява
отпечата
завет
застре
съав
токси
обх
мике
##ндж
##ari
университети
построика
280
изчер
монархия
древногръцката
посреща
ума
##гт
поклон
долини
заеме
##ционният
трам
сърбо
обикновените
осъдени
##селър
наследен
степента
порто
депутати
btv
gen
mod
os
pol
юрии
яне
дор
мав
компро
височини
сладко
изградено
1829
пилотите
ремонти
щра
##влението
полко
сера
съкрат
##парати
сома
1845
обогат
манипу
##брюкен
##католи
творе
##нил
оттук
раду
тесен
убиец
съществуващите
1844
здрав
нацистка
рьо
яков
##евич
голове
дългата
дървото
изобрет
претенции
бонд
камарата
двоиката
реперто
меро
бани
болка
##кета
##унда
филмов
графовете
странични
##сури
отличия
stud
преследване
скандал
хляб
суфектконсул
челси
къщите
пистата
хаус
дупка
марти
##джия
патрон
##ash
институция
1855
разрушени
насочват
##oph
венецу
разпространяват
площадка
теодора
пътешествие
навече
гвардия
cd
дри
учение
отстои
##кир
##шир
сухи
особеност
християнската
##чук
1852
убииства
моделът
затворници
олтара
венето
покаже
имен
##tr
изхвърля
макла
фигур
гаври
##тропи
цени
белтъ
могили
проваля
##гунда
бохемия
du
##торите
отвле
залага
##повете
##чили
пас
джан
идеологи
административна
архипе
сенат
1828
родоп
вярват
признаци
джорджия
калифорнии
стратегически
навига
джоузеф
андроник
сатурн
решено
101
сюлеиман
завеща
раждане
разработена
##лун
кил
успял
необходимите
принципите
изчезване
атмосфер
балтииско
проследява
кенеди
пше
##хти
##еви
рали
предните
другото
търгу
##образни
отдела
радиото
архипелага
хито
##полу
##бора
педро
династи
бота
##мандри
бъбре
начално
##гени
теленове
горни
спечелил
театрална
фактът
тържествено
бестселър
доц
##дум
предаден
помещение
вожд
петрич
неочаквано
недалеч
di
##вера
##комп
##даря
даска
саксон
##миите
въобще
подпи
откритото
тунис
цигани
интегрира
резултата
собствения
приемане
сключват
типични
иконостасът
оро
##кони
##тичните
##метро
папи
тяхно
зеле
банки
индиана
бързото
лонг
1820
amer
самолетът
ситуации
дъжд
отстранен
жилищни
air
сене
##ото
зак
заин
лиси
възпи
женит
съвременното
1847
работник
сериали
пространства
укрепления
коопер
ускор
нация
##родна
изработен
дарения
долините
##стова
чист
намираща
построяват
близкото
продаден
детекти
длъжности
асоции
стратегия
налягането
маргарита
##ентъзи
фентъзи
##тност
помин
чества
лечението
вермах
нареждане
представления
осъзна
индивида
унгарския
статуя
одобрява
въглерод
баскетбо
навечерието
глю
##жник
##чъл
##ml
казват
##живе
русо
градско
##ars
арабия
събирането
1812
улицата
съмнение
червените
мулти
зре
сложен
счето
справи
##морието
##чините
вещи
малта
човешка
водоснаб
установяването
приятелка
венера
порно
внезапно
инфраструктура
живописта
ентусиа
есе
##ристите
току
камери
разстре
надписа
##риос
##рииска
еднакви
учения
финансово
законът
самоубива
диоксид
злоупо
съкрови
вавилон
илиноис
gu
обхват
конвои
лична
древния
акад
освобождение
ланка
коприв
замръзва
фернандо
реставри
ожесто
##нити
съл
градските
публици
клетките
подоз
скулптура
отделения
неблаго
##ровата
##доу
##пев
бис
римо
желяз
периодът
аса
ески
##брал
еднакво
осъжда
германското
културна
конструктор
защитен
##надесети
фарма
калабрия
правну
hot
рациона
областите
джони
политици
традиционни
здрави
магнит
глобус
торпедо
опозицията
юридическия
##тска
##ood
##делно
следствие
##зирано
крилата
включващ
делтата
пътешестве
окончат
ele
fe
##son
кога
допи
надлъж
работите
елементите
съветското
1846
поставянето
харвард
композитори
1806
##леики
романите
предложи
запазване
стоят
дългия
скоростре
предпочитат
въстаниците
народните
математиката
престолона
закупу
камара
подчертава
da
med
##лско
мишел
раионите
музикалните
християнско
японския
архипела
унищожи
журналистика
##надесе
церемонията
релефът
sup
##cs
##каче
када
пират
надява
последван
значимите
##адмирал
зеленчуци
##скване
замож
##нела
##деният
бита
наимен
##щие
##енени
футбола
освободени
защитават
техническо
олимпииските
застрахо
монголия
##български
сестрите
виртуа
av
изгон
##кери
полукъл
габров
създадат
струва
обществените
вливат
aw
ару
шле
##мур
потег
ков
реци
късни
артур
планиране
##alis
химически
бенеди
кърджали
румелия
юта
решенията
крак
околността
кралска
футболни
архимандри
независим
зъби
екземпляра
праистори
пене
##лони
волеи
##хии
каквото
1851
прототи
веригата
удовол
индианци
постановки
индонезия
дисциплини
ангелов
иначе
750
##иър
##фю
210
никаква
интелигент
тесалия
##зът
##реа
##каш
##скови
боян
##въри
интернациона
##old
намерен
природо
настанени
мустафа
нс
окис
##бния
##стна
##рици
##нас
пресъзда
стаята
пътищата
танк
котки
бежански
пристанища
разбиване
измежду
егеиска
докторат
корнелии
грен
въобра
##сора
литра
##куване
получени
форум
черке
##ana
монтирани
дивизион
боико
обръщат
подробно
маршрут
ib
вати
ово
##sp
разм
разработени
дин
##ховете
лена
екзо
съставено
празника
признават
завои
ориентация
числото
филмова
подножие
природните
##вп
##лиа
##минг
разред
джеин
напускането
увеличение
професионално
басеини
кръстоносен
univers
оптими
отплава
кти
##сне
сиро
виден
##елната
бом
ниш
ниши
##ковци
иконата
принудена
испанските
махали
ядрени
##ude
спътник
заменена
анекси
хектара
eur
her
чор
##ric
##лево
салон
приписва
летател
ант
##линс
вестниците
математически
заснет
пеизажи
01
тла
##зд
##рания
##тиви
##мари
обхва
##пион
водно
денят
флоти
морфо
учителя
##ile
изрази
проведен
черномор
класация
##велт
##ograph
забавя
члена
##жди
комо
събере
тестове
совал
членува
##unt
разширяване
довеждат
##бъла
щатите
застрашен
привържениците
финансиране
пострада
прокурор
змии
##уп
заето
маски
тетра
##проду
турк
облаци
административния
водород
атоми
антарктида
хънт
социалдемократи
лудогорец
##дници
##махва
раси
нове
грами
леля
вампи
анха
авра
никопол
##isti
гриза
пореден
достъпни
въведена
минерални
лекари
ваимар
безопасност
упражнява
експерти
оскъ
фата
##внява
##мното
нади
##гач
силната
чести
работна
1700
търпи
кристина
нарис
огни
##вателите
бунта
механика
автономия
изстрела
измерва
нахлува
мозъка
чърчил
one
ап
##дора
станат
възвръща
##хаген
руз
официалните
##фицират
професионалната
##жоа
младежкия
отклонява
сент
##ист
##воров
неп
##зио
чав
чиста
правителства
ендеми
технологията
неутро
нашествие
игумен
съавтор
##лете
роберт
гев
ръчно
търговище
общества
немска
протестира
таиланд
превзет
финланд
услугите
промишлеността
секунда
акви
гдр
оса
##be
##me
отвежда
изпре
готови
пригот
боро
изкуствено
особена
организирането
осъществяват
поколения
самуил
разболява
##тско
прераз
подложени
##новци
високия
европеиско
##ult
охранява
разкрити
брук
породата
кампании
разпределени
боеприпаси
масачузетс
##hz
поми
##роса
комен
разцвет
вих
мио
ледник
обикновени
пехотата
звездата
коринт
идентичност
седалището
красота
анхалт
##ka
накара
преци
същност
##деш
проже
карат
##фекти
местна
благоприят
интерфе
солунския
празнува
нуждата
типично
публикуват
##рдо
##work
##реми
##менена
лес
изпълнен
социален
поставено
int
und
суперку
вдига
писменост
изпревари
сао
раздели
дем
дени
диин
фокс
владенията
звука
задълженията
предназначена
настъпват
значими
изчислите
организатор
писателят
исак
конфигу
дизаинер
шекспир
##рика
##мак
толе
диша
боби
страсбург
бронено
верто
дякон
състояния
кърмата
разделянето
налице
тенденция
оупън
дамян
андалу
кооперати
##атите
##лее
##дана
##ранти
##ностро
куни
причис
инструктор
истинска
фестивали
сблъсква
любим
палеолог
здравосло
чифлик
полицаи
замени
##роа
##мощия
полусе
1100
построено
монасите
необходимост
патрик
планът
масиви
джими
магистрала
консерватория
филадел
нен
##язви
##бати
##ms
комин
##каи
каш
мога
##верява
дука
краища
хисар
джуд
храсти
великият
полезни
историко
наследството
гъвка
ултра
##ваториа
единични
осветена
барабанист
юби
##палу
декара
пещери
включи
черта
популярната
необходима
1815
оттегли
противопоставят
превърнат
фолк
тютюн
##жването
напу
виа
обясни
собствеността
едино
екипът
дипломат
прототип
изтребители
абсолютно
неколко
рузвелт
del
##ината
##чести
профил
конден
успешните
версията
посоки
стреля
1836
джим
съоръжение
теодосии
бягство
скъпоцен
джърси
аспект
##диан
товари
##ченко
компонент
намесата
консултант
художествен
експедиции
поражда
православни
аристокрация
шведски
способни
апсида
der
fre
изложение
робин
диги
##бед
лион
имаше
лодка
##ise
въпросът
полкът
придвижва
молекули
еври
##ените
показател
прехода
мале
макро
##сала
##ственост
тиберии
кралските
##рирани
мачът
покритие
избирате
влечу
потъва
блато
ои
уран
голд
привати
ствола
лав
участвали
историческо
дясно
истинската
клетката
натовар
заражда
земетресение
##ак
##ясно
магне
процъфт
телата
##днала
центърът
милиони
##суването
мъжкия
##идън
принуждават
австрииски
##маршал
образувана
омъжи
самоуправ
архитектурни
##дре
##дьо
покръ
раин
предложения
запове
##гели
успя
музикалния
николаев
архив
боината
англииският
джумая
характеристика
резиден
кацане
wrest
пия
схваща
мик
останат
##ровките
мъче
централното
параметри
шампионска
амур
последвалите
свидетелстват
цивилни
ритъм
измъ
рот
бокса
стилът
зелено
провинциите
банско
буржоа
аристотел
напредък
якоб
em
оло
спу
юрис
##ικ
##зието
203
##шима
частта
##хид
всекидне
събранието
привличат
съобщение
продължително
подходяща
тънки
емиграция
персииски
ландграф
сходни
##ули
##лството
дере
краков
дисни
габри
управля
александра
##ковица
физическа
интереса
поражения
подчинени
църковен
вятъра
озвучава
мароко
подводници
развеждат
##риста
##детели
точност
течно
нома
дев
пазят
##сана
инф
кун
##право
##шампи
билборд
любен
царски
съответната
1843
художествено
започнала
внушите
цариградската
фасада
наркотици
цигулка
костенур
##лк
##чър
навън
##ричен
обнов
##гуа
лод
##борг
светла
консулство
върховете
устроиството
забрана
дебелината
полуфинал
узбекистан
описан
##ъв
мадона
таимс
##жание
боло
светослав
клиент
сравнява
андерсън
мускул
прецен
##мала
долния
възбу
възгла
##съла
гера
новини
караве
270
физиката
присъединяването
иезу
нарушава
скулптур
изписани
наместник
##αν
##бното
изменя
беро
пии
руси
ходи
##чителна
##спорт
студената
общественото
площада
разпределение
споделят
щом
проверка
агри
гун
покло
изна
дожи
мезо
вело
надстрои
наум
##oss
##дарност
оръжието
тежката
арена
преврата
компакт
амбро
редовни
пленени
джули
попадение
украински
способен
лиценз
престава
престолонаслед
лент
##зс
##ъф
##веца
##дас
хоно
маичина
достигаики
материя
съдържащи
преподаватели
никакъв
уаит
лауда
квалификациите
нелсън
ун
зага
изенбург
арм
арги
##земи
плаж
развит
##мус
покрито
корените
наблюдател
разкриват
играчът
арженти
иконостас
танцува
пелопо
live
сф
##сура
пробива
разформи
##пил
челю
куз
слав
изданието
съдба
машиностро
##мънд
изтребител
вечно
##ртън
душа
вълната
##годишни
оригиналния
нахлуват
зърно
отстъпват
буквата
задвижва
коефициент
ео
##вското
изворите
прима
##стоприем
финансов
споменават
внучка
чарлс
неуспешни
четене
гнездото
фантастика
работещи
страхува
затруднения
змия
##ca
пресата
избро
долни
доня
пекин
футболната
родът
разстояния
концентрация
злоупотре
##ax
##кии
разпа
арт
##пусти
единствена
опашка
метабо
##питер
възприемат
здравеопа
зачислен
аби
породи
силното
казар
таджи
##елна
въздеиствието
започваики
1400
широката
танзания
ind
1814
наречената
момичетата
настояване
мощни
гробище
мюсюлмански
затворена
завеждащ
какъвто
остав
преп
приходите
##чиев
предше
##бад
##шек
дългите
пълната
230
##носци
смесен
висшите
системите
довело
разрешава
парламентарните
момичето
португалски
оуен
напише
lo
min
##cl
##цка
##македо
голи
##ътре
куин
адю
формация
григор
опасни
погребана
аполон
интересни
радомир
ахмед
отворена
волята
бсп
шин
маджа
теку
##доби
##довите
##графа
грант
##ховица
##orm
представа
обявени
съвременен
каквато
завърта
загинали
##stem
архиепископия
симео
преименувано
##ool
отвлича
##рович
капе
демир
боснен
шам
##ark
##обрабо
братство
завръщане
1841
бизнеса
периодично
пациенти
хипотеза
сблъсъци
il
оцвет
##sch
нашата
##гарт
пера
дива
##бените
пламен
разпозна
##itt
##ele
загубва
художниците
навътре
1834
оцелява
заплашва
двигателите
човешкия
енидже
бвп
остра
сня
##per
##винг
##ледо
разто
подти
болен
ним
полския
кариб
филологи
водохрани
съответния
въздушно
ендо
снаряд
родом
екипажът
категорията
компютърна
баиерн
измества
червения
мъртвите
съперник
прозвището
##цът
прого
##лярен
сух
хранос
##вателната
александро
вероятност
##чув
насочена
звуци
1837
добавени
лекарства
нацистите
месопота
уреди
стефанов
кент
явно
##ломба
обсе
франческо
собственото
психоана
транспорта
обяснение
урежда
mg
##тхо
отправят
преви
регла
хама
тии
кралското
##стият
телеграф
борят
републики
включващи
влияе
установяване
богослу
1832
брп
котка
круп
оригиналната
life
сд
##ios
провод
тематика
някоя
##откри
двубои
##дателят
латинската
вулкана
клео
юноши
преименувана
екзекутиран
разклонения
фландрия
550
сфор
фона
##линген
##тичния
прогно
станала
куп
надгро
##лизмът
първоначалните
твърд
1838
##uth
заведение
терапия
рицари
доиде
персииския
поминък
##нак
селев
##нек
разтвори
могъл
чад
баси
купу
плеио
първоначалния
жандар
преводи
кладенец
тери
##ственият
изолира
изгонен
дъждове
преустрои
пирамида
отразяват
хамилтън
сняг
##ломбардски
cap
зле
кака
пев
килии
срещне
шип
разрушава
сборника
барбара
цирку
джудже
блата
кито
іі
носовата
таин
родени
##ънд
безспо
окра
проведена
хармони
далечина
актьорско
нужно
изчисления
конференцията
погребението
wrestling
##лера
##воя
дева
декан
мисури
възход
рибар
феи
експан
##нирани
260
избягат
##ogle
стабилизира
царевица
добруджан
валерии
екзархисти
кухня
тито
подем
##мара
бесара
хоф
хибри
клаус
църквите
гимнасти
гъста
варианта
фокусира
ra
##стява
долните
##петен
пътуват
развито
британия
публични
посмърт
кения
хеви
възраждането
морския
свободното
1831
регионални
##мънт
експеримент
евгении
сюр
съвети
##ченият
проза
каизер
##парт
вариа
##рял
запаси
свирят
отлично
съчетава
черноморец
санджак
lin
вран
##вките
##бито
##дера
неси
кане
личните
тик
иов
верни
транзи
максимум
треньора
пиеса
навлизането
цветни
фасадата
съпровожда
знат
рент
фле
юпитер
закъс
обсер
делят
импул
##лизации
повежда
слаб
приключи
оттеглянето
яицата
пълноводие
sec
пати
преси
изкарва
мана
##сибир
реф
бъдещият
новоро
норт
критик
ограничено
категорично
продажбите
google
хановер
вермахта
овла
##gr
застъпва
##диа
колед
кас
##стора
разлики
знаят
кризата
царските
твърда
ориз
министерския
спортове
comm
минерали
великден
##риор
##риати
подар
##визион
даун
##пид
меан
булева
тъкани
вътрешния
##въра
светци
троян
изображението
патриарше
киселини
емигрант
емигранти
бактерии
критерии
абу
схеми
растат
##дере
##хоф
##правки
величина
гръб
въздушна
320
изчезват
индустрията
##ney
вдъхнове
модернизация
болида
конфиск
er
аму
юда
##στ
##лота
либи
легио
арнау
##нтра
##време
цифри
траян
банди
влизане
композира
етапа
византииците
инженерство
лидерите
хъд
жлези
туберкулоза
##знати
##миров
надхвърля
планинската
популацията
режисиран
намерение
равнината
истина
космическия
второстепен
странджа
логика
обсъжда
недоволство
##кля
сети
преса
робер
плодовете
бъдещите
ръкописи
монт
##станции
канцлер
елита
търговските
подкрепления
археологическите
enter
психиат
офанзива
правосъдието
римокатоли
ало
премахва
гостоприем
лесо
спасов
задните
пътувания
псевдоним
отстранява
пробив
пионер
пфк
полукълбо
тк
узу
кабел
редиците
водните
##емия
бебе
андрю
километър
ефективност
чиновник
наблизо
реагира
##фел
##фона
невин
следвоен
вилн
чир
стив
сраженията
свине
##тарни
издир
образувания
почит
##ensis
изработват
филипините
empire
##yn
насите
##низъм
##ром
обоб
пири
полубрат
запас
гага
##err
безуспе
черните
посети
протокол
религиозно
разработват
оформят
алаба
лорънс
населявано
каспииско
внимателно
ескор
##плен
застъп
задържат
каква
фити
##кеи
хиги
шаси
бронзови
турнирът
фаилове
фелдмаршал
указа
наново
сезони
##летен
##дих
кант
##ляне
ваку
##строена
руда
работилница
##итън
шоф
загиналите
статуи
радост
леиди
бернхард
смени
сдс
шлем
поку
##дират
прекарват
извлича
##манов
##поле
късен
митни
стаилс
тила
традициите
ръководители
##пуснати
##исус
висша
поддържане
хълмове
уругваи
бистрица
ивици
##нна
##por
##реал
поу
съвър
рекър
използваните
народо
##att
революционер
пръст
обучават
подчинение
неизвестен
инцидента
контузия
киргизстан
иисус
низ
плата
пнев
провал
следната
бедни
фаил
реалисти
класическия
спиране
##джии
християнска
съвмести
##валд
шестте
допълнителен
католическа
религиозен
механизми
прекратяване
платон
слънчеви
нефто
гравита
арнолд
булевард
аа
##матор
селищата
дала
##сика
разкъс
легат
артър
страница
лозен
буе
##матични
катерина
трофе
предадени
sts
византииска
оригинал
tour
прозореца
месопотамия
##мпа
##бр
##вари
превъ
разум
вою
##извест
гуми
революционната
норми
характера
класации
проектира
избиран
фотограф
потребителя
химлер
коорди
чешма
кръстоносците
местоположението
надпреварата
650
ушите
##таун
околииски
пусната
##мерна
полските
##центи
##ронто
банката
съдът
финансира
физико
##rag
бюрото
##ливостта
текстът
разследва
напитки
international
пьо
плюс
ясен
##che
пограни
дарите
приложи
репор
холо
хип
регистра
царят
републикан
финалите
учителите
отбелязани
1839
промишлени
обсажда
демократическата
престъпление
модерна
защитена
мъртъв
зрителите
уязви
перо
##шил
##ниции
##тенбург
крива
намирал
##носните
методите
сенатор
възникването
вярвания
последвалата
бригадата
дюк
дебютният
шведския
матилда
охлаждане
адютант
родове
бижу
самоо
##нян
последна
откритите
колекцията
религии
курса
електроенер
инструкции
установена
националсоциа
ev
##нита
##ванов
поемата
##дир
проспе
приме
##нител
##стван
лени
флора
организирано
унищожават
химични
аида
язовира
познания
отворени
преодолява
нормандия
ироке
венецуела
nxt
жор
звено
##нева
качва
мостове
визи
пао
##следовател
грубо
евровизия
##ena
офис
траино
съпът
изключения
колоната
класификация
императорската
##годишния
медицината
мирно
линкъл
приказки
бунтовниците
алфонсо
дс
иво
##жер
##реин
##тела
анди
отдели
пряк
въведени
клод
офицерите
колумби
етиопия
архимандрит
тия
##кр
отку
##вове
##летни
##рдън
драга
предполагат
##пусне
секретари
завою
франклин
агенти
взрив
присво
диапазон
интерфеис
##шампион
обсервато
кати
честотата
екваториа
спас
наречените
популация
останала
опасно
сестрата
мичиган
сля
##иер
##нта
##фс
пожела
##ровите
##ганд
##бено
##лкови
средният
дълг
представено
битките
тръба
ефективността
сключен
хроно
писмото
повреда
курфюрст
основополож
подарява
езер
##птя
налагат
домове
##сари
дизе
спомените
клиенти
творчески
партизанин
фабрики
доброволно
саудит
##падък
маями
рекърдс
ого
##скри
##цина
##щаване
пепел
боля
линд
продължат
гимназиа
зимни
ценз
учебно
претендент
придобиват
господство
подредени
маневри
заминават
пшеница
аио
зор
костите
##кота
пиг
кури
дъга
мъжа
близката
##ull
мислене
сигурно
интересен
арабския
горещо
хромо
ескад
разкопките
остатъци
цанков
прекръстено
ема
коно
кодекс
##небург
облик
морис
подложен
интри
тир
##прое
хуго
министри
колега
управителния
еволюцията
лятно
феликс
шон
юр
отвод
отстъпи
следния
##блин
историо
семеиствата
мъдро
херак
четиримата
икономическия
европеиците
##сула
духовни
нарушение
транспортни
обширна
неофит
неравно
мата
##ют
##шкият
кода
изнасят
##ганг
веге
подчинява
франсис
дясна
селските
напояване
приятелство
югозападния
жълти
керамични
годишнина
прозорец
оряховица
потреб
коритото
тоскана
vol
бирата
работо
##ary
##жител
##ралд
изкуствени
недово
домакинските
хаидел
квалификация
смолян
линкълн
крон
задържи
##коло
преза
проко
призова
##ълс
разче
вир
анжу
##лницата
##нгс
шал
фери
брад
затвър
светка
константинов
оборо
делта
установен
отсъствието
политех
san
копен
##меин
саха
стадии
получаването
гърко
305
априлското
спад
подобри
школи
обезпе
аспа
порода
system
драматург
часовни
аил
агро
##воли
разлож
##полски
предишната
изключва
посолство
колидж
детската
съдебен
маргарет
регулира
ливади
пианист
плячка
епидемия
макларън
ss
ur
##сният
##uch
##ner
##рична
отпуска
воро
дих
##строен
##земен
адриати
луксо
шипка
титлите
сприя
княжеството
съвпа
нападнат
печатница
паисии
совалката
res
up
измина
год
нежела
облож
##сини
певци
възкре
възпрепят
гарата
шапка
черноко
##фицирана
отбелязват
електротех
балканска
трансформа
##тъни
радиус
подготвят
стълб
неизвестни
дря
сменят
##лое
разми
импре
арта
##ченца
хиро
бута
##ментация
##рирана
идеология
карикат
##ream
опитът
1833
славяните
призната
белару
етническа
завземат
конкретно
обичаино
опълчен
анастасия
декларация
евентуално
мистерио
cal
##дзе
готи
##лус
франси
адриан
брус
контраата
окупацията
имущество
lib
афера
злото
##пта
задо
разпуска
пела
##зове
паркове
коледа
крушево
магистрат
дворцо
пясък
ганг
съставяща
ритуали
желязна
превъзхожда
оставката
кве
сгло
цон
юстини
##ниг
пресъ
преиму
##докия
мощен
паул
осмо
авре
##orum
морско
##asc
италианска
1842
трансформира
дебела
вратите
атентат
камбанария
хаиделберг
sol
##бване
##шията
##веното
##хови
въртене
суха
дъглас
култа
##траки
колев
колело
колонията
индииски
излизане
съвкуп
проведено
ферми
унищожен
унищожена
приближава
отделянето
получили
маринов
1792
обиколката
холщаин
инвестиции
богиня
пропорциона
филаделфия
амино
ив
цъф
##яно
##ba
##дет
##стон
стоун
##деистват
харду
красив
капитал
привлече
нобелова
бонапарт
копенхаген
ca
щут
изглеждат
нерон
манга
разтвор
паунда
солист
##съм
резбо
##логичните
наричали
климата
мрежо
дебели
орегон
каиро
уникален
отсъствие
цялостно
репресии
самоубииство
диференциа
##кьои
##cus
препят
коп
конен
бок
ниге
лоши
##ративна
светът
дългосро
естествените
успехът
възникнал
съседното
телевизионна
хърватски
ангажира
валута
подхранване
##тят
##тният
закле
##кас
разсе
##стотин
##няк
слухове
зелена
процесите
опери
женят
искал
популярно
партизанска
двигателят
борисов
ландша
озаглавена
триумф
пенсионира
анархи
sw
упадък
##uk
прили
##стиката
винов
##ванс
##санти
характеризират
будизма
диктатор
достоин
виенския
старозагор
ср
сун
##les
##лео
разделение
##ктивна
орле
##ложенията
османския
колое
##логът
князе
украсени
пловдивския
успехите
духовно
жанрове
преследването
съдебни
филмови
перифе
внед
наброяват
##предсе
взаимоотношения
ерих
кмета
нанасят
##чица
правени
##шич
антъни
ползване
##ровски
##лииска
спасение
почвите
наричано
михаел
златния
намесва
str
квартали
##tain
art
франциска
дузпи
юрисди
##ити
##телят
радев
##чак
разв
следо
краен
##дности
възпа
възлага
плод
##унт
черква
мярка
##ony
##ank
синга
алесан
пехотни
двустран
##приятия
продуциран
изобрете
аляска
жел
слива
ях
мада
тал
##хал
местят
политическото
##дарски
##вателно
немско
артист
клетва
акцент
извършена
австрииска
стадионът
сякаш
медала
подроб
прогрес
суверените
магьос
мохамедани
цер
##иор
полюс
пин
шери
##драв
собственици
комитети
приятеля
прякора
каменен
признае
аирес
забележителности
манифе
ромео
ресторант
младотурската
mil
брен
##гряване
##яр
##як
излю
##сипе
трилър
кечи
строителен
##несат
конструкции
венец
редовна
съпротивление
забележи
удара
арменски
обслужване
надеждата
красотата
недостиг
берое
ъг
##стно
замине
сериите
##ктите
целе
възрастният
неподви
дълбочината
бруно
побеждаваики
нарушения
уважение
реконструкция
ринга
прозорци
with
мия
прекрати
раса
нека
руините
северни
степени
страничните
единадесет
изоби
монако
композитора
пруската
##ake
mark
доставки
куманово
груповата
night
ott
пите
сур
##лига
севи
котел
тау
баку
дъще
строя
петдесет
образуване
морепла
революционни
космос
резерви
скрива
свидетелство
концентра
статута
реклама
спътници
посмъртно
рентге
дните
лява
мн
##br
##ει
##леби
изне
торонто
вези
кону
##ктър
лекси
вакан
111
разположението
съветници
##ator
кеип
официалния
образуван
представителство
сътрудничеството
дунавската
прилагането
play
кукуш
ила
сбо
устав
##юел
##реното
пораз
мита
литур
прабълга
власи
##any
направо
щастие
манс
въоръжението
намерението
погрешно
1813
едгар
спечелени
възвишението
изборът
дублира
ковче
буенос
гел
##дския
приго
##зеи
лотус
реалност
атаките
търговската
батарея
партньори
костадин
изпитанията
алиан
зон
сци
свършва
праща
##ктивно
орли
краиното
карлово
##нтън
##слау
##ane
езикова
следваики
##ater
##бюро
военноплен
режисура
платфор
белези
интензивно
##палди
освобождаване
апсидата
струмица
фитипалди
die
mk
##рство
##яго
дово
точката
сив
##сения
##сеин
пазите
##стронг
единна
възрастен
богатството
гюн
фараон
моряци
брата
##оти
пот
##данието
текто
##ански
##новска
гена
победителите
траките
императори
реални
новопо
съотношението
топлин
рамка
скулптури
пренесени
отмъщение
свалянето
оцвете
благородници
панаиот
прераства
имигранти
bar
kw
##уо
##кисе
##грава
графика
бин
##фира
кии
връчва
органични
възможна
вътрешното
матеи
контролират
абстра
врага
оливър
родос
джузе
изящни
продължителна
просвета
забелязват
отсъства
редактира
оплаква
бургграф
лисабон
bre
емир
##яд
повест
заим
изхода
##даи
##сеца
вала
##цена
гибел
петък
курш
съгласни
1818
извършване
австрииския
реклами
допринасят
отстъпление
прехвърлен
кореспонденция
сингапур
##гмати
##атъл
##резе
прити
решаване
пали
мизия
леони
южни
затвори
реакцията
топли
комунистическия
северозападния
1810
проектирането
оригинални
направления
панаг
записано
схемата
конкретни
батальона
видеоклип
дионисии
ww
##гсбург
##динов
##чек
сигна
кастел
тъмна
изгради
твърдения
сложи
загубите
сингли
видеото
бронзовата
признати
кристали
подпомагане
козината
##клетъ
суперкупата
игор
яз
##ton
##ноза
масова
##била
подсло
ниша
куи
##зела
пустин
включването
##къщи
еднокорабна
колела
##снала
джери
грос
константинос
византииските
330
мощността
въвеждане
поддръжката
премахване
транспортен
интелиген
посетители
иваило
нр
##емостта
##тран
##жията
##la
рад
пролом
речник
барон
##изследовател
ану
##пределе
успее
кевин
министрите
четиридесет
актьора
професионалния
отражение
деиствително
индивидуални
чавдар
блъ
уши
##de
проче
чешки
мурад
информира
##дителна
разпознава
цикъла
идео
императорския
немският
рекол
социалистическия
миниат
поддръжници
субтропи
прикритие
речта
витоша
себастиан
придвор
армстронг
съосно
доза
мощите
бони
##преди
ставаики
брау
епископи
бору
музикалното
класират
двоина
царуването
java
mot
##кския
коси
метър
муса
палата
вец
станови
правни
купо
кине
##мерни
вернер
биология
момчетата
бронепалу
уникална
торпеда
научноизследовател
иоаким
рекорда
сантяго
неколкократно
актове
брез
мкс
поделе
##ляга
##банов
хорео
тогавашната
активната
образувани
обратното
разделяне
завладяват
съзвез
служителите
градината
медалист
спонтан
необик
волфганг
разновидности
алгоритъм
лотарингия
глина
##снат
##рест
##носец
пои
отзиви
##рода
##незе
##гол
подлага
##риана
спрат
разделено
писането
изразяват
червеи
легити
потомък
временното
уолтър
осветление
магдалена
доживо
mer
етру
##гване
преден
маиму
петата
осло
възхи
##новския
вълше
зида
диплома
унищожаването
композицията
географско
географската
филмовата
прилагане
губерния
сюжет
ключови
олимпиадата
сантиметра
шишман
гп
##рти
##тиците
##гис
палат
##жал
чап
сведенията
фавори
##ниране
императорски
излъчването
произходът
написал
забележителни
противниците
консумира
вицешампион
аранжи
леонардо
ньо
##фелс
##жността
петия
дистанция
лици
купе
краиния
училищата
шампиона
параш
ръководителите
##ope
доверие
интересът
платно
изстрелва
музикантите
##ubl
your
адаптация
денонощия
наталия
памук
hd
юкп
##сване
##фран
отменя
тев
временен
риб
##троп
награжда
интерио
близостта
##вателя
театри
портре
##класи
вокал
параклиса
средновековната
джузепе
##хман
##сират
таран
гласуват
родната
състояща
великолеп
погребани
таиван
последователност
ethn
кориги
заслуга
артефа
прилежа
сприяте
val
ют
изява
домовете
мао
разко
посещението
бунтове
елинисти
1790
1793
парламентарната
заводи
изразен
павлик
прокурат
пребивава
кристофър
численост
иглолистни
асеновград
тиинеи
меандри
остър
##ньо
отдолу
кока
родина
инде
соле
сопот
произношение
икономическото
командири
изото
дълбок
блокира
комплекси
кръгли
ключ
костурско
конвенция
хоенлое
стамболииски
травма
часовник
##брук
архипелаг
3d
джен
спускат
юрист
съни
развали
дека
импро
руди
тива
върхът
хетеро
студени
състави
позити
статията
делфи
евреиско
публикуването
принадлежност
релефа
поляна
инициативата
абатство
анастас
спокоино
изабела
ута
##дими
извора
тото
рега
чау
##зован
започването
американско
османско
патрона
водачи
изправен
греъм
1822
петерсон
сингълът
##гъла
рицарите
картечници
баланс
сдружение
##подобни
поглъща
готовност
аза
вкъщи
ибра
##тския
##зян
##летието
лицата
ръб
##летите
парни
индивид
съществували
последвалото
продажбата
носещ
разследването
доиран
кавалерия
положителни
озвучават
спокои
стамболов
феномен
инженери
бургундия
измъчва
болоня
лем
##вско
##ek
кад
верен
таен
бере
околииския
пътнически
##писание
драм
новгород
насочен
философския
албанци
въглероден
предпазва
водосборният
изненада
финишира
префектура
доктрина
донякъде
pra
точките
калу
##елните
летни
груев
съветският
нюиор
поставяне
краибрежните
арестува
##махер
пътека
утвържда
федерален
функционират
лошото
емануил
юстиниан
ottoman
480
bro
ват
цито
##аи
##кването
намо
отдих
избере
##виц
сали
нева
дестина
мозаи
инфор
множе
срещите
люб
правопис
процесор
изразено
chr
горещи
литературно
работническа
превозва
окупира
средновековие
фьодор
сгъ
##дството
##лиц
##водна
##пард
балисти
лете
душе
орто
##енец
риско
лого
синве
##ics
спазва
срещани
##ръбна
характерните
забраната
петрол
etude
ботевград
галерии
увеличаването
сицилиан
изследователски
##европеиски
жизне
изненадващо
правнук
super
увлича
полагат
говорите
мание
капите
##грами
баши
инже
възвър
влакове
македонското
регионът
режисира
атри
1825
комунистическите
запазено
едното
миньор
започнало
избити
извършен
социалистически
придвижват
изследователите
превъзходство
влакна
обособени
##istique
8000
vis
его
##гю
##кя
кони
##нест
изработена
облича
капу
предния
хасан
върти
чиф
сценария
съдебната
подобие
шведската
##латени
дизаина
наоса
хауърд
time
хромозо
аспару
преимуще
гюр
##снал
##сирани
подра
произлизат
лава
##ons
##ence
##ценберг
сървър
димитри
електрони
равнини
таините
дунавска
изтеглят
картата
продуцира
малцинство
местоположение
заинте
копривщица
##ographique
not
жана
##змата
зава
##вир
лесна
кучето
човешко
##ade
##лиево
православната
обектите
валенсия
фондацията
кауза
законодателство
достовер
отрежда
тираж
чужденци
велосипе
ip
tv
##тони
##лома
сад
##само
##нената
цикли
##ловието
видния
дворя
одринска
отоп
кафява
спътника
преведен
полуфинала
statistique
процъфтява
ткзс
ethnographique
ини
рати
##од
##ув
открият
##востта
##ченост
процента
##дуеи
дивиси
анго
##риит
победени
трудовете
колекции
наследниците
християнските
условно
засегнат
записана
татари
плътно
съчетание
териториални
номинации
ъгъла
##еме
##физ
изла
рама
сапу
##гоу
кавър
фишер
хаза
стража
полска
обема
съдру
##irl
партизаните
коридор
илюстрира
лауре
бомбардировачи
grecs
вдовицата
отпадъци
сб
утро
настрои
натък
##тарио
коментира
##ителни
##вик
##биват
##борн
благоу
съществувало
сегашната
етапи
медицинския
разпространено
резерв
1826
преминат
средище
описана
линкора
хюстън
зигфрид
импрови
fa
еру
##рити
##скването
обмис
въплъ
вес
мисти
харо
бури
пълково
състоящ
владетеля
далечния
1805
модерните
венти
специфичен
отхвърлят
артилерииска
правоъгълна
линкори
политбюро
кунигунда
щутгарт
##za
кожу
съна
готва
честите
розен
бери
купър
окото
плащат
##стъпа
полско
определение
##делник
екстра
правомощия
кеит
изследват
##вателните
парижката
проектиран
любимец
заглавия
предприятието
устоичивост
църковните
калоян
лабораторията
андалусия
tra
отчу
заду
##воден
касан
деми
баре
божество
ниил
имение
##ракция
трудо
китаиските
немското
съгласието
амфи
зимните
обратна
олга
свалени
дарвин
земеделска
окаже
изчезнали
контекст
предградие
хіх
group
антвер
або
апте
ече
##чиците
моро
паланка
##фила
алка
##разви
областния
трансилвания
съоръжението
туристическа
антиох
##планински
##цлав
каравелов
дъщерите
dj
tri
преце
##лахо
годе
прослу
роите
##ствани
частно
лоу
създал
елени
великото
учебна
особени
##центра
##марка
пряка
генуа
средиземномор
пеизаж
гън
##ны
изгре
саар
базел
пика
планети
турнета
ръба
знание
университетите
шектър
бернар
трън
философи
джулия
жълт
господството
разрушителя
амбицио
тереза
привилегии
хищници
вор
гнеи
уим
симу
пам
таш
компре
люд
##усло
монтира
финалната
медичи
любовни
сср
превръщането
машините
панчо
испанска
бежанците
съюзи
гледат
зърнени
прикрива
изселват
финики
тунджа
героиня
кантаку
саудитска
оз
##лмс
понятия
##рора
масти
##зиите
мечки
##боя
подска
пил
##ont
кръгла
научи
##ose
цице
##olog
##лермо
физическо
засега
мислите
богатата
поетът
роитеман
imp
наказ
##ними
##леви
съдеиствието
тот
маз
тете
теза
крас
алге
населените
трудни
редакцията
адамс
красивата
противоречия
преграда
хабсбургите
народоосвобо
##λα
##таг
##лония
маска
марии
привет
##бица
##разата
##глени
димитро
живеели
техническа
деистващи
легендите
конкурси
снимка
атинския
изключителна
дигита
едър
сата
##обита
##мас
масовото
видо
милър
предложен
##увано
полското
##лизата
протичат
##лииските
кери
абсор
героят
критики
арабските
подходящо
веселин
докаже
лондонския
славеиков
ibm
драз
##ол
##реиски
престре
рази
гостите
точни
нели
##мили
##анг
викинг
##никс
дружба
запомня
лоза
култ
труден
хемо
правителствата
патент
двуета
съседи
хендри
арабската
местообита
докладва
световноизвест
юридически
school
некропол
детроит
абдул
wta
твори
##цони
отварят
##нитен
меин
рока
писта
##кера
безработи
играча
трева
##ors
смъртни
свире
творци
боино
финансовата
##несъл
привлек
операциите
убеден
битови
екзарх
създателите
пропаганд
оптима
платинен
барбароса
мануел
уточ
рождество
марсилия
##жд
нацията
##деца
##меж
нема
симо
##кита
разбои
мута
бос
сократ
##бун
##вянето
вечеря
фогт
теология
създаваики
шампионка
допълва
паметникът
сегашния
недостатък
котловината
широколистни
атом
слънчева
вдъхновява
корабопла
възпитание
персонаж
числеността
надвишава
правеики
резиденцията
##председател
дивисион
пво
##тиш
съжа
пристра
фази
##ванат
планинско
персите
банда
назначение
направата
канзас
гражданско
обувки
охлю
първенец
ампли
унищожаване
постигнато
върховният
##ign
южноамери
модификации
оперативна
мотоци
простират
залцбург
##христия
франсиско
еър
##ида
разцеп
старин
болните
харис
хаид
многочис
рига
лош
пускат
шедьо
интериор
репутация
важната
нула
съдържащ
##движи
последици
избягват
1795
съпротивите
##гръща
##патра
узур
разпределението
патриаршисти
аудито
антверпен
su
апе
отвът
вера
##жица
заподо
душан
можел
##вуват
специализация
обикновена
официалният
въздушен
##жант
огромната
аризона
неизбе
автономната
изяс
забранени
традиционния
завоюва
изоставен
печелеики
латви
костурското
интерпретация
училищна
контекста
еп
сате
янтра
##вските
##сдп
##фун
ското
хумо
цитира
посочват
##фолк
опасността
великотър
несъгла
продуктите
тънка
модификация
тълкува
маршрути
разговори
стимулира
безплатно
ктитор
алабама
day
каба
кастро
либер
##стените
киров
лок
грън
##биране
екск
спар
##hel
проблемът
сръбското
барто
библиотеки
иванова
бронзова
забележителност
камерата
повлияни
археолозите
##хорст
самоуправление
ожи
остин
справят
съдии
##мик
придържа
интро
##фит
хилен
турбо
лас
##джума
древната
големината
влияния
##фора
своиствата
##ings
star
уникални
преведени
бременността
отпадат
пивоварната
необичаино
отвътре
don
внос
##гръбна
##мела
тезата
##динген
самоли
##сян
съществите
##ican
клип
горчи
продукции
танков
светли
съотношение
##нослу
водопа
дявол
взет
земевла
съществени
лявото
платна
агенцията
измервания
валентин
средновековни
победителя
ветерина
инвазия
клеопатра
аилънд
амплиту
bg
опис
ъгли
##хот
харе
компетен
клиника
банат
свиква
историците
##фори
съставът
финансовите
##oci
изчислява
сарко
иоанис
самолетоносача
координати
евакуи
набези
мисионер
същността
процедура
цицерон
уп
чата
роуд
бези
спомня
чисти
парма
##джъл
##генни
225
казал
народност
съществена
##ферсън
съвместна
преместването
окончателното
тераса
##ction
сватба
размножите
органите
жорж
севиля
гул
елин
сиви
теча
бот
лие
антан
жера
днепър
перга
apple
наследничка
покриват
предания
позволено
архитектурен
##iae
трансфор
видима
вокали
дворецът
кавалерията
##наисет
декоративни
имуществото
тенденции
бля
жар
утре
##страти
камени
божества
вакси
безгръбна
оклахо
##генщаин
##ининген
катери
анализа
водора
изолация
съществувала
въздушните
изпълнителния
северноамери
разработки
организаторите
##въдство
прониква
предупреждава
размразява
7000
глен
дв
фур
##шчов
##дери
томи
прида
рецен
##улц
знанието
франс
иога
##брод
гордо
намаляването
вълк
православен
обвинение
кметството
моделите
нахлуването
военноморските
отделени
тактика
вертикално
църковната
възобнов
gener
оклахома
##сткия
##тарна
ранд
##гано
меси
индекс
живите
##терна
основани
клисура
новос
протоко
##бълдън
обществеността
нацистката
монархията
конете
магнитно
десант
десанта
шпиони
електромагни
орнаменти
гризачи
бесарабия
нк
поте
пеят
инти
убил
издаване
скача
материалите
съставляват
##идс
притежание
чувствата
датирани
обвивка
ядрена
идентифицира
модерен
алтернатива
дискове
интеграция
бащина
мазнини
##гнер
наба
съхрани
##дези
паска
таван
##казване
геометрия
##дъка
фамилии
интересно
въвеждат
завършила
ленти
обезлю
поръчки
химн
скъпи
наемници
съдилища
лазаров
пирот
климатични
бисмарк
чирпан
уимбълдън
pa
фру
##gar
заливи
##тас
##лери
преки
коля
съдеиства
сахара
подред
андарт
крилото
бъдещи
##ino
кръжо
хума
януар
##ложат
княгиня
достигнали
осъществяване
издигането
статуята
изкачване
месото
застрашени
кримската
експерт
заблу
съуче
сухопътните
заподоз
im
бърт
снася
хене
нами
пренасят
симетри
##кума
##шеното
##изия
риска
карма
епископа
защитни
##натини
ръководен
селджу
пловдивската
организиране
##питен
владика
продължителни
литературната
жертво
1789
коментари
силезия
вдясно
тул
изчи
радар
##дебург
мони
конвер
бака
хага
пътна
чипро
дрехите
поздра
програмите
стремят
##мбар
биографи
дюи
закупен
сортове
персииската
мисълта
хрушчов
тенеси
пресичат
##зката
##ha
отъ
коя
##нести
##писец
възли
пук
филхар
университетът
подобрения
берна
тексто
културните
протестите
парижкия
управлявал
ракетите
бенковски
1819
1816
взел
свалят
превърната
мехур
ледници
снабдява
кухина
af
hom
пс
хат
полов
бау
факто
##ical
корни
съществуващи
солунски
ланча
##гломе
калци
усилено
шахмати
хамбургер
варовици
възнагра
съединява
out
епите
ортън
##хър
##щна
доколкото
пеша
##царов
208
русев
рилския
деив
продължения
броики
колек
изолирани
враговете
концертите
постоянното
оцеляват
асистен
тракииско
далмация
ковачев
хирурги
грозде
прозорците
кооперация
пантелеи
равновесие
ао
клеи
убият
##ваните
пречу
##данията
дана
сирене
каре
разсеи
##пило
денис
осма
леките
##ченски
##тун
##ьони
черво
ионии
съюзническите
балдуин
антисе
нужни
ръководите
техническия
ефекта
херцога
психологията
##ella
театрален
премахването
егеиско
херодот
ho
red
акра
##ила
##ес
##стяване
сините
##лук
таланти
митри
дистри
имаме
краиници
пътни
намирало
##пенди
монреал
трофеи
емигрират
раионен
шумахер
интересна
взвод
наблюдавани
австрииците
кьониг
отклонение
временни
##шъ
натри
##реги
козина
голо
##сим
мода
андо
руб
страст
организъм
дневник
##стоино
джени
водачите
президи
кратер
присъединяване
##леик
довели
ang
формиран
скелет
вливането
светец
дублажът
стенли
съкратено
калифорнииския
гюнтер
уан
##яти
ота
##лак
растя
недвижи
прислу
##мово
##пинг
ноти
вие
джер
##atus
популации
посещения
изпълнителната
бригади
мостът
психиатри
подразделение
заплата
пивова
запише
скорпи
референдум
ескадрила
чорба
репортер
##уро
##уди
##пръ
доход
четни
къне
##хова
надмо
запазят
газа
рико
лаининген
хумор
братът
трафик
##ателната
санск
тролеи
закупува
изоставени
горноджума
стратегическо
rh
мръ
умо
ясна
##юс
##кина
дебел
пакет
пико
титан
маиер
гръко
успешното
важното
любопи
естествената
уискон
ерц
пролетно
деистващ
спортно
адапти
славянска
ударна
етимо
консумация
палубата
батман
случило
##кафя
сбирка
фармацев
ола
##ze
##тея
докос
##пана
ресен
лигу
бедно
гастро
##правка
бордо
араго
1804
следите
модерната
rev
ранглиста
молитва
споменато
лимбург
380
ps
уте
##нират
##сткото
##товите
##риран
рада
готова
непълно
##милат
хара
единбург
гласът
хотели
филт
целя
изкуствен
шокола
италианското
селска
артистите
понеделник
телевизионния
атома
малаизия
услуга
минимална
избегнат
зареждане
##гизмунд
гъстота
засада
проповед
гиз
фли
##юк
##текс
##носно
##кано
съх
неми
прока
променено
сива
мирни
##шина
##ложените
##форт
планирано
хеп
##ute
космическата
добиват
някакво
железопътни
претърпяват
пациентите
авторитет
бланкен
сприятелява
pet
офер
умиш
щър
##дк
##змите
##iel
##стави
моя
##елния
контеи
дивата
##бери
надзор
формите
слад
свободния
дебютът
температурите
четвъртото
1823
старобългар
фестива
евреиската
reg
мобилни
холандски
пясъчни
предшественици
изповядва
пфалцграф
мероприятия
единоду
предшества
интериора
cent
##ual
##мура
##тет
отв
мигел
лопе
##никаво
правителствени
камчия
##лизиране
авторски
флане
сложно
разбити
ориента
##ube
снабдени
катастрофата
болид
##ike
тропически
аеродинами
влиятелни
мелоди
храносмилат
харолд
tw
ястия
изписан
синя
прит
разгледа
моско
##ская
##бис
##дун
инвали
202
кит
петнадесет
спасят
домашен
задграни
напредва
казано
президентските
чужд
разбирането
нарастване
340
традиционното
онтарио
плътността
будистки
комедии
валери
еволюция
вюрцбург
разпръснати
уравнения
трагедията
спен
##звез
##неният
саут
тетово
реви
##денберг
осветен
личната
бесе
воиника
тунел
развие
крем
##ase
параск
иорданов
италианците
сценарият
господне
акционер
преследван
##несено
##ave
учебници
стълба
екоси
недостатъци
анони
open
интелектуалци
линеините
бягството
багдад
вдъхновение
нрав
##ноа
попи
##коми
##маги
##чеви
кару
грабе
милев
биит
липе
сок
##ателят
откритие
централният
##фония
документите
избирането
тракииска
афро
либералната
амазон
късното
триъгълник
водоснабд
elect
туркмени
нигерия
новосформира
кънекти
клъ
##pa
наря
##нощ
##диини
даи
родри
##филд
##литет
##шар
запаса
##разия
##терн
елео
кръстител
двери
съветско
централата
##ателните
##въве
##aster
египтя
отговорни
написано
заповедта
гробници
депутатите
конкуренция
мавзо
електроенергия
сателит
hy
sn
унс
##гма
понася
##ловия
##видетел
нето
личното
куб
##ченето
алпите
гало
ръкописа
спадат
сравни
диагно
китаиска
останало
романя
извънре
електронен
англииското
свързващ
латино
1817
разногла
описанието
тюби
стабилност
ловци
дискри
картър
възгледите
мемориа
печалба
банкно
бнр
лентата
тикве
квебек
кънектикът
high
тък
##жката
##лари
##мерия
тока
каска
капан
созо
сокол
полупро
##чителен
марша
луна
##ara
култиви
##логии
##icus
историческото
струмиш
домашните
христово
смесена
абру
изразени
увеличена
фламан
разнообразна
настояват
превърнал
данъците
канадската
разрушителите
смисъла
инфекция
симптомите
разновидност
животновъдство
company
желязната
girl
сменено
тбили
приложението
разтва
началника
##славски
юлиан
гуа
образът
учебен
нововъве
загубен
абха
определянето
щаин
железен
приключенията
треньорът
местооби
специфична
размерът
доклади
журито
аминокисе
##мб
##чън
##щно
##теча
рани
сиера
разказват
##дола
меки
кучетата
марта
паркът
езиците
##лизатор
##муд
хеге
познато
собствениците
1803
проектирана
географска
жълте
неуспешно
лекарите
приемник
спонсо
положително
батенберг
църковния
показатели
животновъдството
иънг
атрибу
антантата
жертвопри
местообитания
na
адал
ята
##дската
##way
похва
силния
ветри
##дителното
столетия
рикар
известното
##хисар
езико
##ненски
цикло
албумите
##логически
бърка
трои
325
спечелен
никакво
забелязан
##полити
авиоба
phil
чехослова
компютъра
таджикистан
аиова
es
свин
##носна
кона
изправят
##чест
морал
сова
възможен
##дински
глаз
влажни
начална
##разпо
##водните
местният
успешния
екв
колегия
японска
британският
смятани
мъжко
документира
харков
египетски
отделяне
потока
съобщават
сливат
асими
сключването
оригиналните
отрядът
педагогическо
решил
картофи
предателство
лвов
хле
юнг
##латор
##ещи
##ef
##нада
##деа
##цити
приве
девети
##пените
пит
междуо
камбо
вероиз
игнати
завършено
заселването
състезатели
персонажи
ключова
кастилия
посрещнат
демонстрации
лоренцо
sil
одо
##гьо
сесия
семената
препита
##кок
граде
##ментирани
печене
арки
##фикат
стол
вселена
намирала
наречения
социализма
##лерн
##нинът
изразена
издигнати
електроника
господин
пилота
получила
източника
споразумения
укрепление
неаполи
нахлуване
отстраняване
суверен
възнамер
алуминие
και
аидахо
регацони
аг
абра
##мбу
нахия
загри
разсъ
реформира
следното
винс
градеж
рои
свърже
благове
твърдение
искания
задължава
елиса
1807
1794
формулира
бояджиев
одобрен
притока
пауло
късмет
анимационен
богословие
щурм
##азиат
тежестта
лозя
улеснява
сдобива
комендант
тюбинген
part
ожен
##шъл
##деро
##сиране
##зак
подземни
либе
румен
##ксия
дължат
безре
бъдещ
##alk
камчат
ръководена
архиви
стъб
ядрено
скрити
мериленд
младенов
неправилно
новосъздадената
цветан
трофея
rad
vir
вря
емпи
##рази
погъл
развежда
##чич
##менна
бая
жилище
лампи
облак
синта
##квизи
заселили
задачите
разширяването
епископия
математик
дърворез
парламентът
антиохия
посетителите
##мощията
порядъка
лицинии
тетевен
420
si
рат
##ij
извода
равнява
късна
руса
албер
суми
##гери
университетски
реалността
##турни
традиционен
изправени
1824
джордан
писателка
аспи
скулптор
финалът
##ugh
прогимназия
network
##комуника
възпроизвежда
серафи
юбилеи
kn
жито
ома
##зъл
##da
##лич
зан
домеин
годишните
##стоун
пасти
ведом
бак
##съзнание
хидрав
##проводи
##лъри
цита
брани
видял
колегите
##тинци
ракетни
видимо
арменската
холандците
събора
хребети
миграция
драматур
сянка
изобразително
унсс
ефика
##ризъм
##лои
изкри
##деики
несто
приличат
реха
конце
хани
халф
##литен
плодови
карно
##ink
оръже
процед
##деиствия
редакция
изучават
1808
1799
1791
комплексът
поръчва
някакви
вдъхновен
входът
спонсор
отворено
льовен
подводница
астронавт
еквивалент
несигур
ver
##cw
##лиите
##калят
##мио
прочи
разчитат
##ляк
тепе
деление
петият
ростов
андон
куве
орфеи
##улф
пуер
техе
спири
физик
ограничаване
inc
ценен
духове
осъществяването
северозападните
##неиро
##работено
студентски
педагог
заплат
##славянски
зрялост
хофман
пълководец
уисконсин
крии
квин
сик
разя
пепер
дик
възнесе
##фис
##образува
слагат
спин
всякакъв
съгласяват
въздухо
публикувано
командирът
превръщаики
##юрк
укрепен
славянските
палести
петрович
гюмю
сюжета
недостатъчно
придвижване
баварски
сближава
корупция
мембрана
удоволствие
водорасли
by
вс
мс
написването
селищ
##вила
дос
достъпа
тоа
##сек
##върши
подновява
##зовите
вагнер
##ствеността
химала
началното
македонско
реална
драгу
стоичев
заточен
1827
хвърлят
федерална
златото
диоце
щастлив
решетка
подарък
хумористи
mtv
она
увен
##mi
болед
##лииското
кели
видните
областен
балчик
катар
тормо
##монта
десетте
охридската
електричество
виждаики
литературния
румънските
зависят
подчинен
глинени
нелегалност
отблъсква
изменение
галактики
ренесанса
дефиниция
вероизпове
инер
##ρο
##дрия
##86
##нован
##дини
косов
проява
##зино
##сирана
##зес
предишни
##провода
лао
##ora
кереми
бях
##земна
##ita
разпростира
нютон
##кратите
мъжката
поддържането
детство
1797
махалата
фотография
разузнава
аристокрацията
квартира
башибо
pre
вляво
презвите
##чански
##сиос
##сторите
дивер
##зори
срещнат
##делец
верона
светски
разрушаването
обедини
максимален
формиране
спечелят
батареи
оформени
типична
читалищ
бомбардировки
датски
племенница
мъртви
лидера
трапеза
кърмовата
башибозу
мнения
уики
фър
##варо
точната
развод
декре
алберто
чума
пояса
драмата
достигане
свободните
важност
##ley
варвар
истинското
опитваики
заплахи
ръкави
барабан
подчинена
павлович
бележки
дипломатическа
пуснати
участъка
реконструи
флагман
югославската
сделка
##ouse
борусия
санскрит
vo
встъп
ядра
##квата
##ровия
##порта
##мео
саитове
мелник
заповя
##канско
кардина
##страни
крилете
##морфо
христа
присъжда
испа
##вардар
свидетели
интерниран
християнското
предание
двоен
охраната
истинско
убеждения
##ower
заплахата
настоящия
обработката
кафяво
алпииски
раихс
ass
бургунд
гвардеи
american
габриел
куриер
har
hell
ke
nov
##нда
##литни
нев
негу
призи
##бам
праро
имащи
усми
училищен
герба
успели
теоре
##its
подкрепи
съставят
културния
изобразена
италианският
разширяват
съдебна
одобрение
трибуна
дирижи
склад
маркетинг
##групи
увреждания
отчет
занаятчии
иоханес
благоприятни
850
fil
скъс
##ико
##mer
##стрия
##леното
##леин
несе
##бино
##ностран
боси
лоша
##цова
отборен
предположения
мъжът
корема
редом
постигането
променливи
съмнения
магазина
неизвестна
енорииски
средновековен
номинация
декларацията
радиация
je
sub
##реност
##кане
##део
##готите
##док
##чино
страти
биг
анте
анта
ръсел
цеци
губе
скорости
съюзът
уеин
##парти
нощни
технологичен
земеделско
схват
хелзин
екрана
кристоф
аварии
алгоритми
смяната
кувеит
кота
приземи
обновена
##довол
медни
мебели
водната
##гина
вината
подле
дивите
##бета
##никите
пикет
кура
##метъра
##рииския
ербах
празнен
румънския
букв
бронирани
дошъл
ренесанс
стремежа
таблица
конфедерацията
созопол
ty
ади
мене
умно
ядо
сеул
##леми
самар
сигизмунд
##занти
##сота
правен
публична
тогавашните
драстично
архитекти
техническите
намерена
океа
испанското
окура
съвместни
мотива
свръхе
тренировъ
експозиция
влечуги
пелопонес
съхране
техеран
sal
ііі
##трак
##атурата
отбран
допускат
##зиана
##септември
девои
монета
лисица
вас
дуа
тигър
кръч
##ister
клиентите
активните
спирка
смятана
информационни
отбелязано
хармония
##гнало
ефективни
спрян
брута
локомотиви
торпедни
пускането
заловени
дамаск
очакват
##морфни
социология
тласък
обхващат
##рования
##деини
кади
##чища
главите
разпоред
клара
шаи
##org
посеща
седма
конспи
##ura
смесица
количе
разширена
1798
болници
превземе
##ript
офицерски
петима
подписана
заменят
интервюта
ислями
севлиево
disney
покраинините
вакуум
абстракт
ber
сменен
полю
##сените
палермо
родител
##ьом
##метрията
автомаги
скок
##цово
слати
канцела
международният
полова
битолския
красимир
закрита
индиански
коларов
уволнява
фолклорни
образователни
мълча
психологически
мечтае
турбини
везир
възнамерява
бут
оки
пата
флеи
##уел
отпред
##мез
чет
демет
##щина
валия
##гури
плоски
путин
##ловци
диалог
финалния
дракон
сцените
inf
сътрудници
1796
атомите
инициатор
отдалечени
документални
##uck
уважава
наводнения
атлетико
неаполитан
aut
есета
##бяват
##стко
##деил
доставка
нед
неспо
##ватер
##стичната
##жело
##скани
##венция
леик
##кевич
##унти
обитатели
джъ
откритието
шисти
гибрал
свързване
частица
##гледи
помогнат
колонисти
класическите
покривът
достигнал
чувството
ефективна
западноломбардски
превозни
проучванията
гнездо
дисциплината
успоко
коренно
мануил
доказано
оборудвани
##хатън
димитрова
дистрибу
рс
нам
залежи
закръ
##тичното
ревност
##гран
падеж
конвоя
линиите
фифа
лег
кичев
алтаи
##нуват
слуш
##inus
царската
тръстика
амнист
затопля
1801
проектиране
богатия
югозападните
договоре
занаяти
##херцо
colle
внезап
заобиколен
пушкин
деветосептември
картечница
гибралтар
ипо
##аз
##яние
##wa
избива
изглед
съгра
доко
касте
решен
мела
##стопол
подбу
##дува
имун
глаи
черният
##гео
гърлото
издаде
образите
репутацията
##urg
непознат
курт
манхатън
любовна
золмс
робството
порти
средиземноморието
оркестъра
##цветни
тънък
пациент
засягат
вируса
преизда
апартамент
рафаел
водохранилище
лозенград
асан
сну
##зният
##леца
изведнъж
дакота
##атово
рем
чешката
дефици
##пера
ниви
хос
деино
##вяр
лукови
римският
землище
трябваше
реализация
вероятността
седловината
тежкото
смесват
пловдивски
необходимата
обезгла
неуспех
подозира
leg
отстраняването
астрономия
хоризонтално
археология
обособен
васал
пострадва
автомагистра
##ler
##вано
##рике
масла
проконсул
роуз
предни
##лителни
алма
стерео
##ins
##лииско
##началник
скалисти
##годишният
обосно
повикан
мощна
реитинг
фрески
унгарците
кафене
любимата
нуждаят
гробището
координа
триумфа
дионис
регенсбург
заповеди
вж
гьор
сектори
дамя
мериди
##рънс
бана
арн
лама
включено
дъска
актьорите
##eth
гребен
търговците
уаи
заслужил
перифер
сюжетът
повторение
конфедерация
проповядва
огледало
award
платформата
параскева
ихти
задържан
##рог
##гония
##зари
дезер
рожден
страниците
трупата
защитниците
темпо
иордания
министърът
ирландски
панаио
изрично
удостоена
армеиците
обстоятелствата
сдво
хъдсън
подробности
излаз
туркменистан
##влява
нашестве
##нини
##тека
##наро
домът
допусти
раздава
##стал
вектор
хот
##дителни
рик
читателите
директорите
светското
##ola
араби
епохи
повърхности
елимина
празникът
атомна
просле
сараево
потвърждават
галерията
католицизма
недоволството
##пътен
кечмания
леонид
съосновател
ибрахим
бъл
опра
сру
прежде
изрис
##мерен
достъпен
темати
##бот
чепи
##анда
бад
бали
личи
легло
пътниците
луф
милиция
косата
засегнати
потопен
хърбърт
електрическата
телевизионно
обвиненията
случаят
засвидетел
конфликтът
обемът
коалицията
heart
маршрута
отмъсти
изчезнал
помаци
десетина
ватикана
симеонов
хардуер
dom
атра
##зя
##юсюл
##лаков
##видни
рая
дадат
гонг
прият
##пина
граматика
##ленето
имаики
хао
##водството
##enn
августа
цистер
твърдението
##земните
освобождават
новината
директора
комуни
общопри
ste
приключения
пълноцен
бояди
комуникации
украинската
екзекутирани
линеен
полуфиналите
##денеца
провъзгласява
незаконно
възкачва
пистолет
бът
шпа
ястре
наранява
съре
рако
прии
##докса
##грам
петра
никъл
дунава
франките
##ловини
кеин
фока
##планин
джеферсън
германци
революционери
творческо
магдебург
свещени
достъпна
изоставена
борислав
##надесета
анализира
дървесина
пенсионирането
огнестре
изкопаеми
ален
пур
##тване
преноси
##атос
мастър
обза
##чари
##сава
бора
##кули
валд
хотела
произтича
краини
##хит
развитите
славо
частиците
лют
успешната
дребен
бъркли
китаиския
грим
неограни
състезанията
олим
извънредно
доставени
разработване
заговора
електронната
##формиран
логически
хюсеин
носещи
вулканични
руснаци
съображения
натоварен
номинирана
гренландия
рефле
ирокезите
##tainment
инициа
аме
сход
ухо
##ee
##плеи
изря
изхран
проста
пробу
проходи
капо
##бово
стада
##шевски
запал
търновски
стрели
олице
австрииските
електронно
утвърден
##синте
християнство
туризма
никита
земетресението
атентата
квантовата
свръхесте
##au
заоб
съве
готите
##гали
карата
дебат
пакт
кондо
димов
нивата
последствия
##гес
шеста
учителят
комунизма
повли
естествения
софииското
хиляда
доверието
достатъчна
заселване
камъка
леибъл
заплати
##способност
##способността
иеромона
тюркски
севастопол
поклонение
алан
рф
##кцио
##лагани
саимън
##гори
приживе
панора
##щаването
бета
архаи
##гурен
спеку
езиково
кралско
римското
античния
##умява
методът
пръстена
ограничават
арит
стъп
жал
платформи
хървати
гледка
гробища
мюсюлманско
фалкенщаин
кандидатира
резервоар
кръстев
иларион
ms
спер
##клина
зао
гордън
точното
прицел
таланта
##жаван
диве
армиите
произхождат
семеини
победо
обрасли
бягане
скален
начинът
белене
намалена
съдията
украсена
dev
пиетро
##ьоринг
средиземноморски
зърна
амалия
сталинград
бюджета
изпадат
възрожденска
##морфизъм
тежест
подпише
entertainment
гюмюрджи
ht
аце
еспе
скра
цвете
яни
##мския
##тир
##минат
проститу
рев
ремонта
мет
##дентите
градското
##ero
специалните
##ловски
сезонът
телекомуника
морета
диана
селце
звучи
поддържаща
осигурят
флавии
ефективен
аугу
птицата
разпределя
конференции
сексуално
младежите
преспан
провъзгласен
погребение
имотите
облицо
спечелването
ерцхерцо
слю
шьон
щу
як
попе
познание
сиена
редовете
моника
могло
вини
тамо
биич
##зора
##хаус
хир
сухия
брабам
станда
материала
критично
високопоста
противовъз
гъсти
джунг
дарм
градище
индивидуално
пясъчници
гигантски
захранва
съпътства
che
ul
##цк
нагла
рамо
доналд
##зид
капела
разгне
подпредседател
арби
тита
фалун
оставени
началната
струга
дясното
новатор
вражда
притеж
##несли
##герман
духовната
обектът
##керс
фута
норвежки
унгарска
континентална
кроко
закрит
водене
реинс
разказите
гарсия
отбранителни
олимпиада
подхранването
толстои
компенса
сетне
книжар
артефакти
повлиява
фуга
##дските
##зява
##гаи
розе
лотар
учил
крип
свилен
кореиската
андрети
ферма
равнинен
регионален
##тъка
споменаване
завладян
подофи
укрепване
ярки
пустиня
изгубени
канадски
усещане
##бягва
записки
несправед
автобуси
таблицата
иерархия
оксид
провизии
узунов
сципион
лауреат
президиума
pan
зати
фрии
##налия
горя
доказват
притвор
капри
пеше
тас
белица
##ктивните
пластове
ловец
##eng
гръцкият
камба
джеф
##пусната
атлас
тренто
##кентии
оформ
зъб
губернато
##aceae
моряците
шофьор
мадага
амин
##лският
##иф
##пията
назова
кок
изко
##миран
пророк
сир
ромеи
предтеча
летен
парагваи
седмо
детските
панта
комунистическото
продължителен
красивите
бронз
технологиите
декорация
премахнат
постановката
хипотезата
велбъ
предвожда
дискусии
укрива
аинщаин
олег
bul
mc
##ело
##дза
постъпи
##нелите
##конг
##пон
раздя
разгара
делник
1750
еднаква
дъблин
тъмен
строени
карака
грижат
мъжкият
напад
служил
inst
необходим
съседния
килограма
умерен
заплащане
забранена
описания
готви
преуста
конкуренцията
грандио
отбранителна
траекто
пощенски
изригвания
гъркомани
ксанти
##сус
##ъци
наки
седал
##вира
неправител
провала
##чане
ретори
левите
нис
надясно
##брани
влажност
гана
августин
централа
херку
парична
водача
традиционна
управляващ
далечни
чуждо
нарастват
бразилския
клони
бизнесмен
сюжети
отпадна
сформирана
шелфо
съотборник
съчинения
демонстрация
апартамента
ателие
завещанието
аврелии
асам
##зност
##товия
заден
заложен
зароди
прочита
кая
кац
##стичните
рони
росен
животин
знака
съветва
##глена
позем
немюсюл
демокрацията
изображенията
заточение
управляващата
проектите
елба
1802
вярно
жанеиро
вмф
акула
постановка
преведена
изваден
вертикални
джеисън
бронирана
хирургия
корпорати
възкачването
хоросан
аякс
енгел
енциклопедия
фигурата
зимен
свали
улу
##ения
наказва
семан
##гари
##лярна
речи
вековете
вап
##лагане
##фаши
##ala
новоиз
германският
седмицата
противотан
списанията
магнус
запазените
възстановяват
подаде
снежно
характеристиките
eng
подписано
бозаиниците
разрушители
##ііі
витамин
##юрище
събужда
течности
панагюрище
пивоварна
етър
##дността
##ном
оттен
##роните
донесе
неж
приел
##менни
конници
импле
##шевич
##пределя
пипер
##ртни
##ксен
синди
##линда
крех
британско
женско
изпрате
преместена
предвидено
взаимодеиствието
дробове
##въдството
братовчедка
буквите
club
артерия
ритуал
кантакузин
pc
##янов
##мв
сета
##лекта
комент
съдеиствие
съвършен
дарове
терени
стачка
подку
конна
спогод
северният
лаби
суа
##ene
събрания
управлявана
разпространените
последвана
механични
минесота
петрова
датския
избухват
пауза
легиона
плуване
енисеи
предшественика
вуи
алувиа
насилствено
елеонора
тбилиси
cre
national
езда
кн
скар
цру
##фла
сакра
##доли
рож
консо
няколкостотин
кръстена
планинския
строена
##графската
##ложки
антични
нормати
опасява
##фициране
бенга
премахнати
надписът
чора
монарх
зъбите
танцьор
колективи
исланд
летопис
репертоар
ениджевардар
нрб
сго
щер
##рния
##рска
##кюри
##wn
##τα
отбива
##роза
сектора
##вини
саин
манев
моца
суон
открил
##фалия
основания
появили
набляга
неолит
поеми
продаде
унищожение
самура
##ations
короня
последователите
акумул
субси
смолен
андреас
показани
холандския
задвижване
линкорите
астрономически
##виолето
неблагоприя
хепбърн
едро
янина
##оли
##иг
##нно
##чевски
каран
разписание
##жещи
205
нигер
безраз
##твафе
танковете
назначаването
караджа
##мисли
метало
повишена
бенд
приключване
масива
химик
формирана
впечатлен
експлоатацията
натрупа
сонда
остатъка
фауна
подсигур
вражески
попречи
сформират
ъглите
мансфелд
митридат
възнесение
евер
ерата
увле
фред
##нателно
##ждата
##стрен
##диране
тонове
пристъп
##пения
стрес
бале
летния
##харт
въвле
груп
включване
кристи
екшън
фокус
монтиран
даваики
предпоставка
##ole
капитана
растежа
североизточните
работната
датирана
последвано
парламентарни
оригинален
вливаща
авиацията
младост
grand
ресторанти
мисионери
корупцията
орбитата
здравеопазването
тролеибу
умишлено
##lo
##риум
неде
продовол
##кини
##сението
мок
вибра
някое
##улата
можели
брада
колоните
##сквали
##лярни
насочване
увеличен
етнографски
##ime
създадената
осемте
колониите
##мптън
белият
микрооргани
федералната
индустриални
изобразяват
партньорство
жозе
реформите
полукръгла
здравословни
луфтвафе
опло
юар
##шник
##ject
попри
пренос
небо
носо
тавана
роса
подвид
чакъ
соу
хава
орда
##нгел
##тенщаин
##слан
езикови
англи
земен
сладки
##els
патен
директи
съдържаща
изоставят
първенци
културната
##unk
акциите
краткотра
молдов
контраадмирал
клона
бомбардировките
доклада
малолет
списъци
отрицателно
очертава
емблемати
пренебрегва
геноци
кема
уния
задава
изча
салва
правна
##канското
тринадесет
##рииските
продълго
##нтите
тулу
чука
гуан
николаос
шосето
постоянните
възникнали
off
фигурите
растителността
мечове
племенника
бременна
туристите
предостави
справедливост
трагедия
##електри
потегля
заинтере
спартан
370
еше
##еро
##тилд
##мити
##натан
##дори
##гиите
лиза
##врите
##гула
предишното
видя
писмата
първоначалният
продукта
светлин
##ганда
арагон
физическите
златният
зографи
духовник
преминали
1811
търговския
командващия
хроника
шотландски
публикация
насилието
урбани
бедност
съсредоточава
упражнения
плитки
зигмунд
суровини
пратеник
деветосептемврииския
sun
пито
флан
##свет
колин
##водител
нево
маа
##горски
моята
##нджа
##минацията
раит
републиканската
външният
опазването
съществувал
принудително
матри
североизточния
топлината
автомобилът
1809
налични
сключи
карол
сорт
повлияна
окупирана
гьобел
натрупва
конвенцията
ерозия
шварц
смях
мениджмънт
парашут
гьоринг
ози
отзад
годени
мажо
годишното
метри
рога
лиидс
дуна
военнослу
##славов
##ществата
земни
трудна
администратор
драган
революционния
гражданските
##ures
абди
енергии
елип
принципът
религиозната
меню
променлив
континенталната
ескадрата
гостуване
консули
основателя
кафяв
iso
преселват
отслабва
предводител
летят
своеобразен
стъпала
покраинини
астеро
теленовелата
пенев
##проект
мадагаскар
аман
нур
##бването
##нообра
септи
коча
##цит
##мощен
болки
типо
грузин
населен
##ini
завършваики
##aris
алеко
свободната
##фос
причинени
съседство
разкрит
признак
извършването
янко
драматични
модула
легиони
поредната
наполео
мраморни
преживявания
отсек
обществената
късометра
доротея
надмощие
авен
олд
цваи
набо
##стря
четниците
конница
трем
посолството
опасен
причиняват
статистически
природно
насро
източниците
##гарят
общественост
театралната
акули
привличане
титулярен
гробищен
снабдяването
съкровище
иерогли
кадафи
вариации
координира
саарбрюкен
dream
фреи
##тр
отлъ
засу
преот
##лока
##често
сасани
размах
меча
пепе
веи
ролан
либре
бебето
намирали
стилисти
##arch
участващи
плебе
фонети
морган
215
важният
нападне
физиологи
рамки
##лиерите
масивна
обвиняват
арменци
послание
регистрирано
заявяват
императрицата
победителят
ефир
волеибол
бруклин
cast
sat
##рството
##кски
##нои
##дано
непал
разни
редове
делата
##фина
вари
анкара
ниското
##тува
зает
клане
##лъс
слабите
обявяване
защитници
монтирана
комуна
златно
присъединят
сердика
харман
хълмовете
мексиканския
моравия
мечтата
мехтилд
семинарията
педагогика
предотвратяване
хълмиста
fox
азот
преобразуване
компютрите
спортист
реванш
безуспешно
поо
съден
доходи
невер
##мингам
магия
##парат
муха
виш
виното
графа
лектор
влака
1780
лазер
франка
мюлер
310
разшири
шума
южноафри
промишлен
заплаща
младежка
горене
тракииските
белоград
кирхберг
претендира
постановление
примирието
стомаха
ежедневно
ускорите
диаманти
баскетбол
компенсира
мориц
капитулацията
настилка
орлеан
стандарта
яде
##воря
приспособ
калъ
разд
##ляла
милу
дисквали
балко
клана
черквата
италиа
гуи
централни
другаде
украсен
метална
структур
детско
евреиския
примерно
беласица
режисьорът
##джоу
влиятелните
гъстотата
изтъква
благородник
евакуа
преработка
подтиква
купуват
безгръбначни
абруцо
mat
ахил
еква
##стните
поде
##лациите
печ
##кторат
имам
рубри
плочки
пушка
##новения
брош
тут
ширини
изпълнено
членка
юнии
##лярно
седловина
висококаче
автомобилен
разрешено
##графиня
насаждения
издигане
alb
цветков
експлоати
преместване
разузнавателна
сребърна
плодород
железница
касиер
пантелеимон
екватора
свиленград
бент
вкопа
смир
##мнят
##бг
##32
заварва
##лакти
##несен
##тив
##посо
##гамо
томп
каунти
##чински
мура
рог
подял
##изър
##дителния
дъбови
зелените
чужда
гръмо
спасяват
##рирането
##ited
парични
комплект
въстания
парашу
щафе
принуди
намерения
занимания
огромните
духовници
заплаш
славяно
въведено
беикър
белодро
болката
андреев
териториално
необича
камбанарията
близнаци
варшавския
просвещението
доближава
конденз
куршум
лиеж
встъпва
кватер
##уси
сеиз
сани
##мида
##сед
медия
вире
павия
робите
предхожда
диси
204
формати
продължението
държавният
букови
научават
##държ
преданието
##джамин
златните
образуваики
подаване
крепостна
евреин
неудоб
древногръцки
финансирането
боливия
удво
прехвърлят
витгенщаин
малцинства
легендарния
мекленбург
автобиографи
влязат
коминтерна
напусна
селевки
рикардо
дармщат
fire
mw
вд
шлю
##бът
##тология
секции
##лекто
ретро
бош
светата
получените
плав
1250
рибата
паркър
##морско
септемврииското
команда
китариста
антило
предадат
мерку
загинал
проучването
библиотекар
признаване
възстановени
кандидатите
отрасъл
хипотези
остатъците
омур
фраибург
бирмингам
моисеи
глазгоу
вапцаров
оне
тун
##хро
##гнит
##σι
положени
зау
неприят
##атон
резона
предците
възхва
пирене
рубин
оставен
намиращо
бронята
##търс
научното
реализъм
кордо
предположение
двоини
намален
атланта
съставки
вторично
доведат
католиците
бенджамин
турнирите
младежта
символите
оконча
разбиват
потвърдено
онзи
измислен
гонза
военновъздушните
процедури
приоритет
просвещение
експанзия
прабългарите
хидравли
кп
##десе
##нитет
##чарите
##заро
дести
##чим
роберто
бии
антите
пила
кип
##тум
1530
суец
##хир
буле
сърат
нямало
##лизирано
загубени
охраните
навле
оператори
устава
масивни
спряно
боекомп
формули
настъпването
хвърлен
мотив
обърне
субект
азиатски
нашето
тихоокеанския
вселенски
болшевиките
селекция
фрг
препрат
кинемато
зрение
ода
сря
шор
ят
##дли
##налата
погро
##деят
карате
четвор
неголя
дължа
лагу
##inc
животното
антибио
революционните
слоя
топене
3500
подпомагат
потребителски
призрен
митове
корпусът
земеделските
сблъскват
обработват
книжовен
писмено
съуча
наследи
геоложки
девоика
разстроиство
тиинеиджър
олимпия
алис
удържа
##нентите
рас
фио
триполи
полезен
собственика
свободи
медика
партиини
материални
емили
техникум
пленява
иемен
описано
стопанско
алиса
забележителна
снежното
мобилизиран
притоците
присъединена
неизвестно
биологични
мускули
термодинами
преториан
сянката
адекват
пьотър
магистратура
разтваря
иеромонах
аст
ява
##нните
##ящ
##ga
##sh
##мад
масов
обред
##доп
челеби
пели
предстои
подправки
##строени
##ционални
южният
опира
##мъри
бреша
бертхо
##ition
продуценти
означават
уикен
подават
експериментира
концентрацията
могилата
привлечени
манджу
възползват
предходната
синхрони
филологическия
##пендику
ханибал
гьобелс
аки
ксено
##ути
##lin
##du
##мал
калаи
##пак
теб
##сона
осу
##жина
##куването
ниц
##инди
началните
евротурни
шап
политики
##спор
брашно
вердер
античност
директен
гранична
строителна
елзас
добавен
хилде
достъпът
регулиране
неедно
предизвикателство
геометрични
обложката
либерта
януарска
пуерто
бертхолд
cur
hist
емер
естра
шията
##жници
##жниците
##εν
##25
##ниц
##рева
козма
##вит
мару
реце
нощен
четат
песъ
тян
вака
##хаин
свод
гам
лук
бърд
смесва
непознати
филипов
протеини
аугсбург
момчил
овчар
кандидатства
работническата
закрито
дружини
хранително
пациента
лаборатор
активисти
размножаване
авангард
предходните
настоятелство
съвкупност
bbc
брати
вкара
еве
ира
омар
оази
##дява
##ai
##пляр
##oon
##нол
отпреди
прекара
кората
извле
##мач
тесто
листо
галата
рич
##проце
иотинген
членство
##сполита
специалистите
бракове
скалните
кантон
406
##култур
##ett
изпъ
вестер
определян
редак
комитетът
софииско
военноморска
оценяват
слепи
архиереи
променен
енорията
оборудването
положителен
емоции
синоним
канадския
##македонския
wwf
награждаван
##арите
##стят
отстоя
пропада
разва
решаването
таба
миле
##врит
пиза
алби
##няв
влажен
втор
национализъм
##делци
перпендику
полеми
индииската
своиство
портата
състезават
притес
разширения
преместени
автомобилите
вярност
писателката
признато
пожара
##латена
нервна
хоризонтални
лукас
сериино
good
силвия
опровер
гевге
иезуит
tre
остатък
ууд
##касъл
митро
фиат
сола
##шие
##зените
многообра
трифо
класно
##дърс
верги
перфе
особеностите
аналог
275
съобще
уменията
променлива
жертвата
вмък
церемониа
1648
напитка
trans
екземпляр
инфрачер
военновъздушни
девоики
костюми
доминират
димитриос
трамва
ангола
саркофа
моцарт
томпсън
mor
nat
аго
ути
##умът
##vis
##ническия
##вава
##ренето
помест
вот
могла
муцу
преднина
##правен
получена
запалва
фаш
евдокия
121
плочата
луит
##писани
ексцент
карава
японското
манастирската
метален
господа
подготвени
одринско
мрамо
видими
реичъл
компютърните
1776
1763
гьотинген
оперативно
съсредоточени
соломон
стремеж
овладява
откроява
тенисистка
ускорява
бенедикт
еквадор
абе
##фрон
##yr
изтри
##мацията
##поко
точна
падуа
вет
ставро
хаос
##мирането
работен
##нтри
честоти
защитна
всякаква
игно
демони
съглас
четвъртък
тръгне
stre
електроните
федеративна
торби
нарушаване
белег
uss
прехвърлени
станишев
обработваеми
ритми
потиска
ултравиолето
подслон
елисавета
яно
##слов
съберат
##циран
гравю
##бас
##хари
частната
спора
гладко
##никав
иован
кеса
награждава
творческа
нуми
културното
фриц
обратната
едрите
португалците
xxi
слабото
шанхаи
##медията
отрасли
arm
федералното
слънчевите
1774
прякор
окупират
иоахим
дъждовно
съхранени
грузински
настроения
гаврил
женитба
агрипа
салвадор
кво
кентъ
лате
##нъм
##яма
дорт
разри
разбун
папен
инфан
##зоните
1640
парчето
едноли
##геро
величе
бърк
благосло
кампо
групировка
югоизточния
амнисти
разрушават
владетелите
задължение
повиши
добавка
365
луизиана
обвинени
колонизация
извиква
разузнавателни
анализи
образователна
измама
понижава
прегради
сделката
психоаналитично
колоезда
етика
иен
##нството
##фоб
сериен
рафи
проли
темите
репорта
липи
##ряла
хасков
запасни
жеч
##лъб
правилното
балкана
свързаните
транскри
гробове
враб
означение
природна
##ida
##rop
разкрие
разкрита
олденбург
игрище
тюрингия
жълта
завършили
unix
клонове
мащабна
вдигат
нервната
капацитетът
адмиралтеи
плячката
авантю
възрожденски
замърсяване
качествата
съотборника
##other
дублаж
times
микеланд
linux
доживотен
евротурнирите
bel
ит
##льов
##еца
##тността
##сви
нает
##лине
отпът
комарка
прира
##чана
честта
концла
възложено
##инг
##нум
рита
няколкото
присъди
монди
антим
романски
изправи
матю
зора
шестнадесет
##рядко
зимния
египетската
##ival
затворниците
болез
превърнала
валдек
железопътен
агенции
окачване
противоречие
изважда
делегати
адаптира
фауната
аргумент
колебае
сплави
саундтра
сомалия
психоанализата
обсерватория
достоинство
процедурата
поприще
sim
аито
арен
блеик
ерна
охо
яворов
##тение
##рот
##зава
паче
роналд
конски
хале
хаби
аврора
житни
единен
джоб
луда
шизо
строг
##ital
гранични
##стрират
операционната
елиът
далечината
##utube
латинския
писателската
непрестан
странно
агресия
попово
сдружението
целогодишно
реставрация
нену
колумбииския
бонифа
кентъки
микеланджело
sur
##дръ
изсу
доли
тошев
провали
средец
##бев
низи
пирати
работилници
научния
убита
телескоп
освободена
235
предадена
геология
съвременници
югоизточните
извънбра
хармо
истинските
преговаря
белградския
претенциите
youtube
драматично
авиоком
настроени
доставките
изгаряне
самолетоносачи
вградени
наслаги
звукозаписната
якутия
bab
ob
мк
##va
нано
изложена
##видна
топла
##мие
маки
##пала
дедеа
##гир
пане
табу
мигрира
конзо
##ano
##ange
специалността
октомврииската
царска
##кинсън
трентино
конгресът
красиво
хърватската
стабилна
наименования
сорбо
дървесни
инфекции
изпратил
corpor
дузпа
оспорва
зенитни
аскер
вуичо
ницше
song
ете
пп
сия
фбр
##иков
##ратори
##ex
##мне
##sd
запу
замона
##лоа
изтън
макри
малово
каб
дерек
мигрират
тирана
рихард
##нгите
раина
луси
##гена
верса
спасен
назначена
подкрепен
нюкасъл
пръстени
фриули
ограничи
ханство
разширен
регионална
брсдп
автомобилна
желания
char
наравно
изчезването
антонов
модерно
##риета
предназначението
оригиналното
##гарда
ключов
предвидени
забележителен
препоръка
влюбен
господства
хоенцо
грамота
халкиди
дортмунд
pal
нада
нашия
поделя
##цилинд
придават
развъ
пад
пани
роял
инс
възпо
ловува
дневен
манастирите
класика
пълния
гражданското
нападенията
любовница
събраните
владигеров
водещата
режисьори
считани
патриаршията
проектирани
оцеляване
крепостни
португалския
забеле
летища
разнообразен
преследват
типичните
морално
числата
леопар
избягали
##мбик
преустанов
настанява
намибия
благовещение
велбъжд
абор
кът
клер
олово
шър
##идон
##мска
##мун
понт
саби
прибори
##кират
меса
воло
паради
ство
вени
див
леда
важи
тил
1260
еднакъв
гертру
##гледан
представление
европеиският
ученика
тром
290
превклю
популярния
излъчени
краибрежни
chann
наличните
шарка
крепостните
електронните
колектив
вождове
маневре
отровен
ихтиман
are
##псън
##75
застъ
заложени
сигнала
водното
стриит
мири
росица
предложена
товарни
наиден
бъчва
1770
читател
##рииците
обичат
тъмната
членството
213
тежкия
медицинската
берлинската
следа
олимпик
стопанства
компютърната
##book
диктатура
овцете
тренировки
мелбърн
пътешественик
вегета
консоли
king
дзи
##уда
##фни
##мва
##ho
##yc
сечение
##деиския
маза
разпад
пелин
мартен
брод
##стиян
играещ
студии
останалото
режими
производствени
смятало
обуславя
партиен
дългове
насоченост
##ody
улти
наруто
фреските
изгонени
повредени
данъчни
диокле
терапев
ефектът
поредния
спускане
тълпата
изработването
ислямската
наподобяват
изключителен
панония
гимнастика
id
нба
оа
омир
спуснат
явор
##нки
##мният
##бски
##рациите
отър
##делна
прованс
баница
бапти
борец
солов
##хани
тиф
върте
геста
използващи
правилото
движенията
##шенко
полеви
античната
неокласи
завършени
отлични
енрике
протогеров
автомобилни
нарастването
богатства
ауто
шарлота
брут
горещ
мощните
избрано
социалистическата
земеделци
апаратура
сексуална
уебса
кварти
##европеиската
калофер
находище
самолетоносач
затруднява
изтеглянето
незначителни
перспектива
илюстрации
трамваи
детектив
оцветени
гибелта
хенеберг
спенсър
несебър
деметрии
цваибрюкен
dark
сходен
##кската
##ym
напро
отгледа
откуп
даме
неоргани
челото
десният
таун
рокен
конус
бага
##ствана
рунд
1650
дневно
древност
печелил
бергамо
влияят
водопад
стрелец
пръстените
израв
##ames
ареста
лъже
формирования
актьорът
разнообразието
янков
поддръжник
1775
стенопис
заключението
бременност
работещ
фауст
ярослав
търновската
повдига
семеен
аизен
lim
mi
ter
бьор
гмур
ида
ове
##иси
##идите
##две
##снали
##sk
##новото
отся
##ott
##чии
виновен
чаша
лишава
фиор
беза
рут
кинети
пласти
алт
върши
шара
американци
помощи
социалното
седмия
съвременно
слънчев
медицинско
мирния
добавена
спортната
константинополски
произвеждани
общественик
нормална
продължил
лицеи
едуардс
наляво
закупени
пожари
монголската
##псс
церемонии
обсъждат
регентството
нанси
превишава
слатина
top
мън
юлска
яго
##ew
изгарят
дарии
дог
сири
разбита
репа
##стово
инвен
легла
получен
полунощ
трир
лошите
ловуват
раиън
успешният
обяд
версаи
##uss
колелото
брест
216
##суърт
революционното
##ланда
анало
емилии
##десетте
насочи
приятелството
желаят
механик
направили
венци
заснети
унгарските
терор
положителна
комбинат
жозеф
удобно
складове
хваща
intel
филхармония
430
ju
pat
tur
york
ариа
жури
ясни
##ещ
##тьор
##our
##лила
##дак
недя
неспосо
тец
##елство
леката
##динска
друже
руини
тирел
1570
различията
##aria
никол
##линът
месечна
оперира
демонти
грижа
изолиран
##мишле
пенчо
шарлот
менсъл
производителите
неуспеха
изследователска
чуждестранните
педагогически
варненския
терминал
варовик
john
витиз
синдром
полкове
карнобат
ic
чат
##ral
##мност
##кън
ралф
радови
##делява
готически
##стага
мун
##бици
градоу
тана
мичъл
бик
лима
##шип
рубли
оратор
пламъ
населена
лозар
луте
правителствените
електрод
посочени
революцио
материално
съгласна
черногор
зимната
херцогството
психотера
падане
младежката
отдаде
произвеждан
обсаждат
завоя
възстановено
потребител
нормални
напуснал
подчиняват
печатни
мраморна
съдиите
изстрелване
мускулите
прочутия
мъглен
алуминии
генератор
излитане
машинно
паоло
отводнява
ите
кпсс
уит
чре
##ολ
##ja
##теките
преш
##цирани
сирак
##щет
инстин
лишен
листове
##шева
206
##ртър
самона
##летна
въстаници
христофор
състояла
строителните
работното
цариброд
промишлено
преподаване
противопостави
васили
оригинална
скита
забавяне
равенството
show
папската
даниела
постъпват
стихосбирка
учредява
римокатолическата
извънреден
вторник
кента
##сьор
##рем
##вината
далас
##циум
прика
редици
##жев
##пили
падина
ствол
митре
ролинс
поднов
##бег
боре
##дителната
габър
черуп
обич
криво
опише
##никави
чук
нюан
седящи
добрев
наблюда
африканските
здрава
катапул
двукратен
уолъс
морава
тераси
каменица
обърнат
ресурсите
регистрирана
документален
редуват
преобладаващо
##хорн
черепа
евгени
резолюцията
усложнения
противоречиви
надстроика
престолонаследник
историография
лигурия
камбоджа
атон
бледо
кнк
##уш
##26
##ная
отрова
отцеп
заро
комедията
##ковото
##морие
мелан
мико
##сау
средите
лидия
##зовия
беиз
възприя
спомо
съсловие
работили
македонци
свято
клинтън
отборните
съюзява
текат
народът
наполовина
##хеи
австралииски
магически
минно
каменната
генерали
едноименният
избирани
въведе
тракииския
значим
премахне
ангели
кирилица
евангелие
роботи
завладее
сенегал
дългият
university
шалке
невада
престрелка
лопес
градоустрои
440
520
##дска
##yth
##ερ
##лински
##веният
саид
сиен
десните
вегас
надделява
случват
##зираните
търнър
получаваики
##ментацията
гъркоман
окръзи
клубни
антична
преминаваики
деистващата
брегова
кметът
беили
унгарското
етническата
несъм
колумб
from
замръзна
нататъшното
хълмист
панаир
четвъртфинал
рифове
лариса
компромис
глюко
channel
mhz
ате
шев
##лките
##пф
##реш
##копте
изпуска
##скова
##педия
мините
##саид
страдат
алта
изтока
1740
местностите
колес
студия
широкото
назначени
вододел
управляващите
слънчо
операционна
сливане
##ement
въведение
площадки
цивилизации
равномерно
безот
брониране
##приятията
изключителни
ненави
таблици
запознават
тенденцията
инокентии
сертификат
наставник
нептун
натоварване
вилньов
аудитория
разногласия
противовъзду
асамбле
gn
ац
гин
ик
щито
янев
##хли
##uf
##τι
навреме
износа
##посполита
нерядко
##руда
метъ
тали
пърси
##бец
лесен
вах
създали
карпат
никозия
##геит
тамп
светилища
управа
##ode
##иом
специалности
изиграл
оформен
тракииската
прекратено
ударни
дончев
роднините
тънко
престижни
размножават
артилерииско
изтичането
##press
националсоциалисти
бъртън
big
nor
дур
##ris
позова
##вери
раните
##под
обновен
деформа
##лува
веко
##бари
инквизи
кис
футболистите
корча
предпостав
водоеми
джако
намалят
метафизи
##ецът
съвместен
сложните
камено
военноморския
композиторът
нашествия
оцене
шварцбург
изпитват
прочутата
излязъл
изнасил
каизерслау
ландшаф
изобилие
сицилиански
поощ
акси
вхо
оме
рнк
юри
ядат
##акт
##тиво
ранените
салер
доскоро
разделите
разменено
нощем
##менто
##хори
ливинг
импу
аркан
##ксите
фабии
геб
трявна
строги
бързия
телефони
реабили
бялото
218
протестанти
компаниите
естество
лъч
лъжи
седмично
оцелял
океански
молбата
стопанска
пътеки
демократичните
работническо
пристигнали
нидерландски
снабден
blue
молекулите
запазили
облечени
пунктове
забранен
наоколо
освободителна
флуо
сегмент
изплаща
окраска
жечпосполита
back
отвора
издържат
раде
##деиски
неформа
манг
силният
дебати
таб
##щината
берен
##мирани
ордени
търпе
##логичната
априлов
хедвиг
възможните
изстрелян
поканени
крос
периодични
въглехид
абсолютна
тропическите
провалят
инфекцио
кирилицата
чаиковски
инфраструктурата
викарии
обхвата
зид
инова
лък
мът
упла
упр
##αρ
задеиства
##роу
дави
сии
пристъпи
##лята
##бос
##сано
старец
запазването
игрални
броди
бърн
пояси
аташе
футболния
помощници
монфор
посочен
посеидон
материята
светлинни
монахи
постоянната
възникване
ланг
съобщенията
ванку
ядрен
тюринг
мощно
ирански
странни
харисън
склонни
отрицателни
##гнити
флотилия
воюват
карикатури
летец
ечемик
отъжде
стъблото
криик
каизерслаутерн
mad
прати
##лберг
##зне
##ливата
##литите
##пова
саръ
прича
ров
краио
елев
световният
тъка
хуните
слабата
люлин
петно
версиите
подобрена
драко
принца
симфония
пръстите
женския
необита
исканията
горивото
богданов
пенсия
##зовско
православието
статует
привърза
маркиз
застават
глико
минимални
преодолее
нашествието
хребетите
универсален
мелодия
домакините
субекти
летци
грамадата
деятел
магнитното
развлек
керемиди
аец
кюр
пчели
уганда
##рските
que
доходите
касел
касии
разгръща
рети
##чива
панели
##ативни
частните
върна
турчин
раико
бутан
##osa
спазват
царския
полегати
новооткри
командирован
##amb
помещенията
карлс
съседната
сливница
загубил
кандидатурата
работнически
неуда
превоз
1787
хартман
##надесето
наказанието
имитира
добавяне
девическа
roy
юношеските
ромел
плиска
репертоара
изгрев
хендрикс
херкулес
act
publ
вата
##oo
##щя
нава
изба
сине
бобо
правец
оставил
1660
включат
иоко
люис
тогавашният
незабеля
##варване
балта
произведена
продуцента
##селдорф
гранит
граничните
партиина
##контро
златното
греди
казваики
дипломация
бунтов
арестуват
##лиета
деистваща
почитан
налагането
арабска
уокър
евреиска
любимите
аферата
монархи
искра
нелегален
бедността
картите
временна
разклонение
погребения
възобновява
вселенската
филипопол
рокендро
fi
##въл
##зър
##ядни
поот
##коре
донасят
провла
вилата
##грамата
розово
бока
възму
лех
##фили
анхи
харала
##ателност
можело
последвани
бродуеи
регионите
##образно
специалната
256
##графско
благодарност
шампионски
##жденията
ланго
champ
бразилски
химическа
фотографи
контраст
мащабни
одобрението
вицеадмирал
1576
мърфи
##химия
галактиката
линеино
фраихер
натоварени
аргументи
обикновената
прогимназиа
иохана
media
раинхард
задочно
неженени
сорбоната
gra
хюз
##жур
##лели
кодове
##маил
##пози
каде
развода
вии
боту
литъл
руп
плажа
предиз
лова
малц
следващ
бангла
европеици
диабет
грозни
съвременниците
##фицирано
харбър
death
истинския
епизодите
кавала
1788
пясъци
посвети
солидарност
консерваторията
принадлежащи
изригване
швабия
разчленена
скъпоценни
основоположник
ливингстън
ванкувър
face
дпс
мите
отон
усо
фура
##дзу
##сването
##44
заици
изд
съжи
топа
##сорите
вацлав
андите
жиро
рубен
орнито
главо
хоу
1760
последват
крипто
тура
тутра
днешни
семеината
македонците
трапи
студено
джефри
германско
революционно
столичния
японско
княза
групирани
вълко
грена
здравна
обединения
патриарха
дюселдорф
парламентарна
повреден
лидерът
##творява
##ьовден
починалия
цялостната
##iana
законодателната
чувствителни
хлоро
чиновници
бестсе
светеца
взаимоотношенията
говеда
мозаики
оуенс
патриаршеския
кьонигсберг
хелзинки
импулс
mel
wcw
риз
уви
задно
##дид
издеиства
саа
некта
обро
##доха
##ментни
лил
руби
върнати
евразия
малти
картин
елегант
франки
корана
планират
императорите
217
женското
кратера
куршу
комисии
##ada
резервен
концертни
##raft
конструкторите
##тъма
разреши
посту
младежките
минерал
променена
разбит
закриването
албанската
##нятията
камерун
бронебо
учредена
молекула
киевска
сексуални
кавалерииски
изработка
шестима
жлеза
иерархията
ензими
##любиви
женитбата
безспорно
тевто
спокоиствие
general
скорпиънс
совалка
хоспита
абдикира
corporation
метъла
mal
roll
will
скре
##жкия
##яс
##мка
##диев
##вон
приют
кану
разработи
реп
роде
##сак
осъм
##измът
##фир
краиниците
лора
карстови
парфю
##ловград
дребно
подобряват
оръжията
берта
силици
караман
стрелкови
смело
фриз
уеи
шестата
регионалните
египетските
профсъюз
иеил
вмок
литературното
слабост
ориентирани
очакванията
афроди
концептуа
малобро
носеща
изпадане
пробие
отделена
активист
сърдечно
атлетика
web
търсеики
тотали
библеиски
разгромява
полусезон
монтго
хималаите
best
онд
уми
##οι
##li
селя
##левски
##лебен
##дап
раздел
разоръ
##луч
##ранда
крачка
сос
лесни
##гува
газе
чит
суворов
гир
мъри
травер
основаване
212
родстве
словото
колиби
вълци
##лирането
математическа
димитровград
съмните
булга
вицекра
##лингтън
начинание
основатели
1328
календара
стандартен
попова
случилото
органа
подигра
карбонат
потапя
дестинация
отбранява
съревно
bell
ии
юру
##ye
кодовете
изминава
недове
пропове
приноси
##чаните
падна
пени
преддве
осмина
беатри
жил
влахов
##ванати
читатели
антифаши
родните
грижите
установят
неопределе
съедините
дълготра
олимп
поете
джонатан
оценката
протосинг
католическите
добави
антоан
достатъчни
арабско
стратегията
прекратена
##illa
отстъплението
##вленията
безопасността
##езични
решително
очакване
секст
провокира
възпитател
следобед
военнопленници
говорител
фланелка
адалберт
##планинските
бунтовници
афи
##фре
##zy
##36
##тета
измир
пропуск
тесно
##боро
чеза
##лука
пеев
гласуването
холе
височество
последни
##лъка
мъгла
съветите
горска
студените
клубовете
карабах
наблюдатели
термино
опасна
манда
разрушаване
развиващите
умело
едностран
австралииската
химичен
ванда
поданици
султа
атомни
одрински
изгорени
хранителните
консумират
кристал
непрекъснат
модули
добавянето
московската
откакто
ужасява
стихотворение
гостивар
what
бахреин
хладно
снабдяване
облеклото
изригването
##химик
пратен
харвардския
конфигурация
арнаути
адриатическо
повестта
вент
##hip
##стъл
забър
сид
мистър
подпа
##беди
личат
лишаване
ница
нишки
тича
рибите
последствие
##ones
храмовете
шестия
екст
##дарци
##вателния
реалния
##джин
гранити
##amm
техническата
повсе
топки
обратния
подпома
съседите
чуждите
носителка
минск
жаби
спечелена
биография
дарби
##патия
познанието
придвижването
диаметърът
абсолютната
експонати
1453
нелегално
папския
издръжка
селскостопанска
симфоничен
зоопар
социалдемократическа
drag
иди
пшени
##зън
дона
неле
##гит
вися
мика
мидъл
рого
инг
##шани
##унга
джене
книго
трасе
построят
##нирана
клубен
институтът
нукле
слонове
княжества
деиностите
искането
образувано
##видната
управлявани
господари
заместен
съхраняване
мюнстер
кольо
софтуера
уникално
находките
удобен
велчев
отказал
##мулата
белгииски
криминални
предотвратява
роджърс
блатата
мъгля
реставрацията
арумън
ескадрон
тъкмо
html
гняв
еин
иврит
крю
озовава
цев
##вд
##врат
##μα
помил
залед
измяна
донец
тетов
респи
##сели
мод
дисло
лизи
ваис
униат
суров
1190
гума
имперската
клиента
229
уведом
изиграни
присъединен
ограниченията
##ковец
медицинските
добавки
отговорността
тимур
оригинално
очер
необходимото
rep
поляците
дипломатическите
правоъгълни
компилация
раннохристия
куклен
плинии
пренасо
шлезви
дишане
управляван
прогонени
трифонов
бонифации
bus
oh
акта
мато
##уер
##яните
##блю
##тения
отвръща
##водо
##маща
мариан
обител
##боле
чешкия
водния
таке
подсил
##кут
формулата
спешно
безбро
1450
обикалят
земново
икономов
форест
колесни
горки
георгии
николае
каринтия
новина
принстън
съвременният
##ama
селския
енерго
владетелят
театърът
латинското
завоева
потребителят
орденът
твърденията
принцът
укрепва
специфично
##able
индустриалната
злодеи
престижната
устоичиви
безопасно
хонконг
предимства
певецът
махмуд
##комунисти
мозамбик
узурп
кръжок
биитълс
монтгомъри
cas
асти
акре
агио
когнити
##лам
мена
миш
милос
лит
иманя
##полк
върнал
##ковска
картон
военният
хуни
исмаил
затварят
отборни
свиня
историите
радиостанция
намеренията
ценна
носителите
осъществен
последвалия
индивидите
подготви
прекъсвания
снежна
опитал
конкретен
осъществено
обкръжение
плитка
крисчън
сърдечен
неподход
врачански
белтъци
съвършено
превъплъ
диоклециан
cs
light
гря
трю
##фари
начис
отменена
записването
##кация
##зил
вилд
певеца
диморфизъм
наиде
209
свещ
гени
##метрите
1350
младен
централи
хера
перни
китарата
танкови
##джик
##кратко
вестфалия
другари
вълните
вълнения
топлите
краибрежната
потоп
антоа
православните
телевизионните
аристократ
офицера
поддръжниците
взривява
this
предприемач
списъците
невъзможността
стоманени
кръвопро
ежедневието
средновековния
венецианската
отпечатва
металурги
барут
междуосо
мондиал
саундтрака
power
зрението
уен
устни
##хъ
##изо
пречка
##чет
каста
##сес
чело
модата
паке
петре
стаж
краса
##бава
въздържа
##ery
чупи
интера
атакуван
карам
джамии
архитекта
зороа
равнините
приятелката
изпращане
почитатели
коронован
механична
ядрената
предприеме
настоящата
превърнали
престъпници
уаилд
гнезда
рисувани
хоризонт
1347
теоретично
отблъснати
изповед
автобус
пощенският
отровни
ямаика
татяна
неофициално
плажове
проводник
въздухопла
омуртаг
повсемест
шлезвиг
dos
пл
цв
##пчев
##35
##нили
##раза
изписването
##циране
нестор
сигурен
притис
##киста
##пане
вола
папу
басти
лишени
започване
##керите
общинска
никоя
борса
клипа
денс
скално
широчина
джесика
##банк
портрета
непостоя
##латори
комикси
лъж
министерски
писани
обръщение
обединената
сборници
1772
издателството
blu
1768
принцесата
спрени
екзекуцията
1492
##хауер
възползваики
пратеници
измъкне
янаки
##фюрер
суверенитет
възвърне
720
kr
ol
rob
кне
нагряване
накратко
##ату
отпор
отзву
невски
силва
репроду
##довски
##сомо
таксо
роти
подпис
ботани
ледена
##ванти
суи
раино
бунар
ферен
гига
данте
реалната
спиро
античните
искам
насока
мислят
упорито
##хед
шумер
сигурни
възстановят
бразилската
пленници
символа
зависимостта
стоиностите
намерил
куросава
влошават
магнитни
дизаинът
дебърско
череп
изведен
лятна
бомбардировач
корабостроителницата
хеликоп
фракции
подаръци
реванша
лисици
##правосла
костенурки
оттенък
хоенцолерн
410
city
sum
ve
##итите
##джен
##жор
##45
прелю
разбра
видно
павили
грац
бидеики
бет
срещан
пулия
черте
изпълненията
генетични
благополу
програмен
вражду
физическата
херцогиня
изпращането
битолско
робство
линкор
гореща
киселин
завладяна
преобладаване
театрално
1783
взрива
инициативи
преобор
мюсюлманските
usaf
отхвърлена
комбинацията
##шънъл
обреди
спектакъл
завъртане
разложкото
губернатора
гестапо
ея
чък
юга
##исет
##смис
##стрите
##либера
замяната
сели
коза
##ителна
съли
сак
манти
##ляри
велко
миди
минали
предно
поду
##следък
комсомо
работно
##канци
пламък
главобо
алгон
слух
1240
ловни
дългото
късноан
1360
##лъжен
съществен
веркович
##хвърлят
термини
естети
поддържащи
снаи
византииският
меркс
приключването
охридска
математическия
обезле
специализирана
албанско
местона
1526
1769
##anth
недостатъчност
тактически
решили
комбинации
девическо
построиката
божидар
обстановката
блокада
ърнест
хеликопте
сираку
оскъдни
толерант
мъченици
скулптурата
легионите
едра
##евата
нага
##тените
сено
##кома
пролива
калин
теме
##чика
подходи
##баб
аргос
маичин
1560
1290
форти
безвъз
##oria
младото
алер
любе
брабан
администрира
институти
бурни
пловдивско
серския
двубоя
звученето
напоследък
dec
огромното
планк
последиците
бригаден
фотографии
1204
кръстови
прекратен
забележително
концепции
капитализма
султанът
наказан
инциденти
ислямски
експериментална
отведен
толкин
обособява
чатал
560
внасят
фюр
##хване
##рното
##жките
##бха
секу
домени
простре
##говия
восъ
##скан
родовете
диф
дидже
инту
лила
лери
своят
плоска
общинските
##новец
кризи
опитни
петру
огъ
назначават
гроша
##носците
романтична
групировки
дебютен
заселниците
владиката
##сионал
постиженията
ракетен
мерките
асиметри
батак
актьорската
хърватския
географските
рядкост
беломорска
панама
учебните
печатницата
кгб
постановява
намерили
##box
плутар
наказания
цялостна
квадратна
противопоставяне
размножава
цилиндър
цифрови
антропология
изтегляне
ереван
оряхово
припокри
разпорежда
финалист
serv
батерии
съавторство
полупроводни
булевар
ye
алон
ент
икс
кси
нра
оно
шли
ъгло
##уни
##дман
наза
съмишле
##зила
разтро
пеио
стациона
диноза
##зелени
1270
логото
безпре
алея
верн
##тарните
активното
християнин
председателството
стрела
методо
абст
емисии
бившето
оперни
приели
аквато
джин
преобраз
хърватска
извисява
направлението
транспортна
персонала
заслужава
червеният
робъртс
ресурс
1688
вярващите
съперници
негативно
заложници
екранизиран
захариев
##континентален
скорострелност
шасито
съвпадат
песъч
протосингел
460
cat
div
ta
ехо
##клу
##нила
комет
##ковият
доставят
деф
девета
##рък
мос
##анка
вирус
##пек
пещ
веществата
авъл
надминава
лафит
##зираната
131
последвали
черу
##към
свърши
##фало
реализират
теофил
бретан
процесори
класици
патрезе
симпсън
предпослед
съответстват
взели
поврат
образували
електрическите
укрепени
разрешаване
формирани
скрито
леоне
депаие
замъци
подвижни
индоевропе
курорта
задържане
сатра
max
проверява
противоположни
духовенство
норвежкия
инвазията
оксфордския
оригиналният
цъфти
питеина
алианс
маимуни
сънародни
меркурии
кордоба
tna
кърт
упа
упълно
пога
отс
мадам
прохла
разгър
##моно
кънтри
паница
мид
пърл
плаването
маисен
151
велин
люнебург
смъртна
правомощията
страницата
позициони
дълбоката
##chn
насочено
опора
вземане
редовното
умерените
графичен
епархи
тракииското
разпределят
каналът
пеидж
непрекъсната
конкретна
снарядите
захарии
неутралитет
чикаг
мюзик
регистрация
мъдростта
литургия
амнистия
тяншан
бангладеш
cv
db
sam
иси
оман
улов
яки
##uz
##кент
замисъл
##рома
##родно
##дион
##несто
синята
##пас
тестване
стареи
соиър
пиле
кулина
хала
евтини
трепте
римляни
иконопис
поморие
затъм
##ret
##стрени
кореиски
уили
горива
лъвове
госпожа
професионалните
343
способна
случаини
продължила
забележителните
умрял
любима
дружината
леибъла
гробът
царете
1635
подписани
агрегат
оборудван
разпя
облечен
интерпретира
лаиън
проникване
халифат
вражеските
разходка
стихосбирката
експрес
аврамов
плеиофите
куиин
прокуратурата
отопление
homo
екосисте
амазонка
баязид
дамянов
down
od
way
агу
##режи
коа
коки
изгрява
раул
сабо
##миер
мец
##пета
пакети
мишки
сребри
праг
физ
лежат
кутии
рун
1680
клан
##гера
тогавашното
горско
пълните
възрастната
социалния
интервал
осиновен
провеждани
архивите
##umb
пиеро
изпити
иванович
философска
стиховете
производни
независимите
изразяване
услугата
краицерът
радослав
възпитаник
1371
вертикална
##имънд
колебания
натфиз
даскалов
закупуване
волеибо
килиино
дряново
тотнъм
поотделно
bas
like
оско
псал
##ношения
##типи
##чевич
маме
мети
следван
##саксон
пърза
консен
##стед
албърт
разликите
лаво
##стояние
чифт
клането
търса
намирането
герг
дневна
целена
##isch
реалните
скачване
класификацията
достигането
спирането
домашно
срещано
норд
важността
ограничение
бюдинген
преминал
спортните
изиграват
дворци
обезще
##маиер
деветте
психически
апаратът
младостта
астрономията
устоичив
галактика
ледника
екзархииски
сблъсъка
фюзела
кралете
примеси
инжекти
##седми
гебхард
астра
зен
шим
##уфен
##ior
##ks
##рикс
засича
кобург
съси
##пав
роко
ледови
варо
единството
маили
влад
хита
заек
##дника
използвала
намиране
гущери
царства
професията
дирекцията
интерфеи
посетен
285
редактори
отбеляза
##ution
пазарна
максималният
крепостната
дворцов
значима
отговарящ
гнева
федералния
филмовите
сваляне
разказът
бундеслигата
справедливостта
синхрон
летателни
гевгели
размножителния
целенасо
cn
аут
##тските
##жкото
##46
поинт
дарение
дора
мавро
##зации
дебит
крали
праис
беден
левият
##ряна
рисуването
хитро
филтри
следващи
убитите
корну
новоза
##лизирането
светъл
водопровод
бурбон
съответното
образувание
разруши
##трик
##ady
померания
епос
католическо
луиджи
химическата
##бъс
извикан
навлизане
демократични
баиер
публикуване
цивилизацията
1784
каросе
##политически
полярен
end
носели
1623
атила
виенската
корпорация
усилване
швеицарската
соколов
търгуват
гросмаистор
утрехт
хеликоптер
post
##шон
преработва
##маш
##даването
сътворе
съкру
доразви
масовите
прокла
приписват
репети
миризма
баш
баика
прагове
възглед
##новско
киро
1230
161
##вял
суши
картира
гииом
земно
четиринадесет
икономист
хермети
##ille
дялове
неолита
африканския
убииствата
крус
попадне
предназначено
литературните
митологията
румънска
ембри
злополу
присъединени
учреждения
потомците
гнездят
затворено
илинденското
повторното
каноник
метрото
гранде
залесена
анатолии
лунната
мегалит
спектакли
мюзикъл
облига
разпореждане
поклонници
препятствия
автомагистрала
амнистиран
ferr
ger
акри
ъф
##42
наран
##страта
пок
положен
##леят
##кау
съдовете
##чем
салю
сиатъл
камер
миз
##цели
частния
лака
адмира
противен
включващо
##тарната
класифицира
станфорд
характерната
проведените
магията
богът
пиесите
спряна
пълномощ
швеицарски
преследвани
полетът
стандартни
индустриална
1756
будизъм
изтегли
##джов
предшествениците
коронацията
югославските
реагират
трактат
батиста
studios
сиропита
europe
сахалин
натъква
гордост
латиноамери
глаихен
god
hel
ег
устре
яге
##сат
##рската
##релите
замести
препарати
коул
##коле
##кология
##бити
паспорт
##совски
възтор
##стери
орха
орлов
1550
1370
последствията
##джра
членуват
##ald
брауз
фок
флората
хермес
стрелят
поредна
общуване
антония
старогръцки
усилена
настоящият
прекъснат
белору
кънчев
консерви
стандартните
стълбове
разпадане
показан
спускането
1572
отдалечава
настаняват
успоредни
археолог
пренасяне
удобни
спектро
баварска
чувствително
военачалници
безкраино
прогонва
черноморския
людмила
##бгвар
вдлъб
земноводни
est
just
mem
бг
звена
ире
опитен
##гването
##шването
##ελ
##тинга
изпро
##виците
маге
##сиен
мели
предложено
ледени
арту
сподви
##имъс
плавателни
плавателна
1540
рих
тунели
тъмните
##връзка
офиси
класифицирани
##годишните
китаиците
египетския
котли
укрепи
фотосинте
пълнометра
трудностите
напредването
клеър
почести
стандартите
1308
французи
##ips
дискре
цялостното
конкурент
отхвърлен
алтернативни
маслени
ветровете
халиф
мелодии
средновековните
отстранени
сплав
470
camp
блати
гето
пате
шари
##мската
##чес
топъл
маите
пробо
просло
##лянов
репли
паника
граи
таилър
борови
##стващи
беат
въздеиства
кути
рум
рудо
хипно
степи
##вярно
използваната
обесен
шир
никого
чуко
брако
клив
монро
берто
административният
бурно
барби
космическите
съвместната
химията
софро
индианско
1259
поляци
придобиване
московското
работеики
прехвърляне
вируси
книжовна
земетресения
чувствителност
изстрелването
хлади
железниците
приготвяне
делегацията
регистриран
одисеи
прототипа
протестиращите
светлана
огоста
пазител
паскал
нотингам
единодушно
банкноти
прародител
отъждест
του
агата
##ρος
##гби
##щните
наземни
поразява
##вение
##диите
##дикт
изсъ
дами
дози
проме
##чано
разц
респекти
нокти
##пея
подът
фиа
##прехт
нина
##лително
фондове
1380
ангела
##образу
##enter
научил
алего
строга
писмен
корса
скаут
##ландеца
параход
шведите
дявола
съществуващата
манастирски
мантуа
огромния
албанците
1521
ловча
основателят
отваряне
имунитет
тактиката
гарнизона
насърчаване
разочарован
спринта
летящи
ателието
осъзнават
братислава
афродита
милосър
rem
tom
var
ири
шла
##hr
##ническо
обновява
##скин
##стинг
##зако
меду
##менява
дичо
балон
балета
лик
липа
##пун
кубри
##фести
маистора
1150
билки
земна
брита
колегата
антигон
джеси
медина
подкрепени
deut
опозна
убедително
договаря
домакинството
очаквания
лагерите
индивидуален
енергиини
универсални
благородниците
##ιας
abc
благотворително
московски
оформление
bulgar
гръмоте
cy
let
дп
китове
##нната
##cy
##go
отслу
сепарати
допуснат
торо
простите
##монд
вебер
##лотов
халю
междузвез
руф
многократ
ходят
стока
1280
1220
##нгтън
стери
жител
бързата
кера
романтизма
резервни
пансион
съобщението
дисплеи
философско
разделението
призра
скици
видим
реигън
ученичка
390
експлози
капиталисти
зелената
мюсюлманското
астроном
скопска
тълпа
затрудне
ръкополага
палма
засилват
съобразно
уравнение
милош
кладенци
фосфор
метеорологични
молитви
психоанализа
бижута
часовниковата
юрисдикцията
подсказва
видоиз
съвеща
арканзас
плутарх
беатрис
mart
иена
##out
покани
застро
селим
маики
##борен
вела
милети
предци
подтик
##рантура
##жински
##балд
##ходва
инве
кунео
ханау
киши
трифон
лоид
общинската
безжи
##кард
тъм
публичен
месеците
изобил
партиите
напускане
директорът
километри
родоначалник
командвани
скрита
беломорието
обичаите
организмите
ганди
престиж
еволюира
лампа
кълбо
ресторан
гръбначни
емблема
усилва
четвъртфиналите
надпревара
чудовище
турбините
утвърждаването
блясък
##регион
леглото
алонсо
pi
sel
бдж
од
уле
##юст
отво
отстоява
##итен
##ители
сага
томо
нет
нетър
мелница
детер
##щени
розов
боа
##атие
някого
слуховете
върната
1715
значения
карла
облаците
езически
##тница
зестра
зенон
##osh
бергер
219
спир
председателства
наблюденията
стоилов
шок
тръбо
критикуван
заседанията
зоологи
африканската
ферман
синаго
356
електрическо
промишлена
атомната
фраза
контрабан
горещите
генуе
съзнателно
мобилизация
1282
надежди
ужас
гравитацията
климатичните
преизбран
миграцията
княжеско
изобретател
сделки
тридесетгодишната
удовлетворе
бенедикти
малешев
враня
пневмония
мотоцик
хилендарски
несъмнено
салерно
get
апу
звън
##uv
извод
довърш
прокарва
##совият
гранада
инфар
##ченския
пластин
1520
1610
1330
##хилд
##ментът
историка
санто
домашна
литературо
##листата
изискване
звукът
323
обвиня
добивът
arch
1778
леибгвар
продуцентите
холандската
пусне
внесени
софтуерни
прехвърлена
изработката
вулканична
флоренти
##berg
издълбани
новосъздадения
отечествения
енергетиката
алесандро
съзвездието
данаил
рубка
гвардеиска
сряда
прираст
610
fest
got
may
tele
бън
ефен
##aut
##шли
##22
напъл
помпи
захваща
преходно
##нево
салона
невил
масон
простор
тежат
молят
виждане
##шец
възди
куфар
открили
##квали
##гено
слалом
люспи
офиса
спасяването
банкер
немци
материална
разрушения
ферментация
употребяват
хитле
клеве
отглеждани
стрелци
1773
арменците
логиката
корабокру
задържани
конвенциона
алексиев
казанлъ
пътешествието
наложило
омраза
усъвършенстване
предвождани
открояват
глаголи
клетъчната
скандинавия
триото
възпроизве
казимир
milit
безработицата
мастърс
кемал
cam
аис
гкп
квер
матов
омо
уон
##ерите
##нто
##кмс
##бл
##ничи
##риците
отшел
забре
колинс
##виер
гота
мау
делене
##анската
конник
##хос
##полско
единно
1630
тунела
противно
шели
неясно
нареждат
обикновения
милиметро
227
формацията
президентски
далече
свещениците
котловини
считана
компютъ
делхи
акцен
старобългарски
ядрените
географското
хрониката
стабилни
оттегляне
хранителната
монголите
контактите
военноморската
жулиета
1683
тълкуване
проникват
декларира
хонщаин
дъждовни
предупреждение
road
захранване
базирано
гръбначния
емоционално
леринско
иновати
депози
патриаршистки
невероятно
производителност
пиринска
интриги
притиска
реколтата
развалините
ултимат
начисляват
640
840
950
aug
fin
kar
west
гя
жари
кх
сатели
тво
##fa
##gn
##ливия
##мару
дотам
мариа
мехо
подложена
хад
условието
вторите
##пром
ласка
1670
марч
марсел
шиф
имперския
плев
креснен
211
социализъм
новините
наследника
##бената
стартират
намерено
патриции
зимува
истинският
възникнало
считано
прясна
минни
механизмите
стандартна
##харма
закрити
албанските
названия
мъртва
1701
атлантик
учредителното
клонки
урсула
анимационни
дебърски
вирусът
благотворителни
съкращение
шотландския
божури
терористични
монетите
ентусиазъм
ньоиския
великотърновския
бътлър
дунавски
mp
ястие
отдръ
селек
конан
##лаг
##неж
марек
сиби
разчи
##онът
вик
констати
кум
духът
аврам
заеми
##чова
издадено
помощни
##тарно
245
черноморски
каталу
хартие
ценност
неизменно
инженерна
дарда
стандартната
идентифицират
морални
1785
объркване
излекува
1598
църковното
прехвърлянето
жилищните
реконструкцията
пещерите
железници
реформатор
шенк
екстремни
импулси
периферия
пукнатини
водоснабдяване
540
9000
онс
юм
##ори
##дката
##кх
наложени
##стната
##вация
покуп
отто
##кава
##тица
пролив
##кил
##ское
мич
бавен
боте
фит
белу
лежа
валове
пиърс
##стеин
надписите
усър
вървят
1519
плода
##eration
1690
клаин
безми
дъм
благочести
клипове
предположи
непопу
каналите
въздухът
пехотинци
опонент
испанският
приключват
##пърс
преподавателите
механизма
добитъка
евреиските
снежната
sport
премахната
нервни
изтребителя
заключава
mach
раихстага
хонг
разговаря
предоставени
килими
ансамбъла
ветерани
заряди
барабаниста
гьотеборг
studio
изпреварва
обсег
аспарух
притвора
ешелон
слънчоглед
антоанета
sac
фенер
##fc
##мята
##si
##нок
котва
разтър
развле
деси
падне
пеле
божия
инвер
2020
солено
арго
неголеми
запасите
краиният
трев
кръвни
днешният
свързо
верди
##ico
горските
акор
катера
джерико
509
близкият
дядото
връщаики
316
определението
регионално
осигуряването
довела
пътуванията
археологическия
разглеждане
1245
камъните
отварянето
елада
1444
измисля
достоевски
балтимор
инсталация
хирург
great
желязото
оправдава
грузинската
безсмис
часовници
влязъл
здравко
оцветяване
херакъл
идеологията
сдвоени
парашути
street
dig
жул
оод
##33
прели
преславски
равена
разтворите
ревю
##доро
мелети
ливии
белет
лестър
никъде
никсън
хазна
газови
1620
поведен
бъдещото
##тателен
резба
братството
империа
шеимъс
древното
скачва
индик
ареал
здравни
охридското
способностите
настоящето
инженерно
бронетан
плътна
скопски
prot
пренесен
камила
изповя
анатомия
киликия
имот
плъз
блокадата
прибавя
холоко
новопостро
обмисля
потекло
дженифър
отава
дискриминация
кардиналите
есперан
тулуза
военнослужещи
сеизми
ir
амор
шлаи
##фати
##жън
##клер
##oz
##щната
##шченко
##рали
сави
доспе
прони
прокля
кажи
рехберг
##дох
монопол
милен
##бард
бавни
##рту
самодеи
страбон
орлан
гарос
рилска
ръж
1180
обед
##нииската
##ложка
224
новозе
сцено
##минстър
непоко
архива
##lex
свещено
битова
хаидрих
португалската
оформена
веществото
преобръ
демонстрират
монографии
сяда
укрепленията
##холц
обширната
blood
бележка
1622
обсъждане
##производството
оформянето
колониална
сенатът
периферията
манифест
скрап
предизбор
доменико
ak
band
roman
змеи
клин
##юм
##реният
понасят
преструкт
##водите
##нем
##тичат
проба
обон
мики
предсро
прадя
##шеи
##инен
страхо
тих
рии
знамена
1420
1440
##виньон
гиб
бридж
##усън
банята
опекун
караи
водопада
ранният
игна
щастието
информационна
решаваща
ценните
##ema
сключване
мексикански
боезапа
генералното
монголски
вдъхновена
обслужват
предоставяне
отклонения
инспекция
спектра
изтъкнат
изтъкнати
лунния
разграничава
тревисти
бунтовни
посрещнати
кухнята
цигулар
извършил
усвоява
траико
юнкер
възпрепятства
дублиращия
олаф
фестивалът
доспат
седалки
велинград
gold
hum
hms
over
pp
ария
гни
есна
фел
##увър
##зността
##fl
##щан
##να
полови
##тала
изтре
симетрия
прихваща
обри
размяна
##менната
предмета
пърли
кут
хабили
хазната
##чителните
лаин
1618
стела
##рииското
пух
кръщава
храмо
бърдо
##ush
##графските
затлъ
теориите
##матите
##тарят
стоиков
атракция
курбан
искали
сержант
отбелязан
унищожат
операционни
полово
изявление
химичните
забравя
палеон
микропроце
##бранд
напуснали
стабилен
арменския
измерването
1365
обкръжението
воиводи
вградена
китаристът
националистически
нестабилност
героинята
##визионния
трансформация
научноизследователски
мозаика
компенсация
fir
іv
##затори
##носеца
повяр
коша
изну
##дете
##делни
речните
пабло
куру
страши
населяват
трилогията
безу
работила
управлен
смъртно
306
##генер
##isc
сражават
##hem
огня
императорска
стрелка
смятал
външното
непокът
издигне
естественото
уестър
монахин
##шоу
духовното
елцин
охридско
каменните
лекарство
холдинг
заливът
1603
lex
1632
придружен
еими
познават
заключение
анимация
самолетоносачите
подводницата
обграден
неравен
завземане
глюкоза
##ныи
народоосвободителен
презвитер
дедеагач
bra
dc
tem
ze
а3
вон
сгод
флага
##творен
начините
##дик
##мални
рау
радват
голф
тори
##госа
##зинг
кавал
##руе
револ
тасос
роис
предя
поддържан
##жили
триа
трини
плодът
форума
повество
1430
1185
лутер
шаб
участвала
първород
първостепен
##налдо
законен
столична
238
представляващи
геодези
обучени
техническото
намерените
амфите
##фицирането
ръководят
треньори
харди
рамзес
първанов
цялостен
шарн
предприети
381
типичната
архиепископа
значимост
1606
изложбата
1277
показано
еирис
гнезди
очила
влиятелен
пътешествия
охлажда
news
неправилна
ябълка
любимци
прокопии
андонов
синтакси
арбитра
геноцид
ернан
осминафи
970
гват
дзин
окул
##матори
##мгард
задна
точен
точността
масите
пропи
реджо
##стик
модена
молотов
ролинг
бег
##манта
надяваики
кибер
полураз
запален
лошата
поведе
##ani
дневника
букси
семеина
мъгли
кралства
появил
##мнон
##ландец
подкрепена
поставил
сплит
капито
абсур
##нистика
stand
рядък
##ird
капитанът
съобщи
сътрудничат
##ристката
фигурира
view
одринската
престоява
прекратяването
полетите
изразходва
французина
академични
индивидуалните
живко
1568
документация
1676
отделението
прикритието
подробен
теренът
археолози
мраморно
контузии
имота
мекотели
огнище
приготвят
under
многочислени
бартоло
водопади
декрет
цецилии
затопляне
ga
nm
pay
хво
отгледан
зама
кох
недели
масли
приоб
разпра
разкъ
[...]
