[SEP]
[UNK]
[CLS]
[PAD]
[MASK]
!
#
$
%
&
(
)
*
+
,
-
.
/
0
1
2
3
4
5
6
7
8
9
:
;
=
?
@
\
^
_
a
b
c
d
e
f
g
h
i
j
k
l
m
n
o
p
q
r
s
t
u
v
w
x
y
z
{
}
~
¡
¢
£
¥
§
¨
©
ª
¬
®
°
±
²
³
µ
·
¹
º
¼
½
¾
¿
×
ß
æ
ð
÷
ø
þ
đ
ħ
ı
ł
ŋ
œ
ƒ
ȝ
ɐ
ɑ
ɒ
ɔ
ɕ
ə
ɛ
ɟ
ɡ
ɣ
ɦ
ɨ
ɪ
ɫ
ɬ
ɯ
ɲ
ɴ
ɵ
ɸ
ɾ
ʀ
ʁ
ʂ
ʃ
ʉ
ʊ
ʋ
ʌ
ʎ
ʏ
ʐ
ʑ
ʒ
ʔ
ʝ
ʰ
ʲ
ʷ
ʹ
ʻ
ʼ
ʾ
ʿ
ˀ
ˁ
ˈ
ˌ
ː
˙
˚
͵
΄
α
β
γ
δ
ε
ζ
η
θ
ι
κ
λ
μ
ν
ξ
ο
π
ρ
ς
σ
τ
υ
φ
χ
ψ
ω
ϕ
ϙ
ϛ
ϝ
ϟ
ϲ
ϻ
а
б
в
г
д
е
ж
з
и
к
л
м
н
о
п
р
с
т
у
ф
х
ц
ч
ш
щ
ъ
ы
ь
э
ю
я
ђ
є
і
ј
љ
њ
ћ
џ
ѣ
ѧ
ғ
җ
ҙ
қ
ҡ
ң
ҧ
ү
ұ
ҳ
ҷ
һ
ә
ө
ա
բ
գ
դ
ե
զ
է
ը
թ
ժ
ի
լ
խ
ծ
կ
հ
ձ
ղ
ճ
մ
յ
ն
շ
ո
չ
պ
ջ
ռ
ս
վ
տ
ր
ց
ւ
փ
ք
օ
ֆ
և
א
ב
ג
ד
ה
ו
ז
ח
ט
י
כ
ל
ם
מ
ן
נ
ס
ע
פ
ץ
צ
ק
ר
ש
ת
ء
ا
ب
ة
ت
ث
ج
ح
خ
د
ذ
ر
ز
س
ش
ص
ض
ط
ظ
ع
غ
ـ
ف
ق
ك
ل
م
ن
ه
و
ى
ي
ٹ
پ
چ
ک
ڭ
گ
ھ
ہ
ۇ
ۋ
ی
ې
ے
ە
ܐ
ܒ
ܕ
ܘ
ܝ
ܠ
ܡ
ܢ
ܣ
ܦ
ܪ
ܬ
އ
ދ
ः
अ
आ
इ
उ
क
ख
ग
च
ज
ट
ठ
ड
ण
त
थ
द
ध
न
प
फ
ब
भ
म
य
र
ल
ळ
व
श
ष
स
ह
ा
ि
ी
ो
ौ
ং
অ
আ
ই
উ
ও
ক
খ
গ
ঙ
চ
জ
ট
ঠ
ড
ঢ
ণ
ত
থ
দ
ধ
ন
প
ফ
ব
ভ
ম
য
র
ল
শ
স
হ
া
ি
ী
ে
ৈ
ਰ
ਲ
ਸ
ਾ
ਿ
ੀ
દ
ર
ા
ା
ஃ
க
ங
ச
ட
ண
த
ன
ப
ம
ய
ர
ல
ழ
வ
ா
ி
ு
ே
ை
ల
వ
ు
ಸ
ം
യ
ാ
න
ප
ර
ල
ා
ෙ
ก
ง
จ
ช
ด
ต
ท
น
บ
ป
พ
ภ
ม
ย
ร
ล
ว
ษ
ส
ห
อ
ะ
า
เ
ไ
ງ
ນ
་
ག
ང
བ
མ
ར
ས
က
င
တ
ထ
န
မ
ရ
လ
ဝ
သ
ာ
ေ
း
ြ
ა
ბ
გ
დ
ე
ვ
ზ
თ
ი
კ
ლ
მ
ნ
ო
პ
რ
ს
ტ
უ
ფ
ქ
ღ
ყ
შ
ც
ძ
წ
ჭ
ხ
ჯ
ᄀ
ᄁ
ᄂ
ᄃ
ᄅ
ᄆ
ᄇ
ᄉ
ᄋ
ᄌ
ᄎ
ᄏ
ᄐ
ᄑ
ᄒ
ᅡ
ᅢ
ᅣ
ᅥ
ᅦ
ᅧ
ᅩ
ᅪ
ᅬ
ᅭ
ᅮ
ᅯ
ᅲ
ᅳ
ᅴ
ᅵ
ᆨ
ᆫ
ᆯ
ᆷ
ᆸ
ᆼ
ል
መ
ማ
ረ
ራ
ር
ስ
ቅ
ባ
ብ
ት
ን
አ
ክ
ያ
ደ
ᗅ
ᗷ
ᗺ
ᠠ
ᱟ
ᱤ
ᵻ
᾽
᾿
῾
‐
‑
‒
―
‛
†
•
‰
′
″
‹
›
‿
⁄
₤
₩
€
₹
ℓ
№
ℝ
™
⅓
⅔
⅛
←
↑
→
↔
⇄
∀
∂
∃
∆
∇
∈
−
∗
∘
∙
√
∝
∞
∧
∩
∪
≈
≡
≤
≥
≪
≫
⊂
⊆
⊥
⋅
─
├
█
☉
♠
♥
♦
♭
♯
⟨
⟩
ⲁ
ⴰ
ⵉ
ⵔ
ⵙ
、
《
》
い
う
か
き
け
し
す
た
ち
っ
つ
と
な
の
は
ひ
ま
ゅ
ょ
り
ん
ァ
ア
ィ
イ
ウ
ェ
エ
オ
カ
キ
ク
ケ
コ
サ
シ
ス
セ
ソ
タ
チ
ッ
ツ
テ
ト
ナ
ニ
ノ
ハ
ヒ
フ
ヘ
ホ
マ
ミ
ム
メ
モ
ャ
ュ
ョ
ヨ
ラ
リ
ル
レ
ロ
ワ
ン
・
ー
一
三
上
世
东
中
主
之
九
二
五
京
人
仙
代
伊
会
伝
佐
佛
侍
元
光
入
全
八
公
共
内
冒
刀
利
剣
功
加
化
北
区
區
十
千
华
协
協
南
原
县
古
可
台
史
司
合
吉
名
周
和
唐
四
国
國
團
地
城
基
塔
士
夏
大
天
太
夫
央
女
子
孔
字
学
孫
學
宁
宇
安
官
実
宮
家
富
小
少
尔
山
島
川
州
市
帝
師
平
年
广
店
府
式
御
心
忍
戦
戸
所
手
拳
政
教
散
敦
文
新
方
旗
日
明
星
春
時
書
會
朝
木
本
术
李
条
東
松
林
株
機
武
氏
民
水
汉
江
池
河
治
泉
法
洋
洛
津
洲
流
海
清
湖
漢
物
特
王
球
田
界
白
百
皇
石
社
神
福
秋
科
空
立
章
红
羅
美
義
者
育
自
花
英
華
行
術
裏
西
親
記
語
説
话
语
路
身
車
軍
通
道
郎
郑
部
都
里
重
金
鉄
門
間
阿
院
陽
隊
雄
集
青
韓
馬
高
鬼
魏
鮮
黑
黒
龍
龙
ꜣ
ꜥ
～
￼
##υ
##σ
##κ
##ι
##ν
##ρ
##ο
##θ
##ε
##τ
##α
##ω
##δ
##n
##g
##e
##l
##i
##k
##μ
##π
##o
##r
##d
##c
##h
##t
##y
##b
##a
##λ
##s
##η
##ς
##а
##р
##н
##е
##4
##7
##5
##φ
##β
##γ
##u
##w
##p
##2
##9
##3
##6
##с
##χ
##v
##ξ
##ζ
##f
##0
##x
##m
##8
##z
##1
##q
##у
##д
##о
##в
##ː
##ʎ
##ҧ
##ψ
##つ
##л
##и
##б
##ы
##г
##м
##ə
##і
##ø
##з
##ɐ
##ћ
##া
##j
##হ
##ا
##ن
##ت
##п
##т
##к
##ʲ
##ɪ
##ˈ
##ɨ
##ß
##æ
##ч
##ি
##ন
##জ
##প
##র
##レ
##イ
##ス
##テ
##ー
##シ
##ョ
##ン
##ı
##ц
##ш
##ұ
##х
##қ
##ر
##ح
##µ
##م
##ل
##د
##و
##ј
##њ
##ь
##ա
##յ
##տ
##է
##ع
##س
##ك
##ي
##ط
##ł
##ड
##ि
##य
##ा
##ח
##ו
##ר
##נ
##י
##ɛ
##ᅩ
##ᆼ
##ᄅ
##ᅵ
##ж
##ز
##प
##ी
##か
##し
##ф
##ր
##վ
##զ
##դ
##ხ
##ი
##ლ
##ვ
##ე
##ნ
##я
##ウ
##ル
##リ
##ण
##क
##ァ
##ナ
##フ
##ト
##য
##യ
##ാ
##ം
##र
##ð
##ҳ
##ह
##ی
##ᅥ
##ᄂ
##ᅧ
##ᆫ
##ᄋ
##ᅮ
##ᄃ
##ש
##א
##ל
##ო
##მ
##ც
##व
##ʁ
##ɔ
##خ
##ج
##ɣ
##ն
##ս
##թ
##ը
##מ
##ה
##ف
##ق
##ʊ
##ʃ
##ɫ
##म
##न
##ة
##ش
##մ
##ե
##ң
##ভ
##গ
##ী
##ى
##რ
##ა
##ზ
##ˌ
##ه
##ғ
##ب
##ŋ
##ʼ
##ɑ
##ɯ
##ѣ
##ъ
##ן
##ә
##ע
##ת
##ɾ
##ን
##ል
##ာ
##မ
##ေ
##သ
##º
##گ
##ې
##ո
##լ
##ւ
##խ
##ҙ
##ض
##غ
##ต
##ล
##ᆯ
##պ
##ի
##կ
##ɡ
##ɲ
##ד
##ன
##ܝ
##ܬ
##ܐ
##ソ
##ᆨ
##ᄀ
##ᅢ
##ᄒ
##ᅬ
##ב
##פ
##ल
##ۇ
##چ
##ħ
##ས
##ʰ
##ध
##ェ
##щ
##є
##ደ
##ር
##ʿ
##ய
##ܦ
##ɕ
##ज
##э
##ք
##ʏ
##ት
##ያ
##đ
##џ
##ص
##և
##չ
##ە
##ク
##צ
##ժ
##い
##ठ
##ʔ
##ᅡ
##ᄉ
##ব
##উ
##ャ
##љ
##ম
##ो
##ɬ
##ץ
##ʉ
##カ
##ю
##უ
##ბ
##დ
##ס
##ט
##ק
##ग
##ܪ
##ܡ
##ܣ
##ܘ
##ौ
##გ
##შ
##գ
##ⵔ
##ⴰ
##ʒ
##ү
##ර
##ʻ
##ϛ
##ם
##თ
##ட
##வ
##ு
##ջ
##ϕ
##բ
##ર
##ા
##ᄎ
##ᆸ
##タ
##ர
##க
##ா
##ம
##න
##ල
##һ
##ҡ
##ს
##ց
##ђ
##セ
##җ
##ብ
##ረ
##շ
##ղ
##ʀ
##ʹ
##כ
##ख
##บ
##ນ
##ᄏ
##ہ
##ब
##श
##ᄇ
##ண
##オ
##ニ
##ᄌ
##च
##კ
##އ
##ދ
##ラ
##ツ
##モ
##ᅪ
##ᅳ
##ᆷ
##ᄑ
##ז
##ে
##খ
##ʾ
##ত
##ჭ
##ռ
##ᅦ
##ג
##চ
##ল
##द
##マ
##ி
##ல
##ங
##ケ
##ȝ
##հ
##ক
##ゅ
##キ
##ծ
##ۋ
##স
##ြ
##ା
##ৈ
##ظ
##ھ
##ィ
##ɟ
##ტ
##は
##ち
##の
##な
##œ
##ⵉ
##ণ
##ʌ
##ট
##ই
##ท
##น
##ร
##า
##ษ
##サ
##ث
##ट
##ᅲ
##ذ
##ੀ
##メ
##ロ
##ے
##ᅭ
##ء
##ヘ
##チ
##त
##ک
##ᱤ
##ᱟ
##ส
##ม
##ย
##ճ
##ヒ
##ア
##ミ
##ফ
##ʂ
##দ
##ө
##ハ
##ᄆ
##پ
##た
##ま
##ュ
##ڭ
##ே
##ـ
##ヨ
##ワ
##ܢ
##ะ
##ง
##จ
##ꜣ
##ⲁ
##ᅯ
##წ
##ფ
##स
##ホ
##ງ
##ˀ
##ɒ
##ও
##ム
##เ
##ช
##တ
##ང
##ძ
##শ
##ং
##ん
##ܒ
##ห
##ว
##อ
##ः
##ঙ
##န
##ා
##လ
##င
##ʝ
##থ
##ʋ
##फ
##ᵻ
##þ
##ッ
##け
##ማ
##ਿ
##ਾ
##ყ
##ქ
##ড
##ክ
##थ
##ℝ
##ਰ
##ෙ
##す
##き
##ਲ
##ª
##ձ
##コ
##ထ
##ळ
##ʑ
##ʐ
##ɴ
##ை
##த
##ภ
##ป
##ก
##ღ
##ల
##མ
##ょ
##ひ
##っ
##ℓ
##ᄐ
##ܕ
##ᅴ
##ᗺ
##ᗷ
##ᗅ
##བ
##ག
##ɵ
##ֆ
##ˁ
##း
##ด
##փ
##ు
##દ
##ப
##ѧ
##と
##う
##ধ
##ष
##り
##օ
##ϟ
##က
##ϙ
##ノ
##ᅣ
##ழ
##ⵙ
##መ
##ራ
##พ
##भ
##ϻ
##ঢ
##ရ
##ဝ
##ስ
##ʷ
##ಸ
##ප
##ቅ
##エ
##ϝ
##ҷ
##ᠠ
##ɦ
##ไ
##వ
##ٹ
##ƒ
##ܠ
##ϲ
##ባ
##პ
##ச
##ਸ
##ར
##ஃ
##उ
##ου
##ια
##τα
##ικ
κα
##ει
τη
##πο
##τη
##ρα
το
##ων
του
##το
##να
##ερ
και
##μα
##ρο
με
##ισ
##ες
##αν
##ιο
απο
##ot
qu
της
quot
##εν
##ης
την
##τι
##τε
##ος
συ
##ον
##λα
##τικ
##ρι
##ολ
##κε
στη
επ
##ιν
##ση
πα
##λη
να
στο
ει
##σε
##θη
##ται
##ιας
τον
##λε
##λο
τα
##ταν
##ους
##μο
##ουν
προ
αν
##ρε
σε
##ρω
που
στην
για
των
##κα
##μεν
##ικη
##ως
περ
δια
##πα
αυ
##ορ
##ικο
##ναι
##ργ
ειναι
19
εκ
πολ
##σι
##τερ
εν
οι
##ρη
ανα
μα
##με
συν
κατα
##χε
##ικα
##σει
##κο
τους
##ρχ
αλ
##ρισ
##αλ
##νο
##ιου
##θε
##δο
##θηκε
ενα
##μη
τι
##δα
##ελ
μετα
##νη
ηταν
##τος
επι
οπο
##ευ
πρω
##που
##σα
##ρια
κο
##σο
##σια
παρα
##στη
##τες
θε
20
βα
στα
στι
αγ
κυ
##στ
##πε
##γρα
συμ
##τας
δη
##ρου
τις
μια
##εται
εξ
ως
##των
δυ
στις
##γκ
##γα
##δια
υπο
στ
##χει
##χη
##τικη
##λι
##σης
##τικο
##δη
##ματα
περι
αρχ
επισ
##στα
##του
##βα
##ικης
##τερα
##ρυ
τε
##τυ
##σαν
##τικα
##οι
##γραφ
περιο
##στο
##ιος
αυτο
##μαν
##λει
##καν
##μου
##ογ
##μπ
οτι
##φα
##της
δι
ση
στον
δεν
##ιων
##σεις
χω
ελ
##τω
αλλα
θα
##ποι
##τει
##ρον
##ριο
##λογ
##πη
##τισ
##θει
##μβ
##ρει
πε
##ιλ
##φερ
##λευ
νε
ευ
νο
##λυ
ενω
##φο
ιδ
##νω
εγ
δε
χα
##ιζ
##γη
##ικες
προσ
##τια
πο
##ικου
##φη
##τρο
##κη
##ινη
##er
##ιδ
##μος
##ραγ
##μερ
ειχε
μη
αρ
καθ
παν
##ξη
##ριου
##ονται
18
##εις
εχει
200
##os
αντι
οπ
##ονο
##κτη
##λια
συνε
##ινο
##τητα
##ωμα
χρη
##οντας
##κρα
##ικων
μπο
##φορ
##ιες
δυο
##γο
χρον
εργ
201
αποτε
##θυ
##εια
σχε
##λου
λα
μεγ
ακ
##τηκε
βασι
##τρ
##μενο
στρα
##an
##νομα
##ρας
##μενη
δημο
##τερο
##φων
ασ
οποια
##χν
##ειο
εμ
λι
επα
##ρος
##00
επισης
γεν
##χαν
απ
ap
##on
ομα
##λω
οπως
##εκ
##ουλ
##ματος
apos
ονομα
##τευ
μερ
##χα
##λαβ
##in
λε
##δε
##λην
##λες
μεγαλ
##ξε
##λων
##ψη
##θηκαν
##κλη
ομ
ου
##ar
##ποιη
πλη
πολι
τελ
οποιο
μπ
##τικες
φυ
##φαν
##χο
λογ
##ινε
γυ
διο
εχ
επο
##θν
##τρα
##μενα
γνω
##τερη
##ιω
##ριζ
σα
##ικος
##τον
αι
γε
##πισ
##en
αυτη
βρισ
συγ
##ρες
##ινα
κατο
οπου
##ριν
πρωτα
ισ
##σιμο
υπα
αγων
πολυ
φα
οταν
γρα
##σω
##μιου
##σκε
ελλην
ανε
βο
απε
##δες
##ξυ
##ισε
##ρων
μο
πολε
##θλη
##λος
##ολογ
μου
##γου
##γεν
##χρι
μικ
##τρε
μεγα
199
εδ
##δυ
##φυ
μεχρι
##γε
##τικης
##ρκ
χρονια
##χυ
##es
καθως
##βερ
##μμα
##or
##ιτ
υπη
##ας
##τιν
##λαν
διε
##περ
##ψε
##ντ
##νε
##χω
χρησιμο
εξα
##λοι
εκει
στους
##al
ομαδα
δυνα
εργα
##ολου
αργ
##σσ
##ολο
##ζι
##δρο
##μια
εθν
μεταξυ
εγινε
##γω
##μων
περισ
##μβαν
συμφων
ιστο
##ερο
##κου
ζω
##σιας
θεω
πρωτο
τζ
##χολ
κρα
##σκευ
πυ
οικ
##ργαν
##ορα
##διο
##θαν
αφ
##at
συγκ
##πει
γερ
##μι
κεν
καθε
πη
προς
##ιον
##στηκε
##σμα
##θο
πρωτη
καν
μονο
##θα
πιο
##τικων
εχουν
τρο
##λισ
##τσι
φι
γαλ
ομως
##μιουργ
##σμο
##ραν
##φαι
##ναν
τυ
δημιουργ
δευ
##ικους
αιων
πολη
##χεια
##ραγμα
##ρεια
##λαμβαν
μαρ
##is
##λιο
χαρα
μον
##μει
αδ
##μον
##ιε
θεση
##ic
ιδια
##ρκε
198
συμμε
##σουν
##ωση
##κι
μπα
##γει
σημαν
##δος
υπαρχ
##κει
επε
##ρευ
ανθ
πρωταθλη
12
##δει
μεγαλυ
##ωσε
μπορει
##χης
##ινει
ταιν
##γκο
##μενος
ενας
##μους
κατε
βι
##κρι
##τοι
περιοχη
##μενες
αγγ
περισσο
εναν
κυκ
##παν
οικο
μεσα
αποτελε
κορ
πλα
συμβ
ιδρυ
##ριας
τρι
##δων
##τζ
##ρονο
197
##λης
15
##el
##λους
πραγμα
##τους
προε
σο
##τιας
αργο
##τησε
##τικου
17
ολο
αξ
χαρακτη
##γων
κυβερ
##κυ
διαρκε
##λαβε
##κεται
##λιας
αναφερ
##τιο
ευρω
μονα
ακο
##ζεται
δεκα
μυ
κοινο
αιωνα
εισ
αργοτερα
##ουα
αθη
δο
##γον
##ειρα
κινη
γερμαν
##γραφη
περιοδο
##συ
αρχα
μαζι
##δου
##ξαν
βρε
194
##γμα
##μυ
##μερα
16
συλ
ειχαν
ρω
10
ελλα
##ινων
οποιος
διαρκεια
##βη
ρο
σκο
βρισκεται
καπο
196
##νας
##σταση
##τηγ
ετσι
συμφωνα
##οντα
τοτε
ρα
δρα
##σσα
παι
##ησε
##ριθ
κυβερνη
##he
##it
φορ
##χθηκε
##φορα
παρε
##κατα
εμφαν
ξεκ
##γγ
απα
νη
μουσ
καλ
##δας
ανθρω
##στε
πως
επει
##τητας
##τολ
αναγ
##ur
##προ
μερος
##μενων
##μισ
##θεση
##τικος
οργαν
σχολ
14
##ρουν
δικα
πισ
##σεων
ερ
##μιο
##φαλ
περιπου
##βαλ
##πτυ
μορ
γα
##σφαι
αυτοκρα
##δον
##μβριου
##θερ
τμη
νεα
κερ
##στημα
ιδιο
τραγ
##χια
τελευ
πι
##ις
γεννη
##νης
##μης
000
##χες
ενος
αυτοκρατο
##γκοσ
13
##us
δα
γεω
##βολ
##il
##πι
##ol
##ζει
##πος
βρα
##δικα
##ρτη
##σκα
##θουν
##σου
##as
λει
ακολου
##ισμο
κυρι
##ρις
κι
##μενου
##τουργ
παλα
##ικοι
##κης
σι
σαν
##τιω
##ανα
##μες
##ερα
##πον
##κος
##μπου
##ονταν
195
κυκλο
##κες
11
##νων
##σιο
αποτελει
##ανε
##δι
τραγου
επικ
γκ
##οταν
οικογεν
στε
ωστο
καλυ
ωστοσο
##στρα
αριθ
παρου
εξε
193
αντισ
##λικ
λογω
εφ
##et
192
##ξα
##τερες
εκα
##τεια
##φος
πληθυ
##ματισ
κατασκευ
##γες
πριν
##λεον
πρε
νεο
##λεγ
δου
υπηρ
επανα
##ματων
##εργα
##τητες
βου
##ξει
βιβ
##ειται
##ζαν
συλλογ
θανα
σημερα
σημα
##βε
πανω
αρκε
##am
##πων
##φερε
φορα
κατηγ
##ηλ
εργο
προσω
αμερ
ζη
μικρο
ξεκινη
καρ
εκδο
κυπ
διοικη
βαθ
αυτα
παρουσια
##νου
##σταν
εκκλη
##τεχν
κατηγορ
##ρους
ιτα
φω
τιτ
##ιστηκε
παγκοσ
ολοκλη
##λον
##πιστη
χρησιμοποι
##για
##νει
συνεχ
συνεχεια
οδη
σωμα
γλω
αποτελεσμα
αναπτυ
##ac
τελευτα
##πουργ
##δρα
##ινεται
οκ
##λευθερ
κου
εται
συνα
πανε
γυνα
##σον
##ρικη
##μπα
the
##λλα
οικονο
##τιου
εως
##βλη
στρατιω
τεχν
##ion
βοη
κυκλοφορ
191
δεκαε
##ουνται
πρα
##σιες
μεγαλη
υπερ
ξε
##ριες
##θεν
##χος
##χωρη
χιλ
παραγω
##le
##ικαν
υποστη
λειτουργ
κυριως
προσπα
##ουσα
##τηρη
##λεκ
αδελ
##λιου
##στει
ισχυ
##τρια
λου
ομο
ταινια
ορισ
αποφα
##νες
εμπο
##τελε
##εντ
πατερα
ανη
περα
πανεπιστη
##φια
93
επιτυ
ια
συνο
συνη
ανδ
πολλα
σπου
##ψει
91
##re
##βο
νικη
κομμα
αερο
##ξης
##ταση
##ριων
σου
##ιζει
αμ
παρο
##πτω
##νευ
##ing
##om
κομ
##τηση
αλε
χωρις
##τουν
προεδ
##λλη
φε
##ζα
##κων
βορ
τοπ
##στρο
σχη
##ματο
ανατολ
##βαν
γεννηθηκε
φιλο
γου
θεα
##γης
ντε
##θω
μι
ατο
##γος
χει
εξω
ιν
στοι
##σμου
##ινου
ψη
οκτω
τρα
σειρα
σερ
##πτε
πρωταθλημα
δημοκρα
εβ
μιας
ορ
##χων
εκλογ
ποδο
καλλι
μεγαλο
σκ
##ιοι
##μικη
##θυν
αναμε
χωριο
##δικο
##τρων
παραδο
τουρκ
ποδοσφαι
τοπο
ναυ
κων
κε
##ιους
συζ
πολλες
μαν
##ρεις
##δισ
ελα
##στου
##θεια
κλα
τμημα
##ρικο
ιω
εγκατα
υπηρε
ιδιαι
αντα
##καλυ
χρισ
κατω
##ιζεται
σκη
συχ
ελλαδα
γραφ
εποχη
υπαρχουν
κυρια
τελος
##κεκρι
συνηθ
μαθη
βιο
σχεδια
##ισμος
θερ
##βου
εδρα
εντο
γραμ
μει
πολης
επαρχ
σω
αλλη
ηλικ
πιθαν
τελικα
##ch
βασ
χαρακτηρισ
##θου
##ιωμα
##βι
λιγο
βρεταν
νησι
λυ
##φρα
##χειρη
κω
##φι
βασιλει
αρχη
πεν
##τερος
##στρε
κοινων
εκανε
##δικη
επιση
αφου
αρχικα
##un
##μενοι
##ιση
##χεται
αυτες
φορες
φιλ
περιλαμβαν
εμπ
υπαρχει
συνδε
##λικα
ξεκινησε
##οπ
κωνσταν
##χι
βυ
##θησε
συστημα
συγκεκρι
##ad
##σκ
##υρο
ιωαν
ταξ
χρησιμοποιη
ιστορια
##κινη
αυγου
χωρα
##τοποιη
##γκα
τρεις
εκτος
κοντα
αθηνα
αναγνω
γεωργ
##λεια
οσο
##ιρε
τοσο
υψ
θη
περιε
λο
##νος
φυσ
##ουλιου
διαφορ
##ισμου
ρωμα
##στηριο
##στι
st
προγρα
##θος
##ζε
μεσω
##λουν
αλλες
ακομα
de
##μειο
##σπα
##μπερ
αποκ
##ιδευ
πορ
##γγελ
υπε
ακομη
##λικη
##τικους
ωστε
##ηθηκε
##περι
διαφο
ολα
επιστη
δω
##μοι
##μορ
συνεργα
μολ
##τομ
##πους
υψη
κολ
οκτωβ
##γυ
##πολη
ποτα
ενερ
##ζονται
##τηκαν
καθη
παρ
συμμετει
αρχες
επιχειρη
αμερικαν
γιο
##ρειται
αρισ
ομαδες
μελος
λογο
μαχη
αθλη
αρχαιο
τηλε
κρι
ελεγ
πλευ
##προσω
##λικο
δει
ανω
αμε
τοποθε
προκα
σεπτε
ρου
##χου
##ro
##γονος
##τρι
τιτλο
συμπερι
##δους
χρονο
φερ
κεντρ
ετων
ελαβε
συντα
ιουν
ερευ
μακ
φο
θαλα
συνολ
μπορου
τερ
αναμεσα
κεντρο
βαλ
##λιν
ευρωπα
ιαν
##δω
##κτο
γλωσσα
γυρω
τρια
προη
διπ
θανατο
σημαντικο
2011
ηγε
##ρμο
απρι
εθνικη
οικογενεια
πλεον
βιβλιο
ολυ
διευ
χιλιο
##πης
##χισ
##ed
δισ
εδα
##στος
##μικο
##φε
συγκρο
πολεμο
##ρεα
σταθ
##διας
##σμος
##και
of
##ia
υπηρξε
πολεμου
##νυ
στρατο
##κτησε
συχνα
μελε
##ελι
αναφερεται
κον
##ωθηκε
##um
ιανουα
##πεδο
an
ch
##μιας
##κας
##ενε
νοε
λευ
βασιλια
βουλ
προβλη
θεο
##φες
in
##υτο
κατασκευα
ατ
κατοικους
δεκε
κωνσταντιν
συζυ
##πτο
χερ
##μπο
αγωνες
##πευ
25
ηλικια
ανοι
μηχαν
##ριση
##γραψε
ποι
##νοι
κυπελ
πρεπει
εκκλησια
αλεξαν
κυβερνηση
προκει
##id
τροπο
##διου
##ρακ
##ματι
υπουργ
περιπτω
ολυμπ
μετε
190
προσε
ολοκληρω
30
συνηθως
οποιες
ρε
##ζουν
βρισκ
ισπαν
##λαδη
##ζο
δηλαδη
βορεια
##ιδι
##δης
μελη
χρηση
ζωη
##σσαλ
κερδ
##βια
δευτερη
##ιλια
##ροι
##ιτη
θυ
##ξεις
βαση
##ιερ
μεσο
χρω
ημερ
γη
##μενης
περιοχες
συνθη
##ιδα
χαλ
##παιδευ
ποσο
##ουλιο
##τομμυ
γνωστο
##τρου
συγχ
επειδη
βραβ
##λμ
διαφορε
##ιναν
##ig
σπουδα
κλη
αντιστοι
συγκροτη
##σκο
##ag
##ωνυ
##ολογια
##ριζεται
χιλιομε
##ter
γιος
ομαδας
πλο
αυτος
παραδει
##ικον
κορυ
αρχισε
##μεις
οχι
##μβριο
μορφη
##οδο
##ισθη
διδα
χρυ
πεθαν
πηρε
αφη
ψυ
τελευταια
εκπαιδευ
παλαιο
ελευθερ
##ρουα
##τσ
εκεινη
παπα
δημοσι
δρο
ηλεκ
##φισ
##γαν
##στικα
##σσε
εσω
βυζαν
##γεια
##στες
αστ
##νια
##μβα
##ειας
ποιη
διοργαν
##ζη
πρι
##θων
##ειου
ανεξα
πρωτος
πανεπιστημιο
##χθη
χο
##ir
θεσσαλ
βορειο
αρα
##τς
##ττα
νυ
οδηγη
εναντ
κατηγορια
##μενους
##ay
νοτιο
δευτερο
##μικα
γεγονος
εναντιον
αλλο
σει
##ul
##ρης
διαδο
εξου
##im
##πω
συμμα
##ζον
θρη
προεδρος
νοτια
αντιμε
##γεται
ακα
βε
διεθν
##γκι
φεβ
υπολοι
εκλογες
πολιτισ
##ut
φεβρουα
##ην
εντα
ξανα
##πολι
ρολο
ντα
##γερ
##ent
συναν
σχεδον
καλα
βελ
##ρισε
σχετικα
αγωνισ
τσα
##κους
μεγαλυτερο
πειρα
γιου
προστα
πρωτευ
σπι
εφα
γινει
αποφασ
ιστορ
κη
αγιου
2010
##θισ
##στερ
μεγαλυτερη
παιχν
ιδιαιτερα
αντιμετω
##λας
παραλλη
##ρν
κανον
επεστρε
μπορουν
##iv
βουλγα
αξιο
ισο
διατα
χλμ
προγραμμα
##ρχη
εγκ
πραγματοποιη
μητερα
ολυμπια
υποστηρι
##φθηκε
##τικοτητα
ορο
χριστια
##φει
to
ιδιος
##ινγκ
εφη
υπολογ
ελληνικη
συμμετο
συμμετειχε
ζα
al
ηνω
##χους
κοσμο
##φους
##χθει
διαθε
θεωρειται
περιφερ
σημει
φυλα
εσωτερ
αντικα
μακε
ιδρυθηκε
σημερ
ανακαλυ
εκατομμυ
επιτρο
φαν
μνη
αρχι
τιμη
αντικ
εφαρμο
γινεται
100
##γωνισ
πανα
περισσοτερο
##λερ
καλο
μετρα
προερ
##στηκαν
ολες
πεθανε
##ινης
προσωπ
##ρειας
αγωνα
αλμπου
θεωρη
189
##εντρω
##ψαν
κυκλοφορησε
ονομασια
παντρε
ενο
##πλη
ζων
αλμπουμ
##δευ
επαν
##μουν
δικ
##πια
κανει
ειτε
##κολου
αυξη
ρωσ
αναγκα
ρυ
21
συντο
##τικοι
πρωτευουσα
επισκε
ιουλιου
##βιε
πατερας
χωρας
εξωτερ
ανεξαρτη
κωνσταντινου
σκα
ενδια
μαιου
##ωσης
##ουσε
αγα
θερμο
αρκετα
##and
στοιχεια
##φον
ιδε
δυναμεις
εφτα
##ριζει
γκα
πληρο
ζωγραφ
αυγουστου
ηπα
βασιλιας
αντιπα
χαν
περιοχης
βερ
γνωστη
ηδη
εκτελε
##χνη
##φης
##χουν
αλλων
##τησει
συγγραφ
επιπ
ακρι
##μηχαν
##ρρο
οποιοι
μακεδον
##od
μαρτιου
κει
παρεμει
παραδειγμα
μισ
δεκαετια
##φου
κλι
οκτωβριου
22
εγκαταστα
re
χωρο
καποια
ιουνιου
##oc
##st
ιπ
##σπον
##βιω
επειτα
##μω
δραστηριο
απριλιου
##ιαν
μεταλ
αξιωμα
δημοσιευ
προηγου
σεπτεμβριου
##ιντ
24
διαφορα
σχεση
διαφορες
πεντε
##θωμαν
τελη
πολιτικη
##γουν
##ριστηκε
##ra
πινα
##στικη
οθωμαν
2009
##σες
##ειες
αποστο
θεσσαλον
##ισαν
τζα
γι
##διδ
αιγυ
##γωγη
παλι
πλου
κλει
επιτυχια
παιδια
μεταφερ
κερδισε
σχολη
συνθε
κανα
ανελαβε
χη
##ρεν
επιφαν
##ιτς
2008
λη
παρισ
αλεξανδ
ικαν
παραλληλα
μολις
κατι
##ard
##σματα
##λειας
##κοταν
##χτηκε
σεζον
φρα
##τσα
νομο
##ie
νικο
κυριο
τετο
##μετρο
σημειο
ιερ
##δυνα
##ation
ετος
ρι
υποψη
διευθυν
επεστρεψε
καλλιτεχν
##κτον
ενωση
χωρες
πριγκι
γραμμα
πισω
πληθυσμο
εγκα
χιλιομετρα
##τρη
##περα
am
κοινοτητα
##γονο
##στια
διαστημα
νοεμβριου
συγκεντρω
188
##θρο
αρνη
δεδο
δημιουργη
##ματικη
δημη
σοβιε
##σιων
ετη
κορη
εκτι
πρωην
πον
ευρωπη
##τωντας
κτη
ιανουαριου
ποτε
ολ
μουσικη
ολη
βρισκοταν
κοι
κομη
2007
παραγωγη
απογραφη
κατακτη
χρησιμοποιειται
##ζοταν
σκηνο
νορ
εποχης
##γματα
εξαιρε
δημου
##νι
βρισκονται
αντικει
ζωης
παιδ
2012
ανηκει
##ill
διακο
επαναστα
επεκ
γρη
τραγουδι
##ow
##λιστα
αθηνων
23
περιβαλ
μηκος
κατοικοι
επικρα
κρυ
##τερου
σπα
αυτων
##ζοντας
βασιλειο
ειρη
συστη
##ισει
γον
εγιναν
ασχολ
##κω
επαρχια
2006
182
##τειες
εταιρεια
##τηθηκε
ανακο
μπορουσε
θαλασσα
##τειας
επιπλεον
σκηνοθε
ερω
##σος
##ικια
δεκεμβριου
περιφερεια
επομενη
##θον
μαλιστα
ανο
##op
βουλευ
50
##φοι
##τερους
##γραφια
εδωσε
##ινουν
ντο
αυτου
δηλω
##ξια
μας
##ουμε
προσα
ελλη
αποτελουν
##ρντ
χαμη
αυτον
επιθε
##λιπ
πνευ
2013
καρα
καρο
διατηρη
ξεν
φιλοσο
φρου
##ντα
##βολη
μοντε
ειδη
187
ερμη
##ιζουν
ταυτο
δολο
ατομα
διαλυ
επαγγελ
ταχυ
παντρευ
πλευρα
##βιβα
##δικ
αρχιτε
##γιο
##λογη
28
μπου
παρεμεινε
ακαδη
26
κατασταση
##τινο
##em
κοκ
αποκλει
εξελι
##πολε
##ρχια
πιστευ
##τεν
ομοσπον
μεθο
εκατομμυρια
μαλ
ενδιαφερ
σκοτω
##κια
μπε
πιθανο
καταλη
χαρ
##πολης
σκε
πολλοι
στιγ
φαινεται
διαδικα
##ηγη
2004
καρι
αναπτυξη
##ers
##πιν
πολεις
γαλλια
αυτης
συμπεριλαμβαν
σερβ
ελλαδας
οικονομ
φεβρουαριου
##ιδες
αλλους
##ρισης
μεγε
##στης
##ποιηση
##θμισ
αγορα
αμυ
λιμ
εθνικης
κρη
λον
##θησαν
##βεν
##μεια
##ρικης
##τελ
##διων
##ov
##σας
βενε
2014
διακ
καταφερε
εφημερ
ικανο
ευρυ
##μορφ
δαν
πω
##τελει
αποτελου
κινηματο
αντιθε
##ιζε
οποιων
##τερων
##ιμο
##σιου
επιστημον
παγκοσμιο
##ri
##ποτε
##σων
##τανο
##τεροι
νεκ
συνολικα
σιδη
κτι
περισσοτερα
##ρικα
οποτε
αναφερει
##τερης
2000
##στικο
ασθεν
186
σκοπο
##ειων
##ιστα
βιομηχαν
δυναμη
δικη
μηνες
ηθο
χρησιμοπο
##λογια
##ριος
καθηγη
απαν
υδρο
##πεια
περιοδου
2005
εσ
##σσερ
δολοφον
επισκο
εικο
##θηκη
27
προπο
νομου
κινηματογραφ
επιπεδο
εκταση
ανακοιν
παρατηρη
καλοκαι
εθνικο
αριθμο
περιπτωση
##ρκο
##ιζοντας
μερα
##δυα
δυνατο
υποψηφ
ορος
##ισχυ
φιλιπ
##λιες
καθα
2001
##χρο
μετο
le
αντιπροσω
##ρικου
##κηρυ
γυμ
εβδο
πλει
εκδοση
##φυλα
##λιων
πρωθυ
πρωθυπουργ
γλωσσ
γιαν
##χοι
στρατου
##φαλης
##σεν
γαλα
στοιχει
##ell
δεκαετιας
##ινδυ
τεσσερ
εντος
##ξεν
ελληνες
πλαισ
##πλα
εκστρα
οποιου
διαδε
##ρξη
ρη
σχηματισ
γερμανια
μεση
##σχε
##est
μαγ
##πτα
αντιδρα
2015
πυρο
##ρικ
##πλο
εξουσια
εγραψε
δημιουργια
μικρη
γλυ
##μηση
σταδιο
##ψεις
ακριβ
##τρικη
θρησκευ
επιστρε
σημαντικη
πληρω
συμμετοχη
εχοντας
γνωστος
ειδος
μεγαλες
υπηρχε
μιλ
μουσει
προω
##λαιο
επη
σκορ
##λευση
αποτελειται
ξυ
σπιτι
ακρο
##πες
μονη
κυπελλο
κομματος
μην
mar
##τητων
απει
παικ
##λεγη
δυσκ
##ταρ
##στων
αυτοκινη
φων
##χωρισ
περιλαμβανει
προκειμενου
ιαπων
εμφανισ
ομιλ
40
φοι
##χωρησε
##τσε
συνδυα
##λαβαν
δεσ
πρωταγωνισ
##ανατολ
##στερα
##ec
##ψης
##ηση
αντιμετωπισ
συγκρου
εθ
##τηγο
εξι
περιγραφ
μαυ
τελικο
σημαινει
ar
εφτασε
μοι
ονομαζεται
βαθμο
##av
χωριου
αλλοι
χριστιαν
απελευθερ
ιταλια
τεσσερις
μητρο
ακολουθησε
τσε
γυναικα
##νουν
λονδ
περισσοτερες
ελεγχο
κατασκευη
##ιζονται
διατη
παραδοσια
αποδο
##all
συγκεκριμενα
##ληφ
τω
αποσταση
κατεκτησε
μερικες
χορ
γιατι
συμβα
τραπε
αριθμος
##τηρια
##βλε
χειρο
δικτυ
νεας
##γειας
βοηθεια
αναπα
ηχο
##λεσε
δουκα
νερο
συνολο
183
29
επηρεα
πιε
μικρα
εισα
εκπροσω
##σεως
##φιλ
αυτοκρατοριας
οικισμος
σπουδασε
προιον
νικολα
θερμοκρα
πει
αγρο
##ne
##σως
δημοκρατια
κλιμα
πια
εννο
##γγα
##δηποτε
πετυ
##στασεις
##λικης
##τως
##τουσε
εβρα
διεξη
επιτρε
##σπισ
##ολη
επικε
##βει
αισθη
##πτει
##μπε
συγγραφε
αιγυπ
παρομο
##ab
##ud
##ιδια
βιν
##ap
θεμα
##λαβει
##λικου
αυτους
αμεσως
##ηλθε
μπερ
αναδει
##βιτς
ποικ
πρωτες
ηθοπο
οικογενειας
βραβειο
επικεφαλης
νεου
απω
##50
στρατηγ
τρε
αστυ
αποκα
συμμετε
##ρικος
##ce
##ορυ
##ειδη
##δηλω
##μαρ
εα
ταινιας
καποι
πριγκιπα
κρατος
2016
περιορισ
σχεδιο
συνεχισε
##μπι
αυτην
un
υπολογισ
λογοτεχν
τει
στιγμη
##ταται
##βιωσε
συγκροτημα
##ημερ
απεικον
επιθεση
ενισχυ
ντι
εξασ
φαινο
##τιες
πολων
φωτο
ελληνικο
γει
ουσια
and
γαλλιας
##ματικα
αρκετες
πολιο
ριζ
καταστρο
αυστ
##ωσεις
##γους
##λεν
##ιοτητα
ομωνυ
κτισ
ηπει
υψηλο
##δεικ
αρχιτεκτον
αντικατα
31
##ιτιας
##ist
επιφανεια
2003
ανθρωπ
οδηγησε
##φευ
καπ
παντα
στρατευ
εκτο
αρχαια
1990
184
##ινι
##up
##io
εξαιτιας
απεκτησε
αποδει
χτισ
##φερει
δημοσιο
##τηριο
##μολογ
συγχρον
##ουσαν
##ξι
##ελλην
##ρρυ
##ρικες
δυτικα
##art
λατιν
ολων
##τρον
2002
##πυ
κρο
γυμνα
##ρεπε
##κτικη
βλα
κατευ
αυτοκρατορα
##θια
##τινη
δημοκρατιας
ιωαννη
εδω
λαμβαν
ανατολικα
ηρ
##διω
προπονη
αγωνιστηκε
αρχαιολογ
εκφρα
ηρω
##γορ
αραβ
1999
ταινιες
δικαιωμα
προσπαθει
ζευ
απαι
ολλαν
κοκκ
εθε
##γορα
γυναικες
δισκο
καστρο
##ρχαν
δοκι
τραυ
αστυνο
##ak
ημερα
περιβαλλον
πληθυσμος
θεσεις
απεβιωσε
σημαντικα
##γορευ
προκειται
φραν
##ρτ
διεξηχθη
δημος
ευγεν
τσι
επαι
##ταλ
πορτο
εμει
καλοκαιρι
επρεπε
εξεγερ
##τροφη
ητ
500
##σκι
υψο
μαρτυ
##ant
##ιδων
ζητη
παρισι
παραδοση
απολυ
ρυθ
εβδομα
αλβαν
##ub
##βυ
εχα
οφει
πολλους
επισημα
σαλ
μαρια
##πουλος
σιδηρο
ελληνικης
τηλεοπ
τμηματα
προερχεται
μπρο
περασε
60
##δελ
##ναντι
τριτη
sp
φαση
##λογα
αυτοκρατορια
δικαιο
##τιων
τελε
εμφανιση
ασφα
κληρονο
##χθηκαν
παυ
##τωση
πανεπιστημιου
ουτε
διεξα
τουρκο
ορθο
μετανα
##ue
πυρη
ωρα
θεσσαλονικης
παραγωγης
πληθυσμου
προσπαθεια
καριερα
πρωταθληματος
ενωσης
##γαλ
μαυρο
τυπο
συμπεριλαμβανο
απεναντι
μετρων
##ληψη
μεταφρα
δημιουργηθηκε
μιχα
ισως
τζον
##ραγων
αναλυ
τυπου
##λεται
##og
υπηρχαν
αποκαλυ
ομι
σουη
σχηματι
##μικης
##μακ
##ine
##ινος
ρολ
παρακολου
σχολειο
διαγων
τερματισ
παραμεν
##ινες
αγγλικα
χρεια
σκλη
θεωρουν
ολοι
επανασταση
κερα
συντομα
μελετη
##ψουν
##ματικο
μουσειο
δειχν
σοβα
πληροφο
υποχ
φαρ
ον
αυτοι
αιχ
εξελεγη
ημερες
th
##θους
οξυ
μαζ
πλαν
αναγκ
αποφασισε
διαδικασια
1997
##τινα
γενικα
κατοικων
καθο
πηγες
ποδοσφαιρου
κυβερνησης
χρονολογ
προτει
##κολ
##κισ
σταδια
βυζαντιν
##ωσει
αριστο
##ran
##τελεσε
##ip
αρμεν
##τυπα
sh
καυ
κατοπιν
μπαν
κρε
σενα
##ορισ
##ποτα
κρατους
αεροσκα
##μματα
##πρα
##λογο
φη
μελ
185
ενδιαφερον
κινδυ
σταυρο
καποιο
##γι
κρατη
σταμα
##ρουσε
γεγονο
πρεσ
##ωντας
καθολ
καλλιερ
κατατα
ραδιο
βολ
νου
παρει
##μας
##μικες
ταυτοχρο
##μευ
βαρ
ευα
##θιστο
com
θεωρια
ομοσπονδια
συνταγμα
βασιλειου
θερα
ιερα
##γματος
##βαλε
τοι
χαρακτηριστικα
βρεθηκε
κατηγοριας
σπαν
##μεων
λεξη
ιωαννης
παγκοσμιου
στεν
##ber
##σσερα
χι
τερα
πυργ
ναος
κατ
τελει
2017
αποκτη
##if
##θησει
γειτον
##th
##ρωση
τραγουδια
υποχρε
ιου
πωλη
στερ
ανδρες
προβληματα
##σχα
##γνω
γενε
λαν
bl
επιρρο
κομμουν
##λωμα
##ανο
ακου
επιπε
##ονα
κεφαλ
τεχνη
μοναστη
καποιες
σχεσεις
αποτυ
αδερ
συμβο
νερ
##τεο
αλη
ανατο
ποταμου
##φυγε
##πηκε
1980
##ουνταν
##σωμα
##ιτσα
##ou
##ξουν
80
θρονο
πατρια
ψυχ
στεφαν
##ιως
αμα
##ριζονται
##ge
κεντρικη
εκκλησιας
χρυσο
##μενως
παντρευτηκε
ηθε
πηγα
τουλα
κυπελλου
τεσσερα
ψα
##γιας
##θηση
ειδ
θεατρο
συνθηκες
υψος
ελαχισ
αερ
επτα
##δεια
συμβουλιο
εγκαταλει
##φεραν
διοικηση
##τατο
σουλ
αγνω
λειτουργια
##ωνει
αφιερ
διεκ
μοιρα
αφορ
τελευται
##γοντας
##ιωματα
##βαση
εμφανιζεται
##χιας
##ack
τεχνης
επιτε
πλοια
επομενο
συνεδ
1998
##γκε
κοσμου
περιεχει
υψομετρο
##δερ
αποσυ
δολα
##ρχης
φταν
##μς
ορει
##θρα
##ξο
παιχνιδι
αεροπο
πολιτειες
##ιστικη
##ιστες
amp
ιδιοκτη
μεγεθος
##πομπ
##χονται
ρωμη
ταυτοχρονα
##ιστο
εξο
τουλαχισ
##βεβα
λεπτο
##ινια
φον
εξασφαλ
μουσικης
πρου
ne
γραμμη
##σσο
##τυπο
##ωθει
πορεια
##ριζουν
ναο
1991
##μικου
διαθετει
ηλεκτρον
αυξαν
καθεστ
κεφα
ομαδων
1996
τριτο
##τζα
σειρας
##ξικο
επαρχιας
εδαφος
περιπτωσεις
κυριαρχ
αγιο
διπλα
συζυγο
τουλαχιστον
μυθιστο
κλασ
##ητη
##ινοντας
σπουδες
1970
##νους
εφε
ιδιου
επεισο
αναζη
χαρακτηρα
κωνσταντινουπολη
##ρρι
υορ
αγια
λιμαν
##ess
##νιας
2018
##ξου
δραση
ενε
##τοιμα
υιο
ιδιω
συλλογου
μερες
προσωπικο
##μαλω
##ord
##ich
αποτελεσε
##λλων
1960
φωνη
ηχογραφη
ημι
θεματα
ανδρων
κορυφη
προσωπο
αγαπη
ασυ
αναγνωρισ
βασιλισ
γκολ
##φηκε
μεγαλου
pl
συλλογος
κατευθυν
οχυ
εκλε
συμφωνια
ρουμαν
##πεν
181
##σμη
δυτικη
##φορες
##πληρω
αιχμαλω
εφο
##δεικνυ
βλε
αδελφο
ερευνη
αντιστοιχα
υστερα
τελευταιο
ολους
επιθυ
νομισ
ειδικο
70
εμεινε
##ρικων
απαγορευ
εργαστηκε
συζυγος
##δοβ
αποφαση
νυχ
##ινονται
γερμανιας
ιερο
##γραφο
σοσια
κρισ
αντιθεση
##ησει
ανι
συστα
124
αγγλια
βη
συνεργασια
##ησαν
αχ
οποιας
##κτικα
αρχισαν
μεσαιων
εκτα
μερικα
##ριζε
εταιρειας
μετονομα
κερδισ
32
##τυπω
##κοι
##τειται
διαση
ελλει
κυττα
φθ
##ιωντας
χρησιμοποιουνται
##χρον
εμβ
1992
αγγλιας
##βιο
νησιου
πηγε
##στειλε
ασια
γυναικων
τοπικη
##ik
bo
μπρα
##ζονταν
##ολογιας
αδελφος
μεγαλα
υποστηριξη
##μπαν
αλα
αφορα
##μικων
μεγαλης
μυθ
μερη
##ρυν
ιππο
##γωγης
μουσουλ
κατανο
##χιες
αποψη
180
ωρες
##δωσε
βια
κοινοβ
υπουργος
ταυ
##μιν
##ρχος
##μερισ
##στευ
επιτροπη
ανθρωποι
pr
νεων
υιοθε
εδαφη
γαμο
φραγκ
μαιο
χωρια
καθιερ
1974
ειδικα
##ικοινων
##τρος
##τρικο
αμερικη
##γοταν
προσεγγ
la
con
μυθιστορη
νω
br
βεν
οκτωβριο
τομε
γης
ορα
##βελ
στρατος
αυστρα
βιντεο
εμπει
##ξεργα
ενεργεια
1η
ανατολικη
σιδηροδρο
οποιους
##ian
##na
##δοι
πτη
ελληνικα
1994
σκω
μπαρ
τωρα
λουδοβ
πληροφορ
ποσοστο
μεν
1993
ετους
εκτε
συλλογη
ιανουαριο
ερευνα
ξεχωρισ
cl
εικον
##υμα
διαμερισ
##σχ
αυστρια
##στερη
##ισα
##μπερτ
χιλια
##θανα
δασκα
##ct
##γειο
συστηματος
ελληνων
αδυνα
κανε
##τουσαν
##ταξε
φαντα
ιουνιο
στρατιωτες
κομματι
προσφα
σεπτεμβριο
αντ
1995
γενικο
βικ
θρα
κυπρου
##ain
νησια
##ιωργ
απαρα
καθηγητης
ηρθε
δινει
νευ
##ωνεται
λιγοτερο
1940
υπερα
ανταλλα
διετελεσε
απομακ
οσ
καταργ
οικονομικη
εκστρατεια
αρχηγος
##ργκ
γρηγορα
##γραφος
ρωσια
αμφι
en
αθηνας
ευρωπης
εαν
##τατα
πυκ
##ραγω
αγιας
δυναμεων
στρατιωτικη
εκδηλω
δημιουργησε
χαρακτηριστικο
αποτελεσματα
γεφυ
ορθοδο
##ολι
ελλαδος
νοσο
δηλωσε
##θειας
φιλοξεν
κλε
υπηρεσια
##ισμους
κατοικ
πηγη
πατρι
εργου
##κουν
προα
εχθ
εφερε
##σμενο
gr
ασκη
αυγουστο
προστατευ
##θεσεις
##τσο
##bo
εξυ
διακρι
διω
ψευ
μαρτιο
σφαι
αποφοι
πρωι
δυναστε
ηλια
εχασε
1989
##τιδα
κατελαβε
κατηγο
ρευ
ναου
συνθηκη
πτερ
αμπ
συνεν
##ρακα
προκρι
##πουλου
##γιου
διαχει
ιουλιο
επεξεργα
ενσωμα
χρονικο
ελληνικου
##βων
##ουαρ
λοι
##φορας
μετω
χρησιμοποιηθηκε
διπλωμα
μεσ
μητροπολι
##νοντας
ανθρωπους
μονι
ηρακ
υπευ
συμβολ
##ep
ανθρωπο
σικ
προσο
σχημα
35
κυνη
εκπαιδευση
καιρο
επισημη
jo
φου
##πουν
##γκοσλαβ
εαυτο
##τιθε
εμφυ
καμια
##τοποι
βρη
##σμενη
επιτυχη
συμμετειχαν
##ρλαν
ηττα
##δικου
πανελλην
περισσοτεροι
πολεμος
ενταχθηκε
##ρινα
κινηση
σωματος
90
κοινοτητας
περιοδικο
οργανωση
γιουγκοσλαβ
εκπομπ
##μισε
τυπ
βαλκαν
##λειται
##μιες
δυνατοτητα
##γραμ
ιστοριας
μετεπει
##βουν
##γραφιες
##man
##σιος
δημα
υποβιβα
λευκο
μετεπειτα
σημαντικες
εθνο
θεοδω
αποτελουσε
##τισμου
ζητησε
πελο
συνορα
επαιξε
δελ
##ρινο
τετ
ro
sc
ηνωμενες
ιδεα
ανακηρυ
##θερα
κινα
ιδρυση
συνοδευ
τραγουδισ
πραγματικοτητα
συγχρο
διαδρο
διοριστηκε
##βαθ
χρησιμοποιει
##ort
ερα
##δυτικα
θερμοκρασια
βιβλια
πλειο
##νηση
σημερινη
##igh
##σερ
προο
σαρ
##στησε
διευθυντης
##τρες
επιτροπης
απριλιο
προτα
κινητη
##μησε
##τειο
300
##βας
βεβα
δακ
χρωμα
δεκεμβριο
συμπα
χαρη
προσπαθησε
##ρωμα
καταλλη
##γενε
##γοι
μοσχα
κηρυ
μαρκ
χρησιμοποιου
αποσπα
παλιο
##ζησε
πολιορκ
καταρ
αφαι
χου
νοεμβριο
ατμο
υλικο
##γκου
ορισμενες
μπροστα
γεωγραφ
εικονα
υγ
##τορ
θελ
λονδινο
μιχαηλ
μπορουσαν
##κον
πρωτου
επικοινων
γυναικ
##ξεων
μελλον
##χωρηση
αε
ντει
33
σεναριο
τζο
γλωσσες
πλειοψη
υπαρξη
γιωργ
συγγεν
αντικαταστα
εφημεριδα
be
ανηκε
ειση
ιδρυσε
εδει
αναλογα
μεταναστευ
##μεταλ
##δεν
##τριας
νορβη
παπ
αυτονο
179
αποστολη
##und
##ευση
##τικοτητας
γκου
ορους
##ληξε
##κεν
εμφανιστηκε
##λαμ
γερμα
γονεις
##λλο
##σφαιρισης
ελε
επιδρα
οργ
##μονα
εισο
##κερ
προτι
συμβουλιου
προσφυ
σταυ
υπηρετησε
παιδι
πολλων
ταξιδ
##λιος
συγκροτηματος
εννοια
γαλλικη
εσωτερικο
1950
##ορια
σχετι
μετακο
αγιος
αστρονο
προβλημα
ερμηνευ
πορτογαλ
τετραγων
γκρα
ισχυρο
νερου
αντε
περιλαμβανουν
ακριβως
εστειλε
ξη
παραιτη
##κλα
##ικως
στοιχειο
αντιπροσωπευ
δευτερ
τραυματισ
στοχο
θεσσαλονικη
δοθηκε
δρομο
πληροφοριες
επετρε
##τερω
βαρυ
δικαιωματα
καταγραφ
εκρη
ειπε
συνθεση
διαδεχθηκε
παρολο
εργων
##ποννη
eur
κροα
##τυπη
εστια
οικου
λογους
χαμηλο
προσθε
ευρε
αιθ
τουρισ
τομεα
εδρας
αντιθετα
##χον
νοσοκο
κανουν
γο
co
##μαται
διαστη
##ock
νικες
##δεκα
##ens
μακρο
αυτοκρατορας
##φω
##τειων
γκο
γουλι
πελοποννη
κινημα
ελευ
σοσιαλισ
##ουντ
##πανω
36
σκυ
εξετα
απολλων
εκαναν
##σιν
τετρα
επιβεβα
εκδοχη
συναυ
##γονται
σημεια
##τησαν
ζυ
σπο
##φιας
##ανατολικα
τζει
##σκαρ
αντων
1944
##ιστικο
συντηρη
νεος
καλυτερη
βουλευτης
##νεια
φιλε
γεωργιου
καταστρα
φερει
πρωθυπουργος
##υα
κανεις
λιμνη
##ωρη
θεμε
##γκαν
1981
μακεδονιας
αρχιε
δευτερος
ακολουθει
ψηφο
χρωματα
##στικες
διαβα
##ιδας
##ιζοταν
μοντελο
αναφορα
δολαρια
ιρλαν
##θηνα
αζ
##δεις
λεπτα
εναλλα
αυτοκινητο
στρατευματα
ενημερ
he
οπα
ξεσπα
νεες
##end
οικισμο
δομη
επιλε
χερια
##ικονο
στυ
##ιζαν
πολιτικης
##ice
αυξηση
γουλιελ
καταγωγη
παραπανω
γκε
εορ
ερυ
κοιλα
φαρμα
λειτουργει
1920
##στουν
λιγα
λιγκ
προσπαθειες
εφαρμογη
δυσκολ
ντου
γνωρισε
πυρ
##ast
παρασκευ
##ier
μεταρρυ
βοσ
διεθ
επιστροφη
##μονη
αναδειχθηκε
##ib
βαρος
δικο
ρεκ
ισρα
επεκτα
διαπ
πτερυ
εις
ποταμο
οσκαρ
γεγονοτα
##πτη
μετακινη
παραμενει
αβ
λιμανι
τυπος
παρελ
for
##νεται
45
ακολουθησαν
σικελ
ισα
καθημερ
κυπρια
ζευγα
διασω
πρωταθληματα
επαγγελμα
ουρα
##λικων
φτα
μορφες
παρατη
επιστο
##μματος
τζακ
1912
βασισ
αστερο
σημασια
παναθηνα
##βιλ
ονομαστηκε
διοργανωση
κατανα
##πισκο
##θεα
19ου
κορυφα
κατηγοριες
##λωντας
διεθνη
1985
##δρι
παραγον
ηθελε
μουσουλμαν
γεωργιος
1945
γερμανικη
λεγο
1941
συγγραφεας
μετρη
σκηνη
βουν
τριων
##co
αστερ
αρχικη
ευκαι
γεωργια
κυκλοφορια
λαο
##ουργ
συμβολαιο
##στασης
##ive
ονο
χρησιμοποιωντας
μαγνη
αχα
νταν
μω
ανοδο
αλλαγη
##ii
κολο
ειδους
χωρισ
βερολ
##ωνα
διεκδικη
αρνηθηκε
ηθ
ιταλιας
##τισμο
1986
##μβαρ
σλαβ
##ug
ορια
##αντ
##κολα
σχολης
καταδικα
απερ
##βασι
##λαμβανε
εζησε
πλαισιο
σταδιακα
εξισ
##ρτα
##σσεται
##μπεργκ
πραγματοποιηθηκε
##λεα
εντου
δημοτικο
φεστι
δερ
επιρροη
τελικη
φεστιβαλ
τεταρ
φασμα
##μενε
περιοδος
##ρκη
##te
1930
παρελθον
κινε
πυρα
##ομενος
αφο
διαφορετικες
αποσυρ
αγαλ
##σκοπ
me
as
##af
##βος
μεγαλυτερος
προκαλεσε
ρεκορ
##ινοταν
οικοδο
αποδε
##λαντ
διοτι
εκθεση
κιτ
διαμορφ
εκμεταλ
ντεμπου
νυμ
##θαλ
πεδιο
αποκατα
##νοτητα
##ind
γραμματε
##τασ
οπλα
πνευμα
##ιδης
αντιο
γενικη
αρχιεπισκο
##λπ
πραγματοποιησε
##ληφθη
##γιες
##φισβη
##uc
ευθυ
μαθημα
##σταλ
υδα
στερε
δημοσια
ηγεσια
ελληνας
##ry
##ησου
χρονου
##ιστη
μηνα
αντιστα
1988
##φθει
ντεμπουτο
προεδρο
αντικειμενο
μεγαλων
1987
φεβρουαριο
##γονου
ανακα
χιτ
##υκ
##ξιο
τιτλος
υποθεση
##φορο
εγκατελει
δωσει
δακτυ
λαμπ
επανε
λω
##λαμβανει
τελευταιος
αρε
##ok
αρσεν
απεχει
πρωτης
εξαιρετικα
μαλλον
ξα
διαφορων
##80
##ρινη
πλειοψηφια
καλαθο
ηθοποιος
γλωσσας
##20
γραφει
κεντρικο
##γραφα
ουκρα
εξοπ
ιστορικο
##ρωντας
επιχειρησεις
παιχνιδια
εναντι
is
ποδοσφαιρικη
σκου
ma
τερματισε
συστηματα
μαχης
συνεπεια
κυπρο
ποδοσφαιρισ
διη
διεθε
εξελιξη
καθεστως
κελ
##στικης
ελβε
προστασια
##qu
καμπ
γυρο
man
εξωτερικο
##ωμενη
##ζου
ανοιχ
##ναλ
1975
ομορ
λατρε
##θουσε
χρηματο
περιου
στρο
καλλικ
ξεκινα
πινακα
1967
ονοματα
##σιμα
πετρου
##ωνια
##σμενα
νομοθε
βιεν
βρο
ισπανια
se
##καρ
λιγες
##στον
ακρα
μαργ
##τζη
##τρικης
##ριζοντας
καταστροφη
μεταρρυθμισ
ανεπτυ
προβλε
χρονων
δουλεια
ορυ
κτιριο
καλλικρα
μαλα
καποιος
προταση
νι
δουκας
ισραηλ
##ρεας
1984
##μνη
##χομενο
πλοιο
μεγαλος
κατακ
εξακολου
αναφερονται
1982
##σμους
μπορε
χρονιας
ουσιαστικα
αερα
αφρικη
150
ολοκληρη
γνωστα
εργασια
μοναδικο
##στιτου
διοικητης
στελε
σταθμος
παλια
πεμπ
λεει
εκεινος
ραδιοφων
##φορια
χειμων
διδασκα
##πλαν
αιγα
##φορων
βαν
##πτον
διανο
βασιλικη
##ass
κερδισει
αποδιδ
πεδια
ζε
απλα
ινστιτου
επιδο
αλλαγες
πιθανως
διαιρε
χωρων
παρουσιαζει
αλεξανδρου
ταχυτητα
##θρω
εντυπω
γραμμες
βουλη
##χως
φυση
##θωντας
pro
κινεζ
##ιδιου
ανθρωπων
κιθα
επιλογη
εγκατασταθηκε
πραξη
απευ
##ph
##λεμα
οικογενειες
βρισκονταν
##σχολ
##εντρων
ρωσιας
οφ
οδο
ενοπ
εναντια
προκαλε
##τησης
ανακοινωσε
νικησε
##ραγματευ
37
so
αδελφη
επεν
120
θηλυ
εξοπλισ
προκυ
πεντα
μοναστηρι
400
φιν
πελα
1979
αυλη
θαυμα
υπεγραψε
γυρισ
ελαφ
επαναστασης
πετυχε
εργοστα
αρχιζει
##ity
μικρες
αντιμετωπ
βασιλισσα
##μοκρα
##κοντα
34
##ομενη
συμβου
παρομοια
##μπουργκ
φυσικη
ελληνο
κατερ
πολιτικο
κοινοβουλιο
αφαιρε
ουγγα
κομματια
χιλιαδες
αλλαξε
υπηρεσιες
διαμα
##oll
λεγεται
παραλια
διαγωνισμο
δυτικο
##ust
##χιο
##φαισ
λεω
συμβουλ
sing
##ωθηκαν
παγκοσμια
ξεκινησαν
διαπραγματευ
υποδο
πτυ
##κτικο
λορ
ιακω
δημητρ
αμβ
προσδιο
μπι
δικτυο
αρθρο
συσκευ
##χωρησει
##γαγε
απορρι
σουλταν
πτο
εξης
διακριν
##ολε
παγκοσμι
##τεχνη
ταξη
θεου
αντικειμενα
εμπνευ
##λευσης
φρον
ανακτο
κατοχη
κοινη
##λησε
συναρτη
εξεγερση
##ah
ολοκληρωθηκε
ζωα
ανατολικης
χωρος
##ποιησης
εμφανισεις
ηλιο
##υρω
1943
εγκλη
δημητ
δειχνει
εκατο
θρησκε
δραστηριοτητες
βορειας
ρωμαικη
καταφυ
εισβολη
##πηρε
πολιτεια
επαφη
μακρια
στεγα
ανταρ
φρει
χρησιμοποιουν
1964
σπη
παλαιοτερα
##λικες
στρε
φυσικο
ειρηνη
προσφερ
##γειες
##ωμενο
συγχρονη
ηφαισ
κακο
επιτευ
##ρχο
ερει
γρηγορ
ασχοληθηκε
πτολεμα
περιστα
ωκε
συμπ
θαλασσας
##ρχιας
1976
τμηματος
λαβει
##ενερ
##ica
ζωνη
dis
πεζ
καταγωγης
προυπο
εναρξη
##χαι
αεροδρο
αιγυπτο
προετοιμα
ατομο
ακαδημια
ανερ
εθνικου
χερσον
φως
εξαρ
λεπτομερ
μπλε
ανθρακα
επενδυ
πυροβολ
##σιτεχν
1983
οικονομικα
επιχειρηση
##εισ
1978
##ach
αναπτυξης
##στιν
1977
πλατεια
ασφαλειας
ερρικος
##ποντας
μισο
επομενα
τηλεορα
ενοτητα
τετοια
##δαν
προεκ
περιγραφει
##λιδα
μεγαλυτερες
sch
##ριδα
δεδομενων
ph
χιου
εργασιας
χωρη
##στικων
δεδομενα
1973
##φεται
πειραια
σλο
επιστρεψει
διαμετρο
38
##ωσαν
μπεν
ανασκα
επιδρο
δηλων
χαλκ
εκλει
##τυπ
met
χε
1939
βρηκε
βρεθει
κυριος
##φορος
συμβολο
1961
σοβιετικη
ατμοσφαι
παγκοσμιως
απου
ουραν
1968
υπεστη
αμερικανικη
ενδο
##λωση
συγκεκριμενη
αυστραλια
αλι
πασα
##γραφες
εφθα
τοποθετη
μεταφερθηκε
πρασ
##δικης
δραστηριοτητα
συγκεκριμενο
εξαφαν
βιβλιοθηκη
μεταφορα
1972
ανοικ
αποκλειστικα
κοκκινο
##τρικα
##σθηκε
αγωνων
ευρωπαικο
1946
##ang
##ight
ποδια
κυριαρχια
κωνσταντινος
αλεξανδρος
πτωση
βασιλεια
εδουαρ
##τανα
βρετανια
ευρωπαικη
κατακτηση
ευνο
##δρος
αναγκαστηκε
αποικ
αναγεν
ηλεκτρο
##ρευει
1971
##νερ
2019
##ερευ
φιλα
εντυπωσια
δημοφιλ
##λημ
πλαισια
##πως
ζαν
42
20ου
αγωνιζεται
οφειλεται
αψ
##one
βρεθηκαν
ινδια
ανατολικο
ενεργειας
συμμετεχει
καλλικρατης
##συν
διεθνες
κριτικη
τραπεζ
αιτια
ευκαιρια
##θεσε
συζυγου
εξυπηρε
σταθμο
μηκους
διοικητικα
##ψια
καλη
ad
39
σημερινο
κλπ
##συνη
πολιτικες
γηπεδο
εκδοσεις
##60
1963
συγκρουση
1928
ενεργο
καρολος
χιτλερ
λονδινου
βαθμολογ
προσαρμο
στηρι
##ate
ατομων
καποδισ
γινονται
##ησης
ακτη
φτω
κερκυ
χρησιμοποιησε
μολυ
κατασκευαστηκε
μετονομαστηκε
φρειδερ
μελων
φυλακ
ολι
##ond
κοινωνια
##κεφαλ
διαφορετικα
##μικος
δυτικης
##τισε
##ire
σταθερο
##ωτη
##ριζοταν
ανθρωπος
ψηφ
εργασιες
γαλλικα
χρησιμοποιηθει
κεντρικης
##κτησαν
μοναδες
υπολοιπο
αντιδραση
οδηγει
υποστηριξε
ντειβ
##τρω
διασπα
##γιαν
νομι
γινοταν
##δινα
##γραμμα
##ηθει
προεδρου
αγωνιστικη
αμφισβη
##τεθηκε
τουρκικη
1918
συνδυασμο
φλω
ζωνταν
τεκ
##λογιας
δωμα
καθισ
βαθμους
αναπτυχθηκε
βασικο
##στηρια
ενδε
τοιχο
ευαγγελ
συνειδη
κυμα
σχολια
νεκρο
πιεση
γουα
κοριν
χριστου
##τσια
km
πραγματοποι
διαδοχος
κειμενα
αλυ
υπαρ
ντ
αστερα
##30
ημερο
##θερο
##λειες
##πουλο
αρχαιας
πολιορκια
par
δορυ
##az
75
καρκ
##μουσε
μουσικο
σταθερ
γερμανικα
1969
χρε
μεταλλιο
car
εισοδο
περαι
πληρως
##son
##ποιηθηκε
καλλιτεχνες
νικ
φαινομενο
col
περαιτερω
##χαρ
##βιν
σπαρ
##πτες
φυσιο
κεφαλι
οικονομικων
εντοπισ
κωδικα
μακεδονια
γεωμε
ανεξαρτησια
ομιλο
##νοτρο
πολιτικος
##τριες
##ερας
1821
##συνης
περσ
τεχνικη
φορο
##γας
επιδραση
απελευθερωση
παικτης
φτασει
##θες
δεξια
δεκαετιες
ανυ
μετωπο
βασιζεται
τετα
συμμετασ
1966
σφα
ηνωμενο
ενσωματω
##τιθεται
##σμενος
καλι
εταιρει
υπουργειο
τεχνων
καστ
χερι
προιοντα
ραν
ολυμπιακους
##στους
47
ανηκουν
αγο
ευκ
οικονομια
επιπεδα
εκτιμαται
θητεια
##ft
##ιωση
δωδεκα
αμυν
ερμηνεια
υγειας
αναφορες
##γραφιας
εξαπ
##to
προγραμματος
υπερασπισ
1947
##πολιτευ
##ix
ανωτα
χρηματοδο
αδια
##ρουσαν
##ρισμο
1965
ιδιαιτερη
##τρας
λογος
##κιν
41
##στιο
##ron
##ide
πληρη
##βετ
συμμαχια
fran
τραγουδιου
εντολη
or
αφησε
εμποριο
αναμετρη
μαθηματα
κοινου
ικανοτητα
##λαιου
ευρη
ναυα
καλυτερα
σπιτια
at
χολ
κατορ
ιππ
κατακτησει
##τσου
κατει
##ιστης
ταξης
χρηματα
συμπεριλαμβανομενων
απομακρυν
44
ερη
αγγελ
υπηρξαν
αννα
πιθανοτατα
##κρατιας
el
ex
##πτουν
##βιας
διακυ
παρακα
##ινας
new
τουρκια
δοκιμα
##ff
##λαια
διαλεκ
συνδεεται
##γραφηκε
αποκτησει
##ρνα
##χημα
οθωμανικη
ονομαζοταν
συγχων
ορισμενα
##μπελ
λεσ
αριστερα
##τροπη
καναδα
ομιλου
λαου
##ace
βελτιω
κομης
1948
βραβευ
πρωτοι
οσον
##ολογικη
περικ
πετα
αδεια
βραζ
εικονο
υποστηρικ
πιθανον
μαθητες
ταν
σελ
##λιω
τετοιο
fo
ημερομη
πληθος
ταξιδι
βασιλειας
##νεα
μαχες
κοσ
μορια
##ραγματα
εντονα
λογα
##ies
βραβεια
τζε
τοποθεσια
μνημειο
προπονητης
tr
##ick
##ob
##λουνται
##ver
##ure
μεταγενε
μονος
πρεσβ
μοια
επιβα
mus
##ιμα
προτεινε
μαρμα
μηνυ
αποφοιτησε
νομος
##δικων
αμερικης
παιρ
ταξινο
fl
48
wh
μοναδικη
εμφανιζονται
μυθιστορημα
##πτεται
##μελη
ηνωμενων
εκθε
τζακσον
παραγεται
##βουλευ
χλω
χιλιομετρων
1936
θανατου
κουρ
αμεσα
μετακομισε
καισα
απορρο
εκτει
νοτιας
στρατηγος
οριο
σταση
δογ
##γιε
φωτος
διαρκ
##δικτυ
κατασκευης
κοινωνικη
δημοτικη
##ροδο
μεγαλυτερα
##σαλ
επεσε
ιαπωνια
πετρε
δεχτηκε
διονυ
ευκολα
##οκ
χαρακτηριζεται
178
βομβαρ
υπευθυ
σταν
αναλογ
##ney
1958
ορχη
ζει
κειμενο
οργανο
αγωνας
##φικη
βρει
##ost
γραφειο
##σπ
##ημα
χωρου
τοπικο
inter
διαφων
καθορισ
αντιπαλο
1956
συμπεριφορα
μητερας
##ae
εξορ
1922
ζουν
64
αναλαβει
ελαβαν
##σις
απλο
##ung
νυχτα
##ium
##βολης
##σουμε
διακοσμη
εβδομαδες
##βρα
αλφα
περιοδεια
τροφι
βυζαντινη
##πελα
##δαλ
περισσοτερους
διαδικτυ
εντονη
##χοταν
1962
σκηνοθεσια
##χρω
σκαν
##iz
σημαια
##σημει
ακτες
ειδικοτερα
##μιων
αυστη
##ζυ
ιστορικα
γραμματεας
προκλη
ομοιο
αιγυπτου
κανοντας
εταιρια
επιθεσεις
θεραπεια
##ιρ
υορκης
μηδεν
προνο
##μηθηκε
πρεμι
##αρι
νυμφευ
σμυ
##ωμο
55
##τυχε
εκεινο
δραμα
αντισταση
εκπαιδευσης
cor
##μαρτυ
joh
αθανα
##νικο
1942
1938
ανανε
παραιτηθηκε
πολιτισμου
##ξουαλ
1955
χτυπη
παντως
βιβλιοθη
177
παρη
ανεβα
ιστορικος
υφισ
μαικ
τιμω
ελεν
καρδια
##σμων
εγκατασταθηκαν
ηρακλει
αση
διεθνους
φημη
αρμο
καποιοι
ελι
##δικες
πολιτες
μαρα
τουρκους
##τελως
##διες
τεταρτη
##ιστει
φτανει
##ision
ελευθερια
διεθνης
ανατολη
κανενα
##σταιν
υπολοιπα
μαζα
on
πετρο
εκτετα
##πιδ
##βηκε
κυβερνητης
εκτελεση
καλαθοσφαιρισης
##βον
ουα
##τεστησε
ασιας
κινηματογραφου
##γκεν
αξια
νορμαν
μετρο
φτια
##ρρα
##ηλα
φυλλα
##les
αλλου
καινου
ται
φυσικα
αλληλε
##aw
διαστα
παρακ
εδρες
συγγραφεις
αιθουσα
βρυ
τιμες
##ann
αιμα
πανεπιστημια
κανο
##φελ
μικροτερο
συζη
φιλελευθερ
καφε
απρο
##σους
υποθε
##ουντιο
χαρι
δικαστηριο
play
κατευθυνση
65
##δικος
πρωτους
ρωμαικης
ουγγ
##προσ
παπας
οχ
##νατο
περιοδους
θεωρει
κορι
##ational
απαραιτη
ακρω
ακε
αγγλ
κιλ
χειμωνα
κατελαβαν
αγγλικη
δημιουργησει
επεκταση
ιον
χρησι
μοναδα
αξιοσημει
παιρνει
##λως
σημειωσε
##θης
αναπαραγω
επιτρεπει
##ath
ιωανν
##κιας
##νιο
κριτικες
##τιος
1959
πεθα
1919
et
ιστορικη
##γειται
αρχαιοτητα
μελετες
θεωρουνται
##ey
##au
νερα
κεντρου
ολοκληρωσε
ισπανιας
κρητης
νικα
σεν
προμη
διαπισ
πολιτικων
δημοσιευσε
σκοτωθηκε
εφυγε
##χαλ
##ουσια
ανεφερε
κτιρια
αντιπρο
ουε
επωνυ
##amp
μακρυ
βασιλικο
ρομαν
ιερε
καταφερ
υψηλη
δισκος
ανακαλυφθηκε
επεκτει
πινακες
αρχικο
cr
συνηθισ
πρωταθλητης
1927
αναγκη
πατριδα
τζορ
1929
διεθετε
ηπειρω
πλανη
μιν
συμπτω
προσαρτη
##φορου
υορκη
##λιε
ομη
επισημο
ενηλ
ρωσικη
##φεν
καθηκοντα
gre
##μολογια
54
βοηθησει
δικτατο
μικροτερη
##ριω
μεγαλωσε
##κειτο
προσβαση
αποφυ
εκλεγ
τιτλους
##μαι
διαχωρισ
βοηθησε
ειρηνης
καθεδ
παρεχει
συναισθη
1951
αθηναι
σοφια
κρητη
γραφη
οθων
##σισ
στοχος
##ton
διαταρα
πλουσια
πατριαρχ
καταληψη
ερασιτεχν
ιδεες
παικτες
##γραφικη
##γωγ
ενδει
μονης
ρωμης
##νικα
##λογος
πολιτικα
1952
ιταλικη
φιλοσοφια
χτιστηκε
43
τρω
βουλγαρια
οποιαδηποτε
1935
επαρχιες
παιζει
ηλιου
52
σπ
χεν
καταστρε
1949
##βολες
επιβεβαιω
αρη
γραφτηκε
θρυ
επρο
λεηλα
σεξουαλ
συμπερα
μειωση
αναθε
δημοφι
ματ
συμβαινει
οχυρω
51
des
παραλλα
ταξιδε
yo
##βολα
ηλικιας
καρυ
στουντιο
αντον
μετατρα
λεν
##χθουν
διασ
μεσση
αλλος
θεος
600
απομον
βιλ
λιν
##λεξε
παντο
##ευρε
ιατρικη
##γραψει
##τημα
ακαδημα
φινλαν
ακτινο
ατλαν
##χτει
ορκ
##iss
περιστρε
ηγεμον
αντιπροε
εμα
φλο
αναστα
αποπει
##κτικες
##ld
##σελ
εντελως
συνεληφθη
ανοιξη
λοιπον
##κτα
σπανια
οριζ
συλλογο
off
χρονολογειται
##μιρ
ομωνυμο
##θι
κομβ
επροκειτο
αρχιτεκτονικη
1957
νοσοκομειο
αποψεις
ασφαλ
θαλασ
γερμανοι
σκηνες
γεφυρα
μεταδο
γενικος
κοιλαδα
te
αποφασι
κωνσταντινουπολης
εξωτερικων
στοιχειων
οργανα
συνεβη
διεταξε
##we
ενια
σπουδων
πριγκιπας
##υρου
##ιστων
αντιπολιτευ
εξεδωσε
δινοντας
##καθα
κεντρα
ποικιλ
εγκατελειψε
σαβ
##ρεσ
συνεπως
μνημη
wor
εννεα
αιωνες
1926
γιους
επιστημων
κουν
καπε
περνα
συνεργαστηκε
τελευταιες
##ραντ
μερικοι
##τοις
τζειμς
49
ναν
βορρα
μπηκε
περιουσια
αμερικανικο
##σματος
##ελες
γαμος
σεβα
συνασπισ
επιδει
εθνικ
##κιου
##bc
##ιλιαμ
##γιω
1924
οξ
χαρακτηρες
ho
μικρος
ρομπερτ
λογαρια
αποχωρησε
##μβαση
πρωτει
καναλι
αποδοση
εμπορικη
##ect
ιμπ
σερβια
ηττηθηκε
ποιο
ναυτικο
κριση
##ισμων
1933
##ish
προτε
εφτασαν
διευθυνση
απογον
1934
καταφεραν
κινδυνο
κατοχης
##δικευ
εχουμε
συνεχως
συγχρονο
λογισ
τροπος
σμυρ
νωρι
ιδιοτητες
κολε
ανταπο
εκμεταλλευ
γυμνασιο
θει
ανοιξε
##θαλα
γραμματα
καβα
1953
ροκ
single
ελλειψη
ελληνικων
##ρικαν
σειρες
ψηφια
ματια
εκατον
αναλυση
συνεχο
αγω
πολεων
##θηκευ
συντομο
ξεπερα
διαμερισμα
διαμαρτυ
##νικη
##ληφθηκε
##δοσια
πιερ
οδηγησαν
ομοσπονδιας
σερβιας
σταδιοδρο
τεραστια
αριθμη
περασμα
##βρυ
ναζ
εκδοθηκε
περιεχουν
46
συρια
##μερο
προσφερει
τροχια
στρατοπεδο
συνεδριο
it
##ρινε
σχολεια
ερειπια
##τηγου
θεατρου
##ern
αντρες
ευρεως
θεωρηθηκε
πραγματα
ερευνες
##ore
εξουσιας
τζου
ge
##ξικοπη
παρουσιασε
##πεται
καποιον
φρουριο
##ποιειται
προκαλει
##πτικη
αισ
##sh
βρετανικη
ρεαλ
ποικι
##ρουργ
καλυτερο
op
βασει
1954
1923
##χωρησαν
προγραμματισ
ξερ
rec
διεξηχθησαν
##ινοπω
##ιχ
##πολεως
##σεβ
μονον
φθινοπω
ακολουθ
προσφατα
##ιδιων
ανακοινωθηκε
ερε
δυναστειας
παραγει
δευτερου
##πεδα
ιδιας
1917
αιγυπτια
##ite
ετερο
##τρικες
πραξικοπη
περασει
κλιν
##ash
αεκ
τρυ
σκοτων
ed
κομητεια
ac
##ξον
##ισταν
βασιλε
επομενως
ελεγχου
υποστηριζει
ζαχα
##γκερ
κυκλοφορησαν
κρου
##λινα
λειτουργιας
ισχυρη
gu
καζα
ποταμος
αεροδρομιο
ζι
γνωρισ
συνελευση
νωριτερα
160
τεν
υλο
##ζων
##ενς
μεταβλη
##σσονται
κασ
λεον
ακαδημιας
ουδε
πολυα
μορφ
##ial
##χονταν
##βαλαν
1937
1932
διδακτο
φλα
βραδυ
##ουηλ
πλευρες
συμμετασχει
επανω
##λς
αναγνωριση
απειλη
διατηρει
παλ
αρκα
800
υλικα
##τοπο
αττικης
παιχνιδιου
συγκεντρωσε
υπ
πλατος
αμεση
οριζεται
κινηματος
θρησκεια
##ωνοντας
εξηγη
##ιδιο
διαφορους
χον
##εκτη
συμπληρω
##ith
βαθος
ανιχν
σιν
##ρεντ
##τελη
φιλιππος
συγγραφεα
πολιορκη
ναπολε
υπαλλη
1914
αποθηκευ
##φερειας
δολοφονια
βοι
πτω
καλιφορ
λυση
προερχονται
εξαιρεση
εικονες
##μιλ
διαμε
##ορρο
tim
συμβουλος
περιφη
μυθολογια
βιομηχανια
##μεινει
ινστιτουτο
εφθασε
μετατρε
παρατα
επεισοδιο
υφος
##λουσε
ελληνικες
##ood
στρατιωτικο
δυναστεια
μαργαρι
##ζω
περιφερειας
ευρηματα
αφε
bill
επιτα
ανεγερ
αλφαβη
##ρτζ
βορειου
επισκοπος
διαι
πρωταθλητρια
##λντ
φοιν
αποτελουσαν
##ta
ελισα
ανακατα
δυσ
ορθ
ατυ
ογκ
##φορντ
πυρηνα
εκκλησιες
πιστη
ποδοσφαιρο
τουρκοι
##ντε
βασικη
επιστολη
λιθου
εισαγωγη
παραστασεις
##στικου
οργανωσης
##πιδα
αθλητες
we
##τζι
ντρα
νομα
γνωστες
ποικιλια
σωματα
ιουδα
εκατοντα
##ζερ
##γκρε
62
αγγλο
συντρο
##δωσει
##τζερ
##ισμοι
fr
πηραν
κολπο
σινγκ
εργαζο
προεκυ
##φθηκαν
αρχισει
αφηνοντας
ολυμπιακο
##λισμο
##ριζαν
πρωτοπο
##βες
57
συγκεντρων
προτυπο
στιβου
στρω
αδρια
παλατι
κανονες
εδειξε
##υμο
ονομαζονται
ανεβηκε
κρατησε
##γραφων
##ωτο
##ξιας
εγκαταστασεις
αεροσκαφη
επιχειρημα
ευρωπαικης
προσεγγιση
τζορτζ
ερχ
εβδομαδα
ασφαλεια
περιει
δειχνουν
νικητης
αναγκες
μαρτιν
##οντες
παρανο
θεσης
αγνο
τελειωσε
αιωνας
παραδοσιακα
mon
οκτα
υγρο
sup
λιστα
απασχολ
βορειοδυτικα
ημερομηνια
ηρα
καταστραφηκε
αλυσι
##ιζελ
αρκετοι
λαμβανει
95
δρασης
##μβαναν
κατοικη
βοηθη
επεισοδια
μεθοδος
##κυπ
πιστευεται
ταγμα
υπαγεται
χαρτο
##λακ
υποτα
καθυ
φυσικης
53
απωλειες
γωνια
85
##νησης
1925
δουλευ
εγκαινια
εθελον
γαλλικο
γραμμης
καθοδη
υμ
##λαι
ξεκινησει
υποψηφιος
γεννα
τσαρ
νικολαου
πωλησεις
84
##land
##ανου
αστεροει
αντζ
υψηλης
##ισουν
εκπλη
##φτει
εδαφους
συμμετοχες
πλανητη
επιτυχιες
υποσχε
αποικια
επιγραφη
ανησυ
πανελληνιο
##ame
αστυνομια
χωρους
κινου
οδου
##ιτες
εσο
παρκο
99
##ντι
πολιτειων
τηλεοραση
παει
ζητημα
στυλ
παρον
1913
περιοχων
ιδιως
επετρεψε
στει
ιων
αφρικης
συνεδρια
di
##τανε
##στυ
##χωρι
οικισμου
τουτου
##ρχου
ιδρυμα
σοβιετικης
##αρ
##ινους
##μβουργ
##θενται
βενετια
ελισαβετ
##χοντας
##τωνα
δυσκολο
αντιμετωπισε
##ητευ
##10
##γηση
μεγεθους
##στησει
##βαρ
##ict
##χαρισ
καταλυ
εταιρειες
em
ολοκληρο
σολ
disney
##σσαρων
σαι
τεταρτο
εξη
αντικατασταθηκε
##φτηκε
δισκου
rock
##μαχια
διασκε
συνεντευ
ιστοριες
##age
απωλεια
προγραμματα
μηχανη
παπαν
μπει
κοινοτητες
56
προπονητη
προσοχη
ζου
προφη
##τησεις
λευκω
σταματησε
παραγοντες
δυσα
μπελ
διαδοχο
ανθρωπου
εκπομπη
οξει
καταλαβει
διοικητικη
σχετικη
ψηλο
μαθα
παραι
αξονα
πριγκιπισ
γιωργος
##φυγαν
συνολικο
αρχιτεκτο
τραπεζα
john
ενωσεις
##ιδρυ
λεξεις
εκτοτε
##τιδας
παρθεν
εικοσι
εληξε
##ισης
λιθουαν
##ong
ανακαλυψη
ενοτητας
72
ag
ειδικη
ρυθμισ
##ment
##ρουνται
ερευνας
ζευγαρι
ισλα
##ev
συντον
ευχαρισ
καρολου
διακυβερ
τζι
##ραι
ειδε
##λεις
74
μικρου
λευκα
dr
##ys
χρονικα
γαλλικης
ανταγωνισ
προηγουμενη
αου
##ελθει
περιελαμβανε
##σκου
130
ανδρεα
δεδομενου
##λιση
πραγματικο
νομικη
ταση
σταλ
χρησης
##ψηφισ
##ταει
θανατος
δραπε
λουδοβικος
87
##ναυ
##ιζο
πλησια
αβα
τουρν
στενα
υφα
ειδων
διεθνεις
χριστο
δισε
εμπορικο
ευρυτερη
φρανκ
ρολος
δευτερολε
67
συνεχιζει
νοτιοδυτικα
ντερ
##τοντας
##γειου
γερμανικο
συχνο
πλουσιο
##βολια
##στοι
εκλογη
##ωτα
διορισ
σχεδιου
μερους
προωθηση
εργαζεται
αφι
1931
58
##τιζεται
##ληση
##old
all
συνταγματος
ατα
αντιτυπα
ηπειρου
αντιβασι
διαφορετικη
εγγυ
οθωμανικης
πιθανοτητα
168
συνοικ
χορευ
προηγουμενως
φθαν
##σοι
ξενοδο
##στερο
απουσια
##τιστηκε
αντιδρασεις
γουλιελμος
19ο
##χειο
πραγματικα
εδωσαν
βερολινο
επικα
διαδηλω
##λογικη
δικαιωματων
διοικησης
παρολα
##βουργ
τομας
μεταφραση
θελει
##κατομμυ
γερμανους
απονε
ιθα
συντρι
63
κτηνοτρο
no
σιλ
ετοι
ερχεται
ποντους
αφρο
μοντελα
αλληλεπιδ
##ιστικης
ταξιδευ
φραγκισ
παρασταση
αντιλη
αργεν
χρειαζεται
##κριν
ζουσε
πολεμους
παιρν
##τιση
λαικη
προφαν
στατισ
ιερουσα
ζωων
##λκυ
##χεις
ιερουσαλημ
##sk
##ωνονται
##ιστηκαν
διδυ
##θαρρυ
ναυτικου
τουρνουα
##χερ
τεθηκε
βελι
αποστα
τηλεφων
ηγετης
ξυλο
##δηλων
υπερο
##ματιες
comp
εισε
##ωσεων
υπερβολ
αστρο
χειρουργ
ανεπτυξε
εφοσον
απεκτησαν
στρατιωτικες
σφαιρα
καταγοταν
97
##φσκι
πρωτοβου
ολοκληρωση
νοτιοανατολικα
##βαλλει
66
παρκ
προσθηκη
κυβερνητη
##τειου
κοινοβουλευ
##τετα
οροσει
##ρονου
##νουσε
αρν
record
οξε
πολωνια
δικαιου
αξιωματου
νικολαος
νιου
ελευθερο
διαστασεις
##ina
καρλο
ποιηματα
παρεκ
απλως
αδελφου
ανακαλυψε
##νικ
εξαλ
οριστηκε
συνδρο
βασιλικης
διπλο
ριχαρ
αστα
τοποθετηθηκε
νοτιοανατολ
ηττες
αριστοκρα
##ολογικο
##ale
θεοτο
δημιουργωντας
συνολικη
κατειχε
φιλος
γεωργιο
##κιο
##ντο
χρυση
##πτων
##χικα
μπολ
ελευθερη
αυστριας
##στας
##τηθηκαν
απετυχε
βορειοανατολικα
ημιτε
##ius
##ιζα
##δεκ
εορτα
χερσονη
sm
λεγοντας
περιεχομενο
προπα
αναφερουν
ταρα
καλυπτει
πεζο
τριαντα
τιμηθηκε
δημιουργηθηκαν
εμαθε
δημητριου
71
##τωρ
εκρηξη
περιπε
παρουσιαστηκε
αρχηγο
δεσπο
##κτος
μακα
πετρος
τιμην
εντουτοις
##ly
##στελ
τοπικης
164
δημητριος
ιβαν
##βω
##τηριου
συνεισ
πρωτων
συνταγματα
διαταγμα
ζο
διαδρα
157
ιδιαιτερο
περιλαμβανονται
διδαξε
ντυ
φκ
1900
ταινιων
φορε
μεσαιωνα
κορης
συνδεδε
βενετιας
γκι
ρολου
συρ
##τευσε
##σκετ
96
πατρα
γαλλο
##στικος
παλαια
βιβλιου
απαιτη
διοργανωσης
οντας
##ory
κερδιζοντας
παρισιου
αιτω
δυναμης
οργανω
ταξια
διηγη
##ρικους
##τροφης
τυχα
τεχνικες
συμμετεχουν
εισηχθη
μακρα
συνδεση
##τησουν
αποφευ
air
ερρικου
##unt
επιστρεφει
εσσ
γερουσια
ληξη
ετοιμα
επιχειρησεων
59
σκοτει
##οντων
οχη
χιο
βουλης
απαντηση
μαικλ
υποδυ
πραγματικη
##ward
##μησης
##ιζονταν
ροβερ
##ερχεται
εκδικη
ασβε
##τησεων
επιστημη
λογαριασμο
88
##μαγ
γνωση
επιτεθηκε
δημαρχος
εξερευ
θεωρουσε
αδελφια
##bert
βιεννη
##μιος
##γχαν
##παι
ξεπερ
διαλυση
συναυλιες
τεσσαρων
68
##λαβουν
φιλιππου
πρεμιερα
πολυτι
##γονταν
ριζες
##ek
βαυα
ιησου
πανιων
μαδρι
##χειας
αλεξ
βουνο
##λησει
καταργηθηκε
χωρητικοτητας
##φαση
παναγιω
##πτης
περιοδικα
##πιας
##che
61
οσα
βουνα
προιοντων
171
πραξεις
κοινωνιας
νουμερο
τηλεοπτικη
αεροσκαφος
στιχους
##τροφ
πεζικου
##ien
##μμυ
##ner
##ιστικα
sy
ρει
επιδιω
λογοτεχνια
κινητηρα
##ιστικου
διοικητικο
συγκρουσεις
διανυ
λαρισ
ρυθμο
φθινοπωρο
δον
καρλ
##ague
αποπειρα
βελιγρα
##σχη
στολο
χρησιμοποιηθηκαν
ποιητης
υλικου
ευγενεις
μοσχας
ταγματος
προτου
στρατηγο
ασχολειται
σκληρο
απολλωνα
ορε
##ψυ
##σημο
##τινης
επιστημονικη
##πλασια
1921
per
φραγ
διοργανωσεις
αντιμετωπισει
##ρευση
βλ
##μπρι
συζητη
μεθοδο
ab
##ρεου
εμπειρια
επιλογ
ρολους
73
μεταλλα
##ογγ
145
ημερολογ
ουαλ
mo
##ca
δημοψηφισ
σπαρτια
πολιτειας
αμυνας
περιστρεφεται
gl
##μονας
νεοι
αθ
θεατων
διαδρομη
##πας
τιποτα
τοπικες
77
##ιοκα
αφρικαν
ιωση
λιμνης
πολυαριθ
ανιχνευ
##φορους
λεων
αιγ
αναπληρω
πραγματι
πρακτικη
συναντηση
fre
ξεχω
συνοικια
γενικοτερα
##ονι
ii
##μπη
νεους
##are
προσωπικη
παραιτηση
βραζιλια
her
διαγνω
δευτερης
τριγων
οδυ
##νοταν
εκδηλωσεις
us
γενος
πληροφοριων
πανη
αναπαρα
πρεσβυ
δεχεται
καθηγητη
##τειρα
##ντεν
##ραντα
κομματα
δουκατο
καταλογο
##ισμα
συμφερ
περιοδικου
ser
αραγων
χαρακτηρας
2η
υποψηφιο
σκοπος
παιδιων
##ερι
αποχωρηση
γραψει
δειγμα
ωρι
##γραφε
αμερικανος
world
πατρων
κωμω
ισοπα
φυλακη
τειχη
βεβαια
er
αφγαν
διαμαχη
εκεινης
ψηφισ
κανονικη
φρουρα
επιβιω
παροτι
μετεφερε
αποσυρθηκε
τυφ
γερμανικης
θεραπευ
κυτταρα
νικος
##ψα
##ξευ
αρρω
##μονευ
##νον
##συλ
τσου
##χαμ
##int
συγκριση
εφεραν
##τλ
βομβαρδισ
ιση
θεολογ
##γραψαν
##λιδες
εσωτερικη
παναγιας
εκτιμηση
φεκ
##μιζει
δηλη
##τρικου
##ivers
αντικαθισ
λος
χελ
βαθυ
##βατο
βιβλιων
##χτηκαν
##ans
προελευση
πινακας
##μπια
κτηριο
απερρι
##ult
86
γκρι
##ταφ
μεγας
##ωτος
σπουδαιο
δανιας
νομισματα
1910
ποσοτητα
αντικατεστησε
κυπριακη
διαφη
##ows
επιπροσ
##ors
ερωτευ
συμπεριλαμβανομενου
αγαλμα
μοιαζει
##per
χαλα
οπισ
μοντερ
καποτε
μαθηματικα
1908
απευθειας
απλη
##θευ
##ταρα
περιγραφη
εγκατασταση
διαφορο
εμβλη
##ζης
υψους
εξελ
πυλη
176
αξιολογη
οικονομικης
γινουν
stud
##φερουν
εικα
170
τουρκων
διατηρησε
παραχωρη
πετρα
υποψηφιοτητα
δυσαρε
πτηση
προτυπα
φοιτη
##board
αποδεικνυ
##στολη
σαρα
κολυ
στενο
μαι
διαμετρος
εγκεφαλ
θαλασσ
ιραν
επομενες
ενεργειες
σκωτιας
wind
δεικ
οργανισμου
ανεξαρ
υπευθυν
τευ
##νση
##λικος
γκρε
προσωπα
##ινονταν
δηλ
92
##λογου
χρυσα
επανεκ
σουηδια
##γειων
##μορφων
κκε
σμη
##μετ
ορισμενοι
καθυστερη
##λαμβανοντας
αποφασισαν
γιαννης
##ριχ
κομνη
78
βρισκει
δεσμευ
αναπο
αλεξανδρο
τριτος
επιστρεφ
##γραφει
στεμμα
νομους
φωτει
ανεξαρτητα
καστι
##σκευα
ανταγων
γενια
δυνατη
##μικ
##ποιησε
you
αικα
στολου
##μπλ
αρπα
παντρευτει
ζουσαν
θυγα
βουλγαριας
##πρε
700
βισ
αρθ
φυτα
ζωγραφος
##ωμενος
φυλη
οριστικα
##γικη
καμ
##ρισεις
σημασιας
τελετη
προκυπτει
##τις
αρχιτεκτονικης
εντον
##τυπων
τομεις
##βαλει
##ηλθαν
ποιηση
προωθη
εσσδ
ακτιν
παρεμειναν
προσφυγες
98
ισορρο
συνεχισει
κοινωνικης
σκηνοθετης
##ετη
κοστος
1915
συνωμο
αικατερ
##σινγκ
εντ
λατινικα
βενιζελ
ιστοσε
##δειξε
κατεληξε
επικινδυ
αρκετους
##τελης
θω
καταλαν
δασκαλος
##πτυχια
τοπικα
βελτι
καλιφορνια
##τωνται
λιγους
τουρκιας
##θουσαν
ικανοτητες
ιι
##ηθηκαν
προοδευ
σιγου
συνεργασιας
ξεσπασε
υδρα
πιστευε
κερκυρα
del
μετει
συσχε
αμοι
##ρχα
##στηριου
κινησεις
λογια
φερεται
εχθρο
##ορες
##τιαν
συνοδο
##ιοντα
βρετανικο
ανθρωπινη
ζητηματα
πλευρο
πικ
παρακατω
##θωμα
σημαντικος
μυκη
ιταλικα
ρωσικα
βουλευτικες
ρουμανια
επιδρομες
προχωρησε
επιπροσθε
αποτελεσαν
παραμονη
δυστυ
##κυκ
υπολογιζεται
ιλ
καινο
##ποιηθει
##σμενες
αποθε
αρχεια
αιματος
ανεπα
αλληλο
κλειστο
λατινικη
bar
##σολ
##μπει
διακριση
##ωματα
εκδιδ
δημιουργει
λειτουργησε
διοικητη
ενδιαμε
82
##χευ
##βαθμισ
οδηγησει
αλφον
εθεσε
ευαισθη
##ικοτητα
αλλαξει
##γενη
γεννηση
##ome
καριερας
81
##λαμβαναν
##τουρα
γκορ
παγκοσμιας
μεινει
εφευρε
γουε
σπυ
##διναν
κατεστρε
περιλαμβανε
λοφο
φερουν
ολλανδια
οικουμεν
διεργα
ακολουθουν
κουλ
σχεδιασμο
κωνσταντινο
αντιπροεδρος
ταξεις
δρομους
εγκαταλειψει
ντειβιντ
κρατων
νεαρη
συνεχιστηκε
αμμο
μαυρη
κιν
ξαν
##oss
##χωρα
κωμο
##ρρη
##θιου
##σιμη
γενικες
ονοματος
##δειας
140
σοβαρα
εκδιω
φυλακισ
κοσμος
φυτο
εθνων
μογγ
λογικη
##ork
φερδιναν
περιειχε
##πλευ
1905
sk
war
##oth
##ριοι
προσφορα
##ριζονταν
σωματειο
pe
ραβ
βορειοδυ
ρωσικης
αποτελουνταν
##τυπωση
69
ημισ
εποχων
##μονες
πανηγυ
08
συναλλα
δανει
θειο
##τοδο
μερει
πιλο
1916
υπολοιπες
ατμοσφαιρα
##ωτες
θερμοκρασιες
my
##λονται
##γηθηκε
music
04
κατοικου
##μονης
76
mag
συμπαν
παραγωγος
υπηρεσιων
αλληλεπιδρα
##ινωντας
αναγνωριστηκε
επικρατησε
πυκνοτητα
##ελα
στελ
διασημο
χρησιμοποιουσαν
εργοστασιο
συγχωνευ
προξεν
110
γνωστοι
ιστορικοι
επαγγελματικη
ηρακλη
καλες
147
159
ναυπη
##μειου
διαπιστω
καταστα
δινουν
##ντερ
χρησιμοποιουνταν
εκπροσωπη
σχετιζεται
βγα
##ga
τακ
ανορ
αρθρα
μνημεια
αμυνα
ευρωπαικες
πλεονεκτη
δικτυου
εξαρταται
κορες
ανεξαρτητη
δημιουργησαν
##ουντα
κατοικια
απαιτει
απομακρυ
φλωρεν
μεθυ
οικια
α2
συμβολη
αριθμου
αριθμων
##κισταν
γιουγκοσλαβιας
super
οποιον
##att
intern
##οπα
συναρτηση
##γγε
##ποιει
##ler
τρομοκρα
αριστερο
πολιτισμο
ρεν
##que
94
μεξ
εργαστηριο
πειραιως
ελαχιστα
##ποιησει
δαση
βουργ
οπερα
παραμεινει
βαπ
συναντησε
πελοποννησο
σχεδιων
πυρι
##τισμος
ραμ
##μερας
δασος
ζωγραφικη
προκαλεσει
##ορων
νοτο
μπαλα
βασιλεις
##θιας
υποκει
βερολινου
προσωρινα
εκλογων
##λυση
πολεμη
ονει
νοη
χασει
##πεδου
billboard
cd
##ena
ιδιοτητα
##λουσαν
top
im
οδηγου
av
##γραφικο
νεω
παρουσιαζουν
ανιψ
##υλο
φωτια
συνδεονται
σταδιοδρομια
παραδειγματα
ασπρο
ροδο
1906
pa
στρατηγου
##σπασε
κλιμακα
υγεια
προορ
κοινωνικο
ερευνητες
βημα
διαπραγματευσεις
σινγκλ
ενθαρρυ
univers
αλβανια
##ιμη
##der
##χορ
τολ
##πηκαν
μαυροβουν
σωματι
τοπος
##συνε
σωτη
ασθενεια
μογγολ
##χρη
κατεχει
79
σταλιν
καλε
ταρ
##μεναν
δισεκατομμυ
records
σολο
αντιστοιχει
ουγγαριας
νομικα
134
καρολο
bbc
##ζας
παρεκκλη
##τριο
##ise
##urn
καταφυγιο
οικονομιας
χρησιμοποιουσε
##κανη
##act
black
##ομενο
εφημεριδες
ανακαιν
##χτυ
##ναρ
προηλθε
##πτωσεις
##μφ
λειτουργουν
καλλιτεχνη
παναθηναικο
ταξιδεψε
##δρεου
δοξα
##ολογικα
ανακηρυχθηκε
##θεις
##πειες
σκορα
art
152
κυριες
πυρκα
18ου
πολεμησε
φοιτησε
γερμανο
89
go
##δρου
##ρισμα
φυλες
ιωσηφ
##κριση
λαος
##oci
λογοτεχνιας
υπευθυνος
##ονη
##στηματα
εξαδελ
βουργουν
ισοδυνα
εκατομμυριων
league
##ξιες
##λοβα
##φυσ
162
δρομου
κοπ
##γεγραμ
##λοπα
φωλια
δικηγο
ουγγαρια
παπανδρεου
καταδιω
ανακτη
υπουργειου
##φραγ
οδος
158
γιγαν
##ank
βασικα
προσελκυ
##ιστικες
δυση
##φοροι
##συστα
καποδιστριας
es
##βης
##λογικα
αισθηση
αντζελες
προσανατο
αγορας
απη
βασαν
##ρινου
συνορευει
ηγετες
250
ηρθαν
διεξαγωγη
αποτυχια
##γμενη
##itt
κιο
λεμε
ψηφους
διαφορετικο
παρομοιο
κορα
αγιων
εθνικες
γαλλος
πρακτο
εκτιμη
κρατου
κυκλου
βαθια
##iel
διαφυ
αυθεν
τροπους
συγκεντρωση
σικελια
φαλα
γαμου
επανηλθε
φευ
##σκη
##ελλα
λαθος
πυργο
αληθ
κανονα
##μπιν
##πνευ
θησα
πεθανει
εφαρμογες
σελευ
##ζεφ
γυαλ
εθνοσυνε
μεταφερει
ιωαννινων
συναντα
metal
##ple
ενδυ
επιβλη
##τουρκ
μεθοδους
βυζαντινης
φτανοντας
γνωμη
##use
εσωτερικων
3η
##ξεως
μπαλ
γιοχαν
ντον
οθον
γερμ
μιλα
εξωτερικη
τελευταιου
βγη
μελισ
χατζη
διαιρεση
καμα
προηγουμενο
εισηγαγε
##κειο
ευτυ
πολωνιας
πρασινο
##ικερ
εξορισ
##τινγκ
μαθητης
περιβαλλοντος
πρωτοβουλια
κοσμη
##στω
175
τροφο
οσοι
αυξηθηκε
επικρατεια
##λαυ
##ρως
μαρι
διατηρηση
cm
will
##μως
##ba
##τομη
δυνατον
τερμα
νοτιοδυ
πλε
##κις
ιδρυτης
1904
καταληγει
μαριας
θεωρουνταν
διαφημισ
σκορερ
δημοφιλης
##λινο
φιλοσοφ
##tr
##ουζ
καθολου
εμφαση
ημερων
βλεπει
ρευμα
λαυ
ανεπι
δαπαν
εντοπ
κωδικο
νεκροταφ
##me
169
##ley
##ριδες
νεαν
ψηφων
βλαβ
ελπ
174
ζωνης
##στικ
φανα
δημιουργηθει
αφορμη
παγ
υποβρυ
εισοδη
χρησιμευ
##τιβ
παραθυ
167
εκλεισε
83
ασθενεις
μπορεσε
πολεμων
επιστημονες
βαρβα
πεποι
σκοπευ
φιλια
γιαννη
χορηγη
σχετιζονται
vol
συσ
εκτασεις
ταλεν
καταπ
εξει
αριθμους
161
ανασκαφες
συμπτωματα
αποφασιζει
ρωμαιοι
αναθεωρη
##cl
συμβαλ
##γοβ
amer
επιτελει
χρονος
σταθμου
συνθετη
επιτυχημενη
πραξικοπημα
πολεμικη
επιλεγ
##ana
127
1911
##χτ
συμμετοχης
νομισμα
σμι
γνωριζει
θεωριας
φεου
ετησια
λουδοβικου
##γουντ
α1
##θιο
σταυρου
κυκλοφοριας
διαλυθηκε
κινηματογραφο
παραγγελ
δουλε
##μπολ
χορη
υψηλοτερη
ορθοδοξ
λπ
##λεας
μεταμορφ
εγγραφα
##ρινης
ποδοσφαιριστης
γενο
δεχθηκε
##γενεις
εξαρτη
σηματοδο
σκηνοθετη
πλαγιες
ατομου
je
συγκο
ισχυει
##ream
ισπανικα
σκοτωσε
δυσκολη
κλασικη
οδυσσε
##uk
πολιτων
##ξας
##φηκαν
##γοητευ
φυγει
##τζου
ναρκ
διακηρυ
##πειας
πολυπλο
σχηματισμο
υποβιβαστηκε
##λογικο
οποιοδηποτε
αεροπλαν
βορειοανατολ
γοτ
θεμελιω
##ιστ
κοινοβουλιου
υγρα
##τοικη
διαλε
##σματων
οικονομικες
δυναμικο
βασικος
διηρκε
126
ελαιο
ριζο
##ωδη
149
##ata
146
ανοιγμα
διαχειριση
αρχων
##κυττα
σουπερ
υπολοιπη
απογοητευ
##ληνη
##ary
ερρικο
φοιτητες
αφιξη
υποτρο
##ρειο
οπλο
τυραν
παλαισ
μεταφερθηκαν
##σθεν
υπηκο
μαρκο
κολπου
επιθυμια
πυκνο
μαργαριτα
hot
##ιδη
ιδαν
##σκει
##μανοι
εκπε
τουρκικα
1907
##φρο
##γκρα
γρηγο
##ovision
καλλιεργεια
φιλους
διαθεσιμο
υπολογιστη
154
ακριβεια
τυπικα
##τρικων
μικρασια
καταναλω
γερμανος
τεχνολογια
συσταθηκε
δερμα
##τφορ
υποστηριζουν
προτεσταν
συνολου
κοινα
##τρικ
δημιουργιας
παρακολουθησε
ηγου
τελειων
συνεχισαν
θηλα
##vel
στρατιωτικων
συμμαχ
διαταξη
δεξιο
συλλογων
εμποριου
ινδιας
καστρου
απαλλα
163
βουλευτες
θρακης
eurovision
συγκατα
αγωνιστει
##pl
##ott
βοηθος
εφημεριδας
προσδιορισ
ντεν
ενθου
επιστημης
αγνωστο
εκτεινεται
ακερα
mod
αντιληψη
156
1000
can
γερμανων
απαιτ
προσκυ
καταφερει
##διοικη
δραματικη
περασαν
##κτης
##μμενο
##νησια
εδινε
##ληφθει
ρον
##ild
##νωντας
κοντο
##ισεις
αρης
ποσοτητες
σχηματιζουν
##λαση
παραμενουν
αχαιας
##σσει
##λαμβανεται
##τζο
δρομος
ασυνη
σλοβεν
πριγκιπισσα
windows
συντελε
##ελυ
##ροντ
119
δωρε
μισθο
νομιμο
##λαου
##γοριθ
ερζε
διαθετουν
αντιπαρα
χρησιμοποιησει
ελενη
διασχ
ομολογ
##ari
οικισμους
οργανισμος
##βοιας
επιπεδου
κινας
gen
στομα
ηγετη
ρητο
ψευδων
χυ
εισηλθε
μουσικα
επιστημες
χορο
βιτ
τερματι
ολυμπιακος
θεια
ανεξαρτησιας
διαδεδο
εκπροσωπος
do
χρηματισ
2ο
φλε
##ρτι
##θολ
επιτι
##urg
πυργος
προστε
αρμον
καθορ
##ριντ
νεαρο
συντομη
lt
καλυτερης
θρησκευτικη
καταγραφει
##γμενες
##γραφης
τυχη
εκατονταδες
συνεντευξη
mer
μαγει
##θωσε
μπρι
φραντ
πτυχιο
αιν
##ωρο
μερικους
##ιτσας
μουσειου
155
οργανων
βοσνιας
po
μυθο
παρασκευη
sl
αλγοριθ
1909
μιλια
ριτσα
αρτε
αγωνιζοταν
ανατολης
απαραι
##τουνται
165
υποχρεω
σουηδιας
##πτονται
07
ρωμαιους
μετεβη
ψυχα
##υρων
ισχυρισ
επω
σαμ
επελεξε
151
επεστρεψαν
τετοιες
##gr
βασεις
προστασιας
καλεσε
παοκ
##τσερ
συνθετης
συναυλια
166
αλεξανδρεια
υδρογονου
εκφραση
##υρος
ποπ
σκοτωσει
ερζεγοβ
μεταφορας
##δημοκρα
διαμερισματα
ελβετια
ωκεανο
##τηθει
##τοτητα
διαθεση
βακτη
σαμου
##ζια
##ειδο
##ενος
χρονους
##ριους
##τοποιηση
ιατρικης
πεμπτη
χερσονησο
προβληματων
τεκμη
1ο
τουρ
υποθεσεις
φιλοδο
ριτσαρντ
μολδα
οθωμανους
συγχρονης
βοιω
εσοδα
1903
λατρευ
ιχνη
σταθερα
##κυν
109
βλαστη
καπεταν
cap
αφοσι
ημερολογιο
##μνο
##σειδων
συνομο
εμφανιστηκαν
καθολικη
βλαν
ημερας
εμι
λαμβανοντας
ξεκινωντας
βρετανιας
##γμενο
##γλω
##fa
##ma
μαξι
μεταγραφη
ακυρω
##ole
μειονο
κοινωνικες
##ade
καθαρα
σταθερη
##οτητα
τροπα
##ames
καλλιτεχνης
κομικ
εσθον
επανεξε
περσες
στρατιωτικης
μεταπτυχια
##σσυ
εθνικος
κυκλοφορησει
##μαστε
μπρε
σταματησει
μικρων
αποστολης
##δρας
κοντρα
παραβια
χαλκου
ισοβαθ
δολοφονηθηκε
αναζητηση
ολυμπιακου
ομωνυμου
δηλωνει
τρου
καθιστα
μπιλ
ολοκληρων
##se
##ζελ
##μφαν
παρτι
καθεστωτος
κορυφαια
καλαβ
τομ
ενδεχο
πιν
σαμο
εμφυλιο
περιγραφεται
##ογεν
κατεφυγε
ηπειρο
νυμφευτηκε
οργανισμο
σκοτωθηκαν
οσους
ξαφ
λιου
πουλια
##θειες
πλατφορ
σκλαβ
μπορουμε
wal
ζημιες
##τουα
μεγαλους
οικονομικο
σωζονται
πλοιων
φασματικος
αλγε
153
πατριαρχη
du
προεκυψε
##ai
##vd
θεσμο
##λειο
τροπ
καθιερωθηκε
νορβηγια
προβιβα
σαφ
09
τορ
γενικου
πρωταγωνιστησε
##πιο
επινο
κορεα
ογκο
##τριων
##τιε
αργυρο
##ρακου
##ανθρω
προδρο
##γραφου
διδασκαλια
προυπολογ
φρειδερικος
αφγανισταν
05
har
θρια
##ωματος
απεκ
ανταλλαγμα
μελαν
κωστα
αντιστοιχο
στρατευματων
##ιλαν
125
##γκαρ
διορ
144
σιγα
αλλοτε
καθαρο
καστο
τεχ
αζερ
επιμελη
χρηστες
τροφη
χειμερ
αλφ
αρχαιων
προποδες
φιλιππο
παραδοσιακη
πιανο
ass
##μιτ
##σιε
προκατο
##pr
##τρεψε
ερθει
μικροτερα
##νταμ
κωστας
ανηκαν
ομωνυμη
θρονου
##νονται
τοποθετειται
αφορουν
μεταβα
4ο
##πεδιο
ακολουθωντας
εμποδ
εντονο
αποφασιστηκε
σικελιας
λεπτομερειες
##πνο
##ρινος
ποιοτητα
ταυτοτητα
##σχηματισ
οδον
##νικου
##iam
##ραζ
στου
138
##ολογος
##orn
τεχνολογιας
πρωθυπουργο
εξεφρα
##ξειδιο
##πιων
##βιων
σαλαμ
ιδιοκτησια
ισαβελ
ακρη
μοναχο
star
διευθυ
τονους
##φυλο
##βεδο
δημοψηφισμα
χαλι
παιδειας
συμφωνησε
1897
ηφαιστεια
ηθελαν
μεγιστο
ονομασε
##ions
διευθυντη
τελετουργ
οχθη
πχ
αγκυ
πολιτικου
##ψεων
τυπους
κοιτα
κιθαρισ
καλων
ερυθ
χαμηλη
ραλ
##ναμ
εργαζοταν
##ance
κυκλος
ακολουθως
τελικως
αξιας
##βαλλεται
πρωθυπουργου
der
##pt
στολος
αλαν
γκαν
σικα
δοθει
comm
τσαν
1896
στεφανος
συνομοσπον
ec
αποτρε
αληθεια
##ενο
κλασσ
chr
pet
νει
αναλαμβανει
δαμα
καποδιστρια
##yn
137
πλοιου
χαιν
γαλλοι
##γωντας
αντιμετωπιση
αποκατασταση
αλκο
εγχειρη
εμπορικα
συλληψη
γυναικας
επεκταθηκε
βελτιωση
γενιας
σαιν
##λανδια
εκλεχθηκε
gro
σαξον
παιξει
139
στεφθηκε
παρατηρησεις
αποδεκ
ταγματα
δεξα
φαρα
εκτοπισ
αρμοδιο
αλβεδο
επιτεθηκαν
εμβλημα
ηθοποιο
##ντου
μικρης
##ινειται
132
##λονια
αντιπαλους
μεξικο
κενο
κοινοτητων
ισπανικη
υποστηρικτες
καζακ
σχεσεων
σαου
νεαρος
θρακη
ανδρα
φυσης
γεννημενος
##ail
##κοφ
##ληνης
θεωρηθει
αποστολες
παιδικη
επικοινωνια
προειδο
##σκευη
17ου
πιτερ
καλυτερες
αθλητικο
ολυμπιον
υψηλοτερο
μεσου
##βανι
ανωτατο
ποιημα
επιθεωρη
μεραρχια
εκκεν
ποσειδων
148
ποιητη
παρουσιαζεται
αθλητης
προκαλωντας
##φθ
δημους
προτασεις
θριαμβ
##βολο
επιχει
θεσεων
προσωρινη
στρατιωτων
τροφιμων
τραν
##εων
παραγοντας
##γκη
##μπλο
συνδεει
γεωργιας
ευρωπαικου
νωρις
επεξεργασια
##ros
παθη
ταλαν
αντρε
εποπ
υπαι
αποδειξη
##κολυ
##εα
##χρισ
##λαβα
αστερες
συστηματων
βασισμενη
lov
μπασκετ
σκια
reg
διατηρουσε
δημητρης
αρχειο
κρατικο
αιγαιου
εξειδικευ
θειου
ind
μεσογεια
med
##ins
γουιλιαμ
καταταξης
γνωριζ
μαρξ
##ics
χαρακτηριστικη
ζωγραφικης
εξακολουθει
γορ
ομιλους
αεριο
αυστρο
εγω
βασιλευ
θεωριες
αμερικανικης
πρωτευουσας
αποκλειστηκε
εκτοξευ
##era
βιλα
εξελιχθηκε
ψηφοφορια
γραφεια
αξιωματικος
##μαλ
##ere
εκεινα
δουνα
##own
κυλιν
16ο
##inc
κανονικα
ξενο
##eth
προσπαθησαν
αεροστα
αεροποριας
αθω
τιμης
λαικο
129
χρονολογουνται
βασιλισσας
γιουγκοσλαβια
απορροφη
##τεκ
##λισμου
προσευ
##ετ
##ons
συμμαχη
ηρωα
εμφυλιου
##παιχν
προσκλη
μπλο
παικτη
κατορθωσε
φανε
βαρια
συνεχη
πολεμισ
ασχολουνται
απαντησε
ανακτορο
##ονια
##ικοδο
ογ
##ικευ
τοξ
##ωνας
εναρ
εταιριας
αποδειχθηκε
ορχηστ
επιταχυ
αιμο
ολοκληρου
chart
απαιτειται
οχθες
υπολει
ακολουθησει
προσαρ
αρμενιας
αστερας
μαραθων
##enn
δικες
ζεν
δευτερα
char
εφοδια
κοριτσι
ενεργα
αμφο
βασικες
εγκυκ
##uth
καλλιτεχνων
πληθυσμων
σκαρ
ηροδο
##στρω
πρεβε
πολλαπ
παρασκευα
διηρκεσε
##αρντ
καμπαν
πακισταν
καποιου
##amm
αποφασεις
χριστιανοι
##pe
18ο
σαντα
κατασκευαστηκαν
ταφο
δεντρα
ευρισ
νοτιου
121
φιλοσοφιας
οπαδους
φρε
##γδα
βαρων
αρρα
118
τουρκικης
alb
γλυκο
εδουαρδος
##τονα
πραγματοποιηθηκαν
ταχυδρο
αραβικα
##τορια
θηβα
τακτικη
##μπαχ
πιθανη
ιρλανδια
ευθυνη
σχο
##τορα
σκοπους
δανια
πραγματοποιειται
##ικας
##νειας
172
νεοσυστα
συμπερασμα
σμιθ
##ροκ
##ρωπα
μεσογειο
εφηβ
1878
υπολογιστων
ντιν
δεσμο
μοτι
αργα
καρδινα
ενεργη
γιορτα
κατανομη
##κτου
##φτ
υποδηλων
##ony
υπηρεσιας
αφηγη
παρατηρειται
##λλι
##ane
λειτουργιες
κριμα
κρατι
συγκλη
μαθηματικων
mm
##ωμενα
##ειδων
εθελ
αποδιδεται
##σινα
κυβ
ερικ
αποκο
οργανωσεις
##ιμ
βαρκε
αντερ
δεσμους
μητροπολιτης
ερυθρο
κλο
##ποιησεις
επισκοπη
βικτω
##μερικαν
πολιτικους
λουκα
##βιομηχαν
φρεν
##ool
ιδρυσαν
γκερ
ισχυος
τοπιο
σημερινης
μετατραπηκε
ιρακ
κιε
λιοντα
##τεστη
υπογραφη
131
χημικη
καταδικαστηκε
live
κατη
ανδρεας
αυξανεται
##ωνες
σκαφος
τηλεοπτικο
τουρκοκρατιας
ορχηστρα
βαρκελων
##ουμ
πετο
αναγνωρισε
περιφερειες
συμπεριλαμβανομενης
πηγαινει
ξηρα
ουρανο
##ical
αναγλυ
κυριακη
φυσικων
αεροπορια
ριζοσπα
##βρι
αποτυχη
οικισμοι
σταλθηκε
##sch
περιηγη
αφησει
καινουργ
06
##ριδων
συνιστα
λειψ
καταταξη
κιτρινο
προφανως
θεοτοκου
αλλι
επιγραφες
αμερικανικου
διευκολυ
##ull
πετρι
##ara
νευρο
αμβερ
καιρους
##νησε
υποδεικνυ
οπλων
ροη
1899
πληροφορια
ανθε
φασης
καθημερινη
##μιδα
##κιδα
ακροα
αισθαν
van
##δειο
καταστασης
γενους
142
##πονδυ
χορω
εβραιων
##μπιον
##ino
καμπυ
##κευ
##ald
##ευρωπα
μπλου
τζεν
17ο
##γγυ
wr
σιδ
##ενιο
συμμαχους
συνυ
##ρισμου
διαρκειας
παραγωγ
βυζαντινο
σχηματιζει
πετρελαιου
wwe
ομιλος
πετυχα
##κορ
λεγε
173
μορφης
ντελ
δικτυα
κιθαρα
χριστουγεν
##bs
αναμ
επιβλε
γαλλικου
δαφ
προεδρια
λυκειο
αραβες
gt
##ps
τοξο
καποιους
αρραβων
ιβη
ορη
υποστει
θυσια
στρατηγικη
##κτικων
εξον
υποστηριζε
ευκολο
αιτημα
ελας
εμπιστο
συγγενεις
θια
τσερ
βαβυ
φυλων
##λινγκ
1890
στελεχη
στηλη
βαρε
ανεξαρτητο
περιφερειακης
σοβαρο
4η
αναπτυσσεται
ορθοδοξη
τραγουδιστρια
αλλιως
##ωσουν
νορβηγιας
συμβουλευ
ενδειξη
nor
ας
τρικ
##ευμα
##ποιουνται
βοηθα
##ope
οριζον
##ios
καταλαμβανει
μπουν
πολεμικο
σπαρτη
ειδω
αλλαζει
κρυσταλ
εχασαν
δωματιο
ενταση
πληθω
εκεινες
φιλοι
δρυ
##ιλιας
κυκλους
143
ρωμαιων
εξορυ
νοση
ξεκαθα
##τσας
απεικονιση
ντανι
δαχτυ
σωματεια
##ουσας
ενισχυση
##ιμον
##ρχες
δυσκολιες
γαλλους
αθλημα
δειγματα
##ηντα
προσκυνη
θρησκευτικες
##φορικα
##χρονη
αλφαβητο
σφραγ
εργαλ
ιδρυσης
αθηναιοι
τροφοδο
δικαιοσυνης
αντιπροσωπευει
ανερχεται
sal
ικα
πελ
##κς
προβα
χιον
##yl
καπι
##λαμβανουν
φραση
ναπολεοντα
03
μελα
κοπα
ποιν
χρονικη
συμβολα
αναμει
επιτυγχαν
προηγουμενες
κοιμη
αυτοκινητα
βαβυλων
##τανια
μεταπολε
##ark
διαδικασιες
αναγεννηση
ευρεια
εξεταση
αθλητικος
φιλανθρω
χιλιε
τεχνολογ
θυματα
παυλου
σκωτια
ανταλλαγη
καταφερνει
##ωτικο
##τηρα
136
προβληθηκε
αναγκασε
ανασυ
δημοτικου
αιφ
παραδοσεις
ζακυν
βιεννης
##κτικης
##αμε
εκθεσεις
πλημμυ
οθωνα
dna
##ματικες
##τυπου
αναφεροταν
γκον
υψηλες
αντιστοιχη
κερκυρας
επαιζε
##μπανα
ss
ναζι
##μενει
λειτουργουσε
εκλογικη
σχεδιαστηκε
1902
προσωπικα
καλλιεργη
μονιμα
στερεο
εξαπλω
ποιοτητας
περισσοτερων
##γκελ
ηρακλης
αψβουργ
δουναβη
καρε
προανα
##θενα
παραχωρησε
##μοντ
γερμανικες
συλλογοι
απολυτη
οικοδομη
βγηκε
award
ασα
ακινη
##ink
ανεμο
εθνικων
επεμβαση
128
προελευσης
115
εδαφων
αλβανιας
νυχτερ
νικων
##σιον
τζων
περιεγραψε
σχισ
##κτων
##χιων
##ωνουν
εγγραφο
επαναλη
πριγκη
στενη
διακριθηκε
προεδρικες
μελετητες
φανερ
##τσεστερ
διερ
μοναδικος
αρχαιος
αρχαιοτητας
επαυ
μπρου
ηλιακο
##μικους
##φικα
συλλογες
μικροτερος
γαλαξια
αθηναιων
παυσαν
εμβολ
βρηκαν
βιε
##τριου
##anc
δυνατοτητες
εξασφαλισει
θειος
##κλι
##ille
σημαντικοτερο
##ιδου
ασκει
οργανωσε
αχιλ
##τινοι
κυριας
##μερη
επισκεφθηκε
προτεινει
ασημεν
ev
ele
αρτα
φυλης
κοινωνικων
βαλεν
##ολιθ
διαταγη
στελεχος
καταγραφη
σας
ζωο
στρατιωτικος
καυκα
##τοπ
ανεκ
περιοδευ
##χοσ
πρωτοκολ
##τριβη
##ρντο
ιουστιν
πευ
##ησουν
##ινοι
ελευθεριας
παπαδο
1880
ρουμανιας
##ρετ
λογου
πολλαπλασια
επισημως
σπανιο
ψευδωνυμο
ηρε
εκλεκ
ονοματι
γερα
αμπελ
δημοτικα
κτιστηκε
ξεχωριστη
καταρρευση
αφροδι
##μνου
##πολ
σημαινε
φυσικου
σημαντικοτερα
απερριψε
##ξελ
προση
##δηλα
αποτελουνται
μεγιστη
135
τοπικων
πατριαρχης
βιντεοπαιχν
διαστασεων
αραγωνιας
##σοκ
βαρους
πλευρας
διαδοχη
επιβεβαιων
δινεται
πλω
παραγουν
εμμαν
αιθου
##ιτσι
συναδελ
φωτογραφιες
ορεινο
fa
##ρινες
ιδρυματος
1881
πιστευουν
αρχιεπισκοπος
ανωτατη
##ροσ
##ile
λευκη
bro
ετυ
εναπο
φαγη
χρυσου
βουλγαρικη
ηνωμενου
σκαφη
σιδηρου
##μβουργου
γινονταν
οψη
πληρων
##ake
ορου
χωριζεται
##ene
συναρ
σωζεται
παντοτε
φθα
ματι
##ett
φωσ
χερσονησου
κολεγιο
##σιακη
##φοριας
κατεστη
κληρονομιας
ειδικες
θηλυκο
κτηνοτροφια
mic
##ιη
μανα
##τωμα
##ini
αναφερθηκε
συχνοτητα
εμφανιστει
μητροπολη
mich
καταστασεις
##ican
κυριαρχη
##λογους
παρεχουν
ιστορικους
1870
##σμενοι
##ux
##σαιρ
κοζαν
ανδρον
ρωμαιοκα
international
ιντ
δημοκρατικο
λαμβανουν
συνεβαλε
##ιωτη
μονοπα
περιεχο
συνθεσεις
σκεψη
παραδοσιακο
προβολη
εισιτη
κιλα
καυσι
μεσολογ
ρωμαιοκαθολ
##ax
##ζικα
##ικι
μελω
αιρε
συγγραφη
εργαστηρια
μικροτερες
##λογικες
μικρας
107
υπολοιποι
εκστρατειας
οπλαρχη
διαρκει
πετρω
βραχυ
παλαιοτερη
σλοβα
καρκινο
αρχιτεκτονα
##γραμματα
οργανισμους
θηλυκα
νικαιας
κολυμβ
κωμοπολη
γων
φθο
περαν
##γουα
συγκεντρωσης
κλιμακας
γενν
τσαμπιον
λατρεια
mac
οθωμα
προιστο
λιβα
βελγιο
αγορασε
επικοινωνιας
δημοφιλες
3ο
fe
os
δεντρο
##στιες
αγωνισμα
εγκυ
αστυνομιας
res
##σπου
##σθει
αναφορας
##τονια
##πιση
εγκρι
##καλι
κρατικη
πραγματων
αγωνιστικες
επιφανειας
κινησης
βρετανικης
παναγια
υφισταται
σφαλ
##ater
γλωσσων
##ταμ
ναρ
αγριο
πυροβολα
πελοποννησου
νεκροταφειο
##ball
##ωνε
##θηκης
##λις
προημι
μηχανες
αποκαλειται
δικηγορος
υλικων
ακολουθη
νησιων
κληθηκε
γυρισματα
ιε
##ριαν
ουσιες
βαθμολογια
διαθηκη
##γραφηση
θεοδωρος
ενθουσια
αη
εε
κοσσυ
εξορια
αυτοδιοικη
αρσενικα
γνωριζουμε
141
γραφης
##πλοια
king
υστερ
##ισμενη
απογ
στοχευ
αρχισ
επακολου
αεριου
υπαρξει
##μμενη
αρχης
ασπα
παροχη
φυλακες
##ij
ανευ
##σιως
##ence
αντιπολιτευσης
00
κιου
φυλλο
επιθεσης
cent
μουν
μελι
καλαμα
ξεκιναει
βροχο
διαχω
ουρ
ισλαμ
απεσταλ
επικεντρων
χαρακτηριστει
δηλωσει
##ms
##λετ
κοινωνικα
ιακωβος
τραπεζας
mot
θωμα
##τορας
εντε
συμβει
μαζας
##σιους
βαλδου
στεφανο
αεροπλανο
##πτικο
πακε
θεατρικο
τσ
ιταλικο
χρωματος
δημητρη
προπαγαν
κοσσυφο
##φαλο
μηνων
επισκεπτες
γεγονοτων
pol
##πιου
##ιανα
πορτρε
ang
1895
κινουμενων
ber
στρατια
μπαχ
επιστημονικης
αποικιες
ταιρια
##στερες
αποτο
κατελη
δομες
ερωτα
μηνυμα
01
nat
##φονται
αλμα
μοναχου
καρχη
σοου
ταξιδια
##μπορν
πετυχει
αγνωστη
5ο
##ισσα
συσταση
εξοδο
εργαλεια
εμειναν
ηρακλειου
bit
μαξ
σχολειου
κλαδο
υπολοιπους
##πτοντας
χωρητικοτητα
προοπ
##ουαρτ
ομιλη
κεφαλαιο
καταστηματα
συμπλη
γερμανικου
ακριβης
6ο
##γενης
ζητησει
συμμαχων
διαμορφωση
οικος
##ρατ
##τανται
αναλογια
κτιριου
μπαντα
##χεν
ναυμαχια
βυθ
τειχος
##τονη
##ιστευ
αναμενο
##ιτζαν
καθενα
εκδοσης
προσεφερε
ιαπωνιας
ασκησε
λευκορω
κβαν
γκριζ
απλου
αδελφοι
σχεδιασε
ικανοποιη
εντουαρντ
εκατοστα
##ετια
##μβερ
δημοσιας
105
##olog
national
##ρωτα
θητειας
υπουργο
δευτερευ
λαμπρο
ξι
αποβιβα
##χομενος
κυκλα
βρετανοι
πεδιαδα
##λαιας
πολυε
επικεντρω
δηλωση
χριστιανικη
πορτογαλια
πορτογαλιας
colle
##αμερικαν
##διος
δειξει
ευγενων
ιερεας
##ιστας
αρχαιου
αντιπροσωπων
περιορισμενη
βυζαντινων
σουλτανου
προσγει
επισκεψη
επισκοπο
συζητηση
καζακσταν
φανελα
##ρικοι
##διοργαν
πρωιμη
καταλληλο
σμυρνης
##πιλ
λιθο
γνωριζε
πρωταθλητη
παυλος
dav
αντανα
συγκεκριμενες
φοβ
ξενων
δημοσιογραφος
συσκευες
διακρινονται
τοιχογραφιες
cit
βερο
γρι
αρτας
καντα
##γκελα
φαντασιας
προταθηκε
ποδοσφαιριστες
παιρνοντας
act
υπονο
ιταλικης
εβραιοι
ανωνυ
##καλια
##δονη
αναπτυχθει
συνθηκης
δικηγορ
μεταρρυθμιση
μαχαι
πεφτει
μανουηλ
αποκρυ
##τσεν
##oph
πληρωμα
καταστροφες
ερι
##σιακα
σοφιας
προκαλουν
δακτυλιο
σπηλαιο
##θωση
προθεση
τραγουδιων
βουκου
αξιοθεα
αντικειμενων
σοβαρες
dvd
αστρα
οη
##τουμε
οξυγονο
μητροπολιτη
##org
ναυπ
θηρα
τουρκοκυπ
πτησεις
mc
καλω
νομπελ
122
δεκαδες
γουι
φωνητικα
μπολσεβ
αδε
υλη
εμπορευ
che
tra
ηλ
##ερε
ανθη
πλακα
16ου
επανεξελεγη
##γονα
ρεθυ
λιμνες
il
su
εδε
τρικα
αναβαθμισ
##τισαν
##φελη
παραλλαγες
##τηματα
πιστευει
δηλητηρια
θου
βασιλικου
επικρατειας
ματς
παραποτα
##φωνα
##λικαν
χριστιανους
αναπαρισ
φαινομενα
θεωρουσαν
λουδοβικο
σταυρος
σον
χρονιες
εργατες
ορισε
απολυτα
βενζ
εξοπλισμο
παγε
##λιγκα
σχηματος
δισκους
διαφορετικων
ριζα
ουκρανια
εβαλε
##χιου
συγκρι
τυπων
κολλεγ
ιστορικες
επιλεχθηκε
##ηκε
φυτων
δεκαπεν
τραγουδιστης
κωμωδια
οθονη
##υντα
##κτες
αγγε
##ιωσε
μαλλια
τεραστιο
επιστρεφοντας
##ναγκα
επιχειρησης
διασκεδα
##br
κογκρε
ποια
κινηματογραφικη
φτανουν
εκδηλωση
υπαρξης
##μετα
εγγονος
ανθρωπινο
ενημερωσης
900
κλιση
##τσαν
##ve
##εντρο
χαρτη
σερρων
1901
ηθικη
δημοφιλη
ιδιες
προστεθηκε
βιβλιοθηκης
##ho
παρεμβαση
τραγω
φυσικες
μεσογειου
διεθνως
διαταγες
στεφανου
συμμαχοι
##θρον
στοκ
διαιτη
μαγκ
117
πρωταγωνιστες
απολι
ποινη
##ιβα
κοιλια
##χνει
ελευθερος
φλαμαν
##σδηποτε
εκτελει
##ign
αξιοπισ
εξισου
τιμων
μετασχηματισ
λαζα
αντιστασης
fin
##πεδιου
τεχνες
επαιρ
σταυροφορια
##λισμος
κατασκευασε
οφθαλ
διακρινεται
ωκεαν
βιετ
διαβ
εμε
μεμον
##εντα
##ιδος
ελληνα
εξασφαλισε
φυλακιστηκε
αναπαραγωγης
παπου
101
θερμα
εξεγερσης
υδ
##be
παρουσιαση
χρησιμοποιηθουν
##ισο
σινα
αλλον
παγκοσμιος
αδερφο
ορθογ
διακυβερνηση
sec
εστω
ποδηλα
σεισμο
εξερευνη
##ματη
##θηκες
αλγερ
επιδη
παραπε
συλλογης
τερματα
εθνοσυνελευση
##μπον
πεδιου
ψυχη
διατηρησει
υποχρεωσεις
μεταρρυθμισεις
##ουελ
##φιλντ
εκλεγει
υιοθετησε
μωαμε
σμυρνη
σια
εμμε
κανενας
λευκωσιας
##γγει
##ριπ
τουρκικο
χηρα
ολλανδιας
ελεφαν
ταφηκε
χαι
114
εσωτερικα
ακροπολη
αυτοκινητων
τσεχοσ
γκραν
συγχωνευση
απαιτησεις
ισημερ
πλεονεκτημα
δυτικες
##χυση
αριθμοι
γουιλ
παρομοιες
αυτοκινητοδρο
li
##θιδρυ
##ks
υπερβα
μνημης
βλαστηση
στιχοι
πτερυγα
ζερ
καλου
ποιος
ακμα
κατεβα
δωρο
στηριξη
προνομια
by
##ger
##σιμες
##μπρε
##μανση
νησων
1898
ψαρια
σπερ
##tain
σαχ
108
κουζ
ηγεμονα
θεωρησε
φωτογραφ
αποσπασμα
αζερμπα
τσεχοσλοβα
hall
διαφερει
διατηρηθηκε
αρχαιολογικο
τσαμπιονς
ben
##lin
μεταδιδ
##ιωτης
τραγουδη
συνεργατες
καραμαν
1835
τραυματιστηκε
γρε
ζευγος
προσφυγων
μεσης
##σεια
##σαρκ
μεγαλυτερους
##uss
δημοσιευση
κολομβ
##ιστικων
συμφωνιας
δημοσιευθηκε
δημοσιευτηκε
κρεμα
##συνδε
αζερμπαιτζαν
εξαντ
ρωσο
αριστερη
πινακο
βηματα
##χουσα
στιουαρτ
στρατα
εθνικα
ζωγραφου
roy
ενδειξεις
πασοκ
διαμαν
ασκου
λιβαν
χειρισ
εκτελεστηκε
##χοντες
mas
##λοντας
μεσων
##στρια
ιντερ
ανθρωπινων
##σινγκτον
αδα
τσο
καπου
εισπρα
αδελφους
ιωαννα
απεικονιζει
κομμουνιστικο
εκτασης
ελευθερα
απευθυν
αιθουσες
rad
##ρχων
##νωση
σαραντα
πλαγια
γυμναστηριο
ουεφα
##φουν
χρηστη
ομοφυλο
χρησιμοποιησαν
σταθμους
χημικο
##ife
λανθα
ψαλ
αυτοκτον
θεατες
συνδεθηκε
εγκαθιδρυ
133
χριστιανων
ρωσικο
βοσνια
σκανδινα
##τοφυλα
περιεκ
συνεχεις
κερδισαν
εμμανουηλ
##ειδης
ανωμα
δημιουργειται
κατηγορηθηκε
θυμα
ζωνες
κυνηγι
5η
##de
γκαρ
συγχρονα
##γμενα
##ερες
διαστηματα
αποκαταστα
σαββατο
02
##υση
##κλε
##ura
αλεξανδρειας
σχηματιζεται
love
fil
προγον
##any
ανταποκρι
τσαρλς
γοτθ
##υρα
##ντον
##φικο
μουστα
εβγα
##ισμενο
αρχε
γερμανικων
παιδα
καλλιτεχνικη
αρμενια
δραπετευ
##γουνται
αποζη
##διαστα
διερευ
κυβερνησεις
γκρου
μηχανικη
δημοσιων
βιομηχανικη
σκληρη
γυναικειου
οηε
συνορων
ανθρωπινης
διαδικτυο
καθεδρικο
αρκαδιας
ανθυ
ανοικοδο
αντιθετως
προσωπικοτητα
χενρι
αμμοχω
rom
##ειδες
πατρας
αγορες
τυποι
σιτι
συστατικα
βρυξελ
απαραιτητη
ογδο
up
##γκορ
προσαρτηθηκε
ολυμπιονικης
ενορ
επαρκ
##ολογικες
χαλυ
κορυφες
οχυρο
δευτερολεπτα
ταλεντο
##ρχιες
αλλω
παραγονται
ραιχ
γενετειρα
εισοδος
##oy
##εντι
##err
αγγλικο
ζητησαν
αδερφος
δολαριων
κινειται
ηθοποι
επηρεασε
επιρροες
##ke
συριας
συνισ
κορων
ιδιοι
νικητρια
##μπεκ
λανκα
καταναλωση
απογονους
απογονοι
iii
ευημερ
εγχω
κρατησει
απολυτο
βασης
##τωσης
αρθου
κατανοηση
club
βουργουνδιας
εγραφε
##φανη
βιομηχανιας
ανοιχτο
φιλμ
λοφου
συνενωση
κακη
βουρ
σωλη
ρωμαικο
ποταμων
αγνωστος
αυστραλιας
παναθηναικος
ιακωβου
ακτινοβολια
εκστρατειες
συγχρονες
μουσουλμανοι
πυραυ
##λονα
##ιονες
κηρυξε
εισοδου
πυροβολικου
μενει
ψηλα
γιορτη
ελεγχεται
αναγκαστηκαν
##συλβαν
##τηρες
αντρα
αλβερ
##μερους
σατι
ερευνων
1889
υδρογονο
μεσσηνιας
##τοριο
##λαος
##λογων
πολυτεχν
πρωτοτυπο
κροατιας
προκαλεσαν
αλλωστε
διαφερουν
##σταλη
λιβερ
πρακτικα
αικατερινη
κατοικουσαν
σπονδυ
χουν
##oft
κατεδα
εξωτερικα
ρυθμου
μπραουν
περναει
επιπροσθετα
ιο
κινητηρες
προορισμο
μονιμη
διδακτορικο
δισεκατομμυρια
tv
βιας
αλπ
πληρες
αφθον
ελατ
##νιδια
εβραιους
σοσιαλ
βασιλεων
##ert
νεοτερος
ορισμενων
εμπορικες
κλαυ
αγροτικη
ιδιωτικο
##σμενων
ομωνυμης
ηρωας
##eph
μακροχρον
θεων
πληρης
βραβευτηκε
william
φινα
104
τοποθετηση
tur
##τατη
παιζουν
ταφος
ελαφρα
ολοκληρωθει
επανει
αυτοκινητου
αεροσκαφων
εξαλει
τελικος
αιτηση
##ραντο
113
γονα
λαι
##τρους
ομιλια
μεγαλυτερου
υπερη
απεικονιζεται
one
##τιθενται
δεξι
καθενας
φιλοτεχνη
κτηρια
επιτρεπουν
χρειαζοταν
επιδοση
αλκοολ
ps
##ζεν
##μιση
γιωργο
επιστολες
μουσικος
ισχυριστηκε
ηλικιω
αντικατασταση
πτερυγες
##ha
στοχους
εδρευει
##τζε
αλεξαντερ
grand
λογισμικου
φαραω
san
##χνε
γνωσεις
σκοτ
γουορ
οθωμανων
μαρτυριες
fac
##αι
##ταρι
λαικης
##ποιημενη
##στειλαν
βελιγραδι
κυβερνησε
υπολογιστες
φυλε
αιτιο
πρωτοε
ζητωντας
κλαδος
##ληφθησαν
βυζαντινους
εγκλημα
τροφιμα
val
##ρειου
οδηγιες
στειλει
christ
προαναφερ
tw
##σμια
##μμενα
ελληνικος
νησο
ληψη
νικολαο
προαστια
πολιτευ
φασ
μπαραζ
123
εκαστο
##ζησαν
διαδικασιας
οξυγονου
ξεχωριστα
young
οξεος
μαδριτης
τρισ
διαφορετικους
μωαμεθ
παραμυ
ανωτερο
##χουσε
αυστροου
bas
pre
sa
φλαν
καμερ
αγρια
##μπρο
##πηρ
σχολες
anim
χημικα
λενιν
##la
##ling
##way
##χηση
κριτικους
σημαντικοτερες
επαναστατες
αρσενικο
φτερα
##νικης
περιπλο
στραφηκε
γενικης
μοναχα
##πτωση
μανι
ζωντανα
##ναλντ
ιστοσελιδα
μεμβ
σαιντ
ιδρυματα
βασισμενο
σφο
##φθο
αποσ
βομβ
τοπους
ναυτι
##λουνταν
πυργου
κυμαινεται
mad
γυρισε
περιστερ
ρουχα
στρατοπεδα
μαθαινει
cod
##μειας
διεκδικησε
ελαφρως
ιππικου
roll
οστα
παγο
παγου
παχυ
χρωματισ
κατακτωντας
πεμπτο
mat
υποκρι
ενωσεων
δραστηριοτητας
συγκεντρωσει
ενοπλων
υπευθυνη
##ρς
106
λεγομενη
περικυκ
βαπτισ
##εζ
##ριακο
δημων
σαλα
αναπτυξει
θολ
##μν
συμπλο
##γραφικα
κιβω
θεσσαλιας
ιστορικων
κριν
##λοταν
##ιωτες
##νανιας
μηχανικος
ελλειψης
φιλοξενει
##mann
λαρνα
πλατιν
ακολουθια
μειωθηκε
ir
οπε
##ουσες
##ιανο
πατ
##λιους
##μματων
ενταξη
απαντα
σουλτανος
part
αρω
##ακ
##χρονο
14ο
καλυψη
ελεγχος
υπουργου
πειραμα
πνευματικη
red
πονο
##τιστα
##φωνο
σπουδασει
μεταλλια
κυτταρων
δημητριο
##ξιων
##ουνς
θεσπισ
συμφι
φαραγ
προεβλε
##βολιας
κερδιζει
μεσολαβ
παντρεμενος
πεισει
βω
οτου
##τιζει
##τανιας
##χαρα
προερχονταν
διαδεχτηκε
γυναικεια
αιο
##ροκο
##λογες
διαδοση
συμμαχιας
πολιτιστικη
παρειχε
τετραγωνικα
βλαντι
σελι
περιθω
γαλλων
καλυτερος
πληθυσμους
καππα
καταργηση
παππου
##ονες
λατ
σκηνης
ζακ
νεκρων
εδουαρδου
οθωμανοι
ng
out
##ισμενος
μεταβολ
##χωρει
σχεδιασμου
διακρισεις
σχηματιστηκε
σκωτσε
βουνου
οροσειρα
von
##τεα
##λετα
1500
βασιστηκε
τζαμι
ασχοληθει
επαγγελματικο
κληρονομια
ισαβελλα
bre
νδ
##μολ
##χλη
##λοχα
περισσοτερη
κυριαρχιας
ναρκω
αιφνιδια
lu
min
σπει
##ποδα
διενερ
περας
μοναχος
εκκλησιαστικη
πληθυσμοι
μεραρχιας
θρησκευτικο
εκλεχτηκε
lo
ηχου
αρχιζουν
ευρος
πολεως
αμμων
υποστηριξει
πιστευαν
school
συσσω
ασυνηθισ
εο
πλατων
παρεμβα
οδηγουν
παροδο
αττικη
1885
γιοι
##αλο
##φρον
##χικη
μουρ
##ures
13ο
μαντσεστερ
λομβαρ
καθηκον
εγκατασταθει
##μαγνη
φρο
##ιτων
##λεω
απλων
εκεινοι
ουασινγκτον
ιμπν
##mo
##γκον
εβλε
πετρελαιο
φθανει
tran
γλα
καζαν
15ο
κυριλ
διακοσ
τιμωρη
ενη
αρχον
ant
συγκροτηματα
ετησιως
αφοτου
πετρουπολη
συσκευη
##χλω
##παρχ
φαλη
##ρωνα
θεωρημα
ιερου
tel
συχν
##τανη
αναρχ
σταδιου
ρομα
εκπομπες
τμηματων
καταληφθηκε
1860
φιλαδελ
βρουν
δρ
λοιμω
διαμορφων
##μουσαν
νοτου
ροδου
γραφειου
πλειστον
αλογο
##γραφεται
απαραιτητα
αθρο
γκυ
καγκελα
γιατρος
αριθμουσε
ταχυτητας
καπως
αποκτηση
καθιστωντας
νικωντας
##ομα
##ear
##χωμα
##ιανου
αναμεν
##κρατια
λιπα
διορισε
κυκλοφορει
χτισμενο
παραιτηθει
επετρεπε
φεουδα
οινο
##ze
##ικτη
μελετης
εκπομπης
##ομενες
αντο
συνεπειες
1830
εαυ
sim
ανηλ
##καυ
θετικα
χαρακτηριζονται
116
χειροτονη
δισκογραφικη
ιουλια
μετωπου
πορτα
γραμματων
##ella
εγκατελειψαν
στρωματα
sw
προδο
εντυπωση
υποδια
τελειο
111
##ματοφυλα
ναυτικη
επισημες
ανακοινωση
##ωδες
##θεας
νομων
##ose
φασεις
champ
μετατο
ινδο
πιεσης
κομμουνιστικου
εξετασεις
ινστιτουτου
απαραιτητο
αποφυγει
ουιλιαμ
πυρε
χανει
##πινες
νεκρους
αποκαλου
ερζεγοβινης
πρυ
περιερ
##χωρησουν
ηχογραφησεις
##σαρ
θετικες
βαμβα
ουν
αφηνει
αποζημ
af
ψω
ανατρε
##μαντερ
πετρες
προσωνυ
πολεμικες
λουλου
λουξε
##βιχ
##τριχ
φοβου
φιλοσοφος
εδειξαν
σφυ
##τεθει
συρακου
κοιν
κυματα
εθνος
αναφερθει
σοβαρη
αναγεννησης
συνασπισμου
ανεγερση
απονεμηθηκε
##σουα
##σιακο
##ont
εφτια
προσωπικου
διατηρουν
μεταναστες
##berg
θρησκειας
4ου
βολου
δανε
ιγ
παθ
χαμ
οπτικη
ποταμι
ουκρανιας
αψβουργων
hell
προσβα
##μιγ
αγγλος
αξιωματα
##ubl
καταλληλη
μεταναστευση
ξηρο
ιρλανδιας
επωνυμια
μετειχαν
ωο
##υρωση
##γλου
##ψιμο
##λεμ
##ρευσε
αντιπαλος
συνδικα
βρετανους
τηλεσκοπ
συγγραφεων
αδερφη
enter
δελτα
οχηματα
παραδε
##λιθ
ελικο
ελπιδα
ανθρωπισ
μορφω
αναδειξη
μοναστηριου
επιδοσεις
καθοδηγηση
γιατρο
δημιουργουν
βαθμολογιας
##ιωσεις
επιτρεποντας
παναθηναικου
σορ
πεναλ
αλγεβ
iv
tri
δεχτει
λεοντα
προσφερουν
ξενοδοχειο
καλαβρυ
with
ενασχολ
καισαρα
αυγα
διοικ
ανδρας
πολιτισμος
συμπλε
ανυψ
##ιντερ
##λορ
προβαλ
λεο
παλιοτερα
ανταρτες
συζητησεις
ανατρα
απεσπασε
συλλε
##καταστα
στρατιωτικα
##umb
μεταλλο
τραγουδιστη
δαλ
καται
##ισκα
διαζυ
θαμ
βασιζονται
ουιλ
εξαιρετικη
αυτονομη
σπορ
αναμετρηση
μεξικου
ιερας
μουσικων
μεγαλοπρε
συμπεριληφθηκε
αρνηθηκαν
θερμοκρασιας
time
βρω
##ker
##wn
πουλησε
αναδυ
νοημα
λιβ
συγκρα
##κιδας
τσαρτ
απανταται
τελειως
κροατια
7ο
ντισ
##τισει
ποδι
##χομενη
##δωσαν
προηγουμενα
αφορουσε
τυχαια
εντεκα
τo
##ποιου
ακριβη
μιλανο
σχηματιζοντας
πιτ
##βουλ
ενεκ
αποκτα
##σχεδια
στηριζεται
τασεις
επιτρα
σωσει
βυθισ
εκατομμυριο
αξιωματικους
κρυπτο
αφιερωμενο
διασφαλ
##ael
παιζοντας
##σετ
##θεται
αρμα
αστικη
μειωνεται
σχετικες
##τζης
χαρακτηρων
μοναδων
##βληθηκε
μανια
##διδε
##κιδες
καμπου
μακρι
##ator
παρεδωσε
μοριο
νεοελλην
##γκας
φρουρας
ομιλων
οπαδοι
φρυ
##μικοι
αναταρα
##ελος
12ο
εισηγη
##τεχνια
αμστερ
αραβικη
ενσωματων
αιγαλεω
χαλκιδ
times
εξελισ
york
καμπο
παραδοθηκε
υψηλα
αθλητικη
εγκριση
βαλκανια
γρηγορη
εισεβαλε
αμστερνταμ
προθε
περου
πολο
##γραφους
102
ξεφυ
γραμμενο
##εισδυ
εντονες
βδ
τοπων
παραθαλα
εντολες
##ομενα
##ικιας
##τοφ
##τιους
πασας
ειδικευ
αρκου
προσπαθωντας
σημειωθηκε
##ρμα
##ενα
αρχαιους
επικεντρο
σωματειων
ορισμενους
αυγουστος
συνθετες
ονειρο
paul
##λοντα
πλειονο
αντεπι
πτολεμαιος
εκαστοτε
##μιλια
ανδρο
συντετα
##ζομενος
πειραματα
αιθιο
ξαδελ
##μνημονευ
σικαγο
θνη
συγκα
διαδοχης
γουλιελμο
φιλαθ
##ов
καστρα
##γωγες
112
πορους
don
λεκ
αυλης
επιπτωσεις
σαμα
##λαντες
πυλες
ανακαλυπτει
περιβαλλεται
συμβαση
ιπποτες
##ιβ
##φλε
##uct
##κελ
διεισδυ
επικυρω
αγροτες
κεφαλαια
γαν
ειμαι
πεπ
##esco
κρασι
εκδοχες
διοικητικου
διακοπη
box
αστερι
ανοικτο
2ου
pal
γκει
##τοπου
προκηρυ
##παρ
αναδιοργαν
##κοκ
##κοβιτς
νεστο
φορεις
παλαιου
αρκετων
διστα
κηφισ
1879
λαρισας
καινοτο
sol
##ειδους
μυρ
τιτλου
θεσσαλια
αναπαραγ
προμηθευ
πυρκαγια
##for
##μπεν
συλλογους
παραδοσης
συνεργατης
διεξαγεται
υδατο
επιλογης
προδια
εκτεν
στρωμα
προσδο
ζησει
παραγωγο
ποδοσφαιρικο
χριστιανισμο
##πουλ
βιρτζ
αγγειο
##σσας
αγαλματα
πετοσφαιρισης
καλογ
πεδ
πομπη
σαρκο
χαρακτηριστηκε
σαφως
##τικως
##λεγο
##ναιτ
φιλη
##γονη
ευρωπαικων
θρησκευτικα
ριχαρδος
micros
βον
##ιτης
κοπε
##ουλφ
διεκο
νησου
κυπελλα
##σχερ
εχθρους
χαλκινο
##αντα
χαρισ
ζητα
μιλη
χειρογραφα
cal
υπογραψει
##γουει
ερτ
τραβη
σκληρα
βλεποντας
3ος
##δορ
##ζιν
##μεντ
##τιανα
λεγοταν
αρκετο
ορφαν
εργοστασια
##στηρα
ασσυ
τερματοφυλα
παλαιοτερο
αρχιπελα
αδερφια
γραμματεα
αντιοχειας
αντιπολιτευση
αδριανου
οπερας
pop
πατα
##σακι
δυναμικη
συνοδου
κατοικιες
φλωρεντια
φευγει
στρατιας
σημειωνει
δικτατοριας
ενιαιο
διαδραματι
κατεστρεψε
περιεχομενου
gra
ριο
ανικαν
προσωπου
αδελφες
φοβο
αστερια
οξφορ
λειψανα
πεσει
θεωρωντας
πνευμον
πεναλτι
πατρικ
εκο
ενορια
λακων
εξαγορα
αυτοκρατορικη
συνθηκων
αδυναμια
διασπαση
ετρε
ησυ
πλην
κοινης
αρχαιοι
μειγμα
περιλαμβανεται
φυσικος
γηπεδου
φαρμακα
american
προσαρταται
##lo
καταστημα
αξιες
εκατ
δημοκρατικη
σουλτανο
κεφαλη
ep
##ουερ
νεολιθ
συνεθεσε
φιλανθρωπ
συμπληρων
2ος
##λεσ
μορα
1866
τζοουνς
βραζιλιας
σκι
θεματων
πολιτιστικο
διανομη
πεθαινει
παραλλαγη
##μπριτζ
πρωτοεμφαν
##ποινα
ανεθεσε
καναλια
κιλκις
θωρακ
##θορ
##τοκος
αστικο
##ζαρ
κοντινο
ρευματος
ινδονη
δραστηριοτητων
εσπευ
τηλεοπτικες
καθολικο
σφαγη
κοριτσια
καβαλας
βαυαριας
καστιλης
##κιων
##θλι
εξαναγκα
1848
επιτεθει
επωνυμο
ηπειρωτικη
vide
εκκλησιων
γιορ
προηχθη
ρεπου
οδηγουσε
βλαντιμιρ
καππαδο
sn
##λαχ
κομισ
##ero
σχετικο
συνεργαστει
καταστραφηκαν
ερχονται
σοσιαλδημοκρα
trans
sil
παρουν
##μαντ
##ano
αστερων
λεξης
οδηγωντας
δημοκρατικου
πορων
1894
αυξηθει
1840
ιππικο
ανεπιτυ
κρισης
##ομενων
##ωφ
αγριν
εκεινον
μυστικη
ασβεστο
καταπιε
απονο
επεισε
##ury
συμπεριφορας
σημαντικοτερη
ετησιο
εξελιξεις
σκελε
κρεας
εκτιμησεις
kar
αλογα
αλκα
##κιμαντερ
ποντου
καλαθοσφαι
αιγαιο
πεπερα
ιδιωτικη
est
##ποιηθηκαν
##τινου
εκεινους
επαναλαμβαν
##lex
ανατολικου
ενδεχομενως
mor
κινγκ
##port
##ζος
βοταν
σωματων
σημειωνεται
ποντοι
ντοκιμαντερ
φημες
τελειωνει
gener
παγκ
20ο
υποδει
ευρωπαικα
1888
ανοδου
εβδομη
μπροστι
αυτονομια
σεξουαλικη
ηλιος
νικου
φαλ
θετικη
κειμενου
φωτογραφια
##ελυσε
##λινη
προτερα
προφορα
λαμ
##ρινγκ
μεγαρο
αγγεια
κερδη
νικησει
δωσουν
κρυφα
τηλεορασης
λογισμικο
εξηγει
da
τοπου
προκατα
αντισφαι
inst
δημοσιου
πωλ
φινλανδια
σκοραρε
album
gi
δολ
τρεν
##μοια
στιβεν
ροτζερ
λουις
κηδε
κλεοπα
θεμελια
μουσουλμανους
μυκηνα
##γραφοι
δημοτικης
κεντρικου
ντειβις
##εργε
##δονα
κυριου
##μπας
κανονικο
ολυμπιακων
1822
αποκαλυπτει
αεροπορικη
επιθυμουσε
μυθιστορηματα
ασκηση
επεξεργασιας
χουαν
εγκαινιαστηκε
πλειονοτητα
παραμε
εργαστει
παρουσιας
σκεφ
οφειλει
##νταν
κασταν
πασχα
τζαν
βραχω
εννοιες
show
πωληση
ηχογραφηση
σουν
παγω
προθυ
τοπικου
##τσιν
εικονας
εβραικη
day
ωδειο
επιστρα
φυγη
πρωταγωνιστικο
κεραυ
office
υποψηφιοτητες
συγκοινων
βιρτζινια
##ρρε
συνεται
κομο
χωριων
βασιλεα
103
##ζομενη
δημιουργησουν
δικαιοδοσια
μετακινηθηκε
διακεκρι
μπρουν
επεμβα
ιδρυτικο
αγωνισματα
1892
χανοντας
μεθοδοι
απογευμα
υγι
##τιμη
##ings
γιανν
απομακρυνση
##σικ
##βιζ
σετ
πραγματοπο
τοποθεσιες
αρνηση
γουλιελμου
studios
τροπαιο
##ka
##ησι
καλειται
##λοα
προγενε
τζερ
##its
πιστε
παρατηρηθει
εκμεταλλευση
νομοθεσια
αργεντινη
microsoft
##στρου
χαβα
αγγλους
δικαστηριου
ολοκληρωσει
τραπεζι
κατορθω
σιντ
##φρει
##μετρα
##ιτσε
##σκοπη
μοναστηρια
sur
λεια
##ττο
##δρων
λακ
ονομαζονταν
ρωσοι
##ola
κουκου
συναντηθηκε
πτηνα
λιβυ
θεωρου
πρακτικες
##λεκτικα
ινδου
συναντησει
διατηρειται
σκουρο
σπαρτιατες
jean
υποτροφια
θι
##σινο
##φωμα
μαριο
##ita
##asa
διασημος
κτλ
μοσ
##μειναν
δαρ
εμποδισ
συνοδος
μεταλλου
ξαφνικα
ησαν
##μπυ
ευελ
ευεργε
μεγαλοι
αποκορυ
net
##ψι
##ληψης
ναους
##λεξαν
αμινο
χρωμο
προγραμματισμου
πεποιθη
δωρεαν
##ωμενες
μαθει
##πιστηκαν
ηγεμονας
πραγματοποιησει
συνθεσης
συμπλεγμα
##σικη
κοπελα
##μορφη
##ters
αντικαταστησει
ξεσπασμα
χιονο
##πουσε
τριτου
##olf
παρατηρηση
αμοιβα
kn
##πιον
κακου
μετατροπη
##σσου
χημικων
αποδοχη
γυναικειο
διαδικτυα
θαλασσια
ουδετερο
ακατα
##ρκα
αυτοκτο
συμβιβα
δωδε
ηρωες
##γιαννη
μετεφεραν
διαγωνισμου
ανοιχτα
εκτεταμενη
##κτωρ
υποδε
κυτταρο
χρηματοδοτηση
προημιτε
μιου
##σσια
##τηλε
μεταβιβα
##λειτουργ
##φυλλο
γιορκ
δραστηριοποιειται
φιλοσοφικη
μαυρα
θεοδωρα
ελληνοκυπ
αρνειται
##υρια
##ντορ
λιμενα
πληκ
τζουν
##σσεξ
εξοδα
διαλεκτο
les
καταλαμβανοντας
ξεχωριστο
διαμαχες
λεωφορ
διορθω
pat
##εβο
τατα
αναπτυσσο
μετακομισ
πρεσβευ
οκταβια
##ique
κατασχε
καταλαβουν
λουι
μελετησε
συμφεροντα
θεους
##λογιο
κομματων
συνανταται
συγχρονους
ρυθμος
κατασκο
μαρκου
προστεθηκαν
ηθοποιους
hist
##μινα
##χνα
εθνους
1867
αποδεκτη
προετοιμασια
επανειλημ
περπα
##γηθει
δημοσιες
##σσοντας
βραχο
γουελ
βρετανικου
sound
ηρακλειο
λευκωσια
βενιζελου
λεμεσου
##φθορα
κοζανης
##por
εργασιων
συνοδεια
ποταμια
mart
χτισμενη
ραδιοτηλε
προοδο
##φοδια
ανατολικες
αντιπαλου
κοκκινη
τυπικη
αββα
επιβατες
ρεπουμπ
##στικοτητα
##στιας
##γραφικες
σηραγ
αντιγραφο
αδελφων
ισχυρες
βορει
γουολ
σωστη
##ave
μυθιστορηματος
παρασκευης
##uck
##τιοι
διαφοροι
εξουσιες
ηθοποιου
δασκαλο
αμφιλεγο
γεωγραφικη
σπαρτης
βομβαρδ
εκλεγεται
συγχρονοι
350
ιβ
πλιν
υφη
##μουνται
##fl
επιμη
επιλυ
##τισης
##ιζομενος
##νουσαν
διοργανωνει
βουλγαροι
φημισ
απαγορευση
ιμπρα
λαρισα
διαγνωση
νικης
##λαιων
ταπει
ταξεως
ακμη
γαλλ
μυστικο
αμπντου
διαχειρισης
φροντιδα
##τουαζ
##χικες
##βαινε
νομικης
δημοτικοτητα
##πιους
καλυπτεται
επιχειρησε
κινδυνου
καβαλα
γρο
##ιωθει
##τινος
1884
παιδιου
κληρονομησε
προσφατη
μετακινηση
οπισθο
τακτικα
προσπαθουν
ανωτερη
ιστορικου
##stem
μοντελου
μεταδοση
ονομασιες
ραυ
##μπουρκ
βορειες
εμπρος
χωροφυλα
ελαχιστες
συστατικο
μοιαζουν
πεθαναν
associ
ντανιελ
cup
εστειλαν
##φεια
##ισια
χρηστος
οργανισμων
παρουσιαζονται
σωματειου
λουκ
συνομι
ιδιοκτησιας
λεγομενο
νοτιοανατολικη
δυστυχως
##φθα
ενδεικ
πυγμα
κοντινη
ψυχια
μαρτυρια
ατυχημα
λενε
οριζει
ανατροπη
##els
καποιων
ραγκ
κεντρικα
οντο
ανακτορα
##γχα
##μπαρ
1864
φαρμακευ
ντραμερ
αρραβωνια
cam
hy
##ηλι
βαρον
1850
βασιλης
μονιμο
##συγ
11ο
##ζομενο
σπιτιου
αυξανει
αφαιρεση
ισορροπια
ιουλ
##ονος
λαικου
εμβα
ατομικο
διοργανωθηκε
μαρτυρες
ga
night
αναι
κατασκευες
επισκεφτηκε
κτισμενο
συγκαταλεγ
##mer
##γκρο
νεφ
αρνητικη
καπν
ul
αντια
μεταβαση
στραβων
φυλο
##δωρος
ευρυτερης
γεωγραφικα
μουσουλμανων
αλυσιδα
##χτα
επιμερους
ελυ
μουσικες
ποδοσφαιρικης
βουλγαρων
αντιθετη
προσωπικοτητες
αντιμετωπιζει
##ισμενα
δυτικου
ανθρακ
ισχυρα
1887
κομητειας
ορκιστηκε
εξεφρασε
βιετναμ
6η
ημια
κυρος
διοικου
##μειων
φορτιο
##σιοι
αρχηγου
κινδυνος
παππους
##σπο
##θεσης
##μβρη
διαδοχικα
σημερινου
δοκιμες
υιοθετηθηκε
ενοπλες
5ου
περσων
ασπ
τριπ
μουσικους
αποκαλυψε
κοιλαδας
βοηθησουν
διακυβερνησης
mal
συντη
χωροι
##λογικων
καθαιρε
εκπροσωπει
συμφιλι
ριτ
προχωρησει
κομι
νεοτερη
δουκισ
μεταλλευ
φωνα
μπαρμπα
παραχωρηθηκε
citro
οροι
##ск
μεθαν
##γαγαν
αργυρου
γεννησης
μιχαλ
τοποθετησε
διατηρωντας
ενδιαφεροντος
δυσκολια
μετρηση
εξοργ
κρις
##ομενοι
ανζου
αναδεικνυ
λιθ
εσωτερικες
κειμενων
1ος
##τινας
τατουαζ
πουλη
τιγ
πολεοδο
πλαι
μαζικη
καθημερινα
περιστατικο
χειροτονηθηκε
ip
tom
ναι
καταγγελ
μπαροκ
εμπλου
##ute
χειρογραφο
παρακολουθει
phil
ngc
##ωτου
##πελ
μασα
ρομπερ
μορφων
οδηγος
rev
ιδιοκτητης
βελιγραδιου
μιση
οντα
πλατη
μειωθει
χαρακτηρισε
ελεγχει
κατασκευαστει
προερχοταν
φυλακιση
bu
γευση
##τιμο
στρατιωτικου
διοργανωσε
θεωρητικα
1893
1871
ασθενειες
διαχειρισ
αρια
πιαν
##τιτ
##λανδιας
τροφης
αρκετη
##ζομενα
αξιωματικων
πιεσεις
αριστοτελη
europe
μπορεσει
δωματια
σκοτωνει
##ρανη
προδοσια
##καλα
περιπ
ανελαβαν
βυζαντιο
φαρμακο
αμπου
##μιδες
αντιγραφα
##ato
πηγαν
υπεγραψαν
1886
αντικειμεν
καταγραφεται
ναπολεων
συνδρομη
citroen
dom
high
ακαν
##αμ
##πτου
##ισι
ευδο
γενευ
##κριβ
15ου
εμφανιζει
χορωδια
div
##za
διατριβη
θεολογια
συνεγραψε
τελευταιοι
ημερη
θρησκει
συγχρονων
γρηγοριος
αμβερσα
εφυγαν
παλης
θεας
ακτης
γκιλ
##βειας
ανδρικου
γονιμο
τελευταιων
κλου
αποστασεις
##σσος
μυτι
αμφ
##μπερι
ψυχο
μαρκος
σεληνη
ζηλανδια
αναπτυχθηκαν
σερβων
ιαπωνικη
ζυγ
μολυβ
αγγελος
βογ
##λοκη
νικητες
θεατρικη
πορτ
ποσοστα
σερβικη
αποσπασματα
υποχωρηση
εμπερ
video
1ου
wil
##τσον
##ριδας
περγα
πλακες
ισχυριζεται
ναυπα
πλουτα
πριγκιπατο
εναλλακτικη
διδασκαλιας
university
ηλειας
##ονης
##σεται
αγγλοι
θεοδο
διεθνων
1891
στιγμες
γκεορ
fif
##πτικα
περνουσε
##θετει
κορρα
14ου
εντομα
συμβολιζει
δογμα
μινω
αναπληρωτης
συστηματικη
αποκρου
δημητρια
ελαχιστη
αποκορυφωμα
λια
οντ
ακτινα
γραπτα
νικησαν
υποστηριξης
ερμηνει
γενεθ
στερεα
λωρρα
πινακοθηκη
facto
fri
γκαι
ηχη
χολι
αναμνη
λεξεων
καλυπτουν
χημεια
περιφερειακη
μπεη
επισκοπου
ορυκτο
##ικοκυ
πρωταρχ
μεταφερουν
ηλεκτρονια
ελιζα
αστεροειδης
hen
##γκραντ
##λογοι
νομοι
βουδα
θανατω
κριτηρια
διευρυ
tour
κοιλο
φραγκων
κωδικας
ακρωτηριο
αστεροειδων
τερματιζοντας
ορθογων
9ο
##ci
##ριε
καταπολε
τιβερ
παραρτη
##μερι
ουλ
σημαντικους
10ο
κριθηκε
χανιων
1877
καταιγ
##σσαν
##ck
μεσος
επιμε
##μπουν
κατεκτησαν
επικρι
βελγιου
##μουντ
σκεψης
##ike
αδυνατο
νιγη
##ναιτεντ
λαιμο
##τινες
αξιωματικοι
ιερεις
εξασθεν
χρειαζονται
πρεσβεια
εγκριθηκε
pp
βιω
##ric
##ξιου
##ροφ
αναδια
αυτοβιο
##ποιημενο
αργος
παλαιας
μεσαιωνικη
αμαρ
οα
##ξων
μετριο
κολα
##σσουν
ναυτικων
γιουναιτεντ
χριστιανος
college
life
ver
αβεβα
##φερεται
πυρηνας
τυπικο
απεκλει
group
ωσπου
διαφω
βομβα
μοχα
πιστοποιη
σχηματα
κλειδι
γεωμετρια
συνεισφορα
ha
##gl
##ds
que
##μησει
λεκαν
ενιαια
system
##μανια
λαων
κεντ
κλαμπ
εκπαιδευτικο
κτισμενη
μπραιαν
##ρυνση
γεωγραφικο
αντιοχεια
αρχιτεκτονας
ουσιων
γνωσης
αποτελειτο
κλαδου
συνταξη
κανονικης
πλατφορμα
κολλεγιο
γευ
##τητος
ελκυ
κηδεια
διαθεσιμα
##κιδων
##δολ
##λοφ
τελικους
μπρους
##ιωσης
θεοδωρου
αγορι
αθηναιους
διαταραχη
δαχτυλι
υλης
##νακη
θεσμου
##ονοτι
γενικευ
##γενων
τριφυ
παρεμενε
επιτυχως
ορμη
κτησεις
καστοριας
sam
ρογ
##μιζουν
λεξικο
μεγαλυτερης
τετοιου
αρχαιολογικα
κλασικης
##aint
ψευδο
καταναλων
πρωτεινες
δυτικων
μουσεια
1883
μαζικης
κλεφ
διωγ
house
8ο
##ικτο
##ποστο
##ριακη
νεβιλ
μπαχα
##ξειδιου
φιλων
##κινηση
επανεν
ty
τηρη
##ινς
νατο
ενδεκα
επαφες
τριτης
1863
ανθρωπινα
blu
επιτευχθει
σελιδες
##κοτρων
##ρισμος
τζω
χαρακτηριζει
int
εξουδε
υπολοιπων
##πολις
1882
βικινγκ
διανοου
ελαφρυ
εικονογραφη
συνεχομενες
διακοσμηση
τομο
λαχαν
λεκανη
##ital
παρεμβ
σημαντικοτερους
κηπο
οροφη
ροβερτος
##ριδης
πολεμικου
κεντα
αποστολων
εγκατεστη
εθιμο
δημαρχ
ιερεα
σωματιδια
##κρατη
διεφυγε
γουινε
μειον
βασιλειος
παιχνιδιων
υποψηφια
συνδυασμος
αντωνιος
wrest
ca
mt
##ουλης
πρωτοτυ
δημιουργος
ιταλος
αντιστοιχουν
νταγκ
χαμηλης
δελφ
στοκχολ
##ωθουν
##da
κραταει
νεολαιας
υψηλου
εξωτερικου
οθωμανικο
καλλιτεχνικο
ομορφια
σκανδα
ξεπερασε
αμμοχωστου
δικης
##σλαβ
##rich
αναγορευ
##φωνη
σακ
συγχε
μυστικα
δραμας
μαθητων
ste
ομοσπονδιακη
ελαχιστο
μεταγενεστερα
κλινικη
david
πουλησει
αλωση
λεονα
##μις
προσπαθουσε
εμπιστευ
εξελιξης
φρανσουα
αρχιεπισκοπο
υπεροχη
##λοπαιδ
ιμα
μεταβολη
παραστα
δυσκο
##βαλλουν
υπερυ
ορισμο
##θωρακ
1833
λατινικο
βυζαντινος
παγιδευ
##ρωσης
φιγου
κοινωνιο
κολοκοτρων
θεολογικη
περιγραψει
ακολουθουσε
αναγνωριζεται
μολονοτι
χαλκο
βαρσο
τοποθετηθει
bm
συνελευσης
##μιδας
κατηγορησε
ιστορικης
1834
σαρδη
ταξινομηση
παρηγαγε
υπαλληλος
##burg
ευκολ
ενωπιον
εισπ
υποψηφιοι
τραπεζουν
αποκαλυφθηκε
γουεστ
λιβερπουλ
##λεαν
διασταση
στιχου
ομονο
βυζαντινοι
εφαρμοζεται
κτημα
γειτονικη
φολ
καλος
κουβα
σιγουρα
υπαιθ
εργαλειο
ενηλικ
##ee
αννας
καταρρι
##γκλαντες
##ποιουν
κυριευ
αυξημενη
rem
πλουτο
τελειωσει
ομορφη
ημιτελικο
παναγιωτης
4ος
##ημ
μεθων
εκπο
τελικου
εχω
κραν
ιδρυτη
ισπανικης
ποιητες
ενταχθει
χαμηλοτερη
αξιοσημειωτο
αιτωλοα
υποδηλωνει
##ετο
μαιν
κυματος
1800
##ani
ηλεκτρικο
εφηβων
μαγισ
κινδυνευ
ειδικων
πρεσβυτερος
δυσαρεστη
αιτωλοακαρ
ιορ
##βλα
παραδιδ
##γουελ
συμφωνησαν
δημιουργουνται
αναπτυσσονται
συνολικου
μνημονευ
ρεπουμπλικαν
καταδυ
καταδρο
συγχυση
λουτρα
πορφυ
##τσκι
1876
θρησκευτικων
ξυπ
ραδιοφωνο
αντονιο
κομικς
καπιτα
michael
mg
mil
##βιδ
αντιστοιχες
εθνη
robert
ανταρτων
σαιξ
εποπτεια
διαζυγιο
##σικο
συνεχιστηκαν
θεοτητα
ατλαντικο
προσωνυμιο
fi
hp
##γικο
θεματος
εγχει
δοθηκαν
κτιριων
παυλο
προυποθεση
##χετευ
σταθηκε
πετ
ασπιδα
πρωταθληματων
##ets
διαμερισματος
ραυμον
##συγχρον
αναληψη
καταστει
χαρις
επομενης
##ition
γραφοντας
γραμμων
διδασκε
σκηνοθετησε
επιστημονικα
κριστιαν
ακτινοβολιας
##σμενου
σεξ
αναπη
παραμονης
##διδα
αντιστρο
λειτουργικο
ανδρου
βρετανος
1861
ταυτιζεται
ελεγε
ηθικο
αντιμετωπιζε
##ιανος
νεφελ
εμπλε
stad
ψευδα
κατειχαν
προφητη
απολιθω
##ολινι
χαρισε
αρχαιες
##προθε
περασουν
ρωμαιος
νυν
σερβικα
επαιξαν
παιρνουν
αναπαρασταση
##οντος
εκτη
##σαμε
μονοι
νικητη
αρνητικα
επηρεαστηκε
βαρκελωνης
james
σπε
##σθηκαν
μπαινει
τελευταιας
##eder
##ayer
lou
pur
εστε
ιχ
υφυ
##φτα
##γιων
παθος
πανο
πηγων
χαμηλα
ξενες
επιρροης
υπογραφ
καρπα
συγκεντρωσεις
αυστηρα
διανυσμα
ιορδαν
χοι
##παρισ
αναλογη
ευπο
##γορας
εμφανιζουν
max
ιλλυ
εγκυκλοπαιδ
##γιον
##itz
βουλγαρους
σχηματισε
αυξανομενη
προταθει
men
##ωτης
##μωση
απογονος
απογραφες
προκριση
τιτο
καλυτερου
εγκαθισ
χαμηλες
καθηγητες
απαιτουσε
επαγγελματιας
πετρουπολης
συνεχομενη
διαιρειται
μετειχε
προυπολογισμο
rich
αφαν
##στικους
διαγωνισ
##μιδη
13ου
οριστικη
πενηντα
επιστρεψουν
μαυρης
επιτρεπεται
εγκαταλειφθηκε
διαστημικο
φιλελευθερων
μιουζικα
##μιζεται
##ητο
μαχ
νοικοκυ
##ones
εποχες
σημαντικων
ισπανικο
νταρ
ειρηνικο
κελυ
ελβετιας
υπεστησαν
λεσβου
ποσειδωνα
##ject
αποστρα
παραταση
συμπερ
εταιριες
γοδε
λωριδα
καρκινου
γνωρισει
περιφημο
ηλθε
μιουζικαλ
##νελ
δομης
καρδ
str
ιεροσολ
περιουσιας
περιστασιακα
ζωντανη
foot
φραγκο
θησαυρο
ερμηνειες
##ham
περνωντας
τεθωρακ
##λογικης
συνελαβε
εργατικο
συνδεσμου
περιορισμο
εκπεμπει
royal
##κρου
καντ
##ειδεις
νοτιες
τελικης
οικογενειων
αναμετα
βυζαντιου
1836
παραγοντα
φερδινανδος
βικτωρια
gir
##χτη
νοσου
##ρινους
μικρους
πιστο
κουκ
λοχα
αθλητισμου
1828
εταιρειων
κουλτουρα
υπολειμματα
περικυκλω
##by
θεληση
τεξας
##ats
ιδρυσει
##τολφ
νταμπλ
περιπετειες
merc
kr
ηλιας
##κιες
##αλης
##ιζω
μπραν
κατηγορου
βρετανικα
προκαλειται
επιζη
αυτοχ
κρατα
##urt
σημειων
ανακαλυφθηκαν
μακεδονικο
ενισχυσεις
φαινομεν
ηχογραφησε
φαγητο
##κλης
συνερ
μεταξα
##μορφα
αντιπαλων
μακεδονες
αποδειχθει
ακουι
τεκνα
##μβουργο
ημισφαι
διασχιζει
ενιο
μαρινα
φαινονται
##ico
περιγραφουν
ανθρωπινου
αποκτησουν
γιωργου
συντηρηση
ενασχοληση
σουα
θεσπ
περιηλθε
ακτιβ
αιτιας
##ψεως
γαιο
εφτανε
τερματων
υποστηριξαν
δικαιοσυνη
3ου
bel
##ρεστι
αγγλικης
σκοπι
παλαιοτερες
εφαρμογης
1862
kg
##μαχος
πουλι
πλατυ
αποτελεσματικη
σωστα
ντοπ
βυζαντινου
συνδρομο
pan
##μητο
αρματα
##θυνε
##εκτ
τυχον
οργανικη
κερδο
σημαδια
συνεχιζεται
ανατολικων
σερι
κλεισει
χρεη
εισοδημα
αγγελο
θορυ
κλω
ναξου
προφυλα
ματα
ιδιους
αντιτα
εισβολης
ενταχθηκαν
μεταφερεται
εξακολουθουν
αποδιδει
ογκος
σπυριδων
entertain
θο
##καμ
ευβοιας
προσφερε
βαθμοι
ορκο
προγραμματων
επισκευ
θεμελι
ενηλικες
ισοπαλια
γρηγορο
γοδεφρει
φερο
##φικες
παραλιες
συνεχιζουν
γεγονοτος
επιβεβαιωσε
διαδραματισ
##σημα
γιαγια
εκσυγχρον
ρωμαν
ροης
κερματα
υποστηριζοντας
επαρχιων
αισθητικη
τοιχους
αποσυν
γκρουπ
ατρο
##go
##παλ
##ριντα
εισβολ
ξενους
εισαγγε
συμπιε
υπερβολικα
επιλογες
city
na
##ατ
διανε
ανακω
μιαν
γκλο
1825
διασημη
καθιερωσε
μετρησεις
εφθασαν
βιβλιοθηκες
αντικαθιστωντας
καρχα
μετρια
προφορ
ασχη
πυλου
σχεδιασμος
##σκορ
προκριθηκε
επιτυχημενο
διεθεταν
υποσχεθηκε
company
συμπεριε
##δικους
κατανε
κυπαρισ
συμφωνιες
μιλουν
ημιτελ
κινουνται
450
καου
αποδυνα
##λαρ
περιμενε
αποτελεσματικα
αδελφης
διαλυμα
παρατηρηθηκε
καθαρη
συμπρωτα
##χαιμ
επιβλεψη
##ιοδο
αποχωρησει
παρευ
ειχα
προσχωρησε
##κρατης
αυτοκρατορικο
##ime
γονιδια
ρολοι
αεριων
κινεζικα
εγκληματα
επικεντρωνεται
##θησης
##καστρο
αναρρι
##σταθ
ασιστ
δωρα
εξυπηρετει
τεχνοτρο
entertainment
die
ger
##ιθαν
##ολης
##ρεο
καταλογος
καταγεγραμ
##τισσα
χαιρε
συνεδε
μουσικου
μανω
##station
κυριολεκτικα
αποκλεισμο
ευρυτερα
τολμη
cy
στερη
φραγμα
##τρυ
παλη
ειδο
##ette
αμπε
κλαρκ
γηρα
πρωθυπουργια
ρηξη
παρτιζαν
##κατο
##ργος
επιλυση
##τρικος
μαρκε
μπατ
σιβη
αμερικανοι
παιδικα
χαρτι
αεπ
παρακμη
υποθεσεων
ακτινες
μικρασιατικη
εξαντλη
στηθος
πατρο
μπλακ
περιστροφη
λοφους
μεσοποτα
εκτελεσης
εκφραζει
καλλιεργειες
λατρειας
εξοριστηκε
παγετων
αναμενεται
αθε
δεκτη
αμερικανο
1875
κομμουνιστες
γεφυρας
αστερισμο
συμμαχησε
νελ
##σκαν
##νομισ
τηλεθεα
ιδεων
μπελα
επιστημονικο
ορεινη
προσθεσε
πανιωνιο
μαιρη
##γενεια
μπασο
κουρα
εσωτερικου
thom
κυριαρχο
τιμωρια
απαιτουν
πετυχαινοντας
τζωρτζ
δυσκολα
##πτικης
μεχ
γιακο
αλμπερ
πρωσιας
##βαρντ
τοπια
χαρτες
παρατηρησε
mark
τειχων
εδουαρδο
υφυπουργ
big
αλλαγης
μητρικη
απελ
κατεφυγαν
αποτελεσει
πιστης
ομοιως
##τουνταν
μιθ
τουρκικες
διπλη
αγαθα
χορου
συνωμοσια
καρχηδον
fifa
ταφοι
ανατεθηκε
παραμορφ
##μπρα
πυθα
##ates
deep
μηχανο
επιτευξη
εμοια
σιω
μαχα
μαστι
αλλαξαν
συμφωνο
μυστη
μηχανικων
βεγγ
##ival
επικρατηση
φοιτητων
κτισμα
λιμανια
επιδρομη
δουλευει
λανκαστερ
##ωδης
απομνημονευ
##ρισει
εργατων
τρομου
ερνε
παρουσιαζε
κεντρικος
εμφανισης
εθιμα
δουκατου
στροφη
δεκαπεντε
6ου
##σμπουργκ
##ποταν
απολογ
##θεντα
##rop
χανς
παρισταν
ανοσο
ενσωματωθηκε
φθασει
ενιοτε
βγαλ
κισ
##ησεις
αλλης
συμπολι
πολιτη
σαβοιας
##θεντες
ιερος
##ταγη
καιρου
επς
αγορια
##τιστει
βασιλη
γνωριζοντας
μυαλο
ροζ
ξεχα
αερια
συχνες
δουλ
πνι
##ονιας
##δοτηση
σαραγ
αδολ
##ids
##πλακη
αναδειχτηκε
κινητηρας
μαρμαρο
αθανασιος
πατριαρχειο
συμπρωταγωνισ
λουντ
##τσιο
ενυ
##μηνο
πολιτικοι
αξιζει
μικροσκοπ
ποιητικη
χημικες
αντιθετο
εφεδ
αναγνωρισει
φτασουν
πλανητες
διδυμο
##ιτα
προβη
##στεν
πεφ
συνολα
##unk
μεταφερθει
1868
παραδοσιακες
υπερασπ
γκραντ
δηλωνοντας
διασπο
μορφωση
τοπωνυ
gh
##χικο
τοις
##γκει
αρχικες
χρονολογια
χρωματων
διδασκ
νορθου
τεραστιες
γειτονικες
οπαδων
ηφαιστειο
φρειδερικου
εισεβαλαν
προεβλεπε
port
pict
υφαν
##ομενης
ναπολη
ευβο
μερια
##λισης
μυθος
##ush
ακολουθου
βουδισ
ελευθερου
1874
επαγγελματικα
σερβικης
##χρονος
φαρμακων
ναβα
σεληνης
πεκ
νομ
##πονται
βοηθησαν
υψι
ζωγραφο
##τελεις
ημιτελικα
ξεπερνα
##φθουν
ναοι
διατυπω
γνωστους
εσπερ
##πλοιο
απαιτου
αντιπροσωπευουν
αυτοκινητοβιομηχαν
στρεμματα
αιγυπτιακη
κατεληξαν
προοπτικη
not
οχημα
χιν
##σβε
##ih
##orge
αιωνων
αγωνιστηκαν
αγαπης
ζωγραφισε
τζαζ
επηρεαζει
συμμετεχοντας
##ube
πτολεμαιου
υμνος
συνταγματαρχη
επιτελειου
##μενουν
εκκαθα
##σαι
##λιδας
ποσα
αποτελωντας
σαφη
νησιδα
χερσα
αφηγηση
μεταναστων
υποβιβασμο
ξεχωριζει
##κυκλο
ανιψιος
μολδαβιας
elect
αντανακλα
lin
γελ
##κολογ
##τση
##ριδιο
##ρεται
συμμο
συνδεσμος
εκτελεσε
υπερασπιση
πληθωρα
iron
##φθαλ
απογει
προτζ
##χελμ
οπτικο
κατοχος
μοναρχια
marvel
εαμ
unesco
φαινοταν
αφιερωμενη
επιλεγει
φραντσε
σκανδιναβ
ανθυπο
##λικους
ανηλθε
υποσ
αυτοματα
ενωθηκε
τζιν
##λιστ
ξεκινουν
οργανισμοι
γεννησε
playstation
στελνει
ζενιτ
συνεληφθησαν
επομενους
νεοτερο
υποστηριζεται
αριστα
φορεα
εσωτερικης
μαζευ
αμβουργ
δραπετευσε
##χριστιαν
καλαβρυτων
ιμπραημ
##κεφαλο
παλλα
##γκια
περιοριζεται
πολιτης
σιμον
σουδαν
στρατοπε
πνευματος
σχηματιζονται
παραταξη
ορχηστρας
αα
##ан
##μερες
##ριζα
αττα
##ιλιαμς
δευτεροβαθ
##πλανα
εξυπ
κινεζικη
west
##νικων
##iy
κοζα
##τροπης
μαρκη
κοινοπολι
ιταλοι
##τελειας
θεατρικα
αξιοσημειωτη
ημισυ
ενδυμα
sat
##ετα
##ναρια
αγιους
##μεινε
βαθμου
τσαρου
σημειωθει
επιφανειες
1826
##ement
εβδομαδια
χρειαστηκε
αναγνωρισμενο
1815
προσφατες
καθεδρικος
τριγωνο
εκθρον
κορεας
θελησε
οπλι
ακτων
##χωρουν
##ama
προσωπων
οικογενειακο
μηχανισμο
ελευθερης
##ower
1873
εμπειριες
##ugh
μετατραπει
ενεκρινε
##ισμενων
καταχωρη
##δαιμον
τραγουδα
##ματολογια
σερβοι
προαστιο
διαστημο
heav
συναρτησεις
καταφυγει
χειρουργικη
##ιακο
αυθα
περιπλαν
αντιστρα
εμπορικων
μαντονα
χερμαν
ρυθμους
καταλληλα
land
##gh
ανακλη
ραδι
δουλειες
ιταλο
##ada
παιδων
επιτρεψει
φρανσισ
διαγωνισμος
δημοφιλεις
φραγκισκος
παραθυρα
ψε
μαγιο
παραδωσει
εκεινων
πληθυσμια
ψηφου
stre
μπουρ
1865
arm
καθιερωση
ρευματα
ερμηνευσε
##ield
αποτυχημενη
ιλια
ρος
##ωρι
##fe
##ουσιας
##τιζονται
##γκτον
προσκα
μερικων
ρωσους
γιουν
δολοφονιας
αναλυσης
σαλαμινα
ιουλιος
##κρε
##ερς
περσι
αναφορικα
επιφυλα
αρρεν
πιστων
χαμηλοτερο
εξαπλωση
πολυπλοκο
εγχειρημα
προτζεκτ
##πτερα
χαθει
##τηγος
νηπια
ειδαν
τομεας
περσικη
απροσ
χαρτονομισ
7η
best
τουτο
μασσαλ
σταρ
σαφες
μονες
βιρ
προστατης
καταληξη
κλασικο
θραυ
αντωνιου
σελτζου
προσκληση
ειδωλο
παιδαγωγ
game
hal
mel
sant
τουλου
πολυωνυ
χοσε
διαταξεις
ευκλει
μαυροβουνιο
παρεκκλησι
ur
ιη
##ητες
μελους
επικου
##πανα
ρεει
ρωσικου
προηγουμενης
επαγγελματιες
τζονσον
τετραγωνο
πυρπολη
ελιζαμπε
soci
tre
ημικ
θρε
##ωτικη
##τηριων
αναρ
ευθεια
εδρων
μπατα
υποστηριζαν
σημειωνοντας
##ations
ειρηνευ
απελευθερωθηκε
sport
αντεδρα
οφελος
εξαφανιση
δικτατορια
εξαλλου
σαιξπηρ
υστερη
σελιδα
##μπρου
πολεμικα
μουσολινι
δικαστηρια
υπεφερε
αφηρη
καταστροφης
εμβρυ
final
##oh
διατροφη
ευσεβ
ακτο
κατοχυ
##μωντας
##μειται
απαρ
ιατρο
συγκεκριμενου
βουλγαρικης
κατευθυ
διασωθει
επικαλυ
κρεα
χωριζονται
οπλισ
μετεγ
παλαιοτερων
επιθετο
καραιβ
σαρλ
εξισωση
παυσανιας
χμ
##uel
λαους
επεβαλε
δραχ
##ase
φιλολογια
βιομηχανιες
αντιπαραθεση
dig
αναδρο
αναβιω
θεσ
ολοενα
χριστιανο
ριμπα
σεναριου
1851
ιδιοκτητες
προκληση
κιονες
μενε
ιδρυθηκαν
ποιησης
σκευ
φωνες
εκπροσωπους
στρογγυ
υποστηρικτης
κοινοβουλευτικη
μιλαει
nov
μιτ
##ιορ
καταλοι
##διδο
λυκου
μηχανικο
συνθηκολογ
κρυβ
1824
μαυρι
συγχρονου
ζευγαρια
hom
##πικη
##our
λαδι
βρετανικων
συνεργαζεται
ακατοικη
προκυπτουν
αλιευ
διαδηλωσεις
δικους
ογκου
##fer
καραγ
αποχωρησαν
παρων
##μεται
κυαν
λετον
##χωριου
γαλλικες
κυκλωμα
σοβιετικων
leg
απειρο
αποδειξεις
μητροπολιτικη
προσοψη
αντικατασταθει
ουρανου
franc
διαδικτυου
radio
cast
ρουν
μεσον
διασυνδε
πρωτον
θεσει
παντου
φαιν
ξενα
προβληματος
σοβιετικοι
μοντελων
χριστιανισμου
πειθα
γειτονικο
προκριθηκαν
φρειδερικο
αναστη
τροχιας
στεγη
καλυτερους
ξεκινημα
1869
1854
βεβαιο
θελουν
εξοπλισμου
αθανασιου
##δρω
αφεν
##γονια
ομοια
αναγνωρισης
λιμνο
ενεπλακη
κατακτα
καταστατικο
κοπεγχα
αο
φεν
##λωνα
ουρου
##oria
ξεκινου
παρουσιασει
αποσυρθει
πρωτοκολλο
ηγηθηκε
##σικα
διασκευη
εναερ
κρατουσε
##ited
πιστος
ποδοσφαιρικος
πραγματοποιηθει
ερημο
καταστρεψει
δοντια
μπλοκ
ημ
κατσ
##ανγκ
ταφους
##μετρη
ιταλους
ηλεκτρικη
αγαθων
διατηρηθει
καλοκαιριου
τεινουν
αμαξ
φιναλιστ
σαρκοφα
πρισ
κατεστρα
αμερικανικα
ολυμπιαδα
μεταλλων
μιλαν
class
ορθοδοξης
στεγαζεται
υπευθυνο
λερ
επτανη
##στασιο
μοδας
δηλωσεις
ασθενειας
βολει
εγκαταλειψουν
γκρο
##ety
θυλα
επαναστατικη
πτηνων
φαντασια
νοημο
awards
mr
##λινου
καμπανα
ενσαρκ
##red
βρετανικες
μισελ
τελετες
καταταχθηκε
κατερρευσε
λεωφορο
υποταγη
αλεξιος
παναγιωτη
πολυαριθμες
ομοφυλοφιλ
βρυξελλες
##μουλα
πληρε
##λιστικη
πρωταθλητριων
dem
βρισκουν
πλοκη
ποντο
κατακτηθηκε
ακαδημιες
αρχαιολογικη
φθιω
ερυθρα
διαταραχες
γωνιες
κοσσυφοπεδιου
γνα
περνουν
εκτισε
##δημο
προσκη
χορος
οροπεδιο
##iller
παρακολουθηση
αεροσκαφους
ενσωματωση
σταθεροτητα
ποικιλο
ετοιμο
βλαβη
charts
αφροδιτη
saint
##μονο
νατα
επιβρα
βασιλικα
##χαιο
επεσαν
σκοπια
δαυ
αμεσο
μηχανικης
##ματιων
πυργους
brit
##οικονο
##πολυ
λογοι
γυριστηκε
ανεφοδια
τριπολη
##βαλλε
φερνει
1872
στρατηγικης
επιδρασεις
πατριαρχειου
ηγεμονες
πεποιθηση
αξιοθεατα
pri
θλι
##κρισ
##φιλια
παγαν
σηματα
πολεμικης
λυσεις
συγκρουσεων
υγρου
συνηθισμενο
οξειδω
βαλδουινος
association
υφε
θεοι
κριτικης
διαδοχου
ταχυτητες
στοιχειου
ξεπερασει
ατυχη
aud
μπηκαν
φελ
##στιου
##ιαλ
αλμυ
##πεων
μουσα
##ιτζ
ιδρυθει
συνεχιζοντας
αριστουργ
υψηλοτερα
εμπνευση
βοιωτιας
επαιρνε
φρανσισκο
##ηλεκ
##χτης
##ρινας
##κομμα
ρομπο
ευκολη
υφιστα
εκδικηση
δεικτη
βουκουρεστι
##hr
ναπολης
υποτιθεται
ραφα
ορλεαν
ann
πνευματικο
μοιρες
λογοτεχνικο
ζευγη
κοκκινου
σιδηροδρομικο
πτησης
fox
αναπαραγωγη
συνηθισμενη
νοτιοδυτικη
##δρη
##θηκα
##ργου
##σιμος
τιταν
δυσης
##ροντας
σχεσης
##στροφη
ιωαννου
εκπροσωποι
μπαρτσε
ενδεχεται
μεξικαν
μαυροβουνιου
νοι
##γοτ
αυτοκρατειρα
διοικητικες
φιλικη
##adem
τοποθετει
##τσος
δρομολογ
ειρηνικου
πρωταγωνιστουν
1844
αντρας
καρλομαγ
νειλου
cat
gold
κουα
κλον
##ρερ
πρωιμο
##στρωμα
λασ
κατοπ
εισερ
κινηθηκε
χιλιοστα
σκαλα
πηγαζει
συνειδηση
αποθεματα
σχολα
ter
αποσκο
στοχα
διαθηκης
##ισεων
οριστει
υψηλαν
κληροδο
##tern
συνισταται
μουσταφα
##κρο
βαδ
ανεπιση
συμβαν
θυμιζει
φανηκε
κτηματα
1820
αντιμετωπισουν
χρυσοστο
καταστραφει
ιππεις
αυστροουγγα
football
##ταζ
κοστους
##πηλα
δουλειας
αντικατοπ
επισκεπτης
δηλωσαν
αποδειχτηκε
χολιγουντ
##βις
επιβολη
υποπ
υποστρα
μπω
εχτισε
χρυσος
βελτιων
αποδειξει
καθοριζει
αρχιεπισκοπου
απορριφθηκε
κορινθου
θηλαστικα
ναυπλιο
σεντ
ενδη
##ωματων
λιτρων
τοποθετουνται
αγροτικες
ξηρας
εκπροσωπησε
##συλβανια
codice
vi
##νς
##ετες
τομους
δυα
προσβολη
λιρες
##τραπη
σχολειων
καλυψει
αμερικανους
ισοτι
εσφαλ
φιλοξενησε
συνεννο
ταραχες
αλεξιου
αιτωλοακαρνανιας
μπαρτσελονα
φουλ
##τεργα
μεταφορων
μεταβολες
##τυχαν
ουζ
αργους
βαθμος
φωκα
σημαντικοι
αγορασει
ακροπολης
ταξιδιου
σπορα
χλωριου
εργαζομενων
αργεντινης
λεοπολ
alex
ic
ολης
υβρι
ολοκαυ
##λονιας
σταθμοι
αποφασισει
ρωσων
δημητρα
σοσιαλιστικη
κυπριακης
ομοιοτητες
your
vir
γενα
##πειρω
φωτα
καραισκα
αριστερας
ναυτιλια
##ουλα
##ρεαλ
επιζων
στρατη
επομενος
σχεδιαστει
##δευτηκε
ενισχυσει
πανελληνιου
ελενης
μετατρεπεται
χρηματισε
##γλωτ
αρχιστρα
gal
##βιος
μαγα
δημοτικες
##ona
##γουορ
##μωνα
##ele
περιβαλλοντα
ασθενης
κεφαλο
ουαλιας
βορειοδυτικη
κιθαριστα
τηλεσκοπιο
κλεοπατρα
αντικατοπτ
##ξιμο
επερ
καταγεται
καταστολη
##ριον
##τινων
αφενος
αποτελεσματων
σουλει
ολοκληρωθηκαν
##σκοπειο
καυσιμου
κατεδαφ
μινι
##τσκ
συνεχης
αδρα
##ουαρντ
χρυσης
arch
εκδιδει
κιεβου
##θεσαν
θαυ
βραχ
κομματιου
αμερικανιδα
μετεωρο
περιορισμους
ιδιωτικα
εικονων
σεβασμο
μαδριτη
βακτηρια
τεκμηρι
νιλ
φει
##ris
βακ
##φανης
##enc
συλλεκ
αναγεται
κουιν
δρομοι
εκτελεστηκαν
αφιερωσε
αποδεικνυεται
υπηκοοτητα
εισπρακ
οου
##τιδων
χωμα
##τελεσει
συνδεσης
βετερα
σχηματισμου
##πυκ
αναγκης
ιεραποστο
αιχμαλωτους
κατοικουν
αστρονομο
αζωτου
παρκου
γινο
##τμπολ
σεμπα
##σιακες
##σιμοτητα
αμετα
μελετων
σημερινος
##ste
κλεισιμο
1859
συμπατρι
εξακολουθουσε
χεπ
εκθεσης
ak
κολου
ντικ
ανεβει
τεχνικων
σοσιαλιστικο
singles
διαφυγει
angel
αυθαιρε
jos
##μηθει
μεταγραφηκε
αυτοματο
##στεια
στεμματος
παραγωγες
συγκεκριμενης
καναλιου
διεξαγονται
συντριπτικη
δυσαρεσκε
βορειοανατολικη
tο
φριν
##βρε
##ζικη
##μεθυ
##χειου
βασιζοταν
γερμανου
απαρτι
κριτικοι
##τσες
παικτων
διπλασια
ηλεκτρομαγνη
συνειδητοποιη
επιτελειο
χουντας
διας
θρακ
##ουι
αποξη
απεφερε
σαντζα
σχεδιαση
μηχανισμος
σπουδαια
τρεχει
1856
αστεροσκοπειο
τραγωδια
ray
##ροπα
τονι
επιστροφης
γνωρι
σημαιας
##σκω
αναγνωριζει
πολιτιστικης
ιδεολογια
ηθοποιοι
ηττηθηκαν
##τορπιλ
διεκδικησει
κορινθια
περικλει
συναισθηματα
διασκεψη
αλφρεντ
περιεκτικοτητα
μιθριδα
##εας
##τιδες
συνεπα
συνολικης
βαλει
ικανος
παρατηρουνται
συνασπισμο
hard
λιο
##τατος
κυρ
υποτιθε
υπαγοταν
##ολογικης
επεφερε
σονα
ζητουσε
ορισμος
βυρ
αθλητισμο
προηγουμενων
μολυν
ματθα
sun
##βιντ
##τζια
σχεδιαζε
σοβιετικο
κομητες
σαλονι
1858
1814
σφαιρες
ελιτ
προσαρτηση
επιτυγχανεται
συσσωρευ
δανεικος
δουν
εκβολες
αντιτορπιλ
λογικης
μπασ
νησος
σαντ
γκουν
καρνα
εκδοθηκαν
αθλητων
χημειας
βουλευτων
δοκιμων
βολφ
##ενεργο
george
αξιολογηση
απηχηση
μονοπατι
αφυ
φρι
##δουν
##πταν
##πικοινων
##ral
##χναν
##μανα
##eng
κινηματα
λουκας
υπεβαλε
##μποργκ
πραγματοποιησαν
αντιπαλοι
προηγουμενου
γαλαζ
στρατευμα
θελοντας
φιλελευ
κατακορυ
λιθουανιας
διαλεξεις
general
hill
##ζουμε
διαβη
##μελ
αγρα
##λογον
μπαρι
δεκατο
στεψη
χιλιομετρο
καθημερινο
προκαλεσουν
αποφυγη
συνοικιες
ηροδοτος
μεχμετ
jac
##κτικος
##φιο
##va
##τελες
αλου
##ρειες
γραφτηκαν
επιτροπος
θερμοτητα
ασθενων
μιλουσε
κρεβα
περιφημη
υποδυθηκε
διεργασια
charles
##τατζη
αποκεφαλ
στοα
κορο
πορειας
##χαρντ
τελους
κυβερνων
γεννηθει
μαθηματικη
κτηριου
βαλκανικους
ασημενιο
αυτοχθον
aut
κλων
##ψω
απολαυ
βατικ
γνωστου
##σσων
##itch
κριτικος
λευκου
πινακων
θεοδωρο
κανονας
σουλειμαν
ιστιο
συμπυκ
##μβριος
αντιφα
εκδοτης
κουτα
προσωπικες
ορατο
κατηγοριων
μονιμους
ορυκτα
ενδεχομενο
προβιβαστηκε
dar
far
soc
ue
σχ
##uz
##χικων
##ford
##παθη
##ism
αγγλων
επαναληψη
##πωντας
κυπρος
φιλου
οροφο
ενοποιηση
ισαακ
διακηρυξη
μεσολογγιου
##γμενων
##uch
αρχοντα
τεστ
##ογλου
δεχθει
επαψε
γυρους
##γωγειο
πηγης
επιτυχει
σερβι
ανωτερα
κωνσταντινουπολεως
χαμηλοτερα
ευρεσιτεχν
##ota
##λεων
τιμα
κοινες
πεταξε
επαινε
ανεφεραν
διοικητικης
συναινε
βοηθειας
συμμετεχοντες
##ship
αντισφαιρισης
bal
ros
εννια
καταλαβα
##ιωθηκε
##δειες
τριπολης
κρυστα
καθολικης
εντυπωσιακο
αγωγη
ρυθμιση
ισι
##ωτων
##δως
ανδε
##ιωνει
μπον
λιγοι
##chn
διακοπηκε
βουλευτη
πληρωσει
αποκαλουσαν
θεραπειας
αναζητησης
##endo
ανωτατου
τζουλια
τευχος
κυκλαδων
αρθουρ
##po
##ινιο
μαρου
διευθε
οδηγηθηκε
προστατη
κυριοι
πηγαινε
δερματος
βιλχελμ
μεθυλο
bmw
εσπασε
εσταλη
ρινο
καστε
##ρεφ
φυλου
τζιο
λουθη
ιατρος
φιλικο
συνδεσμο
αμερικανικων
ιπτα
νεκροι
συγκρουσης
αιχμαλωτος
δωματιου
φλοριντα
αποτρεψει
λιμνοθαλα
##ετους
##βρο
ταφ
υποβα
αρχικως
ουι
οργανωσεων
ατομικη
οικογενειακη
ανοδος
νεκρος
υποψηφιους
φρανς
πελατες
σωληνα
##υθυνε
περσε
απεν
κρατωντας
συμμαχος
συναντησεις
εκστρατευ
ακουγεται
εμβε
green
εμπιστοσυνη
##τακη
πολεμικων
μεσαια
ισχυρος
εμποροι
ινδικη
βιολι
##over
χριστιανικο
τειλορ
ομοσπονδιακο
νορμανδιας
from
ξενοδοχεια
οδων
##на
##wood
##μβρια
νομικο
μπομπ
##ιτζι
νεαρου
γκρει
διδασκει
ξυλου
συγχρονως
ορειβα
εξηγηση
διεργασιες
warner
τρικαλων
gar
##ιτο
##κεδον
##τερως
##νησει
##τειρας
##πηδη
ευφυ
##ora
φορμουλα
##βαλντ
φουρ
οριοθε
ετεροθαλ
οξεα
κατεστρεψαν
συνομοσπονδια
πρεβεζας
χεπμπορν
##ραμ
μελο
χωριζει
ελληνιστικη
αργη
διοικητες
αλληλου
πιθανολογ
σχηματισει
ευγενης
κατατασσεται
κατοικειται
εγκεφαλου
ελει
σιε
##σδ
##ονας
##ιοτητας
απογραφης
αναμι
μαται
αιθαν
##λαντα
ζητηση
αποτελεσματικοτητα
αφησαν
συγχρονος
κυριαρχει
ηχογραφηθηκε
χιλιαδων
park
στανταρ
υπερβολικη
κιβωτιο
λωρραινης
gam
βγει
##ψο
παγκο
##μηνη
αρχειων
μπροντ
οικοσυ
πρωταγωνιστη
σταδιακη
σταματησαν
επιλεξει
προσαρμογη
##γιαννης
ιωαννινα
εκλεγονται
cro
##θοι
##λονταν
διασκευα
παρασι
αρχοντες
εγγεγραμ
##φωνες
##χωρια
εκεινου
##βελα
##ρακια
σπαρτα
1829
επεκτασης
παραγοντων
διαμορφωθηκε
μεταγενεστερ
καραμανλη
ασκουσε
φαραγγι
οσες
##θλο
##ωμενοι
τορινο
αναλογο
εμπα
##ρινει
##ρινων
φωτιας
εδρασε
ψυχρο
πειρατες
τυπογραφ
τερματισει
ιδιοκτητη
ταξιδευει
κελι
υιος
ταιλαν
πλησιον
##ρευε
πλατους
ιταλικες
εμποδιο
μιγα
παναχα
περιφερειακο
ανακηρυξε
αυστηρο
ματθ
ερεθισ
κοσμηματα
ds
jack
αει
αποελ
##ικοτητας
σταματα
αλλαγων
αμνη
γουνα
μιλο
εκτελεσεις
πιθανοτητες
επιστημονικες
αποδοσης
##iba
κορινθο
υφασμα
ταξιαρχια
ξεφυγει
girl
ριμπαουντ
8η
rh
##ts
##ual
##zo
ολγα
τρεχουσα
1843
γεωμετρικο
##ρεσιον
δευτερολεπτο
νοσηλευ
εναπομειναν
μεθωνης
ιζη
ορων
##eg
##φρεν
τορον
αποφυλα
##ρεμα
##μουτ
ραγδα
χαρακτηριστικων
ανακοινων
καρολι
πριγκιπατου
ιεραρχια
κυνηγη
οργη
sum
αρι
##νται
##ελο
##εσκου
μπολονια
ρωμαικου
ψυχης
αντιπροσωπος
γυμνο
εκφρασης
μεταφρασεις
σεναριογραφος
υδατων
υγρασια
συντεταγμενες
προσκηνιο
##πτικες
ανακου
μετακ
μεριδιο
κατεταγη
μαθητη
αναγκαια
ψυχολογια
γεφυρες
ωκεανου
ανοικτα
λιθουανια
εξελικ
sab
##ωρα
##ωτικου
υποψ
γεμισ
##κιμα
αγγλικου
##γγαν
γκριν
καρπεν
ιδιαιτερως
κωμικη
συναντηθηκαν
τετοιων
##illa
κασσαν
ανεπαρκ
βολο
αποστασης
ανελ
χωρισε
εξεγερσεις
καθοριζεται
αφορουσαν
συμπαντος
σκαρφαλ
luc
mem
##ιζον
##χνοντας
γαλλου
##isch
κατεγραψε
κυκλοφορουν
γλυπτα
προιοντος
πεινα
απεικονισεις
1853
##κινς
φωτεινο
διαδεδομενη
εισπραξεις
θωρη
##βιου
##ποιωντας
##τωσει
μεριδα
##ολογο
μοναχοι
ολοκληρωτικα
γηπεδα
##δικειο
διωξεις
πολιορκιας
αντωνης
σπηλια
βουδαπε
αβερ
αλχη
περιμενει
χρηστης
ισου
κυριους
επικει
φοραει
εμποδια
κορυφ
υποδοχη
χτυπημα
εκτεταμενες
επιστρεφουν
ομιλητες
eb
##μνα
##ισον
##νοφ
ιδρυτες
αποφασεων
θεατρικες
επισημος
φιλιας
αιχμαλωσια
ηλιακου
οχηματων
γκορντον
πολεμησαν
mir
ηχος
ινες
##χρυ
προπυ
##τερικ
εδιναν
πλατωνα
μοναρχιας
προεδριας
αναγνωση
συνθημα
ζωντανο
αρνητικες
αντικειμενου
αποδοθηκε
υψηλοτερες
γειτονικα
εκρηξεις
μηνυματα
αγγλοσα
σμηνος
βγαινει
δωδεκανη
uefa
bra
song
νατριου
##γραφικης
φορεας
inc
##μπορ
ντοπιους
ευρυτερο
ντινα
αχμετ
μπραντ
νοσοκομεια
υστερο
λεπτων
τεχνικης
αθληματα
τηλεπικοινων
ακαρ
αναγκαζοντας
παιδεια
αρχαιολογικες
thr
360
ατλαντικου
αφετερου
νελσον
νανο
##ρακη
μερικη
##γωγων
ρουμπ
βιβλιογραφια
μεσοπολε
##ula
επανδρω
##θεραπεια
τεταρτος
πτολεμαιο
ναζιστικη
πεποιθησεις
ελιζαμπεθ
βιου
##ισκο
μεταχει
πληρους
φορους
νεοκλα
##λεγματος
ξεση
μανου
οροσειρας
σαξονιας
προσευχη
δαλμα
back
##κτικου
στηλες
##σιαν
##πεσε
διχα
πετερ
μερικως
επονομα
απετυχαν
1845
εδειχνε
συμμετασχουν
νικαια
οντως
band
φλεγ
##μαχο
μετρου
συννε
χαρο
λιγκα
##ποιημενα
βοσκο
σοφο
κεπ
##une
γυρισει
προυποθεσεις
φαλαγγα
πριγκηπα
υποκριτικη
διεκοψε
εμενε
εγραψαν
πασχ
ναων
διχως
1200
λουιζ
αμερικανικες
##δωσουν
ενταφια
πειραματισ
κανονων
ντοναλντ
1841
λατινικης
μοιραζονται
τελευταιους
πατριδας
εορτη
επενδυση
σαββα
εκπληξη
βενιζελος
πολεμησει
εναρξης
κουζινα
προημιτελικα
sony
tem
##λλου
περιοδειας
αιμορ
μοναχους
γουο
σκονη
ανταρκ
##ider
220
θρησκευτικης
ηλεκτρονικων
ιπποτης
πρεμιερ
ακρωτηριου
ποικιλιες
πανιωνιου
##γγειλε
ναρκωτικων
προσβασης
αιλ
##ριδη
##ινω
ενζυ
θελη
γεματη
##ρωνει
chann
κομητη
κρυο
βενεδικ
επισκοπης
φρανκο
##ogle
αποκαλυψη
σιδηροδρομικη
θεωρειτο
διαχωρισμο
παραγγελια
##πιες
##pa
##ολντ
αναψυ
μασ
##στιαν
##γαγει
##τιστες
##ιζομενη
αντιποινα
εργαζονται
12ου
ραχη
##βοη
εμπροσ
##ληφθηκαν
φοντο
ψηφιστηκε
son
προχωρη
μαζε
επιδα
##inus
πραγματικος
##βληθει
γραμματο
σπαθι
μπουλ
αφιερωμενος
δουλεψε
σκανδαλο
ωμο
ال
καλης
πασ
διασκορ
##κοβ
παρασημο
ουσιας
μονακο
ανθρωπινες
οργανου
κολων
αλατα
ομορφο
τοποθετηθηκαν
βαθμολογικου
τζεφ
ανανεωση
ψηλοτερο
φθανοντας
αλφονσος
παραθυρο
πλατινενιο
τας
διατελεσει
τοπικους
ιαπωνικα
αστρονομια
1204
google
ατρα
##ωδεις
##δωση
αρχιερ
θαρ
χρηματων
εκδοσεων
##μπαλ
βοηθουν
γραφεται
εκκλησιαστικα
διδακτωρ
παντρευτηκαν
αποκαλει
πορτοκαλι
κανεναν
##ensis
μεσσηνια
ανακατασκευα
εμβολια
γαιοκτη
lond
αμαν
αρεια
ηχους
ξο
##work
##μαρα
αναπνευ
διετια
περιστροφης
ιστοριο
γαλι
νικηφορος
##ode
διακλα
τραυματιες
διπλωματικες
κριμαιας
##li
εκφυ
εκδηλων
μαδα
αλεξι
υπηρετησει
χαρακτηριστικες
κατασκευασει
δρομων
συνδυαζει
αποφοιτηση
αντιληψεις
κογκρεσο
εβλεπε
οξφορδης
vo
παλιου
αγκαλια
αντισυντα
τραμ
κατακτησεις
διακοπες
καταληγουν
ειδικης
αχρη
βαρυτητα
αλιεια
αιγιδα
ωριμα
περιθωριο
purple
##ετρο
##let
##vo
εδιω
1600
##θεντων
χρησιμοποιησουν
θεωρησαν
μαλτα
υδροξυ
υλοποιηση
σαλαμινας
αεροστατο
ig
jul
ra
##yr
##ριδια
##σοσια
παρακει
παρασυ
##τουμ
##φωνων
στρατιωτικους
##ington
εξελιχθει
δεσμων
1812
ιπποτων
επεκτεινει
δημοφιλε
εντοπιζεται
χιλιετια
φραντσεσκο
αρωμα
κακα
##κοπη
εξολο
πελε
χαλκιδα
##ρντι
συγκεντρωθηκαν
επικρατουσε
κελσιου
νομαρχης
αριστοκρατια
jure
tor
##ληψεις
καταδικη
##ραγου
##ala
##θαλη
γκιου
εκκλησιαστικο
ηλεκτρικης
αναγκασαν
σκοτωσαν
εμφυλιος
ενοπλη
υπνο
θουκυ
lib
nba
##σκυ
##τηρων
αποκηρυ
συμεων
τονων
απεδειξε
αεροδυνα
χαλκη
φρουριου
ταυτοτητας
ηττη
παραμενοντας
λεγομενα
αντιοχος
αναμετρηθηκαν
ανεγερθηκε
αλφονσο
γουν
##ja
τασης
διαπρα
τιμ
λαβ
μοτο
εργατικου
##atus
πρωταθλητες
σαντο
χειμαρ
χριστος
##estival
διεξαγωγης
οραμα
συναισθημα
λαρνακας
way
##πικο
σερα
τελων
κρατικης
ευρωλιγκα
ραιν
βρετανων
λυκο
παρκα
αυξησης
ερωμενη
κινηματογραφικες
περιγραφες
τεχνητη
ενδοχωρα
ουεσσεξ
στατιστικη
υποχρεωτικη
ραντ
##οντο
τερας
εγχρω
δεκτος
ρατσ
θανατη
μηχανης
εντασσεται
αγροτικο
ανακατε
ιθαγενεις
north
ba
αλευ
##δρυ
##βολου
##τιζουν
διαρρο
καταγραφηκε
##σιακου
##φορη
λογιος
##μονια
##μορφο
προηγηθει
κομητης
φλανδρας
μοσχο
##θιων
μαγεια
υποκ
τεθει
##ρινι
##σσιο
μονοπω
εισελθει
αγωνιστικης
παρισιων
ολλανδικη
οποιονδηποτε
louis
##ολυ
ενωθηκαν
διεσχ
##χωβα
δικαστη
πιστοι
χαλαν
κοκκινα
λανσα
αστεροειδη
τραπεζες
δορυφορος
συνανταμε
instit
pictures
##λαο
τιμο
περιπτωσεων
κηπους
alph
ενοικια
ασχολουνταν
προυπαρχ
πτυχες
προσφεροντας
αναστασια
αουτ
μοτιβο
αχιλλεα
δουκισσα
750
kh
μμε
τενε
##δονο
αποβα
προχωρησαν
##δομα
ακουσε
μερκιας
μπακ
φορουσαν
συνηθε
στρατολογη
ανεξαρτητες
αγαπα
σκεπα
maria
συνοδευσε
ανοιχτη
πελαγος
ψηφιδ
νικολ
αριθμητικη
open
μειονεκτη
απομνημονευματα
5ος
ομπ
##νικες
##γικα
επιδε
πλασμα
καποιας
λειτουργουσαν
επιτυχιας
συστηματικα
ανοιγει
αριστοτελης
κρισιμη
διαδρομης
προοριζοταν
λωριδες
σκοτωνοντας
τραγουδησε
channel
nint
##ра
##ικε
##τητη
##ote
προιστα
##νοσα
##τιστηκαν
εγκαι
##ρκεια
πλατειας
##βολων
κολπος
κονδυ
κατασκευαζεται
προσελαβε
ανακαλυψει
επισκεπτεται
εκτελεστικη
ειδησεων
ευγενη
τσιφ
φρανκφου
πολυτιμο
ξεχωριζουν
χορηγηση
γενοκτον
εμπιστοσυνης
απεκλεισε
street
τσαλ
##νειο
##οβιτς
##δικοι
διαυ
συμπι
οτιδηποτε
χαουαρντ
##ars
παλαιων
αντιση
βαθμων
εμπορος
μειωνει
deut
ανακαλυφθει
καλοκαιρια
μιλανου
blue
βαλκανικο
διανοη
bad
dan
down
vict
ελη
##λοκ
περιθαλ
μπαι
##βαλουν
ιταλικου
σωματικη
##iga
σκεψεις
λογοτεχνικα
απολυθηκε
μπαντας
ηλεκτρονικη
παρηχθη
αικατερινης
καινοτομ
##cus
καταλαμβανε
αρθρω
βρεθουν
αυτοκρατορες
συνεχισουν
συνταξιο
ελευθερες
διαθεσιμη
χαρβαρντ
κριστο
τζοζεφ
αποκαταστασης
φινλανδιας
σιδερ
ol
##γν
##ιντα
εντι
χανα
χαρου
σαο
ραι
προερχο
χανια
γνωστης
αποστολος
αντιδρασης
γενεα
σιδηροδρομικος
πλανητης
γρηγοριου
κοινως
καταθλι
τριτα
##τζιο
πιστω
παλατιου
1823
φρουτα
πωλησεων
κατοικει
four
νορμανδια
υποσχεση
συγχεεται
ball
litt
##σμενης
περιοριστηκε
ελληνιδα
##σκευες
οργανωθηκε
φερρα
βυζαντινα
βουλγαρικα
1827
1832
γυμνασιου
μαθηματικος
παροντος
πολυαριθμα
αλληλεπιδραση
##μβεργης
απονομη
απελπισ
φιλελευθερο
sir
##σμενους
απεβ
μαρκα
##μονων
1847
γοητευ
κορυφαιο
τακτικος
ετυμολογ
πετρωματα
mtv
ram
##ρατο
περσιας
διαφαν
μαγια
συνωνυ
##πουρ
##πουμε
αθλητριες
μηχανικου
αναγνωριστει
προσομο
ζωντανες
δαπανη
οδυσσεα
μυστηριω
ib
σφη
##λοβιτς
τακτικες
αυγη
αναρτη
προεβη
φεμιν
σωτηρια
υψηλων
σεισμος
θερμοτητας
αποδιδονται
πεζικο
ανορθωση
δεξαμενη
ευρισκο
επανειλημμενα
##line
##ικισμο
##λακη
##ριστης
##λαβη
λεξ
καρλος
γιοζεφ
rep
##iew
σερβους
χριστιανικης
##able
euro
κατερινα
φυσιογνω
θαλασσιο
θριαμβευ
φριντριχ
bir
raf
παρω
##δημα
πλησιε
μομ
κυκλω
αρχηγους
πυρομα
under
ωραιο
αυστριακη
επετρεψαν
αφομο
ηγεμονια
επιβιωση
συναλλαγες
ανασυγκρο
1ης
fur
ρενε
αυλα
ανακ
νεαρα
πορτες
κατασκευασμενο
επιτροπες
επικρατει
τειχους
απαιτηση
επεκταθει
χτυπησε
πολιορκησε
εθελοντες
ραμφος
προσανατολισμο
nintendo
##πλισ
##sp
παουλ
συνορια
αλικη
διερχεται
##τελεια
##σκοπια
καταληξει
αποδοθει
boy
νευρων
ζυρι
καθεδρικου
συνδεδεμενη
αποδεκτο
##βιζιον
ραδιοτηλεοπ
δυσαρεσκεια
are
##κεια
αναμορφ
μαμε
κοβ
κυρη
υπογραφηκε
λαφυ
γεματο
##θοδο
##μπασκετ
##ζονα
χριστιανικες
φρανσις
περιστατικα
πραγματοποιει
υφιστανται
χαλυβα
αμπντουλ
dist
φισ
##ст
##ξος
στολη
αναχωρησε
παραχωρησει
ακρες
ποδοσφαιρικων
πιθανες
##raph
χαμηλου
ενδιαφεροντα
1837
κτισματα
πτηνο
εναλλακτικα
συναρτησης
στραταρχη
ακαταλλη
νταγκλας
bank
οριων
##ργο
αναισθη
μεταφυσ
περιπο
λιγη
εδι
ερν
περιελαμβαναν
ελευθερων
##ander
ωραια
αριστοτελει
πυροβολικο
αναμετρησεις
συνεδριαση
πλησιαζει
βουρβον
βογια
ματθιλ
she
αρου
##δρες
##bi
σεβ
##enter
δωρεα
εθνοσημο
καταρρακ
μετρησης
αυστηρη
bell
kon
vii
##στικοι
##μπος
##τουρας
νετρον
μπλα
αποφασης
πολιτιστικα
αγαθο
σχηματισμος
καπνου
συμβολιζεται
λορδος
θιασο
σαββατοκυ
αλουμιν
υποβαθρο
dj
καταρα
##μησεις
##γκνερ
##βαρα
αιτιες
καρτα
βιοτεχν
λοκ
βελτισ
ερωτημα
περιγραφονται
νυχτας
cont
πρεσβης
ποικιλλει
ζιγκ
εχθροπρα
χαλιφα
μεσολογγι
τοροντο
au
ιστ
ρεντ
θετει
##φαιους
αδικη
ολοκληρης
κλαδους
ηλεκτρικου
κομητειες
γαλαξιας
λαμβανε
ειδικους
beat
ιακωβο
adv
richard
φονο
##21
##ροη
##καλ
παραξεν
##ραγια
απιθαν
##μιτη
επεζησε
εμφανιζοταν
στρατιωτης
αμερικανων
πυροδο
απαιτησε
ψαρα
προκριθει
αβρα
ριχαρδου
πεζοπο
ηγουμενος
ελευση
##ργη
εκτυπω
καταχρη
μεταγλωτ
υπολοχα
αγωνιζομενος
μπαλε
##βηκαν
αριθμει
βοημιας
τουρκικου
φερναν
επανιδρυ
επαναστατικο
ειδικος
μεταναστευσης
τζειν
αλπεις
##ουρα
μεταφορες
συμπο
##atch
κυβερνουσε
δομιν
συνολικος
##iver
σημειωθηκαν
ποντικ
συνεδριου
αρεσε
νομοθετικο
διαρκως
διαμαρτυριες
εφευρεση
τρισδιαστα
υφυπουργος
london
fir
id
##ταδι
ανατινα
##δονας
γραπτη
οικισμων
##ρανης
δουβ
ιταλ
συνορο
μιρ
##ado
μεθοδων
εχθρος
μεταναστευσε
εγκυος
μιχαλης
##ya
##νακης
εκρινε
παρατσου
στρι
αρχικου
##τινι
πυρος
##τζαν
σομερ
μιλησε
αρχηγια
stone
μεθοδου
ενισχυσε
1849
great
αποκατασταθηκε
οστρα
##σεντ
##ιπ
##λεγκ
##ελλο
χαζα
μπορις
apple
ονομασιας
διοξειδιο
επετειο
θεοτητες
κορυφαιους
βενετοι
εξισωσεις
επεκτεινεται
κυλινδ
ιησους
##σμευ
##οφ
αρχικος
νοσος
##ολογικων
μοναρχη
επισημαν
κονγκ
toy
επισκευα
οθωμανικες
πυροσβε
κομμουνιστικη
επιτυχημενες
αντικατασταθηκαν
μοριακο
κομβο
μεταδοσης
φοινικα
##γκρεμπ
ακτινων
καυκασου
9η
γουντ
υε
##χτουν
μενουν
##λοτ
##μην
θετικο
καθεμια
δικαστικη
θυματων
εντασης
τζαμα
βενεζου
αγροκτη
απεικονιζουν
πηγαινουν
ευρεση
επιβεβαιωθηκε
υποδεικνυει
ζακυνθο
ομονοια
power
##νονταν
##ισθηκε
ταβερ
περσια
##γασκα
##θεισα
κατεστησε
10η
ροδολ
κοινωνιες
κατασκευαζονται
βελου
##ινγκραντ
εξωτερικες
προωθησε
εβραικης
μπερκ
απαγορευσε
κορυφαιος
στρεμματων
επιδεινω
μαδαγασκα
μαμελου
camp
ut
γλι
##ior
παλιας
ναβαρ
##φοριες
αρδευ
λαμια
ζημια
ευρωπαιους
ανεξαρτητος
σχηματισαν
μαυρος
andre
ανακηρυχτηκε
heart
πνευματικης
αγγελου
παρανομη
διηγηματα
απαιτουνται
μοτιβα
dream
θορ
ντομ
##χρωμα
ανακλα
##αλου
##μηδη
ισλανδια
##θαρι
εμφανης
συνολων
γραμματεια
αισθημα
τεινει
τηλεοπτικα
βικτορ
αστρονομος
ξερει
ανακτησει
αρμοδιοτητες
ψωμι
ωρας
##ετης
ταμειο
##γκολ
δεχοταν
γενει
κινητοποιη
παραδοθηκαν
κωπηλα
μακεδονικου
μετοχων
γιανγκ
##ista
νομοθετικη
πραγματοποιουνται
ρανταρ
ενηλικων
γνη
##σν
τοξικο
παγκρα
##στολης
##κουζη
μοναδας
αθλητρια
κριτικων
εκπαιδευτηκε
ιδιωτικες
διαφωνια
δουλευε
προοδευτικη
ρογη
fm
οσων
##φοντας
##χτες
πασι
ειμαστε
καταπα
##ρονος
δεξ
αντιδ
αντιρρη
τυπω
##ister
κορυφης
εκτιθενται
γλυπτη
φαινομενου
μαρτυρας
συγγενης
ναυαρχ
εργαζομενους
συνταγματαρχης
ιιι
φλωρεντιας
κοιτασματα
προτεραιοτητα
hol
##κκα
##den
##τουσα
ονοματο
##σσονταν
συγκινη
##λινες
mario
δικτυων
πετυχη
ασφαλη
υποχρεωθηκε
εχθρου
road
επιτευγμα
##γιεφ
παυσανια
ast
καλει
παραχωρηση
αγκα
υπογραφει
##γουσε
πραγα
ελασσο
ανοιξει
##ρισεων
αποτελουμενη
1855
ηλεκτρονικα
1806
δελφων
βαρυτητας
ευθυγραμ
αντονι
παπαδοπουλος
αθροισμα
aug
let
##ποιος
εξιστο
##βατς
αστικα
γενιες
αγωνιζονται
πολυπλη
##βερνη
1700
οργανωμενη
συνεχους
ρωμαικα
πορθ
εκτελεσει
##ρενς
εσχα
επιτεθουν
ενεπνευ
βλεπουν
νοσοκομειου
mega
εντοπιστει
απροθυ
παλαιστινη
μεταπολεμικα
καυσιμων
χαλκιδικης
##δρια
##ex
νατριο
##σιπ
τεθηκαν
δις
##γοναν
φυγουν
##elle
συνεργατη
μεταλλικο
πνευματικα
συνοδευεται
project
προσδιορισμο
ανακωχη
στρατοπεδευ
κια
σφε
##sa
##ule
συνδια
αρχικης
##λιαμ
λεμ
γερουσιας
μεγαλυτερων
φορτιου
συχνη
επιπλο
ηλεκτρονικο
κατευθυνσεις
διαδρομες
τουριστες
island
επιδειξη
κομοτη
εμοιαζε
πληρεξου
hum
si
##μμενος
μεδικων
##τεας
διαγραμμα
αναλαμβανοντας
αλκ
στιλ
σημ
λαβουν
απεδωσε
11ου
θεατρα
βασικων
τσαρος
ερωτικη
τσελ
ηλεκτρονιων
ναυαρχος
τζιμ
φοιτητης
rolling
επιστρατευ
cre
post
##κτισ
##ικτες
##ναιων
επιβιων
σηματος
καντον
αρχαιοτητων
240
επικρατωντας
διεξαχθει
γειτονια
λιμανιου
τριανταφυ
αναποφευ
ναυπηγεια
σωματιδιων
ψυχαγω
thomas
##εθ
παλιν
πουα
αλμπερτ
υποτελης
γνωριζουν
σαμπ
φορμα
οργανωσει
##agon
επαναστατων
μοιρας
βλεπουμε
##iana
γουαιτ
yout
ακαδημαικο
πρυταν
fire
year
ετρου
προβολης
κοινος
παραγωγοι
δωρι
βεα
εγκυμο
ζωγραφους
1831
πυρηνες
βιαια
##ques
μπιλι
επενδυσεις
ανοικτη
##πλευσε
καρδιτσας
dc
holl
σφι
##σσι
##ρελ
δημοι
εξωφυλλο
λυων
συμβαινουν
προκληθηκε
##σθενης
πολλαπλων
οριζοντια
γρεβεν
τριφυλιας
##χιλ
αποβαση
ταξεων
##ριανη
##μπς
##ιδε
γυρος
##ison
μυθους
γαρ
σκαφους
ηρωων
1857
ξεχωριστες
προτιμησε
αλυσιδας
εξαδελφος
δωρεες
φιλοτεχνησε
ραγκμπι
##τνικ
##ωτικα
##πρω
##ουμενη
αποδρα
##ταντ
##παραγω
##ογον
ποτο
εργασθηκε
##ρανι
φορτη
καρδιας
ανακαλυψαν
ιαπωνες
υποβιβαστηκαν
συμπαρα
ξανθης
οδυσσεας
ισοβαθμων
μακροχρονια
θρι
##ευει
παραχθει
δεντρων
μητρω
λαγκα
μπλαν
γαλλικων
παρουσιαστηκαν
συνεχιζε
##κινησης
stand
καλαματα
ιππα
σουλτανα
##τοποιει
πεδιαδες
προεκυψαν
αξιωματουχους
εβγαλε
αντεπιθεση
win
ες
##εντε
μαε
##τουλα
##λειου
##λυν
##χνουν
βιταμ
ολοσχερ
εισερχεται
ηγεσιας
cho
ρεπερ
##agen
αυξησει
αντιμετωπισαν
επηρεασει
αρχιτεκτονικο
cons
βαρκελωνη
ερχο
##μοιο
##καινο
διαβιω
αρχοντας
γενικως
ομαδικο
πρωτοτοκος
γκω
αθηναικη
παρνα
αφηγειται
σημειου
βιομηχανικο
επηρεαζουν
σταματησουν
αντιμετωπιζουν
χαλκινα
επεκτεινε
σταδιοδρομιας
χονγκ
καθοδηγη
αφροδιτης
just
ιστου
##κονται
##γλυ
##χειων
περιχωρα
λακε
επομενου
##γεω
δυναμικου
επεδιω
πιστα
καλυπτε
επιχειρηματα
τροποποιησεις
δολοφονιες
αιγυπτιοι
φιλοξενησει
αντωνη
ηθικης
χλωρο
διαφωνιες
συνασπισμος
αλληλογραφια
εξορυξη
καταλοιπα
εικ
μιντ
##ουρ
συρου
παφου
##σεβιτς
επιτιθεται
θεσμος
παντελε
##βανς
λιγοτερα
##ution
βιομηχανικες
προωθει
μπερνα
αραβικο
απολυτως
ρουμανικη
δασκαλου
δακρυ
εστιατορια
λεωφορου
κυμαινονται
απομονωση
σκοτεινο
φερδινανδου
παλαιστιν
λεγεωνα
αητ
μαγκνους
ορφανο
hel
##βικ
##τηρι
##ργια
φυτου
##ιωσει
μικροι
μειωσει
σταθμευ
αυξησε
διατηρησαν
υδρογοναν
οντοτητα
ασυμ
αετος
μεταρρυθμισης
στελεχων
διαχωρισμος
ατλαντα
διορισθηκε
αυτοδιοικησης
division
##bl
##mp
##ειμε
##πολεις
συρρα
σελην
δενδρο
αλλαζουν
συμφωνουν
κινησεων
παρεμπο
θυρεο
εκπαιδευτικα
σοβιετ
εθνικοσοσια
σπανιες
3000
διαπιστων
νομαρχια
φραγκισκου
σμηνη
##σκων
##no
##τοπος
βαζει
ισθ
##σκεψη
##χωρουσε
##asc
φωκ
παραλληλη
σαλβα
κατοικιας
προκριματικα
υδατα
υποδομης
αλεξιπτω
βρου
γλαυ
φλογα
##ρωθηκε
μαο
καταφ
##μπτον
χαλε
αυτοκρατορικης
βραχιο
##amo
λειτουργικα
ισχυρους
ηθοποιων
κατανομης
προτιμηση
απεργια
κοινοβουλευτικης
ενδιαμεσο
αντερσον
μανατζερ
επιδημια
εφτιαξε
επιμελεια
publ
sub
##κτερ
##κερα
παμπλο
μεταφορ
εγγραφη
απλες
γνωριζαν
##πιδας
##βιβ
αγροτων
πετυχαν
αισθηματα
τρεφονται
οφειλοταν
δικαιολογ
αλατι
βελτιωσεις
θυγατερα
ανοργαν
ανιψιο
λιουις
ξεκινουσε
πιθανολογειται
##ville
σεμινα
τελεια
λασι
##λωσης
ιδρυτικα
λευκων
εγκλει
καραβα
αρχιτεκτονες
στενος
πληροφοριας
γεωγραφικες
παρατηρουσε
παρελθοντος
south
απουσιας
συγκεντρωνει
σταλθηκαν
αδελα
ωρων
##λλια
τιποτε
χαθηκε
βοημουν
ισπανο
κανονικες
μισα
στιγμης
##arth
δοκιμη
πτερυγων
χολσταιν
ζαχαρο
κομνηνος
συγκριτικα
##παρα
βαφ
##iter
δασων
καρπο
πραγματοποιηση
ακριβο
μεραρχιες
λογοτεχνικη
βλαχο
διωρυ
φροντισε
ανταγωνισμο
3ης
bon
dark
εζησαν
##γικης
##δακη
##λειων
##μιαια
##ρευσης
##βαλλονται
γραφικα
συνδεθει
πολιτιστικες
διαθεσιμες
ειδικου
μυθολογιας
ηλιακη
ατμοσφαιρας
ανυπο
επιχειρηματιας
mont
free
σπυρος
σωτηρος
πακετο
αντοχη
εμπεριε
dance
χοπ
##απο
παολο
##ληνο
καταλονιας
δασ
σκηνικο
μετεφρα
μισος
προωθησει
ανιψια
ορυχεια
who
μαξιμιλια
ευβοια
##στερος
##ομενου
##τσης
##θησουν
θειας
##πεζ
ακον
διεγερ
ερπε
προσπαθησει
εγκαταστασεων
αρνητικο
περιορισμενο
κοκκινος
μαζες
γενετικη
διεκδικ
news
πρωτεινων
ευημερια
σφετερ
oh
ταυρο
##τερς
##τροπια
εξαγωγη
σομα
##asy
αναπτυσσει
##ida
αρχιτεκτονικα
1842
νομισματων
νικολο
ψηφιακη
serv
καθυστερηση
οριζονται
ροι
##γμενος
##ρωσε
##γανα
μπορ
γαμους
βορειων
δωροδο
γαλαξιες
count
ολιγα
ψηφισαν
επικινδυνη
αναμνηση
συνιστω
συνομιλιες
σιωπη
youtube
υδρογονανθρα
god
ml
##ny
##ble
##βορ
καμερα
##ειν
τονοι
##κοπουλος
αλκυ
εγκεφαλο
συνεβαλαν
##δειξαν
παρεα
παρεχοντας
θαλαμο
θαλασσο
real
παλιες
##ific
επεισοδιων
πυραμιδα
βροχη
ευνοια
αποικιο
σταντ
τσεχοσλοβακια
ντοπιοι
εισπρακτικη
παντελεη
mid
ta
λισα
μαχων
κοσμα
δεσμου
##πειου
μοντ
##σφαιρα
##μπουρ
εμπορικης
πολιτισμους
κυριοτερο
διατηρουνται
οφειλονται
καταλληλες
χωρισαν
αναγεννησια
μεταγενεστερες
κοιμητηριο
ναβαρρας
long
αορα
##θρη
στοχων
τακτικο
αντρων
στιβ
προστιθεται
πολιτοφυλα
10ου
επικυρια
ισχυς
λουιζα
αρχαιοελλην
σκηνοθεσιας
επιθεσεων
ερμηνειας
ξυλινο
αποκαλουνται
παρακολουθησει
εξοδου
ευκαιριες
οριζοντα
##ski
πλεονεκτηματα
υποβρυχιο
ανδρονικος
σπειρο
γρεβενων
##σπερ
##αστ
##βνα
επιβιβα
##osa
##τευεται
δεκατε
##συρε
φορουσε
##διπ
συναγερ
δημοκρατιες
κοντε
βελαν
σημειωσεις
##erson
απαντωνται
σχηματισουν
μαρτυρουν
ανεπτυξαν
αφετηρια
υμνο
peter
πορτρετα
film
εκοψε
γιορτες
χρωμοσωμα
##μαχων
##στρι
υποβαθμισ
λεξι
τυλι
φορων
καρπους
ινδικο
ανταμ
αποκτουν
αρμενιων
1797
τουριστικο
αποσυρση
πρασινου
ομηρος
συγκεντρωνοντας
αρθρων
πολεμιστες
επαυλη
βιντεοπαιχνιδι
hop
ot
##εφ
καμπα
##κατοικη
##κοπ
θεμισ
##ολογοι
πυθ
ρωμαιο
αθλητικου
συντακτης
μνημειων
ντιε
επαγγελματικης
εορτασμο
αληθινη
φρεντερικ
δραπετευσει
παρατσουκλι
7ου
ηξ
ντρε
παο
ειρων
υπογεια
δεχτηκαν
υπακου
##μεινουν
κυκλων
##σκας
υπερε
εβρου
συγκεκριμενων
σταθμων
γκαμπρι
επαρχιακη
οραση
μεταναστευσαν
διαλεκτος
white
διονυσιος
αυτοκτονησε
bab
gm
nasa
ρικ
σισ
##iet
##my
##ενια
παμ
παρυ
αναζω
##στηρες
##στησουν
##κτηρια
μοναχων
κυβερνησεως
ενοχλη
ρωσος
εξωτερικης
ρηνου
πληρωματος
μιχαη
εντυπωσιακη
αμυντικη
corpor
ανησυχια
μεταπτυχιακο
champion
υγιει
fiat
##dr
##cc
διαχρον
ονομασαν
πυλης
ιταλων
τιτλοι
οδηγο
##ional
αεροπλανα
μιλι
υπηρετουσε
διδαξει
αραβια
##ima
πλουτου
κλειστου
συνθετων
προωρα
μαυρου
μπορεσαν
υποθεσης
δεικτης
οδοντια
πολλαπλες
ατεκ
φεγγα
ποταμους
αθλητικες
βουλγαρικο
συμπεριλαμβανονται
περιορισμενες
σκληρες
κεφαλαιου
ασυλο
εκτεθει
ψηφοδελ
βαλενθια
martin
σεμπαστιαν
but
μειο
##σιλ
υπογειο
πηδαλ
μεγαλυτεροι
δρασεις
λογοκρισ
ομιλειται
##γνωση
book
δημαρχου
ετοιμος
βορειοδυτικο
κολοκοτρωνη
cn
##σμαν
##νιες
##mus
##ιανη
##ισματα
##σιρ
αναπνο
παραλει
πανκ
επαφης
πεντη
ιωαννι
δισκων
σκηνοθετες
στεφανι
1813
ψηφοφοριας
λορεν
ολιβερ
ερασιτεχνικο
βασιλεως
καντακουζη
αποζημιωση
θρησκειες
pier
θησε
##υρους
##γεννη
δασους
φρουρια
##μισεων
συντηρησης
υπαιθρο
κοσσυφοπεδιο
γιατροι
αββαειο
εκπληρω
κυδων
σιγ
αποτελεσματικο
ισχυριζονται
μιλησει
κονσταν
βενετο
εκφρασεις
διεκδικου
αγαπημενο
καταδικασε
διασταυρω
συρρικ
διαπιστωσε
κνου
##θρε
##ua
αποβλη
##σιμων
##νετ
νησους
11η
σχεδιαζει
αλβανικη
ισημερινο
γιακομπ
alpha
fer
tro
χουντα
##ιακη
ενιω
##θεσιο
ονοματων
##ριζομενος
τεχνικα
##βουρ
##ady
μνημειου
εβδομο
προτεινο
εκδηλωσεων
πανελληνια
scien
αερας
μακροπροθε
πτωμα
αναγλυφο
αρχιπελαγος
ημισφαιριο
αυτοκινητοβιομηχανια
ηξερε
μιζ
ωθηση
##µα
καταπο
διυ
διορισμο
σαβα
μετετρεψε
αποκαλεσε
προτειναν
bros
μελλοντικη
προσθετοντας
οχυρωσεις
χιονι
##ology
good
##σουλ
##λλην
##xt
##ουτ
μαροκο
τεκτον
προσκολ
εξατ
μοντρε
κινητρο
τριαδα
##idae
αγωνιστικο
σημερινα
ασθενη
1852
αγαπημενη
αχρω
ακαδημαικη
διαμαρτυρη
αλυσιδες
##κυτταρα
εισιτηρια
σενε
##υς
##πιδων
##ψιας
##τηρας
##λαφ
πουλιων
ζωες
κατεχουν
κιμ
σιταρι
γραμμενη
αρχαιολογια
κεντρικες
λημνου
δεσποτα
1846
##σσοι
scream
ευχαριστη
ουαλια
αμοιβη
raw
μολο
##ζοι
##τοπουλος
προνυ
ανθο
κυανο
ευαλ
νοβ
εξωγη
εβρισ
δρομολογια
αυξηθηκαν
αραβων
διαβαθμισ
καινουργια
ενθουσιασμο
γενεθλια
στοκχολμη
δαυιδ
bur
παλε
##ρχικη
##δακης
επιτιθε
##μουρ
χωριστηκε
ουρο
πολεμοι
ζωου
πρωτοστα
υπαρχοντα
##φιλο
λοφος
λογοτυπο
##idge
this
1809
επιτευγματα
μεταγενεστερη
λινκολ
εικαζεται
φραντς
κογκρεσου
##ττι
##τοπων
απομει
προβολ
κατασκη
λαθη
γνωστων
απεστειλε
προεδρικο
γουιν
φυσικους
death
λευκ
260
μιλουσαν
νικολαι
αστυνομικο
προκριμα
τραυματισμο
ουρανια
λεσχη
διονυσιου
υπευθυνοι
νυμφευθηκε
συνοικιας
χριστουγεννα
πεφτουν
pap
τρει
##πεις
##ла
##ισλαβ
##μελες
κυθη
##σιμοτητας
##πανο
ακολουθουσαν
##νειδη
προσπαθουσαν
διοργανωνεται
ζαγκρεμπ
χαρτ
1839
ψαριων
ανταλλαγης
πραξικοπηματος
##μφιε
ραγδαια
αμο
##σμπεργκ
##ουκ
##ωνη
##τελα
παχος
εκδωσει
κοστ
υποχωρησε
##τωματα
εμιλ
##λανο
συλλεγ
##μιστες
##θουμε
und
υποχρεωση
κομμουνιστων
καθοριστικο
τρυπα
φθορο
σφαλμα
αλβερτος
δαχτυλιδι
ετα
αποχρω
##τιμερ
##τεται
##σοφ
συνεταξε
συνεβαινε
σαντσο
σημαδι
συνεχιση
βοηθωντας
νυφη
κλιπ
τεσσερεις
δικαιολογη
κινδυνους
χιλη
αιχμαλωτοι
τετραγωνικων
διασωζονται
carl
ανεβαινει
ανταποκριν
σκοτεινη
πορτρετο
υποδιαιρε
μηχανοκινη
αντισημι
ford
feder
gn
jan
tal
εβερ
ολου
##υμων
##μητη
μεταμφιε
οπερες
τροπου
μυστικ
γαστ
παρουσα
##γιαρ
νικηφορο
βραβειων
καθηγητρια
αντιπροσωπους
απελευθερωσης
αρμενιοι
κρεμ
γυναικειας
ψηφισε
φλωρινας
διαμαρτυριας
ερζεγοβινη
επιχειρει
εξουδετερ
ετυχε
##τφ
τοκιο
διαλει
καταλογους
δαγκ
πολλαπλα
επιστημονικων
##ude
αποκαλυπτεται
ταυτα
σιδηροδρομων
τουρισμου
magn
ανεπιθυ
media
##λλιερ
master
lab
οστων
##μενικο
εκφων
μαλι
καταλαβε
αλκι
ελονο
ονομαστηκαν
##χωρωντας
προελαση
ρομπιν
γεννηθηκαν
εμπορους
ιντιανα
εκλογικες
κονγκο
μηχανων
ισπανικου
ενδιαιτη
πιστευοντας
επηρεαζεται
##βυζαν
βαρνα
υπερασπιστει
frank
γνωρισαν
τευτον
ευτυχισ
αναθεωρηση
απαραιτητες
εξαπλωθηκε
ρεθυμνου
ντιναμο
λινκολν
mov
wall
##υλιο
##μανο
##ποιηθουν
βονα
εκκλησακι
μαθηματικο
σχεδιαστης
γραμμικη
αλεξανδρα
διαδοχικες
##πομπη
μεσαιωνικο
πεταλου
ζαχαρια
αδριατικη
θυγατρικη
εκδιδεται
βασανισ
παραπεμπει
φαινομενικα
μπροντγουει
βουρβονων
center
κατσα
##τωματος
υπηχθη
αποφασιστικη
δεδομενο
paris
καινουρια
ποικιλες
οξεια
joseph
ll
ατι
επικη
περιλαμβαναν
δεχονται
αντιλαμβαν
##κτηριο
διεμενε
##ated
ραιτ
ζηλανδιας
υπολογισμο
εξαιρετικες
ξενοι
απεικονιζονται
δασκαλους
μαγνητικο
arts
μεταπτυχιακες
μετατοπισ
εξελισσεται
αρκει
χρησεις
βοστων
##orum
οικειο
φιλι
κυβερνητες
σκονης
εμπλοκη
λευκες
σκακισ
εκτιθεται
ειδηση
μαυρικ
ολλανδικα
γειτονικων
απομακρυνθηκε
αποφυγουν
σελευκιδων
σλοβενια
9ου
log
εφερ
κοχ
ποδιων
οπτικα
αστικης
κυβερνητικη
πρασιν
τροποποιηση
κηπου
θεωρητικη
παιδικο
ελενα
φασματο
διανομης
καλιφορνιας
web
προσανατολισ
##track
america
δαφνη
αποτομα
πολυτεχνειο
κομισσα
wrestling
ψι
##ρθ
##βιτσα
##ουρι
μετσο
##γκος
##βαδα
##ρειος
χασαν
##osh
##χας
κρατικων
θανασης
μειζονα
εμπλεκ
υψωμα
δωρη
χιλιοστων
επισκεψεις
##ody
σαλι
ερευνητικο
χωριστηκαν
προσφερθηκε
καρκιν
διαμετρου
##other
ενθαρρυνε
ακυρωθηκε
λουλουδια
νεολιθικη
μπασιστα
aer
festival
σπιν
##βρου
##ριτσα
διατυπ
πρωσια
##σιακης
υποχωρησει
##μανι
αρτηρια
##aro
##ιεφ
ευρωμπασκετ
ανοιξαν
πρωταγωνιστης
διεξηγαγε
κρατησαν
υιοθετηση
προστατευει
καταγραφονται
studio
κιθαριστας
ιεχωβα
αποφυλακ
little
##τοπους
202
συνελαβαν
γυρου
μοριων
τυμπανα
12η
λειψια
κοινωνικου
δραστηριοποιηθηκε
λαμβανεται
1808
βεβαιοτητα
μολδαβια
λιονταρι
υδραγω
fried
παραρτημα
βγαλει
ακτογραμ
ελεον
##λλε
καταθε
μεταπηδη
αγριπ
ευστα
##χαουζ
φυλλων
απεχουν
δαβιδ
σερβο
αλληγορ
##edes
παντρεμενη
σοβιετικες
συμπεριλαμβανει
πρωταγωνιστει
αποκτηθηκε
αποτυπων
διαχειμα
νομιμη
ετεροθαλη
γενναιο
πυριτιου
ραλφ
ψευδαργ
home
νια
επλη
αναγραφεται
συνει
υποτελεις
αρβανι
##ψηφ
##κουμε
βρετανης
φιλικα
ελευθεριου
σκακι
βερμα
διακονος
βιομηχανικης
μεταφραζεται
αξιοσημειωτα
αποφευχθει
δαπανες
εισοδηματος
ιδανικο
επιτιμος
walt
αγρινιου
κρεβατι
πιον
##νικος
##λακης
γαβρι
κερυ
υπερφυσ
υπουργικο
306
ανακαλυψεις
μεταφραστει
οπαδος
μετακινηθηκαν
##προσδιο
ερχοταν
##urnal
ελπιδες
480
miss
nick
##γιν
τονο
διατρε
συντεχνια
καταλαμβανουν
##μπους
##τωδη
νεπαλ
##γηθηκαν
##erv
ισμα
κρατικες
##ative
αδεν
##χωρησης
αμμου
ορφε
##ιαννη
1810
διπλωματικη
rob
στεγαζει
προμηθειες
πλανητων
κασσι
κιονο
καρδιναλιος
προσηλυ
ευρεσιτεχνιας
bus
hip
los
κκ
λιλ
τσω
##ττου
##gro
##μιον
##ξοδο
παιζεται
##τωσε
προσληφθηκε
πραξεων
ομοιοτητα
συνηθεια
φιλολογιας
ευρωπαιοι
κυριοτερα
πλαισιων
ρολων
end
ακρωτηρια
πιεριας
επικινδυνο
εντοπιζονται
καταπολεμηση
μινα
σβη
##ko
παπυ
αυθορ
κορε
αγελα
υπογραμ
λασκα
εργαζονταν
πιστους
λειψαν
πολλαπλο
##γκαλ
κατασκευαστες
##πτοταν
βερσαλ
223
αξιωματικο
παλιρρο
διατηρησης
αιγυπτος
στενες
βιαιο
μαργκα
ακολουθησουν
γκεοργκ
fort
##φμαν
επιτο
##σταυ
##βαρο
χαμο
καθριν
μουρατ
μεσαιο
ρασελ
δραματικα
εγκαταλε
κινηματογραφικο
δοκιμιο
##κολμ
##ποταμου
απαγορευτηκε
διασωζεται
λεπτομερεια
τανζαν
techn
διοικουσε
ολοσχερως
βερμαχτ
3d
εστρε
##αφ
##ληθευ
##ποιια
χρημα
χρηστων
φυματι
πρωτοβαθ
##amil
βασικους
αρχηγειο
224
δημοσιευει
μαλκολμ
##ava
εμπειρο
##book
περιειχαν
συμβαλλει
καμπυλη
λουξεμβουργου
##ντορφ
##ρωμενα
βαγκνερ
αδραν
αξονας
γκιζ
##στρατιω
εγκαταστασης
δεδομενη
κερατο
αναζητωντας
αιχμαλωτιστηκε
διηυθυνε
εργοστασιου
##ftw
συντροφους
σκοπευε
εσθονια
ευρισκεται
##καστρου
##στατ
βασιλο
χαραλντ
##urs
κιρ
βιογραφια
inv
διοργανω
απειλες
τραγουδιστες
1792
ξεσπασαν
σκουρα
θρυλο
αντονεσκου
αλγοριθμος
αιμοσφαι
αμβερσας
χριστουγεννων
φιλαδελφεια
εσπευσε
ιχθυ
ραδιενερ
##stein
κεκ
##τνια
##φιν
##μησαν
στασια
##τεις
μπορν
επαληθευ
##ρωνε
εμπορικου
πορτρα
μελετα
εγκαρ
πολωνικη
κεφαλια
αζωτο
διακρινει
offs
academ
soundtrack
θεσπρω
ke
μπουργ
##λοου
##μετρου
στρατιωτη
μειζον
λυκα
αθηναιος
πλευρων
παρακολουθουν
αρμενικη
αποτυγχαν
προβλεπει
χαρτοφυλα
περιπετεια
ξεπερνουν
ασκειται
λακωνιας
ιλιαδα
rna
νολ
##ταιων
##ρωσει
##οργαν
ανακρι
υποκατα
στρυ
χαθηκαν
λατινο
επελεγη
κατωτερο
λιγοτερες
βεζι
επαναστατη
επισκοπων
παρατηρητες
υποψηφιων
δημοσιοτητα
αμφιθεα
καρδιακη
ζακυνθου
βουκουρεσ
επιβραδυ
θριλερ
εγκαταλελει
650
ath
υπεν
##σινη
##ces
##χοντα
##zy
χρηστο
λεπ
ανεδειξε
κορμο
τεχνικο
μιγμα
κειμπριτζ
οθωμανικου
καλλιτεχνικης
πριγκιπες
βενετσια
αποτελουμενο
συνταγματικη
σκυρο
αποθηκευσης
αξιωματουχοι
ευαισθησια
προπαγανδα
μετατοπιση
υφεση
προνυμ
aust
ημα
ημιο
ιοντα
ρικα
##ven
τηγαν
σταφυ
περιοδειες
##τζικ
##hem
##προπαν
δημοκρατικης
χοκει
γκαρι
1838
γκολντ
βαλκανιων
συμβουλες
πρωτοπορος
δημαρχειο
fame
ρως
προπολε
παραμεινουν
μεγισ
στρατιων
επαιζαν
##ματισμο
παρουσιαζοντας
ηλεκτρα
δημοσιευσει
σπιτιων
επιθυμει
eng
δορυφορ
γερουσιαστης
αλφρε
##κορδα
πολιτευμα
μεμβρανη
queen
cs
may
οδοι
##gar
##γιος
επια
μπρον
παλαιμα
κεφαλης
ζωγραφων
ξυλινα
εισαι
γειτονες
αποτυπ
πρωιμα
διαστηματος
σοσιαλιστικου
prod
ext
επιβατων
ριχαρδο
αρρωστησε
βροχοπτωσεις
ερνστ
pc
ανρι
σεβιλ
διαφθορα
παραγο
##λιδης
##ιλερ
βοο
κιργ
παραδοθει
κεβιν
ολυμπου
αξιολογο
νερων
ενετο
αδυνατη
πρωιμης
συσκευων
εξαφανιστηκε
σταθερες
χρεος
ταξιδεψει
επανεκδο
επιβληθηκε
θεμιστο
mach
αιω
##σικης
##min
πατη
##ελου
φυγα
κρασιου
κατεθεσε
γαμπ
εκδοτη
τιτλων
ορισμου
λυπη
δειτε
προκαλουσε
μακεδονικη
##διδει
περιφερειακες
βλαχιας
κυριαρχουν
εσοδων
αυτοκτονια
υψηλαντη
βουκουρεστιου
den
##ρτης
##sd
##βοι
##ξες
##γραφιων
σακα
##μονι
μιμη
##ινουμε
θερινους
νοτιοτερα
ενοτητες
γκαρντ
μπετο
αριστοκρατιας
φονευ
βικι
journal
κοιλαδες
νεανιδων
αλγεβρα
πρωτοεμφανιστηκε
μασαχουσε
προληψη
διατελεσε
εκδ
θεολογιας
##γενες
ραβεν
σιλε
προσπαθειας
ιατρικες
μαθησης
βαλτερ
ρημα
ορεινα
εξομολογ
κατεργα
ερειπω
μεταβλητη
υπαλληλους
ντερμπι
δουλεψει
ολοκληρωνοντας
κιεβο
ρουμπενς
φυματιωση
550
cas
##ωμενων
αποθηκη
##δημιουργ
τεμενος
χατζι
προσκρου
##τιανου
μηνια
αργιλ
κανονια
##ιντεν
καρολινα
εισαγει
αγροτικης
σουηδικη
εγκαταλειπει
κλασικα
αποδιδουν
φτιαξει
ερασιτεχνικη
συμπερασματα
μεταβλητες
ενορχη
heavy
ju
οσι
##σινι
##μιζοντας
##pp
##κελλα
δυρρα
##ati
##eta
ολαφ
επηρεασαν
πιετρο
μπεργκ
##φευγει
αεροπορικες
##τροφειο
σαρακη
αμι
σογ
φοντα
##σβα
##δοντα
##ψευ
ταχεια
αυτοσχεδια
διπο
αντιβιο
αναφεροντας
γεννημενη
ορισει
καλλιθεας
δωρισε
επισκεφθει
μακεδονων
##χρονου
αετο
ξαδερ
κιολας
πραγματοποιωντας
λακεδαιμον
doc
##out
κανω
##οριο
υποψια
##ιωνα
##ιδελ
##ποιησουν
πραγματεια
διαδοθηκε
εφημεριδων
ενισχυθηκε
φαινομενων
αναγκων
1818
ιπποδρο
gramm
αλληλεγγυ
ισορροπιας
μελωδια
αυτοδιοικηση
εριξε
φαληρο
συγκαταλεγεται
κλερ
##ιτιδα
##hel
##ικιες
παλερ
αννι
αυτια
##γραψουν
##λιτ
πολεμα
##ese
κραυ
συλλαβει
λειπει
##ete
αναπτυξια
κλαδια
μαχητες
ελευθεροι
χοεν
ειδικοι
boe
καθιερωθει
ανακτορου
μπετοβεν
##ωνης
##ριναν
##ριτιδα
βαριες
##ποιημενες
συγγραμμα
ανετρεψε
##alis
καλυπτονται
παραγωγων
μειωμενη
βορειοτερα
μεθοδ
οικονομικους
συμβασι
καθολικων
ορειχαλ
##box
αποθηκευση
συνεντευξεις
ακμασε
τερματοφυλακας
ko
wom
ιζ
οστε
τριο
τοσκαν
προικα
προπον
σεγας
##μεντο
εκβαση
αναχαι
##μηλια
εξερ
##λογικου
προσληψη
##ito
##chi
πορνο
νταλ
συναντωνται
εφαρμογων
σκαφων
φωτογραφιας
καπνο
καυσιμα
σεναρια
##iff
πωλησης
press
υιοθετησει
οσλο
1789
ενηλικα
διερμη
μπρουκ
ανεπιτυχως
πλουταρχος
society
γερο
οικη
##ξουμε
παλευ
ναπο
##τερια
μεταβει
αντιδια
ουτως
συμφωνει
##τζεν
κινητρα
ισχυρων
κεμπεκ
##row
μεταφεροντας
γονεων
σκηνοθετησει
χειροτερ
united
##μινστερ
σχολιασε
χρησιμη
κατοικηθηκε
αρμονια
μειονοτητα
βοηθαει
μετριοπα
corporation
ferr
οχαιο
##ρατου
##ρακης
υποκα
λεγονται
βρισκουμε
ελληνισμου
##ολογικου
πραγματικες
μορτιμερ
λουτρο
##βαννι
μαθητευσε
##μοιρα
συγκροτηση
##ago
καλαμπο
σκοτωσουν
##φιλος
χτιστηκαν
κλασικων
μολυνση
εισηχθησαν
ροβερτου
βαυαρια
χαινριχ
επιταχυνση
επικεντρωθηκε
απολιθωματα
κελυφος
αντεδρασε
ka
mur
##μιδων
##λικοι
##ζιου
##τοπα
απομεινει
αναγωγη
επιλεκ
κογ
περιοδικων
##ρονται
μποντ
λατο
ουτρε
συγκριν
ξεκινησουν
κατηγοριο
δανεια
υπολογισμους
σταυροφορους
κυπελλουχων
1804
πληροφορικης
δυσκολες
##ναυτες
σηματοδοτησε
επιβεβαιωνεται
μοχαμεντ
ιεροσολυμων
μασσαλια
fant
τρικου
##ουφεν
προορισ
##γκουν
##γραφημα
επιτυχης
αλεπου
σχεδιασει
λευκος
κληρωση
κυριοτερες
σπασει
αποκαλυψει
λανγκ
μοιραζεται
εξασφαλιζοντας
παρατηρου
κατακλυ
columb
1770
ελιγ
βαρσοβιας
αμβουργο
hd
hms
ασαν
εβα
##δινη
##ηματα
##ор
##ιστουν
##τιζοντας
διενε
##φωνοι
αστικου
μπιν
##βερο
πλαταν
ροζα
δικαστης
κριτηριο
σταθμη
##τσινι
ανακοινωσαν
προσφερεται
συναδελφους
επαιρναν
τεθωρακισμενων
κριστοφερ
sin
u1
στοχοι
ταφου
ταλαι
ουιν
πληγμα
κυβερνητικες
εκλογικο
##δωρο
διευρυν
συμμαθη
φιλιππ
ηχογραφησαν
μονιμος
επιτυχημενα
συγγενεια
πορτογαλικα
χιουμορ
γυαλι
αγκυρο
τεχνολογιες
βομβες
4ης
face
how
λικ
οσμη
##μινγκ
##bus
καμη
ειλικ
ταφη
διαφα
διατροφης
επιμονη
λεπτη
τριπολι
##γονων
δαπεδο
στρατιωτικοι
εξαιρεσεις
εκφραζεται
επιπεδων
cla
ντουετο
κορυφαιες
βουνων
ακραια
συνεχομενα
επιχειρηματια
ισλαμικο
συντελεστες
κρατιδιο
λαχανικα
ευκολια
λουντβιχ
χαρτονομισματα
sie
υφους
##λλιο
##ар
καταδεικνυ
βαγια
περιπα
βιθυν
τριημερ
αξιων
συνδεσεις
φερνοντας
εξαιρετικο
μεγεθη
μαρτυρα
βιαιη
ακολουθειται
μαργαριτας
καστορια
βασιλευσε
βαρεων
ινδονησια
##κονο
##ιθ
##γικες
##ρακι
##ισμενες
##ιστρια
##τεθηκαν
συρο
προχει
διανοι
παρασκη
ανεμος
συγκλον
ιατρικο
ορνι
θερμανση
εντολων
ελεγαν
ελεγξει
στρατοπεδου
θεωρηθηκαν
διατηρησουν
αντιπροσωπεια
φωνης
καθολικοι
acc
εισιτηριο
εκτελειται
ανοικοδομηση
ουιλλιαμ
τρενο
αναρριχη
θαν
οφελη
φελι
ανγκ
πουερ
αλπεων
τεως
##μβριας
νοκ
ιδιωμα
αρματων
φυσεως
##ρκου
##orm
μυστηρια
εμπλα
ηλεκτ
πλουσιος
μαλτας
##eck
μαυρες
τρενα
ανθρωποτητας
οικοδομηση
διαμαχης
φτωχη
υποβρυχια
αυτοβιογραφια
ραυμονδος
ταλαιπω
over
αντου
##δοτη
##δακ
##σιακων
παρατετα
κυματων
εξπ
##μβο
μηνας
βρεφος
νεολαια
inf
##ents
κλεινει
εγκατεστησε
καταστροφικη
βολι
##μπανι
1805
καταρτιση
διαβαζει
προκυψει
ερωτευεται
volks
αινσταιν
αναμειξη
ελικοπ
χαρολντ
ξημερ
οστρο
##ning
##φεκ
##γνυ
καφεν
στιγμα
περιτ
##ρειν
##φορησε
σατρα
συγχω
##γενους
##als
πιθη
πιπερ
αεροναυ
παροχης
κλασης
##μορφια
##μπορο
εντασεις
ισοτητα
χημικος
αποκαλουν
αρχαιολογιας
παρακολουθησαν
βηρυ
##μπαντ
ορυκτων
διαλεκτους
διονυσου
υποδυεται
καμπανια
##ен
καζ
##ωνων
διαλογο
##σειν
##λιτς
χαμιλ
γνωριστηκε
##τσιλ
##τσιου
##κειου
##γκοροντ
συγκροτηθηκε
##γουνταν
νεκρου
δειχνοντας
ταυτοποιη
θωμας
ταιριαζει
ανθυπολοχα
μοντρεαλ
εψα
ιστους
##ικει
τομος
##ναδα
τονιζει
##λεσει
πετρας
##τιανο
##ποιησαν
σαιζον
συμφωνη
μυτη
κουτι
μαντα
θηρευ
εσωσε
ρυπαν
ληφθει
σταυροφοροι
βαρδα
ερευνητης
αυστριακο
διασταυρωση
θρυλος
πολυτιμα
ταλαντου
λανθασμενα
break
ανατραπηκε
κερδοσκοπ
μιλοσεβιτς
βασανιστηρια
ve
κικερ
απογειο
κοστου
υποχωρησαν
λαοι
ελλαδικο
μουσικοι
φωλιες
ορθη
σχεδιασμενο
ιερων
ασθενειων
επισκοπους
##app
1793
στροφες
εξαρτωνται
ημερομηνιες
ομηρο
συνομοσπονδιας
motor
αξιοθεατο
διαδραματισε
αελ
εστελ
##τιον
##sc
##ιακ
αποθηκες
##λαρι
προλαβε
##ελθουν
πανορα
##isc
δοση
ανωτερος
ολοκληρωμενη
κλιματος
παιδικης
επικρατησει
στρατηγους
επιπεδη
κατοικιων
χειμωνες
johann
##φελντ
εγγυς
νοτιοανατολικο
εθνοσυνελευσης
ηροδοτο
κολουμπια
##μιζε
##ζουσα
##ич
προφερεται
αρχιζοντας
πολυκατο
χαραλα
ερμης
γεωγραφια
εξελεξε
σωματοφυλα
γραφτει
σωθει
εκκλησιαστικης
βελη
νορθα
παρακολουθουσε
κυπελλουχος
ανθρωποτητα
απορριψη
καινουριο
διαδηλωτες
κατοικουσε
ξενοφων
μυρμη
τσελσι
παλερμο
sel
βλη
##ητης
##ξερ
καιρικες
αντικο
ευρι
ακρων
γεννι
φορωντας
αποκτωντας
εξουσιο
εισαχθει
φθορα
αντριου
αμφιβολ
ενημερωση
σλαβομα
νοτιοδυτικο
λιβανου
μετεφρασε
λισαβο
boeing
νιο
σβερ
σλεσ
##φρου
##γουλφ
παναι
προλαβει
θεματολογια
##βαρη
##φοβ
παντε
λεβ
αιτηματα
##λιστες
μπαγκλαντες
##εντς
αμμω
αθλητικων
οικονομικου
##θραυ
πτερυγας
συμπληρωσε
ψηφισμα
συμμαχικες
ογδοη
nar
φια
κασε
##κρατου
##ιναλ
μοτσα
καλλισ
13η
κυριων
εκκληση
ρωμαικων
anton
αξιολογ
ορολογια
χορτο
ομοσπονδιακης
conc
διωξη
τετραγωνα
σπορους
περσικα
σφαγια
οχτω
αντρεα
καινουργιο
ουρουγουα
ριντ
##οσα
##μμενες
##ии
##ναου
##ναυα
αποβιω
αναστολη
##λωθηκε
μοχ
αυτοκρατορων
dec
κηπος
ολυμπιακη
επιθετικος
γλυπτικη
ακριβεις
συνταγματικο
1807
καθημερινης
φλοιο
αποφασιζουν
georg
διαφοροποιηση
ασημενια
γενευης
αμεταβλη
nh
##gin
##φτηκαν
προτυπων
κοιλ
αυτομα
αλλαξουν
ανεμου
σαντια
βαθους
κομματιων
εντομο
διευκριν
κοντσερ
230
πληρωμη
1803
προσεγγισης
επανελαβε
ακελ
πρωτοπορια
##μιτρι
ερυθρου
αναπαριστα
sar
ven
##κικη
##ροτητα
αναχωρηση
μαριν
##αλι
πεθερ
αδιε
κυκλικη
κορνελ
μανης
ρεπο
συναντουμε
προστατε
βερε
πυροβολη
spec
σοσιαλιστικης
iso
συμβουλια
εξαφανιστει
απορροφα
πριγκιπισσας
σαλβαδορ
##θορισ
αντρι
##σιμου
επιτη
επιδεικνυ
αγιοι
ακμης
βασιλικος
μορο
##γουικ
##ζιε
ανθολογια
θηβας
##ματιζεται
αποφασισ
τιμηθει
##oda
κειν
εκφρασει
αναλυτικα
προτιμα
συνειδησης
βελτιωσει
ενδιαμεσα
ασυνηθιστο
αφοσιωση
απευθυνεται
ακουιτανιας
ενεπνευσε
bern
τρισε
##gen
μετανο
προηλθαν
κοστα
παραμετρο
##δην
μπους
διοριζεται
##βαλλοντας
##oli
σιρ
##omb
αρχηγοι
σημαντικοτερος
συμμαχο
μετοικη
ασυρ
εφορος
προαιρε
προοδος
βροχης
ασημι
πρωτεινη
εκδικηθει
υποδεικνυουν
πολυεθν
πυρετο
karl
αμοιβαια
πληκτρο
απενειμε
καταθλιψη
##ρμον
##κετ
παραπο
στρου
##γουσαν
καθετα
μυθου
##πιδη
##μπατ
ενεργειων
##ira
εφαρμοστηκε
γραμματικη
πιατα
δημοσιογραφια
ορεινες
##iano
πυκνη
δελτιο
progr
αμυντικος
συχνοτητες
συναλλαγων
επιταχυν
κηδεμονια
εξολοθ
lim
##ym
προβαλλεται
##ρχικο
##θετη
δυνη
λιθιου
διελευση
##μιχα
φορντ
##ask
χειροτερη
κεφαλιου
εχθροι
scott
κηρυξη
1798
μετακινησεις
ποδοσφαιριστη
δογη
ουεστ
εξηγησε
##σθενη
αγρινιο
χαβαης
δαρβ
αλκιβια
υπενθυ
ταλ
##λιδων
πανισχυ
ασκλη
μεχρις
τυρι
ζηταει
##μπερλαντ
νυρε
εγκω
210
επιστημονων
επισκοποι
πιατο
επανεμφαν
γυρισματων
εκτεινονται
αλφαβητου
χρησιμευει
αγκυρα
αρχισυντα
λευκορωσια
μεμονωμενα
ασβεστολι
championship
gall
χτυπα
##ox
##12
##μαχη
ευρα
δελη
ισλαν
δεκατη
χιλης
βρετανο
χωραφια
##τσμπουργκ
επεστρεφε
επισκεπτονται
μεσημερι
τραπεζο
ουσιαστικη
ενεδρα
ορατη
λορενς
εκατοστων
εκτεινοταν
πρακτορες
αρμοδιοτητα
batt
line
ts
βραν
##ren
##back
##ταριου
μεταπολιτευ
υποκαταστα
χαριν
αρσα
οπλισμο
χρηστου
επελεξαν
δουκες
υπηρετει
συνδεουν
συγκεκριμενος
επιθετικη
αιχμαλωτων
meg
αποδεσμευ
ουρανιο
καθιστουν
υπερασπιστηκε
λευκαδας
χιλιετιας
προδιαγραφες
μετακομισαν
stadium
games
jun
nic
rena
ολικη
ρικο
##μιδ
αποψης
##μετρικα
##κανια
##λευτα
μοναρχης
ζητουσαν
τριακοντα
##ενεβη
αντιμετωπος
##τελουνται
εξασκη
καυσιμο
ανταποκριση
ανησυχιες
1453
επιβιωσει
επιθεωρηση
φθοριου
εμμεσα
αποστρατευ
σλεσβιχ
light
µε
δρε
##υρη
##ty
μεσιε
##τισσας
μερι
αιθυ
εξαι
εξακριβ
##βενα
πραγας
βασιλειων
def
τερε
μελετησει
παραδειγματος
ιδεας
σοβιετικους
280
leon
μπερν
προσωπικοτητας
1819
προσθετει
σκυλια
αποικιας
οικουμενικη
πανηγυρι
ορθοδοξων
ειδωλολα
σλα
##κεντ
τουτοις
στολισ
ταουν
##ρηση
##τιστων
χαιδελ
βιτα
παρεχεται
τεχνιτες
##θειαν
307
πλουτων
χαρτης
γαλαξιων
οποιουδηποτε
τσετνικ
μαυροκορδα
καλλιεργειται
φουτμπολ
αντιπαλοτητα
λενινγκραντ
διασχισ
διαμεσου
πανιωνιος
οικουμενικο
animation
μεσοποταμια
fiba
##μνης
προτομη
υπομνη
##τουρ
##φανα
συναθρο
θερμικη
μαχητικα
ηλεκτρικα
συναντησης
αγωνιστες
ερωτησεις
χειρογραφων
εβραικο
μαζικες
const
μπαρτον
δυσκολευ
συμπλεγματος
αψιδα
αμφισβητηση
προγραμματιστει
τρικαλα
εγκαθιδρυση
χαιδελβερ
##σκρι
παγκα
διαβεβα
μασκα
υποτελειας
##φας
υπαγονται
##τεχνιας
ρεμα
ρωσικες
γραμμαρια
αποτελουταν
μαυσω
παρειχαν
blood
κυριαρχησε
αποκαταστησει
χιουστον
##oney
αριθμησης
αναπαραστασεις
κρατουμενοι
πυκνοκατοικη
προτεσταντες
επινοησε
βιλαε
πραγματοποιου
μεσοπολεμου
γιε
ολον
σθενα
##ias
##μμουν
καιρος
εγχορ
δοξας
σεργκει
##φιλη
τριαδας
θυρα
χαλκιδας
##σσελ
ξενη
παραδοσιακων
##ough
κατευθυνθηκε
εκδηλωθηκε
1790
ταξιδιω
περσικο
αφεθηκε
διαπιστωθηκε
κλαυδιος
ασυνηθιστα
ευελπιδων
##θας
##day
##ιακα
##ωνοταν
επηλθε
τεμπλο
χαα
χαος
καλιου
επανακυκλο
μαθητευ
φοβη
γιαννα
αμαζον
αποσυρθηκαν
ομηρου
εργαζομενοι
συγκομιδη
παρασκευαζεται
αχιλλεας
ευδοκι
mercedes
ρομποτ
##μεθυλο
θαρρος
ret
πλυ
##tor
αυλων
εντυπα
##χην
προσκο
απλος
##ολογους
ραφ
δεκαεξι
σουμα
ιδιαιτερες
ενεργος
##ident
ψαρι
ραδιοφωνικο
ακρως
ιοντων
συμφεροντων
καλαματας
ινδοευρωπα
##form
χωροφυλακης
ουζμπε
εμβελειας
τσωρ
cin
liv
mill
οριζε
σμα
##res
##τοτητας
στηλης
##λερα
##μανσης
προσβασι
##τιαλ
λιπο
φασισ
##icus
##ωσεως
παρεμεναν
κωδικος
ισοφα
##ινουνταν
συμπεριλαμβανεται
εκτελουν
αμφιλο
εστιαζει
ξεσπασει
απευθυ
κατερινης
υποδοχης
κομβους
συχνοτητας
φθανουν
δεσποζει
γιγαντια
ρητορικη
τσαντ
αιθιοπια
κηφισιας
##διδοταν
ορλεανης
fc
υγει
αποκλη
εξευ
##λιδη
πανοπ
##τρεψαν
##χωματα
εργαστηριου
μυστηριο
σιγκα
αντιστροφη
βοηθουσε
##oma
επιστημονας
##ular
εσσης
γλυκα
arena
αναδειχθει
τηλεοπτικης
μιχαλη
ομιλιες
τερματιστηκε
αιχμη
pres
παρατηρει
μουσουλμανικη
καισαρ
ανακατασκευη
αβαειο
κομνηνου
##χρησιμο
λεμεσο
παραβιαση
##press
μαραθωνα
διασκορπισ
πυθμενα
ηπια
##yt
##ηθουν
##γεις
##τατης
##μπραντ
λαξευ
δικαστικο
παραγωγους
αλεξιο
ινγκ
συνολικες
νταβιντ
γονιδιων
καλλιεργουνται
κρισεις
συντηρητικη
θαυμαστες
αεροδρομια
muse
ουγγρικη
ιονιου
συχνοτερα
καγκελαριος
αρχιπελαγους
εμποδισει
ακανον
linux
βουδαπεστη
αντισυνταγματα
διαβιωσης
ten
φθη
##υπ
πας
προφιλ
εκμα
ενωνει
καταγονταν
αρχιδου
##ιλντ
##φεροντας
πανευρωπα
σουλιω
μαθηση
βαλτικης
##δωρου
ανοιξης
υπουργων
ποιηματων
διαταγματα
επιτροπων
ιερη
διεξαγει
τερματισμο
χρειαστει
τοιχοι
αμαλια
##σσοταν
νευρικο
δημαρχο
γοη
ζεστα
εντυπωσιακα
συντονισμου
χερσονησος
εσθονιας
περιοδευσε
στραταρχης
hand
kw
αμπα
##κτοι
##ml
καηκε
παραστρατιω
##χειες
##γραφαν
##μαντα
ευξει
ευνου
στρατων
εξαγωγες
συλληφθει
σανσκρι
ανταμς
επανελθει
σερβικο
##elli
κρατηρα
φωνηεν
contr
πληροφορησης
περιστασεις
france
προωθηθηκε
ανεπαρκεια
βορειοανατολικο
ψυχαγωγ
επωα
συναρτησεων
περιστερι
ντισνευ
προβηγκ
κοινοπολιτειας
πουερτο
ze
ινα
φλερ
##σσης
##si
μενα
βατρα
ελξης
##λογλυ
μπρυ
κανουμε
##λιστικο
συμβασεις
ντιβιζιον
προσεγγισεις
τουρισμο
κατερρι
επικαι
νηπιαγωγειο
κρεατος
φθιωτιδας
απομειναρια
μοτσαρτ
fact
δινονται
##υσης
##γχον
##χνο
##ιανων
##ριτης
##ιντο
##μοταν
ονομαστει
##χοφ
σαταν
σακελλα
δυνατα
αρχαγγελ
ερμου
αποστολου
γλυπτο
πρωταγωνιστρια
παραδοσιακης
φθογ
μαλακο
πεδιαδας
ελληνοτουρκ
κουντου
φοινικ
αρθρου
προωθησης
δυστυχημα
θηλαστικων
κυλινδρο
μεταδιδεται
κομιτατζη
κατανεμη
ματθιλδη
σλαβομακεδον
##υβερνη
##μαχιας
##τεινε
##ξηγη
##τρης
κατοικος
##itter
σιμων
λειτουργησει
ανταμοι
λυσιμα
προηγηθηκε
ηγετων
ανεξαρτητων
νομοσχε
ασθενους
υιοθετησαν
σιδηροδρομου
ομορφιας
συσκευα
##τσουκ
παρακτια
1715
μοντερν
φιλοδοξιες
σλοβακια
τουρκοκυπριοι
φλανδρα
λιβυη
απαρτιζεται
τσιφλικ
ελασσονα
δραγου
υα
##πτερ
##τακης
##ισιας
πολιου
##θεο
##δακι
εγγραφων
μεγαλωνει
##ιωδη
φασματος
τραγουδου
##λλας
σωστο
αναγνωστες
συνεργαστηκαν
αρχαιοτερο
τοποθετουν
οθωμανικα
κατακτητες
αντιδρασεων
απειλησε
επανεφερε
πρασινη
what
εκθεματα
ανιχνευση
μπροστινο
γουολτερ
αβερωφ
cop
cry
##μενοντας
παραπλαν
βαγδα
οπεν
επαρκη
απελα
πρωτοτυπα
μπαου
αγγι
##γονες
δρακου
οργανικες
κερδος
1100
οριστικο
βιολογια
περιλαμβανονταν
child
ξαναχ
κλειστη
σαλαν
ταυτοχρονη
ταυρου
πληροφορει
κηρυχθηκε
330
προβλεψη
γρηγοριο
εκλεισαν
εξηγησει
επιβιωσης
ανακτηση
χαλιφη
ναπολεον
cur
αρο
θολο
##don
##yle
##ριλ
##θημα
περικο
##μελης
επαμει
αιτη
κρατουν
ελλας
κυβερνητικο
##βολος
εφιπ
παρθενα
ολυμπιας
σεισ
υποστηριχθηκε
παντρευεται
δελφους
διασωση
ηφαιστειου
αριθμητικα
αποδεικνυει
κουλτουρας
δαμασκη
fair
προγονοι
##σκοπηση
αναμεταξυ
συμπεριελαβε
κοπεγχαγη
συμπυκνω
αστο
ετικ
ιχν
οδους
##φεις
##τιτς
##ριτη
ανατομ
εγγονη
μητσο
ουρας
κρανιο
##θαι
κατεληφθη
δομων
συνοψ
ρωμαιου
αρχαιοτερη
εθι
στρατηγοι
φραγκους
αφαιρεθηκε
υποδομων
θεμελιωδη
αλγερια
βομβαρδισμο
γενευη
καραισκακη
αβρααμ
hu
δρου
##ret
##yo
##zer
τομη
##ελης
##γραφουν
##γραφικων
φακε
τροποι
βραδια
θανατων
καρπος
ιννο
γραμμενα
αναγκαζεται
αξιωματικου
##raft
μεταφερονται
σοβιετικου
ερωτας
αγροτικα
αρχαιολογικης
δοκιμια
τραυμα
αλβανοι
βλεπε
προκριματικο
πανελληνιος
αποσπαστηκε
αντωνιο
μεταδοθηκε
ανταγωνισμου
δευτεραθλη
καμπανιας
βροχοπτωση
network
henry
kl
mu
wik
ριν
ωθησε
##ζους
τουν
περνουσαν
##θερας
##φαλα
στρασ
αστικες
##λωβ
ανεπισ
ρομπ
σχολων
κολλη
συμπεριφερ
κατασκευασαν
##uto
πιστευω
σκληρος
συμβολαιου
γενικοτερη
ισχυροτερη
εστιατοριο
αρχιεπισκοπη
τρωικο
νοτιοανατολικης
πολεμησουν
εξαρτηση
αναμνησεις
φιγουρα
ετεροθαλης
αναψυχης
columbia
υγειονο
σμολ
ωρο
##wa
##πουλα
στιχο
##φορεια
κρατικα
φορου
##βοξυ
θεωρηθουν
μισι
ιπποτη
##βελτ
αποσπασει
προτιμουσε
εκμεταλλευσης
##πτονταν
εξυπηρετειται
κρατουμενων
ανδρονικου
βυθιστηκε
κατεδαφισ
blues
ru
βλεν
##θλα
##πν
##ер
##τατου
παε
##σιανο
παραλη
λαμιας
διοχετευ
σαρκ
γελο
ανεμους
τριτων
ρωμαικες
##φειας
παλαιολογος
ισοβια
ταχυτητων
μπεκ
ικανοτητας
μητροπολης
δικαιωματος
βυζαντινες
ηλεκτρονικου
1817
1801
ελεγκ
##aux
εκμεταλλευτηκε
συντριβη
δεσποτη
συνδεδεμενο
ωριμο
μοντερνα
επανεκλε
κρατουμενους
σφραγιδα
ελεφαντο
καμερον
εοκα
πρωτοτυπος
##cer
αποδη
διαχυ
θετοντας
βασεων
##δεψε
##ische
##ila
επαναφερει
ανδρικη
εκλογης
αθηναικο
##iae
ζωγραφοι
περιβαλλει
βενετων
καυσης
οχυρα
αυτονομιας
αστρονομιας
ακραιες
λεωφορος
υποδομες
αεροδρομιου
εντγκαρ
βλαβες
προδρομος
λαρνακα
σιβηρια
δρεσ
μουλ
##sen
##ζικο
##ρανα
##βαιναν
αυτοδια
##λωνεται
##ρανιο
βουτυ
θεατρικου
χειλος
τουρκικων
ναυτικες
δεινοσα
ενοχ
επικρατε
γλυφα
αραβικες
κρισι
βουληση
edward
φραγκισκο
ζοζεφ
##χριστια
γουινεα
ημικυκ
οψ
##ονικη
##ολιο
##λενα
##καρυ
δενδρα
εγνα
εγγονο
διογκ
επεδειξε
κυβερνειο
##μισι
θανατους
παρουσιαστει
story
εσπε
συγκρουστηκε
μεσαιωνικης
επεξεργαστη
ερμηνευσει
λεωφορεια
αναλογιες
συνηθισμενες
υφασματα
απορροφηση
βιντεοπαιχνιδιων
μουντιαλ
διαδραματιζεται
καππαδοκιας
καινοτομιες
σιγκαπου
run
ιρ
##εδ
##ωμενου
##λαει
##λαιν
ανισο
εκρυ
μαια
##κοπουλου
παραλι
ασκουν
ουγος
μοζα
##atre
τριη
εφευ
βιβλο
σεριε
δημοκρατικων
βραβειου
παλαιολογου
ανεξαρτητου
καλλιτεχνικα
διατηρουσαν
αγροτικων
ιεραπε
αφιερωθηκε
τουριστικη
προβλεπεται
φιλαρμον
χρεο
καθοριστει
εξαδελφο
οικοδομημα
ιουστινιανου
λιβαδια
αποσχισ
γουινεας
νεφελωμα
ισουται
ασε
ηπιο
υφαλ
φουν
##τεμα
τιμαται
περιμεναν
εμμα
##esh
κατεφθα
##olet
κατηγγει
βοηθο
##ριωνα
χριστινα
σωθηκε
σωλην
##edia
ανοιγματα
εφαρμοσε
θερμοπυ
γονιδ
διαδικασιων
ρητα
ξυλινη
marc
αποδοκιμα
αυξανοντας
επιθυμουσαν
τουρισμος
μωρο
στερεας
συναισθηματικη
παραταξης
τρουλο
δεσμοι
εργαλειων
αυτοχθονες
κεπλερ
##ητα
##mar
##ειδος
αλμπα
περιγραφηκε
ελλ
βασιλικων
σαφης
συγγραμματα
δυναμικα
ρωμυ
σημαιες
αθλητικα
anth
περιφερεται
διευθυνσης
##μπιρ
διεξαγοταν
συμβουλη
επιπροσθετως
ελπιζοντας
σπανιοτερα
βρυξελλων
διαφωτισμου
προβηγκιας
haw
##σορ
##σπι
##ик
καψ
καστα
αποτομη
μετατρο
κυψ
λεμου
##τρευ
μοναχ
ρωτησε
καλουνται
γατα
δεκαετιων
αθληματος
ισπανοι
ημερολογια
##διδαν
προωθουν
mary
εισαγωγης
γειτνια
κληρονομικο
τερματισαν
διαχειριζεται
βαλκανικων
μελλοντικο
προτιμουν
εμπνευσης
σπυρο
αλληλεπιδρασεις
ισχυρισμους
δεξαμενες
προπαγανδας
prem
γοδεφρειδος
βαδισε
βερεγγα
gun
rel
νται
##well
ταχθηκε
διαμονη
μετατεθηκε
##λιαν
ανεβηκαν
κεντρων
ακολουθα
##δισμα
λυσει
##μπερν
that
κρεμμυ
βαρκα
ακουσει
συντηρητικο
εμπνευστηκε
κιλικιας
προτελευτα
διηγημα
ξανθη
sky
σολομων
μπουντε
συναρπα
καταιγιδα
γινομενο
august
παρυφες
set
##σση
##ηκαν
##ερη
ανευρε
##πατ
##μεραν
επιβαλει
##ογλυ
χαου
μπαρο
##ρευσει
##amb
μηχανισμους
κρητικη
##ιμοτητα
##μπεη
πηγαιναν
prim
ανακηρυξη
ερμηνευει
εναλλασσο
ασφαλες
πιλοτος
internet
προορισμος
ανακαινιστηκε
εμιρη
απεσταλμενος
εισβολεις
παρευρε
τεχνοτροπια
aids
cos
wolf
εδες
κρικ
συριζα
διαμονης
εκτελουνται
κοσο
κενυα
εκδοθει
συνηθειες
τοπικος
##θωδης
θερμη
συνεργασιες
γλωσσικη
μητροπολεως
ψυχολογιας
1816
320
μακροβιο
ζωντανος
λεσβο
απορροης
τσαρλι
καταστασεων
συγκαταλεγονται
λεοναρντο
θραυσματα
ημιορει
γαμπρος
bay
cad
sv
tu
##ιλα
##yth
##wagen
##παλλη
ασεν
εισηλθαν
απαγχον
βαθμιαια
εμπορων
εμπορικους
dev
##χουσες
ταυτοχρον
τσεχια
δημοσιογραφο
αλβανους
ανακτορων
ανερχοταν
τεκνο
μαρμαρα
ψηφιακα
ναζιστικης
ψηλοτερη
εξοντω
μελαγ
αποκρυπτο
καμπουλ
προθεμα
toyota
ανεπισημα
πικα
σκαι
##υν
##γχαμ
##wer
καζι
##τοπουλου
ποτερ
λαμβαναν
ονομαζει
πυλων
μονε
μπακου
πλατανια
μυλο
απαγγελ
ιταλικων
παραγωγα
λυτρα
εφταναν
ριχ
διαλυματα
ενδιαφεροταν
ιαπωνικο
αποκαλουσε
βλαχια
τραυματα
τσιπ
ορατα
υποβιβαστει
υποβιβασμου
αυτονομο
πορτογαλικη
εξεταζει
αντιοχου
ποδοσφαιριστων
ευαγγελιο
ουασι
αναστασιος
προτεκτο
πλεγμα
ισαβελλας
υπερβαινει
τσεχοσλοβακιας
αναταραχη
χαβαη
squ
νιν
##oo
τοξα
2020
##θειων
ευθυν
υπαγορευ
##σσκα
κρατικου
##θανιο
κατεταξε
σοκ
##ουανα
συλλα
##βαλι
παλαμα
λυρα
ρυζι
μαρτυρων
παυση
χρονολογηση
αδερφου
αληθειας
εγκαταλειψη
προαγωγη
υγρη
αμφισβητειται
χλωριδα
ανανεωσε
ουδετερη
υδραργ
προδρομου
εθελρεντ
εκλεκτο
benz
λιβανο
αφθονια
##τλαν
##βιτ
##field
##ρενα
μαρο
μαρων
##μηδης
εδμον
πραγματικοτητας
θερινη
γιουροπα
κυριοτερη
πονος
space
ονειρα
καθημερινες
εξισωσεων
αστεροειδεις
οξειδιο
ροβερτο
επωφελη
κλασσικη
φιλαθλων
european
cu
αδη
τσσκα
##τατες
##ραβ
##μαχιες
##τιζε
##ριωτη
ειπαν
ταμπου
υποσυν
επασχε
πρωτοτυπου
τροια
μπαμπα
πλαστικο
κινηθει
ροστερ
λειτουργικη
ανδαλ
κλαση
φιλτρα
ισπανους
διαφορετικοι
ηνωμενα
γονιδιο
μετοχι
εκπροσωπο
κατευθειαν
αναζητουν
επεξεργαστες
κροατες
ανακαμ
αρσενικου
καρδιναλιο
διαβρωση
οδικο
##ομενους
ταραν
##καλλιερ
διατυπωση
εξελλην
αντιλαμβανεται
ουρων
μυο
μυστρα
dead
φοβος
φιλοσοφου
φιλοσοφοι
διεξαγονταν
πληροφορηθηκε
διωρο
εξοπλισμος
ital
ποικιλει
ζαχαρη
ορεων
νεοιδρυ
αιγινα
φερδινανδο
απομακρυνει
απογοητευση
ecole
καινοτομια
κολωνιας
μιχαηλοβιτς
μεταπηδησε
jon
nm
oι
ηλπ
ρια
##ξευση
ενδυνα
μαστο
αλεν
##ριστει
στιβο
##ιζεν
προσχε
##τρικους
##σμοι
αντισυ
γραφουν
παρενο
κατασκευαζει
θυελλα
χρυσαν
ποιητων
γιουβεν
##ινγκεν
νυχτες
ασκησεις
αποσπαται
λωζαν
καθισματα
δορυφορους
χολυ
καθοριστικη
ταιβαν
συντροφο
στατιστικα
δεικτες
φαληρου
σκυροδε
χαμιλτον
nav
ντολ
##ρζ
##μινη
αποστελ
##λεο
διαρρε
εκλα
υποκο
##φοταν
προσκει
αρσε
εχτισαν
##γουλα
αδειο
δικαστες
γεωργικη
βαλτικη
προσεκτικα
ισοπε
νικολας
δανειο
επηρεασμενος
λαμβανονται
σφαιρας
διαδρομο
τραυματιστηκαν
κυπριακο
καυκασο
κολυμβη
british
τυπογραφειο
εδιωξε
fall
ντρο
##ρακας
νοτι
##τονται
##ολογων
τυρο
κυκλικο
πραγματικων
μικροοργαν
σερρες
ποταμοι
βαλουα
##δωρ
πιθανοτερο
ξυλογλυ
ουσιαστικο
χτιστει
plan
απαγορευεται
προστατευσει
συγγενη
χαμηλοτερες
φτωχο
##σιστρα
κομβος
ισλαμικη
κολυμβησης
εμελλε
εγκυκλοπαιδεια
##γουορθ
λιμνοθαλασσα
μειονεκτημα
##ient
##βσκι
##86
τονισε
ανακυκ
συνιδρυ
##μανδρι
ελξη
νεογεν
νομικες
δημοτικος
λιε
μπενε
αργυρα
κυβερνησει
##σιοναλ
καρτερ
εντομων
αλλοδα
σημειωσαν
ασχοληθηκαν
δολοφονος
κινηματογραφους
παρατηρησης
princ
αναμετρησης
cross
εθελοντων
πρακτορας
παπαδοπουλου
κολομβια
σαρδηνια
mol
κτυπη
##ев
τομα
##τιμηση
παγων
πουθενα
παραλιας
##στησαν
δεντρου
θαφτηκε
##τισμενο
αρρη
γενη
εργατικη
##ρανων
νεοτερα
επαναφορα
επαναλειτουργ
ναυσι
τοποθετησει
##ager
ανεξαρτητως
καλλιτεχνικες
εξελιχθηκαν
270
καθολικου
αναγνωρισαν
συστατικων
υγρων
γκουστα
τετραγωνικο
συναυλιων
κιθαρας
εγκληματος
org
σκανδαλ
ηπειρωτικο
θαλασσης
αγωγης
αντιβασιλεια
καλωδια
μυτιληνη
νιγηρια
αμνηστια
8ου
pd
##μονται
##rict
##βς
##ιακου
καταν
στολι
ενωνονται
χατ
συνελευ
συνετρι
##ουλες
μεγαλωσει
μπαζ
μπαμπ
αναφερονταν
##γραφησης
##urus
##ματισμου
ιδιαιτερης
εκκλησιαστικων
φανερο
καρολ
arc
δευτερογεν
αστεροσκο
370
φορολογια
περικλη
αποπειρες
θαλασσιων
αλφονσου
μεταμορφωση
μπλουζ
iras
διαστημοπλοιο
pac
viv
γλου
ιος
##ωτικης
##ken
##τικον
##γκς
ελιας
ενωσεως
##θυρα
λαικες
λιρων
αιρες
πρωτοπα
##δειου
μοναδικα
δομικα
γκεν
σημασιο
πραξης
##inger
γουιλιαμς
εμπνε
αθλητη
ολοκληρωμενο
χημικης
ποντια
αγοραστηκε
##ova
ντιζελ
##ips
βησι
συμβολικη
##epp
συμπαικτη
ισχυροτερο
επετρεπαν
κουνια
σπαρτιατων
νεωτερ
ανεκδο
μαχαιρι
υπερηφαν
σαρδηνιας
λετονιας
συνεπαγεται
μαργκαρετ
tar
##rum
##ster
##τηθουν
προσι
προγονος
αλλε
αγγειων
ευρειας
κραμα
καρτες
##ree
χαρακτηρισμο
βασιλιαδες
αφηνουν
συμπεριλαμβανουν
παραδοσιακος
εισαγωγ
βολγα
εξοδος
αετου
οικοδομηθηκε
αποδεχθηκε
απορριπτει
ανεβασε
μορφολογια
παραγγελιες
σλοβενιας
γορτυ
υπονομευ
καθηκοντων
γροιλαν
πεντηκο
βησιγοτ
ms
##επι
##τηριες
τουφεκ
απολη
προθεσεις
##παιδ
μπισ
κυβερνησεων
παρελαβε
ζητηθηκε
βαθμιδα
νικηφορου
αρχιμανδρι
γονος
ελληνοι
αισθησεις
ασκησει
##θεραπευ
σπηλαια
φτωχεια
σκληροτητα
τορπι
προβατα
σχισμα
διαβητη
υποψιες
abc
cir
od
βερα
δινοταν
##ικιο
##ινιου
προχωρα
νοβα
διοκλη
τυνησια
##isa
κοινοτικο
##ρουντ
αυτοκρατορικου
ομοτιτ
##cher
κονσερ
κανονισμους
εγκατασταθουν
##ιαννης
γαλατια
##πενσερ
κερδισουν
##mania
εορτασ
τεταρτου
υποδοχε
ντμιτρι
τρυπες
καταδιωξη
ορθοδοξοι
model
προστεθει
διευθυνει
βεροιας
αναγορευτηκε
σομερσετ
ντιεγκο
dog
lat
like
var
αμει
ικε
κρονου
σσδ
φιο
##λαρια
παρι
προτροπη
υποειδη
οπω
απιστευ
ευρωβουλευ
1400
##ili
μικροτερων
εκδοτικο
εμπορο
αμιν
αμφισ
βιοχη
κωνσταντια
stran
κονσο
σπουδαστες
μπουενος
λονγκ
αρχαιολογικου
ηρωδη
ζεστο
φυλακισης
συγχωνευτηκε
ηφαιστειακη
κατευθυνο
βει
φρεντ
##φικης
##zi
##ωνονταν
μεταξ
παρανομα
ιστοριων
δημιουργουσε
μυστικες
απαριθ
πιθανα
1300
θανασιμα
ολοκληρα
ισχυε
κενα
ιωα
νησιδες
διπλου
αρνηθει
επικρατουν
διαλυθηκαν
αντιπροσωποι
γλυπτικης
μιλερ
γυμναστικης
χρειαζονταν
θεραπειες
##τερωθεν
θαυματουργ
αποικιων
ταξινομησης
βιβλιοθηκων
λεηλατησε
υπαλληλων
απασχοληση
φεουδο
τερματιζει
αναμφισβη
προσγειωσης
διαιτητης
liber
γηραιο
pu
πρ
##χεντ
##fc
##λαχο
##ρεως
##μητα
##ραγγ
λιμο
##κλησι
κενεντι
βρεχεται
##βαλλαν
ζηνων
##πτωσης
ορμο
παρενερ
νυχια
βεστ
τσαρο
ιερωνυ
ποντων
αμαλ
επικοινωνιων
τζεισον
μαλαισια
χενρυ
##ζωα
ραβδω
καπετανιος
πλημμυρες
συναρμολογ
παρεμβασεις
αναδιοργανωση
history
τραπεζουντας
θησαυροφυλα
##αφρικαν
coll
ιλα
##θετε
πρωτεργα
εξηντα
τεμα
##μπλα
νοτιων
προστιμο
εποικ
##μιτες
μικροτερης
##ione
##θεντος
τουρκος
κωνο
μαντειο
τοποθετωντας
##ζομενες
βουλγαρικου
μεταλλικα
##ello
επιτρεποταν
σταυροφοριας
ψυχικη
μεσαιωνικα
μεταρρυθ
metall
διασπαρ
ανυπα
διαμεσο
ολοκληρωνεται
φρεγα
περιοδευσαν
αναμενοταν
αδαμ
συγκαλεσε
ανακουφ
συνεισε
γιουβεντους
bat
hit
jud
εριχ
##sche
##τιεν
αναφλε
##δοτησης
##διακρι
##σταρ
ευφρα
ποιον
σαμπα
πρακτικης
##στιων
αντιστοιχου
##στερν
ληψης
ικανη
καρακα
ευρυτατα
γαλακτο
κληρονομος
πρεσβη
εδειχναν
##ender
μαργρα
βαβυλωνα
αναβαθμιση
θιβετ
σηραγγα
διασπορα
πρυτανης
επαμεινων
850
fal
βονι
δρωμενα
λιαν
σβεν
##iro
καπα
μετ
##τανιο
υποειδος
ιδιων
γενουα
αργολι
καννων
επεζησαν
πλακας
συλλαβ
##heim
απατη
εκατερωθεν
προσωρινο
βασικου
συνδεοταν
τεργε
εγκυρο
πλουσιες
υδροηλεκ
χριστιανισμος
κτισμενος
καυση
αδελφοτητα
ρευστο
σαρκα
ισαριθ
δακτυλιου
διαπραγματευσεων
ολιγο
κοσμικη
εκτεταμενο
ρομαντικη
διδυμα
αξιωματουχος
ρωμαιοκαθολικη
ορθογωνιο
πανομοιο
εβδομαδιαια
αναβιωση
βρι
ναξο
μαου
καταξ
##φαρ
ιδρυεται
##itor
προσωρινης
κουπερ
μανουελ
ελεγχουν
συζυγους
υποστηριξουν
αγαπουσε
reich
κτηριων
εβραικα
εξελεγησαν
φημης
καθολικος
ψαχνει
βικτορια
προοριζονταν
κινητηρων
1799
μακροχρονη
διεκδικηση
καταδικαστηκαν
αγαλματος
διηπειρω
αφαιρεθει
καισαρας
ασβεστιου
συζητησης
universal
ανακαινιση
1583
πρεβεζα
κριμαια
φωσφορ
μονοπατια
αντανακ
εαυτου
μνημονευεται
κιργιζ
renault
σαλαντιν
ουασιγκτον
lar
pin
λουν
κακες
μαλε
ευλογια
σχετικης
εμεις
πληγω
μπρεν
υπατος
14η
##βαλλο
##olo
κυκλοφορουσε
μειωσε
εμπρη
αθηναικης
γονιων
ερωτηση
αλβανων
σκυτα
ψηφοφορων
στρεφεται
φυσιολογικα
συνεβησαν
τενις
glob
ανταγωνισμος
βγαζει
διαθεσιμοτητα
προσκυνημα
γουορικ
##ποιουσε
τερματοφυλακα
μεταλλουργ
συνεδεε
συμμορια
2ης
##νακ
διαρκη
αναβα
##μεα
παραστασης
##στοκ
σηκω
νομικος
αντιγονος
επος
νεοτερες
υπουργους
σπατα
υψηλοβαθ
διπλωματης
επεκταθηκαν
ανωτατος
δυσμεν
συντροφος
τυφεκ
λεγεωνας
επακολουθο
chev
##lines
λεωφορειο
ενδεικτικα
νοημοσυνη
βυρτε
συμπιπτει
φυσιογνωμια
αρειου
σινε
##pan
##mm
αποδεικ
##δοκη
##μητριου
επιγραμμα
παντζα
σχετικων
ασχε
γερμανικος
ροπη
φορουν
στεκεται
εφιαλ
θερετρο
stev
αμερικανου
κληση
αντιστοιχων
παραλληλο
##μωμενη
γλυπτης
πλανο
θελω
τυχαιο
syn
διαδεδομενο
προυπολογισμου
μεταπολεμικη
μπολσεβικων
απιθανο
6ος
ever
las
ωφ
##σμοντ
##κοντας
ενωνεται
πανου
λαικα
ουολ
πρασινα
ανδρικο
περιλαμβανοντας
alf
κατακτησης
ακριβες
ακροδε
εκτοξευση
σταυροφορων
εξοικονο
##ible
αντισταθμισ
αρετη
προφητης
αρπακτικα
δεξιοτητες
πευκο
αμπελια
αυστροουγγ
εβλεπαν
ανατρεψει
υδατοσφαιρισης
νορθουμβριας
γνωριμια
ρεπερτοριο
εμπλεκονται
αρσεναλ
fun
εσκα
νις
πουν
##νιτσα
ταφης
μαγειας
##ρουσια
##γκιν
ευκρα
ενωσις
βασιλικες
ασφαλης
##γενο
οικοδε
νεαρων
υπερισχυ
ισχυουν
κεμαλ
προσεφεραν
ρεμπε
δημοσιευσεις
δημοσιευθηκαν
δημοσιευτηκαν
σκεπ
ευρυτανιας
βιομηχανικα
χριστιανικων
αραβικης
καλλιεργειας
ψυχολογικη
ηλεκτρονικης
##τσοφ
διδακτορικη
υπαλληλοι
αρνολντ
αξιωματουχων
εξερευνηση
παλαιστινης
βεροια
πυραυλων
γκαμπριελ
ημουν
προπαν
σαπουν
##ester
αιωνια
φωκιδας
##μπαι
κολπους
διαλυθει
τρεφεται
ολλανδικης
χιτωνα
αποτυπω
εμπειριας
κυνηγα
χουσειν
πτερυγια
διασωθηκε
τζιμι
παρεκκλησιο
σηματοδοτει
λιονταρια
αυτοκινητοδρομος
εγχωρια
περιστεριου
αμφικ
product
grammy
τοσκανης
συγχωρε
αμφιβολιες
gard
hor
main
mult
νβα
##νιους
προβαλλει
ανισ
##παιδα
χαφ
λετονια
τελικων
σαπ
##εροπο
καθετη
καντερ
##δωντας
αξονες
τραγουδο
γκλεν
λουκαν
ανωτερης
πολιτιστικος
ισογειο
αντικτυπο
ερωτηματα
πνευματα
αυξανονται
δακτυλιος
prov
εντοπισμο
λαφυρα
##κιε
##ous
##λεθ
##μετρικη
##μηθηκαν
αρχειου
ελλι
προσφορες
μοδα
τροιας
σημανε
##σσαρα
##aster
σιβυ
καλυτερων
παρομοι
μιτο
ατομικα
dep
φερονται
ευρωπαιων
ανοιγουν
οδηγησουν
##πωλη
πολιτιστικων
φυλασσεται
πινακιδες
ερωτη
δολοφονησε
παρατηρητη
##cept
τζονι
πυργοι
ψυχρου
αντιπροσωπευε
##ense
εντοπισει
απομακρυνεται
συντομογραφια
μηχανηματα
διαγωνισμους
hans
δρι
νιω
οτο
τσιν
##ανη
##μενον
εκκολα
##ρισα
επιφερει
ομαδο
μερο
συγκολ
##νανια
καλκου
μανδυα
κληρου
σκοτωθει
πυρηνικη
κρατησουν
πρεσβειας
ορθοδοξο
διακριθει
κιλικια
διευθυνων
αξιοπιστια
##συλβανιας
ιγνα
intel
σαββατοκυριακο
στρασβουργ
ey
γιων
ζορ
##κμα
##rat
##χτεν
##σιακος
ευπα
μεριλ
##esc
##ντρια
σκοταδι
λειτουργιων
επιχειρησαν
ανωτερες
επιθετικο
τσεχιας
επηρεαστει
μετονομασια
διαβασει
βοσπο
χωριστα
προνοιας
στελνοντας
ιβηρικη
κατορθωσαν
audi
cle
tab
βδομα
χολη
##lor
##men
##ουμενος
##λαδο
##ργησε
συνετριβη
##ural
λειπουν
πληθυν
προεδρικη
υπεγραφη
προκαθορισ
βενετους
απωλειας
αρμενιους
αμφιβολια
αποφοιτος
ουρανιου
μετατρεψει
γουιλσον
απλωνεται
οπλιτες
first
βονιφα
ωφελι
παρομοιως
last
rap
αθει
##θολο
##βους
##ειτο
##τοκο
##αντι
##ριστες
παραθερ
ευσε
πανικο
ομολογια
διεπρα
δημιουργου
##eld
##μισο
τραγικο
καλλιθεα
θητειες
συνθετουν
πλαισιου
αλβανικα
οφειλε
φαντασμα
εκπομπων
1795
maj
φτωχους
πτωματα
πτωχευ
champions
εισαγγελεας
ημιτελικους
τοπωνυμιο
νοβγκοροντ
volkswagen
mp
wood
φλαβ
##xx
##πολογ
ανταντ
καταλογου
βαιμα
δυσχερ
αυτοανα
##τωμενη
λαμα
ομαλη
σατυ
##δρομια
μαρς
ιδρυοντας
ιδιοτητων
θαναση
ποδοσφαιρικες
αριστει
συμπεριφορες
κηλιδες
συνθετο
μπανγκλαντες
1811
τραυματισμου
μετακινηθει
διασωθηκαν
φυσιολογικη
σφαγες
##ronic
atl
διακυμαν
smith
ευτυχια
##φθορας
αδολφος
ob
σρι
##υχτα
##nes
##ол
ναπολι
πολλη
##ριανο
##ρειτο
καθοδο
πανελλα
μεριμ
μεγαρα
επεφ
κυβερνα
νημα
οργανωνει
γατες
μικροτερους
παρουσιασαν
ατομικες
ρουζ
εγκλωβ
ζαγο
αναγκαστικα
συγγραφικο
ειρηνικη
ρηγα
ακουει
εξασφαλιση
πτυχιου
επενδυσεων
βρυση
airlines
συσχετιση
γενοβα
ιδανικα
συγκαταθεση
καθορισμο
βοιωτια
καθισταται
μετακομισει
παραστασεων
εγχειριδιο
αποξηρα
λιστες
##ωδους
##ωμενους
ανθηση
διατιθεται
##θεος
##σοκο
λαικων
1630
φορουμ
παλαιστες
διοικητικων
χειρισμο
γραφικων
μεινουν
βυθο
χρυσες
τσαι
εφαρμοστει
επισκεπτων
σχηματιστει
απειχε
εννοιας
αναλυσεις
κερατα
εξοικει
1794
σλαβικη
atm
αναλογες
καταφερνουν
δυσλειτουργ
αποστασεων
κρατιδια
παραμυθια
παγκυπ
κοιλοτητα
γονιδιωμα
αξε
αβυ
ηθη
θρο
##ετος
##ττει
##πτι
##down
κακης
αποικοι
σελιν
μαστερ
δεχθηκαν
αντιγονου
χρηματικο
δημοπρα
##onom
##onia
γαλλικος
βουλια
παραγωγικη
ινδιων
μανη
μαθηματων
μειωσης
αποκλιση
συνταχθηκε
ανοιγοντας
βελος
επισκεφτει
χαμηλων
μετοχες
εννοειται
ριζων
εξασφαλιζει
αναζητα
κρισιμο
αντρει
ηλιακης
επαγγελματικες
αρεσει
κορινθιας
εκτεταμενα
ποικιλα
παρανομο
οικουμενικου
ταγματαρχη
roman
ογδοο
εκτενως
διεσχισε
ελεονωρα
dail
αραγ
##υμιο
καλιο
διαπερα
διατεθηκε
ενθερ
μεταθανα
βαλα
διελυσε
αγωνιζονταν
εξαπα
μονομαχια
κυκλοι
πλασματα
λοου
εκπαιδευτικων
τιμητικο
βερναρ
ερωτικο
ειδησεις
ρηγμα
κυτταρου
μουσουλμανικο
ηθικα
κομβων
ψηλοτερα
ετοιμη
επιδιωκει
κωμωδιες
διαφημισεις
λαυριου
προκατοχου
ρωσοτουρκ
ναρκωτικα
υφηγη
φορτηγα
μειοψη
az
hiv
ly
pra
sand
##γρι
##χλμ
##ιοταν
διαμοιρα
##κοτα
νοβο
##χανε
πολυμερ
##σσους
μαρσαλ
δαιμον
καλυπτοντας
ζησουν
φωτισμο
οκλαχο
αλεξει
βασικοι
μαχητικο
σειρων
##λερι
ρυγ
σκαλισ
βερεν
αποκαλουνταν
αρχαιολογος
δισκοι
διαιρεσης
τηλεφωνο
ιστοσελιδες
αυτοκτονιας
σελιμ
λουξεμβουργο
φοβουμενος
βεγγαλ
institute
republ
τσωρτσιλ
##σθαι
##κλει
##νιου
##πικα
##ταξαν
##ραλ
μεμ
μεσαν
στοματος
##κατε
αναξιο
αλλερ
υποκινη
χαραγ
##ιζας
μηκη
αρση
σασσαν
πολυτελη
ελληνιστικης
ξεκουρα
ατομικης
βιοπο
περιεχονται
αμεσης
σεπτεμβρη
κατασκευασμενα
προσωπικης
##δικευση
μοιραστηκε
φιλελλην
αφαιρεσε
προετοιμασιες
χρεους
περικλης
found
προνομιο
επικαλου
ετυμολογια
εδεσσα
σακχα
δευτεροβαθμια
##παναστα
τρισεκατομμυ
eth
##rie
##ρεμ
πουμε
διασκευες
##ργκα
εκχυ
##μπσον
##ποιιας
φυτευ
τριχωμα
15η
αναφερομενος
κοινοπρα
εμφανες
##βιδα
##υροι
θεοφαν
θεωρηση
λημνο
χριστιανικα
ζευγους
καθοτι
law
λορδο
συμπτωματων
βασιλεψε
ουδεποτε
ταξιδευουν
υποκειμενο
συμμαχικων
λανθασμενη
αδριανουπολη
ονταριο
wild
γρυ
λιντ
χλο
καρου
##ερος
απολαμβανε
παλιος
επιχορ
##μαντο
προσθηκες
λιθιο
λογικο
σαμιου
##χωρο
εργαστη
πρωτοχρον
μπαμπου
πραι
##βορι
##unc
ποσοτητας
κορυδαλ
##πολιτισ
θεωρητικο
πιανου
καθοριζουν
αλαμπα
συμπαθεια
##χοντων
αντιοχο
λορδου
προετοιμασιας
σπιλ
ακροαση
κοπαδια
καραιβικης
αντιρρησεις
αδελαιδα
pierre
μελαγχολ
bor
lang
ετ
κν
ντιου
##gs
##βιες
καστελ
εκχριστιαν
##μελα
##ριστο
##μητος
##σταουφεν
νοβι
ονομαζαν
πληθους
μικτη
καθεται
ναυτικα
φιλικες
δειπνο
##λινοι
προσελευση
##iger
πειρατων
απειλου
μαυρων
θρασυ
βεβαιως
μαγνητο
αποδεχτηκε
##συνθε
##ισμαρκ
μισθοφορους
αισθανεται
εισαγγελεα
διοργανωτρια
οκλαχομα
mv
##τρειο
##ied
##kin
##jo
##ταρια
στολες
σεβη
ενστικ
μαρινο
##χελ
##σακ
##λιτη
##στασιου
ελσιν
λιμπρε
πολυβολα
##elin
συνηθη
θεατρικων
συνηθες
ολοκληρωτικη
αναγκαιο
##ιανους
κλειδια
υπολογιστης
##aker
αγιαξ
εχθρικα
μητροπολιτικο
1791
προβλεπο
εμπνευσμενο
νικελ
περσικης
εικονογραφηση
πρωτοβουλιες
βγαινουν
φιλοσοφικης
brown
κορραδος
πληθυσμιακη
fut
old
ατελει
αμιγ
##ρδου
##ωμενης
##μιδος
τουα
##ορθοδο
αναργ
##μετρια
##ριστη
συμμορφ
σηκων
##oni
μερων
ισλανδιας
φακο
τροχιες
δημιουργιες
##κιμ
μεσαιου
##νειου
λυκος
αναγνωριζονται
##γγελης
ακαθα
ενταξης
επανερχεται
επιφανεις
νεκρη
θρησκευτικου
απελευθερωσε
κεφαλαιων
πεταει
διδακτορας
συνεισφερει
φορεων
εγκεφαλικο
σφοδρη
κυριλλικα
υποδιαι
καλαθοσφαιριστης
πρεσβευτης
τουλουζης
συνθηκολογηση
district
χοενσταουφεν
famil
εσυ
ξω
φριντ
##air
##φραγμα
##je
καβου
συκο
##λοπη
προκ
αναλη
αναδο
βαθη
##μπες
##μπιλ
χωρικων
ουελ
ζωρζ
τροχους
πλατα
σοκα
συλλαμβανεται
πανεπιστημιων
μαντιν
προηγειται
αλεξαντρ
εκπαιδευτικη
αραβο
σημειω
ιππων
##διδης
μεγεθυν
μαγικο
πειθει
καταγραφες
αχαια
##afta
ενσωματωθηκαν
ιθαγενων
ισοδυναμο
επιτιθενται
region
βενζινης
ισοτιμια
λασιθιου
λεξιλογιο
ουεστμινστερ
fle
sav
##ελε
αποψεων
εκδρο
##ρισματος
##τισμενη
λαμπα
επαθλο
γραπτες
ανεμοι
λουκια
##πτωσεων
##κωνα
παραδοξο
ναυτες
ελαιων
μειν
λιγοτερη
αποκρη
θυσιες
##ento
προσωπικος
##ople
##ante
##σχολου
ερημου
##χρωμη
φοινικες
ρυθμισεις
φευγουν
συρακουσες
νεστορος
βαρσοβια
καραιβικη
καμπαναριο
κατεδαφιστηκε
συνηθεστερα
εταφη
σαντιαγο
χαακον
νεογεννη
cel
lor
rain
καβ
##ναρι
##λετικο
πομεραν
##χαιρε
εργατικης
δεκαεπτα
##γκαρντ
state
ελευθερωθηκε
παραλληλες
σημειωσει
γκαρν
συνθεσει
πονου
διακοψει
εβδομαδας
νομισματο
κροατων
κατορθων
συμπληρωμα
δισεγ
περιπετειας
διαφυγουν
πυκνοτητας
καταναλωσης
αμφοτερα
wilhel
ξεσηκω
mess
ry
οσε
ρισ
ρολογ
##ελας
##gy
προκριν
##νησιας
πολυγων
##ρουνταν
##νουμε
σωκρατη
##σκιν
αναγνωστη
κορυφων
οροσημο
διαλυεται
οχυρωση
ερευνητικα
1802
προστατευεται
ανακηρυχθει
επιτευχθηκε
κουρσα
αθανασιο
ιονιο
εποπτευ
ναυπλιου
πληκτρα
στραβωνα
λεκανης
πεκινο
λουθηραν
εχθροπραξιες
friedrich
ελσινκι
6ης
get
som
terr
αριζ
οβ
##φικων
##χμαν
##ματες
αγανα
##τουρες
προστιθενται
τυμβ
##σσαου
σχολικο
γαμπρο
λοθα
ισπανος
πλουσιων
περιφερειακα
υποχρεωσε
πυκνα
μαγνητικη
ομορφα
αμβρακ
ζανζι
ναυαρχου
μακρας
τριγωνου
εκπροσωπηση
καταπνι
##ελυσαν
##ροσλαβ
πυθαγορ
διασπορας
απροσδοκη
επιπλοκες
ban
dire
mig
ντια
ομερ
##ονων
##ινδυνα
προκο
αυρη
##σινας
χωριζοταν
##λωματα
##ιτσων
##θονα
οργανωμενο
theatre
κλασμα
συνηθιζε
##χιρ
βερν
μισου
αποκλειστει
##ript
##ληφθουν
χορους
φαρμακ
τεχνητης
ορεινος
επιθυμουν
μετονομαζεται
μυθοι
διασωσης
πελαγους
αντιμετωπιζαν
υπερασπιστες
εθνικιστες
αδριατικης
σαιμον
νιουκα
ημερολογιου
συμφερον
ιδανικη
βικτωριας
##τεστησαν
φανερωνει
κολομβιας
πολυτεχνειου
προκηρυξη
προφορικη
francis
ebu
προυπαρχοντων
ox
uk
μνεια
##γιερ
##ji
##ρησε
ανατροφη
##ρουνα
##γαυ
αλλαζοντας
λιμεν
μπιο
##γελα
κρατηθηκε
οικον
τροτσκι
##λισεις
##ρευεται
νεαπολης
γκλα
εξεδιδε
##ζαρι
φραι
εικοσα
δεσμη
τελεσι
κεραμικα
βαρθολο
δασκαλα
ασκησης
πνευματικων
μπορεσουν
καταφερνοντας
εκπροσωπησει
διευθυντρια
εμβολιο
ρεθυμνο
ταπεινω
αριστουργημα
σιγισ
αλαμπαμα
more
ori
χρο
##ram
##λλος
##φικ
κασι
##τονο
πατωμα
##σιδων
##γκες
προσφορας
##τιανος
οπλισμος
στραφει
απεσυρε
διεφυγαν
κατεχο
κουρτ
χρησιμοποιηση
καταληγοντας
μεσημβ
αναδειχθηκαν
τσιγα
φανταστικο
εχθρων
συνειδητοποιει
ηπειρωτικης
greek
υφασματων
οπισθια
συμβαλλουν
οδυσσεια
εξορυξης
εξαλειψη
υποδειγμα
προκαταρκ
ενηλικιωση
παρευρισ
πολυπληθε
pt
##γμενοι
##ουλι
τηξης
εκβια
εκβαλλει
##ρισαν
επιφορ
##τισλαβ
ασκ
##ιωαν
συμφωνου
οικιες
κατεβηκε
αγγλικες
προελα
ευρωεκ
νεοπλα
##βεβλη
υπερω
υψωματα
κολιν
κεντρικων
διπλους
αντικρου
απειλει
εκπροσωπου
αρχαιολογικος
εθεσαν
5000
πυρηνικων
καθολικους
κομμουνιστικης
εξασφαλιζε
ερευνητικη
εκλειψη
βοιβον
διαφημιση
τεχνο
κοιμησεως
σχιστο
παπουτσια
οξφορδη
επιζωντες
αποχρωσεις
fu
οζ
##ket
##ria
##bath
##λινων
##vi
##κετο
##σεφ
αναν
αλω
##στηματος
##ποιουνταν
τριχες
δασω
κωδων
τηλεοπτικου
συμβολιζουν
διαβασε
διακοσμητικα
ιωνιας
υδραυ
διαφυγης
μειονοτητες
εμποδισε
πετοσφαι
λευκορωσιας
φοβοταν
λαμψη
ult
σκευη
ολοκαυτωμα
ανταρκτικη
πληρεξουσιος
dur
mun
οξεων
υβ
##of
##ψου
πατερες
γιακου
ενιωσε
##πεμ
αρματο
ουιλιαμς
μπριν
σαχα
σαμπο
ανεκτησε
##δρομιο
δημιουργικη
φωτισμου
συναψη
τραχη
πενσυλβανια
υπουργικου
χοφμαν
τετοιος
κομμουνισμου
αερολι
γκραμι
εναλλακτικες
ευθυνης
λεπτομερη
ψηφιακο
εορταζεται
χρηματιστηριο
αναγλυφα
περιηγητης
σιδνει
πριγκηπας
century
πακετα
αυστροουγγαριας
γαλαζιο
εμπλακει
lud
ιμ
##πτος
##ιστικος
αποδωσει
αποχαιρε
επιπο
επιβαλλει
αρχισουν
πεδρο
ενωθει
##χαρτ
##δερα
απεφυγε
##γουιν
συμφωνηθηκε
##ιοντο
κουτσο
##στειες
θεατη
περιεχεται
ins
παλαιολογο
ακαμπ
συναντι
ανακαλυπτουν
περιορισει
αρχαιολογοι
οντισ
##ction
ενημερωσε
αρενα
ζωντανων
κιλων
αντιπροεδρο
μαθαινουν
συντονισμο
αφρικανικη
θαλασσες
επιλεγουν
τορπιλ
μανιφε
προσδοκιες
τραβηξε
βεγγαλης
δραχμες
συναινεση
ρινοκερ
διατυπωσε
μασαχουσετης
ουζμπεκισταν
ελληνοιτα
οξι
##σφα
##λισε
##ταου
μεντ
##ery
οποιοσδηποτε
λογικα
κανελλο
τρομα
##ραντες
χαρακτηριζουν
ροζε
υπηρετες
αυγουστιν
συγκροτησε
##aga
διαδοχοι
σημερινες
ολλανδικο
##ograph
κυριαρχουσε
διασημα
κυνηγιου
συμβουλο
λογαριθ
online
μακρυα
καταστρεφοντας
πρεσβυτερου
επιβληθει
στουτ
επαρκως
σορβον
giov
λοχαγος
αυστροουγγαρια
συνεννοηση
ημαθιας
οστεο
dir
if
τοξου
##ισμενοι
αποπ
##μοσχε
πουλωντας
μεταβαλλεται
υποχωρησουν
παντσερ
τζονα
ανθρακου
νηο
##σκαγια
εμπορου
σχεδιαστες
##σκια
##κινητο
φυσικοι
εκτελεστικο
λιμνων
σχηματιστηκαν
##ipp
κιτρι
ανασκαφη
απομακρυνθει
καισαρειας
παρακμης
συγκεντρωνονται
απονεμεται
##sky
ξεπερνωντας
εντονης
προσελκυσε
χρησιμευε
πετρινα
γονατα
##διδασκα
ασχημη
bull
ht
sed
ηλεγ
κνη
μανε
τρωνε
μερας
##ργκο
βαζοντας
υποσταση
##τισουν
ενωμενη
δεσμος
χαμα
ποινες
πανιδα
##τινους
##σσιος
τροχο
##head
##ites
νησοι
##στειας
σουρ
θεαμα
διαλυσει
##ema
##rix
απαντησεις
πωληθηκε
μεντελ
γκογια
δηλωνε
ψηφιο
στατιστικης
mount
αναποσπα
μεσολαβηση
telev
λοιμωξη
επικυρωθηκε
φιγουρες
κατερριψε
cab
non
rub
ζελ
##ni
##λθε
##γμενης
##ин
##ικιου
##ρωθει
παρασ
##τιστικο
##φωνια
εμψυ
γενιτσα
δραστη
σωκρατης
##cho
αντιστοιχως
δημοσιως
κηδευτηκε
τιμητικη
προηγουμενους
ριζικα
επιφανειακη
γυμνασια
ζητηματος
ομιλει
σαρλοτ
head
λαμπρος
εμαθαν
ασταθεια
αποδεικνυουν
καθυστερησε
χειμερινη
μεταβατικη
επιθεωρητης
γκριζο
ποδηλατο
διερευνηση
κορωνης
αντιαεροπο
επανενωση
βεατρικη
δρουν
##τολο
νασιοναλ
αλσα
##μανου
στραφηκαν
##χανα
##ολογου
##ori
##διορ
μπανα
##ela
εμφανιζονταν
βραχια
αντιστρε
ισχυρου
θηβων
##ental
βουλγαρο
προσωπικων
ταχυτερα
διαδεχθει
πληρωσε
κεραιες
σποροι
προβλεψεις
προσδιοριζεται
χετ
λευκαδα
ασυνηθιστη
τζερσει
αναδεικνυεται
ξυπνα
απολογισμο
χιντι
τραγουδαει
science
κερυνειας
βικιπαιδ
γελοιο
μπουντεσ
υμη
##δριου
##πινα
κακ
##τιδος
##μαντη
##anna
##ince
αιματο
ιδρυματων
16η
λειζερ
ναυτικης
σχεδιασης
αριστερων
ανωτερων
συντακτικη
λευκοι
ανεξαρτητης
κυριοτητα
##φυλακα
επισημαινει
μεταφραστηκε
δασκαλοι
παπικη
τεταρτης
πελατη
συμβουλους
##anni
ηγεμονιας
δημοψηφισματος
τευχη
βγηκαν
γλασκω
αντιστροφα
##μπρουκ
θουκυδιδης
##ολυμπια
αστεροσκοπειου
swe
vh
ηλυ
##κινα
##χρα
καραν
καταπλη
##γκω
αρχιζε
##τουμενο
ευθειας
πορο
##χαρη
αιθερ
##τζινα
##συνο
ντελα
βιολογιας
φιλικης
γιουρι
σημειωμα
επαναστασεις
τρελα
πολωνικα
πορτογα
τηλεοπτικων
μελετηθει
αυτονομης
ζυγο
καμπελ
δορυφορο
ιερεων
αιγυπτιακο
ησυχα
τιγρη
μαχμουτ
αντιταχθηκε
οικοσυστημα
πουατιε
μεταρρυθμισεων
was
ζαλ
σβα
##φλα
κασα
αλιε
περιφρο
περιοριζονται
ποσου
αντιγονο
στρατοι
αστικων
τζιλ
τυρ
αξιωσεις
στοιχ
κυριακης
συνηθης
βαλντε
##ζομενοι
πολιτισμων
καταληφθει
υψομετρα
τουρκοκρατια
μεταφρασης
αρμενικα
διασημου
πτηνου
soul
επιδρομων
ουρανος
ανεβαινοντας
μεσσηνης
βομβαρδιστικα
δεσμευση
ροδοπης
παγιδα
τροπικο
προκατοχο
βασιλευς
μπλουμ
χριστουγεννια
μυτιληνης
λογοκρισια
νιωθει
τσια
##λταρ
##ωναν
##τολη
αποικους
στοχου
##ργιο
ενθρον
καταλονια
μεταμορφων
βαρα
αγνη
σηματων
πανθε
συνεχειες
εξαμηνο
##ρευουν
ραουλ
θανατον
σκηνων
επισημους
ατσαλ
μηχανικοι
παπαγου
ποιητικο
βουλγαρικες
γραμματειας
ταχυτατα
##δικως
ηχογραφ
καταναγκα
ψηφιση
βραβευθηκε
λεηλατησαν
ηγεμονων
team
week
1689
αμφοτεροι
επιβεβαιωνει
λαμπροτητα
φιναλε
εαυτους
επεμβασεις
loc
mi
sen
εμεναν
##ez
##ξελι
αντη
ανασταση
##στηρας
θεσμους
δυσπισ
διεν
διχτυ
##τειλ
εγγραφηκε
λας
ανεση
πλατια
ραψω
βραχους
αναπτυσσουν
οικονομου
παροτρυ
υψωνεται
##uma
βερβερ
γιβρα
τετοιας
οικονομικος
λαντ
σπορτι
εντοπιστηκε
δραματικης
δραματουργ
συνηθισμενα
guard
σπουδαιοτερα
##uke
σαμουηλ
commun
σαουδικη
εξοντωση
γουιμπ
συρακουσων
περγαμου
ολοκαυτωματος
μιθριδατη
ετρουσκ
ανταμοιβη
μεσανυχτα
hon
pos
pay
αβιβ
ολισ
##ιφερ
καδ
αποτρα
αντρια
διαδιδ
εκτρε
##ρισμενο
νεογ
καθρεφ
##κρατικη
##τινγκεν
κρατουσαν
δημιουργοι
##κιρ
σημαντικου
κινητα
επικινδυνα
τεχνολογικο
σουτ
##φιδα
ελεγχε
##σκοκ
χανουν
ριχνει
διαλυματος
βινσεντ
αυξανουν
φανταστικη
σικυ
συνοδευτηκε
πλειοψηφιας
αβγα
χρηματοοικονο
γεωμετριας
προγραμματισμενη
πτωσης
τρανσυλβανια
προημιτελ
γκλοστερ
βατικανου
γενοκτονια
αλλεπαλλη
αδειας
βωμο
γευμα
εβαλαν
##uter
εκκρε
τιφ
τινα
σταιν
##γραφικου
##φαγα
λιθωδης
λεφτα
μεγαλειο
##μιαν
κενεθ
προεξε
δοσεις
φορτηγο
εκαψαν
αναπτυξουν
θηρε
##μπερια
256
##ides
κανονισμο
αποδοχης
αστυνομικη
δακτυλιους
τοποθετημενα
πεταξει
1783
εχθροτητα
θηραματα
προσκαλεσε
αριστοτελειου
μιτοχον
αμιγως
γιβραλταρ
bafta
dou
mass
vill
λιστας
##εμ
##φονο
##τιμα
##μοτο
βασα
υποθαλα
πανελ
σχετικως
σαρων
αιμιλ
##φυλλα
##μιδια
τριλογια
##τζας
ροουζ
εμφανη
##πιδο
κατηγορη
οδησσο
χειλη
μειωνοντας
επισημης
αναγνωριζοντας
παλαιολιθ
καθαρ
αγνωστου
προσεγγισε
πεμπτος
##χρωμο
design
λιντς
ξερουμε
ακολουθιας
μεταβλητων
καμαρα
ξιφος
ill
surv
σπυριδωνα
digital
καταφθαν
wilhelm
##ιηλ
##πτικων
##dy
τοσα
ταραντα
##ργα
##μητες
##τερας
αρνου
##λιανα
κορδο
νεαρους
ομοφωνα
τοπιου
ναυσταθ
##βουλο
δειγματος
μηχανισμου
##ινγκτον
φιλοσοφους
ορατος
νορβηγικη
διηγειται
δηλωνουν
φυλακισε
θαλασσιες
παρθενικη
προσδιοριστει
ενθουσι
χειμερινους
συνυπαρχ
εδεσσας
καππαδοκια
πυγμαχιας
στιχουργ
πολυπλοκοτητα
κρυσταλλων
χαλανδρι
##ρθρωση
daily
east
γουλ
διος
τσεν
##gi
##cp
##ριγγ
ανν
περη
εντερο
μαθουν
καταστησει
κοπερ
παραβα
βαρκ
υποτιμη
##μπικ
##ολογιες
μπατιστα
αγγλικαν
##rey
τοπικοι
##στινο
μηχανικα
υπουργοι
κληρο
γκαλερι
##σενκο
αραβιας
νομισματος
μετωπα
σλαβων
##κινουνται
ανταγωνιστες
αριστοκρατικη
ασβεστιο
φιλοσοφικες
καμερουν
ψεκα
thriller
κατηγγειλε
metallica
say
##cy
##sb
##λακα
διαφυλα
##λογικος
ενωσε
μποτσα
βασιζονταν
γνωσεων
##λαμβανονται
συλληψης
συλλογικη
βαθρο
##lemania
ιωαννας
ελευθεριες
χανι
δραστηριοποιουνται
union
τοιχωματα
##ift
απεριο
κοσμικο
αιθουσας
καταστρεφει
λεηλασια
μετατρεπει
δουλευουν
συμβαλει
ανδεγαυ
5ης
russ
αλογων
ξορ
##bol
##ψουμε
##ουπ
##ισθει
##ισκος
στοες
καταμετρη
##νοη
σταλει
αγχος
χαμφ
##γομενος
λαιδη
απλους
##σωματα
##σσον
επεμενε
δεκαοκ
φορτω
μικροτερου
επιτυχιων
τοπολογια
συζευ
stan
πλοηγη
αγαμε
σερβικου
καθοριζονται
γειτονιες
αποτυχει
εξασφαλισουν
βικτωρ
μονιμοι
κελια
ολιβιε
att
παρακτιες
εθνικισμου
πολιορκησαν
ανησυχη
οχηματος
βελτιωσε
επιμεληθηκε
παθησεις
ποινικο
παραποταμος
##earch
ημερησια
υπογραφοντας
μπωφορ
συννεφα
εδιμβουργου
αργολιδας
##ιωαννου
lie
##υρες
##μιζονται
καγια
##τερνταμ
##ευς
##μπω
νοθος
αγγλικων
καρβοξυ
κλαους
λυγ
διαφορας
κολλα
γνωστοτερο
αξιολογες
ανεξαρτητοι
εξαιρετικης
αποκλειστικη
δημοσιογραφους
προτασης
γεωμετρικη
ναυαρχο
υποσχεθει
ern
δηλητηριο
υποβρυχιων
υπηκοους
θεοδοσιου
λεοπολδος
jacob
διακυμανσεις
mos
##σλ
##ωτικες
##τετο
επληξε
διατετα
##σιτς
αναλαμβανε
205
υποβληθηκε
πεδιων
μεγιστα
λιποτα
επομενων
αργει
τζερι
παλαι
συναντ
ισχυριζοταν
ορισμενο
αναγνωριζουν
προκαλουνται
albert
επιπλα
##πλοιας
##ally
κεραμε
προτεινουν
κεφαλονια
ιδιωτικων
γεωγραφικης
αντωνια
θεμελιο
στυλια
μαγνησιας
θαυμασμο
αληθινο
εμποδιζει
εναρμον
δικηγορου
σαμαρα
οκταβιανος
homo
θαυματα
οουεν
ατεκνος
μοζαμβ
civ
ησιο
κτηση
οφη
φρεα
##σικου
##θονο
##ερυ
##ots
συσκεψη
##ρωσεις
διαβαση
μαμα
δυτικους
περιμενουν
app
ανεξε
μπαγερ
##γκορι
##μισμο
κερι
εφικτη
μικροε
ελαια
ρουσ
ψυχες
χανεται
επαναστατικης
παρατηρητηριο
##ious
αναλυτικη
αναζητησε
##βελαντ
οσμαν
σχετιζονταν
σλαβοι
νομοθεσιας
δορυφορου
προκληθει
αταλαν
φωτεινη
εκδιωχθηκαν
ηγουμεν
συντελεστη
μεταβασης
διευκολυνει
ναρθηκα
two
κεραυνο
τζαμαικα
μαυσωλειο
ριχτερ
αριζονα
μπουντεσλιγκα
cult
lil
pass
sem
test
##φερα
##wor
κακος
διατυπων
οιδι
δημ
##μπιτ
##μπιε
προσδε
μπογκ
απισ
μουρα
συμφωνησει
πρωτοτυπη
δαιμο
νεοσσοι
βιβλου
ισχυρης
νικηφορα
##φιλα
ταξι
θυμαται
αφηνε
αστρων
διαδοχους
συναντησαν
πρωτευοντα
επανοδο
ικανοποιηση
αισθητικης
κληρονομο
τοιχωμα
ελαχιστοι
οσφ
συνοδευε
γεωμετρικα
αμυντικο
δογης
χτυπηματα
##ather
εργαζομενος
καλεσαν
βουργουνδια
αυθεντικη
αυθεντικο
λαυρεν
τελετουργικα
εκκεντρο
##τεκτιβ
υστερης
αρκουδα
εκπροσωπειται
νοημοσυνης
καταρρακτες
αχρωμο
γαβριηλ
βερσαλλιων
προνυμφες
side
##δισμο
##μνια
καινης
απορρη
εκκινησης
αλικα
##δακα
παραγουα
υποφερει
επαθε
##000
μυων
συλληψεις
ροες
καλυμμα
επαναλαμβανεται
ισχυρισμο
κομπο
θερμες
κωδικες
αγωνιστων
##στερων
διαταξης
ανεξαρτητοποιη
σκαλες
εγκαυ
unix
υπολογιστει
χιρο
στερια
κλασικου
κατοικουνταν
γιουγκοσλαβικη
προσθετα
ιρλανδικη
μαγνητικου
χωρισει
κιτρινη
βανδαλ
στηριξης
μοριακη
1787
λεηλατηθηκε
κλιντον
διαιτα
ερχονταν
πλεονα
αμφοτερες
research
διαμορφωνεται
αμφιλεγομενη
##φθαρ
wrestlemania
ραφαηλ
υγιεινης
νορθαμπερλαντ
equ
ft
om
βλαντ
##ιφ
##πιος
##ζευ
##τοβ
##ιστερ
##τετ
ταμπα
##ρωμενο
##τερν
τιμιου
επιλη
πρωινο
##γαλα
##φωνους
μπρισ
ανεμων
περιστρο
πρακτικων
ντετεκτιβ
μειωθηκαν
συγκεκριμενους
##σπαρ
κατασκευασμενη
χοσ
βεγγα
##ries
φιλιππινες
μιλωντας
ιδιωτες
μελλοντικα
ενημερωνει
διεκδικησαν
χιτσκοκ
γρηγορης
καρκινος
χριστοδου
αντικαθιστα
εξαρτηματα
πλατφορμες
κρατιδιου
σλοβακιας
κυκλαδες
αρχοντικο
διοικειται
μεγαλοπρεπη
παραθαλασσια
ναυπακτου
santa
holly
fantasy
##δακτυ
ευρωεκλογες
ολος
σκρα
υλες
##ουμενο
##τιρ
##λεσαν
τακης
αναστο
##κοβα
στασης
##μουλ
μηνι
λιτρα
λιγων
λογιους
δοχειο
απασχολου
1460
κατασκευων
κατηγορει
συνεχιζαν
περασματα
κατασκευαστης
οροφους
εκτελεστικης
συνθετικο
αμυνο
απεικονισης
βλαδι
εκφραζουν
βλεμμα
αυστριακης
επιτυχημενος
1796
340
συμβουλου
disc
franca
ταξινομη
1774
ταξιαρχιας
people
αινω
τεχνα
indust
νεοσυστατο
καταγραφηκαν
##μβεργη
μπρουνο
λεωφορειων
ghost
ανεφοδιασμου
βοημουνδος
φελιξ
δσε
##ki
##ζινη
##τοπουλο
μεθανα
##ρχικα
##ιωνουν
ευελι
ενωσει
διοξειδιου
##ιτσο
σοφισ
μοναδικες
ηγετικη
##τσενε
##aya
συμμαχιες
τιμησε
θερμοδυνα
εκτελεστει
συγκεντρωσαν
ντοπιων
προπονητες
εικονιζεται
σφαιρο
χουρ
εκρηξης
πυραμιδας
επενδυτες
μηνυματων
μηδενικη
αποφευγοντας
λειψιας
εμπειρογνω
χολυγουντ
υφηγητης
call
αικ
γιον
δικων
##δινο
##πτικος
αποξεν
προβολες
διατρι
εκδικα
ματιων
τιθεται
επιτηρη
##ριανης
κυνο
##πεξεργα
##γκουα
αυτοε
διθυρα
##iness
φαουλ
πραγματικου
ροπα
ανθρωπιν
οργανικα
μοργκαν
λυκειου
μετεξελι
μεταλλεια
σοβιετικα
ομιλιας
arg
ζευγαριου
ανοιχτου
εξυπηρετηση
παροντες
συνεδριασεις
οροσειρες
μεσογειακο
μπλοκα
ξεκαθαρα
επαναληπτικο
ιουστινιανος
ppm
remix
οξειδωσης
σαντζακι
social
μαδαγασκαρη
βεστφαλ
380
αλο
γλεν
ηλεια
μικα
φερα
χεντ
##λαλ
##ινιον
τανα
καταγονται
##γκυ
##θειο
αστε
ασπρα
αιγια
κρατηση
ραμι
βρασμου
ομοτι
ανδριαν
στοιβα
βυρωνα
##μορτ
αρχαιοτερα
σπουδαζει
##ισθηση
##ιζελο
αστυνομικοι
μελβουρ
ειδικοτητα
μυθικο
##affe
διαταραχων
καταστρεψουν
εκκενωση
πετρινο
στοχευει
καλαμαριας
water
ασι
γουλφ
##ιγκ
##τεπ
προλη
αυγης
κοεν
αγριας
διχο
οποιασδηποτε
##ριζομενη
αιθεν
απετελεσε
σημαντικης
οργανικων
δουκατα
επανακτη
##βανια
τουρκικος
ποδοσφαιρικα
ανταμει
σχεδιασμενη
steph
ρουβ
φοβερ
διαταχθηκε
προγραμματισμο
ολντ
##τσεφ
αρμενικης
ανατολια
εχθρικη
χρησιμοποιειτο
καταγραφουν
κροατικη
εξυπηρετουσε
paramo
αγνοια
μαθαινοντας
πλησιασε
αφροαμερικαν
αφρικανικης
καθορισει
μπριγκελ
δηλητηριαση
γρενα
πλατινεν
party
φρονη
αναπαραγονται
δαρδαν
μπαρμπαρα
##δημοσι
ανεξελεγκ
earth
jose
δνει
πγ
ρινγκ
##rad
##φριντ
##κετα
##ουντες
αναλ
αλκη
ενατη
μετακινουνται
δεκτο
μηλο
λεπτες
εξαπολυ
##κουρ
κορν
μυες
επανασχεδια
ζητουν
οδηγια
συναψει
αερομετα
μανχα
##roid
φοβα
στρατολογ
αξιολογα
συνθετει
περιβαλλουν
αποκλειεται
σκεφτηκε
απελευθερωσει
στρατηγικες
χτισει
κροκο
εβδομαδων
ψυχρα
πλοιαρχος
never
κατευθυνεται
prot
##θεραπειας
σπηλαιου
franch
αναλογως
ποικιλουν
χριστοφορος
αντιβασιλιας
διαδηλωση
τυραννος
ενδεχομενη
σαμοα
δαμασκο
θριαμβο
κυβικα
σφαλματα
κβαντικη
αποβιβαστηκε
συλλεξει
κορυφωθηκε
νετρονιων
αδιεξοδο
cra
tl
πτησεων
καβαλ
##ργιου
θεικη
ευγνω
χααρ
##μερεις
μηπως
λαδισ
γυριζει
μπαινουν
παρεχονται
εμφανισεων
##τελεσαν
παροτ
μαντη
συνδεονταν
##γερμαν
αγωνιστης
κλειστα
συγκεντρωθει
επικρατουσα
φιλοσοφο
##rian
χιμ
επεισοδιου
διπλωματικο
##βουνι
##azz
franco
fly
δογματα
εξοριας
χτυπησει
σεξουαλικα
απασχολη
λεωνιδας
βομβαρδισμους
δισεκατομμυριων
ραλλη
προοπτικες
βαμβακι
ξαδελφος
στοκχολμης
τραπεζουντα
κυπαρισσιας
χριστιανοδημοκρα
σαμιουελ
burn
sic
αισχυ
##θιες
##ei
##car
##μελους
ενατο
επιδιορ
αγκ
επισκια
λιχτεν
##λανη
εισβαλει
ερθουν
συμπεριληφθει
ολυμπο
ξαναπαν
πιστευοταν
χαρτια
αναπαυ
μαριαν
μαζικα
κινεζικο
κινεζικης
δοκιμασια
##σιστας
κολεγια
αντιληψης
αποφευγει
τακτικης
ανορθω
ενδυματα
ψυχανα
γωνιας
επακολουθη
φαρμακευτικη
θλιψη
ανακατελαβε
oly
κουαρ
φρικ
##σμπερι
##hard
##ss
##ξιωμα
αποθαρρυ
επαλ
##σεο
καταβολη
κοκο
κοστι
νομικων
χρηματος
ουστα
ανετα
οικοπεδο
οργανωσαν
μαντο
##ules
φυλακας
δημιουργηθουν
επικρατησαν
καραβι
δολοφονο
sho
γενετικης
διασημους
σλαβο
αρετες
αφαιρεθηκαν
εντοπισε
corn
λεηλασιες
ανακαταληψη
μακαριος
συνταγματαρχων
moon
προξενος
μογγολων
ιντσες
συμπλοκη
αμμωνια
σκοπιμο
ανοσοποιη
προβηγκια
κοινοπολιτεια
περιθαλψη
paramount
cer
kα
ιωνια
φλου
ωρω
##ρθρω
##ετιας
αποχ
κυρου
περιβλη
##μουθ
δεξιας
##ange
ουμαν
μπαινοντας
γαλην
τεχνικος
ιατρικα
χολα
γκαλα
αποστολο
ξενος
συμβασης
φωτογραφη
αερος
συνοδευει
form
χειμωνας
ελληνορωμα
νομιμα
ανωτατης
διαφωνησε
ερασιτεχνικα
ποικιλλουν
αρρωστος
απερριψαν
λατρευοταν
σπονδυλω
γουελς
πλινιος
εμπλεκεται
επικειμενη
επιδαυρου
pm
εχε
εστιες
##ρδο
##οτι
##δωμα
##ερων
ειδυ
σταρκ
##γκιου
##γραφονται
##φερη
χασμα
λαγου
##δεμβουργου
υπαξιωμα
##ναντα
κουλου
ινδικου
ινδιες
σωζει
αναγνωριζε
θηλεων
αποκεντρω
αμετρη
τροποποιηθηκε
γκαλ
χημειο
φοιτηση
ενισχυει
ηχογραφησει
ισραηλι
##aft
αποδεχεται
ατμοσφαιρικη
γουατσον
συμπληρωσει
smart
λεωνιδα
γκρεμισ
σταλινγκραντ
ακυρωσε
σκλαβους
christian
φιλαδελφειας
ειχαμε
sabbath
αγγλοσαξον
επικυριαρχια
αντιδιαστολη
τρισεκατομμυρια
bf
lady
μποι
μις
##σονται
##ges
##γρου
##ειρο
##την
##τιδης
##ιντε
##λοβ
##ρεων
γιατρου
εκκ
τετρ
λαικος
δεκατου
δραματος
βοηθου
αλεξη
λυκοι
##χιμ
##μπερκ
ατλετικο
αφησουν
##τσαλ
υπολογιζονται
δημιουργημα
ελλησπον
γαλακτος
συνδυαζοντας
αραβικων
##aki
flor
διαχωρισμου
θεολογος
αξιολογησης
magaz
προσδιορισμος
θεσμοθε
προκατοχος
κοριτσιων
βαβυλωνας
καρχηδονα
περιπλοκη
ριτσμοντ
σαραγεβο
συνειδητοποιησε
προσκολλη
ferrari
μαιαμι
cant
οδικη
οριζουν
##υρε
πατρικο
##μοσυνη
εντερου
κατακερ
δηθεν
##τιστης
##φωνας
##λωσε
ισπ
κρακο
##θανε
προεξο
αναφερθηκαν
κινηθηκαν
ραπερ
συνακολου
παπαφλε
ξαναγυ
αξιοποιηση
##ρεντερ
πρωταγωνιστησει
λογοτεχνων
απαιτουσαν
ολλανδος
κοκκινες
γενετειρας
sex
κινεζοι
πελασ
αμβρο
##aceae
βελτιωμενη
κομβοι
again
διορισμος
χειρουργικης
θωρακα
πολεμωντας
econom
εφηβεια
χιονιου
action
εμπορευματων
θεωρουταν
δουβλινο
ευρασια
led
nac
αζα
αλας
##αρτ
##ness
##gu
##bes
##ητων
##τητο
##ρατα
αποχετευ
##τεικερ
προπτυχια
εξτρα
##κλησια
##τραν
##ιωτων
δυνατες
χαρακτικα
επεβλε
πλατειες
##itan
σχολικη
νεαπολεως
##ζοφ
νταμ
ελεγχομενη
##ημερο
απολυση
εκτελουσε
συμβολων
σοσιαλιστες
απασχολησης
στειλουν
##ιζομενο
εξοριστος
τελετουργικο
κατεληγε
basket
παραθαλασσιο
υψιπεδα
μαρουσι
ταιλανδη
ζυριχη
διαλειμμα
νομοσχεδιο
ok
vl
vel
##her
εξαν
διγλω
ευμενη
λιτο
λογιο
πολυκομμα
δυνατος
πητερ
##ρανση
##μονιου
μπαλας
υπαρχη
βιργ
ερμιο
αυτοκρατειρας
κιπ
ινδικης
ορθια
δωδων
αριστερου
συμπεριλαβει
τζαμια
ντονα
ταχυτο
κλιμακες
κρατηρες
σταματη
ενετικη
βιαιες
πυραυλο
αρκαδια
κινουμενα
αουσ
βαπτιστηκε
ενεργητικο
αντερτεικερ
εξοντωσης
διαιτητη
καραμανλης
επιτραπεζ
διεισδυση
ετρεξε
γιαννιτσων
μοτοσικ
αναπνοη
χορτοφα
cia
εκε
μινε
οραγ
##ομαστε
##19
##τηριω
επλευ
αυλες
μαλικ
##ριστικη
παρακλα
περιτε
##στατη
πεπει
μερκου
χαρακτηριζε
κυβερνητικων
εξεχουσα
ρουμπιν
εδαφικη
ελευθεριος
ολυμπιακης
εφαρμοσει
##anda
πνευμονα
ηπειρος
κληρονομησει
σουηδικα
σιδηροδρομος
εχθρικο
πτερωμα
μελλοντικες
αυτονομες
επεκτασεις
ραδιοφωνικη
αψιμα
βαθμολογικης
κορινθ
1788
προγραμματιστες
πολιορκηθηκε
ογκους
παρθενου
σμηνους
προσελκυει
προσελκυσει
διακηρυξε
αναμενομενο
συνιστουν
ενσωματωνει
ξαδελφο
τηρηση
μιτσελ
ψηφιδωτα
φερναντο
ονοματολογια
standard
##προπανιο
μισιγκαν
υποσυνολο
επιχορηγη
ξαναπαντρευ
jim
wash
αλογου
οισ
##so
##ταιν
καθει
##ισιο
αποσχ
παθηση
##ουνι
εκφοβ
##μεας
χαμενο
παντων
συνεκ
ασχημα
οικους
πλαστηρα
δουλοι
##ξειδω
εταιριων
μακκα
οδηγηθηκαν
δευτεροτοκος
##στερους
φυλασσονται
διευθυνσεις
βιομηχανικων
μαγδα
γλυκια
γλυπτων
προσπαθειων
κρατηρας
τεχνητο
αεροπορικης
φωνητικη
##ika
νωπο
προσφατο
διακριτες
τζοαν
δευτερον
hein
μωσα
proc
παρηγορ
νανοι
γνωρισμα
ορθοδοξους
ισοβαθμια
βερονα
αναιρε
εγκαθισταται
ρουντολφ
σονατα
τηλεπικοινωνιων
μεταχειριση
δαλματιας
ποντικια
κυθηρα
ενετοκρατιας
εξπρεσιον
παρενοχ
οντισιον
sr
αλογον
ελιες
εβανς
##τκα
##μνος
##ξω
##ικευση
##πορ
##μαδα
##μαχου
##ισματος
##ναιου
εντυπο
##λογιου
χαρισμα
σχετικοτητας
λεβα
λεστερ
##ξεα
σαρι
φιδια
δημιουργο
1780
11ης
ζηλο
ορισμενη
βασκ
##κινητα
μνημει
ερωτικες
ανοχη
πνευμονες
διατηρητεο
χαρτα
##ape
προοδου
καταρρε
ξενοδοχειου
εκδιωχθηκε
skoda
imp
καποδιστριακου
τρανσυλβανιας
πετρωματων
διερευνη
περιθωρια
λοιμωξεις
κατορθωματα
μολυβδου
ανακληθηκε
κρυβεται
εναπομειναντες
κοστισε
παλαιμαχος
ιχνος
βαρθολομα
τζοναθαν
ερμιονη
ιστων
οστο
##θρακ
##bre
##ζυμα
μετς
##σιδα
μεταμοσχε
κολαση
##σοδε
βαγγελης
υποδη
δημοσιος
ονομασθηκε
##aru
πλασματος
ραπ
##γγυλο
##προσα
γεωπον
συνεχιστει
ορλαν
βιολογικη
μετεχουν
γηγενεις
##ird
πολιτισμικη
πειραματικο
εφαρμοζονται
ασχολια
εικοστου
γαλατα
ξυλα
αντιμετωπισης
πιασει
αρχιτεκτονων
χτισμενος
στενους
ηλεκτρονιο
ιδιωτικου
bob
σιδηροδρομο
κυνηγε
καταλληλων
σοσιαλισμου
σταθερος
παρακαμ
αισιοδο
ζαχαρης
πυριτιο
hotel
επωφελ
αναμφι
δαφνης
ανευρισ
πνευμονια
λεκανο
μαυριταν
ναταλια
ενταφιαστηκε
σεραφει
σεμιναρια
βελανιδ
tot
εχανε
οζον
σνα
ωδειου
##vis
αποσα
πατερ
περε
σταχ
χαγη
χρησιμα
λαβα
##ely
αναγονται
δουμα
##μπακ
παραγωγου
ποδοσφαιρικου
εντολης
βιβλιοπω
λευκης
χεριου
τσακ
κανονιο
εφηβος
ζωγραφιζει
ντορ
πληρωματα
αισθητα
##πυρη
προοριζεται
##κοντι
εντυπωσεις
ενσωματωσε
ασφαλτο
ιωνες
δηλητηριω
δικηγορο
δεκαπεντα
αντοχης
χιονοδρο
ιεροσολυμα
ημιζω
καρλομαγνου
δομινικαν
μοντγκο
εβρισκε
ανταποκρινεται
οπωσδηποτε
αερολιμενα
αινι
προμαχων
διαπερ
αναθεση
αλον
χωρικους
αρβαν
μπυ
φαρος
μπαρκ
επετραπη
τριχο
νεαπολη
##ason
υπερρεαλ
κωμικο
μελετωντας
μετεχει
δημοσιους
σεισμους
τιμησει
γλυκου
μιλτια
παρακολουθησης
τζοβαννι
εισηγαγαν
φυσιολογικο
διακοσμημενο
σενταν
δικτατορα
τρωει
καπελο
αγωγ
επιμελητης
ιβηρικης
ιντσων
natura
##φθοριου
λιπαρα
θαμνους
παγκρεα
παραμετρους
οντοτητες
εισερχονται
δωδεκανησα
φρανκφουρτη
αγροκτημα
παντελεημονα
ακτογραμμη
##χαουζεν
επιασε
παρενεργειες
συκοφαν
αουσβιτς
kill
wa
##λλης
τουρινγκ
στηριζονται
επσα
πασης
παλλη
αυξ
κοκα
συνεχες
ουγο
διεπα
##ali
σκοπου
μικροτεροι
κουβαν
μιλιων
αθηναικου
ισπανικες
κληρικος
εκπαιδευτικου
##iva
πλουτος
διαλυτη
ενδιαφερεται
lee
κεραμικη
χρονολογικα
ψαρο
ορασης
τουριστικα
##χονησι
εναλλαγη
εορτης
σλαβους
ευθυνες
διαιρεθηκε
ελαφρια
εξαπελυσε
εικονογραφ
πλησιαζε
ταξιδευε
ενθαρρυνει
σκοραροντας
πευκα
##βουλγα
διεκδικουσε
ενιωθε
museum
##πτερυ
σινεμα
σπορτιγκ
olymp
##μωσε
##off
##bn
##λινει
##τομο
##εριου
επιν
περση
##κομο
##τισον
χρησμο
μπισμαρκ
##πειων
αδειες
εμφανως
μορφο
σημαιν
γυναικο
βρετανη
ρεμπραντ
θυελ
αξιοπρε
φυλαξη
μεταλλικη
ειρηνικα
ντομενικο
κρητικης
περιορισμος
ηττηθει
spr
νερωνα
αμπχα
ψηφοφοροι
επαγγελματικου
αρχιεπισκοπης
##rys
πυροβολων
προμηθεια
πρωτεινης
φραγκοι
εικασια
κομνηνο
σιγουρο
σωτηριας
point
τομσον
αρταξερ
αλβερτου
παναχαικη
τρικουπη
κονσολα
460
rog
βολη
ετζ
σθεν
τσινγκ
φιτζ
##κωσε
##ηχο
##γικων
##ραγη
αναπλα
καταστρωμα
##σειγ
κοτοπου
παραμελη
υποομα
ευστο
αρσινο
στραους
λιθους
βοεβο
διεμεναν
##χωρουσαν
μονοξειδιο
τυχο
μεσαιας
αξιου
ραγκα
απαγωγη
κατηγορηθει
πρακτικο
γουει
ναυτικος
γραφειων
θερμου
κερδιζε
εγκειται
θερμοκη
αξιωματος
αποκλεισμου
πεινας
αιγυπτιους
ανατολι
εφεση
σιδηροδρομικης
αμπρα
προσοχης
κυνηγουν
##γκαντα
μαθηματικους
ναυαγιο
αθανασια
ετεροκυκ
αλληλεπιδρασης
τρομοκρατιας
ltd
δαχτυλα
απεσταλμενους
κρινεται
ουδετεροτητα
πορφυρο
εμπλεκο
μαγαζι
σοφοκλη
δεσποτατο
βαλντεμαρ
xbox
##δουλ
##φλι
##ves
##τακ
αποπερα
παχους
νασσαου
διαψευ
εκτυ
##ρηδες
##μπανο
ελιο
##τιστη
ονομαζουν
ουσι
αιγο
##γουμε
μαρσειγ
ακολουθες
ιταλου
##ζαι
φορος
χερσελ
##iden
φυλακων
πλουσιους
ιαπωνικης
μοιρων
δισκογραφια
ζητησουν
νουκλε
αφιερωμα
αυστριακος
αντ1
συγγενων
παπικο
προσθετο
σκυλι
πυρρος
κολοραντο
##ρταζ
##phone
τραπεζων
1785
αξιοσημειωτες
αιγυπτιακης
ντραμς
εθελοντικα
##ska
οδηγουσαν
κοζανη
αδαμαν
παγετωνων
αριελ
μονοπωλιο
ελονοσια
ελικοπτερο
magazine
bet
his
αχε
αχυ
γιν
οψεις
τικ
##ιεν
##oυ
##hm
##ет
##λατο
αναβαθ
##στεντ
##στασια
προσχημα
πανος
οπλου
οπτικων
λιμπερ
λογιοι
##μονιο
τριετια
παλατινα
σιτηρα
προβληματισ
25η
ηλεκτρικων
παρατηρησεων
αποκατεστησε
γυμναστικη
αναγνωρισμενη
διακριθηκαν
συμπαικ
europ
στρογγυλο
τοποθετημενο
σεξουαλικης
μπειζ
συντελεστης
πελλας
νυχτερινο
κατεστησαν
επιτραπηκε
αυτοκτονησει
ενδυμασια
κοπεγχαγης
εσφαλμενα
γεναρχης
καταλαβαινει
dest
nu
αθα
αιαν
αβελ
φουα
##κτικους
##net
τολε
πουκα
##μεντα
αναβαση
κοφ
περιη
χρονικες
σαγκα
φαιναλ
##λιστικες
##γειρε
σοπεν
καλεν
ερμα
σανου
##μπουε
κατηγορησαν
##acy
συνορευε
ηλικιες
##cht
περιεγραφε
##σπασαν
συγκροτησαν
παραδεισο
οδηγηση
αντιθετες
περιγραφοντας
περιορισμοι
αστυνομικος
spe
διακριτικα
βαλκανικη
κυπριακου
μαλακα
γραφημα
αουγκου
ταχυδρομειο
οπλαρχηγος
ορθογωνια
κατασχεση
βενεζουελα
##ground
ιωακει
hold
τοση
##τιδη
νασ
διαβιβα
ενζυμα
##κονα
θεσμων
##λογιες
ακυρωση
λιπαν
λιβον
##iner
γνωμης
##ρκιν
συμφωνικη
φιρ
##γονιας
γαιες
##olution
##σουλα
στελιος
συλλογικο
βοημια
σουλι
κολωνια
ηγετικο
μετεωρι
ζαπ
κλιτος
244
κρηνη
αντιθετος
δολοφονηθηκαν
παρατηρητης
καθαρευ
marie
αιγυπτιων
##φευγουν
ευγενιος
spin
αεριω
βενιζελο
ηρακλεια
σκυλος
παραλιακη
ευαγγελος
επιβεβαιωθει
συχνοτητων
παρκερ
φωτεινοτητα
εκδιωξη
μπλουα
motors
ελαττω
νεοελληνικη
ξεφυγουν
silent
διαδικτυακη
αμπελοκη
δικαστηριων
φρανκφουρτης
κονσταντιν
εφερνε
εγκωμια
βυρτεμβεργης
ρουζβελτ
lord
mit
αορισ
οχρι
ριτσι
##νιων
##lam
##λιον
##χικης
##он
##ιακος
##οντουσαν
στομιο
##μεσα
παραπερα
απενεργο
μουχα
μπασιστας
ολομε
ροτα
βραχου
βραχονησι
##eto
κουβας
αεροσα
παραδοθουν
τουρκμεν
κατασκευαστη
χερμπερτ
εντασσονται
##ρντου
επισκεψης
μεταφερθουν
##φιλου
εθετε
δικαιολογια
μεταφραστης
βολντε
νουβελα
αγνωστα
bea
εορτες
ισαα
αντιστασιακη
ορυχειο
προεκταση
προσαρμοστει
ουαιλντ
διαμαρτυρια
υμνου
1640
βισκοντι
υποκειμεν
μαξιμ
πλατφορμας
σκλαβων
επινοηθηκε
θιβε
καταγγελιες
δουλους
συνταξιοδο
utc
βιθυνιας
αποβιωσει
control
σκεπτικ
bi
##ττε
τατζικ
##καρι
##δαι
βαρονο
οπτικης
βασιλι
δημοκρι
##δεμον
αγγλου
τριχων
ραιαν
σχολιο
επαναχρησιμο
καρτε
καρποι
σωζομενα
ρουαντα
αυξημενο
κομητων
ιεροκηρυ
ταυτιση
σκυλο
εξετασει
force
διαμορφωθει
μετατραπηκαν
περιστρεφο
υποσχεσεις
θεολογικης
αντικαθισταται
εφευρετης
αφοσιωθηκε
πινδου
βραχυβια
διασκεδασης
μακρινο
αποδυναμω
virgin
αρχιστρατηγος
μπερναρντ
εστρεψε
##δημοσιευ
χααρλεμ
gab
pix
εμας
κιον
##βινα
##τιμ
##λεζ
αννο
##καμπ
διαφθορας
##ορθω
εκτ
κατατρο
πρωτισ
αυτοπροσδιο
ευρους
ποροι
απεχ
εργαστηκαν
εθνικους
τζανε
συμμετρια
μπαρα
1550
##γγεια
καλυψε
δουμε
εκδοτες
συνεργαζονται
ρουεν
##ume
χεριων
νοτιοτερο
μπεης
στενων
prom
εχθρικες
κηρυξει
##aff
πετρελα
προπαρα
ερωτευτηκε
##γγελη
βακτηριο
ροτζερς
alexander
βατικανο
deutsch
ισμαηλ
θεσπρωτιας
ρολογιου
lc
nik
sd
ατολ
ικ
##σλι
##πλε
##ιαρ
καινη
##τεζ
##διαλυ
υποβαθ
χαιδα
προσοντα
γαλερες
σοκολα
εισελθουν
1650
##σουρα
σωματικα
##ache
τραχυ
κεφ
##una
δεινα
παπαδη
ενοχος
συντομευ
ριξει
ενδιαφερθηκε
πολωνοι
εξεγερθηκαν
μιχαηλι
μυθιστοριο
αδελφοτητας
επιθυμιες
νευτωνα
ερυμαν
αββασι
κορυφαιων
ζεστη
συσκευης
ανταρσια
ανοικτου
ιμπρεσιον
ακολουθιες
εκπληκτικη
emp
ιθακη
παραχωρηθηκαν
καταλανικα
ασπρομα
βαρβαρα
ορθοδοξος
καταναλωτες
συγκλητο
λιονταριων
ασαφης
ρεθυμνης
παραμυθι
ωοτο
##βουλος
παγετωνες
πυρομαχικα
aqu
cc
rp
##τταν
##ti
##bor
##ικισμου
μεταν
##τιθ
προβει
##ορντ
εκλυ
##τυπος
ευθραυ
συνεπεσε
ελληνικους
δημιουργους
τριπτυ
1660
απαξ
συναγωγη
λειτουργικου
φερνουν
εσωτερικους
μακεδονο
225
ποντ
φρουτων
εισαγωγες
ολλανδοι
αστυνομικους
κρατησης
αδερφες
πηγαδι
place
εραστη
εξισορρο
ανεπτυγμενη
προυποθετει
χιουζ
εξαφανιζεται
##συνθεση
ενεργοποιηση
περσικου
εκθεσεων
κουρδισ
esc
βλαβης
καρδιναλιου
πετυχαινει
μανωλης
αντιτορπιλικα
κομοτηνης
facebook
εστελνε
προστατεψει
βιλαετι
μανιφεστο
giovanni
ικον
##ντιν
##πς
##ωνος
##ερια
##ελια
αυτονομα
αντιγον
##πιστω
##μιτης
σοφι
παιχτηκε
εκαψε
ισχυροι
αλεξης
γραφικο
παπαιωαννου
αποφασισμενος
αντιμετωποι
δικε
συντομες
ηπαρ
κλιβελαντ
εκτινα
επαναστατικου
συγκρουστηκαν
android
γυμναστικος
ζητησης
comics
κεφαλλην
ορεινου
αναγνωριστηκαν
325
διεκδικησεις
ξαπ
πεμπτου
στεγαση
440
διεργασιων
σκοραρει
φιλοσοφικα
αρτεμισ
τεκμηριων
αλγεριας
σκελετο
κεραυνος
καταγεγραμμενη
χρυσοστομος
σχιζο
αντικομμουν
battle
fel
mk
φτερων
##ιλο
μελας
##κεφα
##κανα
επιβ
παραθετει
περιβολο
##aria
επεμεινε
δραστικα
απαρχη
σιγκου
καρτ
ολοκληρος
ενεργει
σπουδαιος
καναλιων
ληστες
καραβια
καθηγητων
εισαγεται
εννοιο
ηρωδης
γεφυρι
διαδρομος
##γκανγκ
αζτε
ανασκαφων
αποθεματων
νεανικα
αεροστατα
παραγωγικο
προσκυνητες
γιορκσαιρ
αντιστροφο
ματαια
επτανησα
λασπη
machine
##μιχαλη
σιγκαπουρη
μανχαταν
βολντεμορτ
kra
pent
##υτα
##bit
##φολ
στοουν
ταραγ
##ρωφ
αυγο
εξημερ
αρχοντων
##ιλς
##χαρι
λεβαν
πολυσυ
αργολ
κινητης
γκουλ
##eter
συνηγορ
##στουφαν
υπηρετουν
σκηνικα
λυσης
βελγικη
καναδικη
εκτιμησης
επεκρινε
κρυφη
πυροβολο
χορδες
νερομυ
κατατασσονται
αναζητησει
αλατων
νωτια
καταργηθηκαν
ερμηνευοντας
prof
πενταετη
χιουμο
φτωχων
οδηγειται
αμφισβητησε
μεταγενεστερο
βιβλιοθηκονο
ναζιστικο
γνωρισματα
προοδευτικο
βορειοδυτικης
αρτεμιδος
αποτρεψουν
πληρωνει
θηραμα
ανηλικος
καταστηματων
πασιγνω
ερχομο
public
ευριπιδη
σπιλμπεργκ
mvp
λιχτενσταιν
washington
σεραφειμ
430
rod
ινων
κλυ
##ware
##σιμης
ανατεθει
εμμυ
διαρκεσει
παιξουν
##σουρ
προσωρινος
##ζακ
##βιερ
##ζεπε
κατασκευαζονταν
παντρεψε
##λεντον
ρολαν
φημολογ
μοιραια
δολαριο
προσωπογραφιες
ρουμανικα
διακριτικο
προτασεων
αστρονομικη
απορριψει
πανεπιστημιακο
υποθεσουμε
ουγγρικα
αστροναυ
απογοητευμενος
βλαστησης
καμπυλες
φθασουν
αναμενομενη
θεσπισε
γανδης
βραχωδη
γουελφων
κλωστουφαν
επισκευη
πνιγη
ελειπε
προισταμενος
ορφανοτροφειο
ρεπορταζ
μονεμβα
hollywood
ιωακειμ
##ωπη
##iac
##ψιος
βανα
βαλε
στριπ
##βατα
παννον
σαβο
απεπλευσε
##ολογικος
γαλικια
μαρθα
φορτια
##σταντ
##μπαρντ
χειρονο
αθλητικης
βαλαν
διπλης
θεοτητων
κληρικων
ενοσω
ομιλουνται
αγροτικος
στρατηγικο
πολωνο
ηττας
##ants
βολες
διασημοι
πελοποννησιακου
επιβεβαιωση
ουκρανικη
βροχες
ισραηλινη
καθιστουσε
ραντε
βελτιωθει
παρηγαγαν
oper
αντιληπτο
barb
εξαδελφου
καθορισε
συμμαχησει
μπραουνσβα
γονατο
ναυτιλιας
απονομης
κρυσταλλο
ανακοινωνει
βελουχ
προτεκτορατο
δεκαοκτω
num
vinc
##σινια
##lie
αποχη
σελα
αναρω
αναμιγ
##σαμ
##πεδων
##σαντ
νοο
##osp
ασφυ
κιρι
πειραματικη
βουλγαρη
town
διατηρηθηκαν
lew
απειλειται
λατινους
εγκαταλειφθει
κυριαρχος
αναζητουσε
ασυνε
ασυνειδη
γκουα
ελευσινα
αλεξανδρουπολη
1776
φτιαχν
σεξουαλικες
αντιπροεδρου
1577
εκτοξευτηκε
κορωνη
επικυρωσε
σελτζουκων
παμπλονα
παναιτω
mak
υδρι
##μινι
##ναιος
##ενιου
τονιζοντας
προλετα
καταυ
##σειρα
##ριστικο
επιγραμματα
παρακλη
σταβ
##στρον
##ποιημενων
απεδιδε
##ρωνουν
αργυρος
αφθονο
υπαρχουσες
αργοναυ
##iti
νεοτερου
θανατοι
καρδιο
κατωτερη
αναγνωστης
ανωτερω
##πτολε
κλημης
αντιστοιχουσε
σεισμου
αντιμετα
ντακα
21η
ακριβε
φρασεις
ιερογλυ
μπετι
θρησκευτικους
εξασφαλισαν
κυριαρχουσαν
αρχιερα
νυμφες
νανος
ζιμπα
παρατασης
συντονιζει
αιγλη
κωμωδιας
πυρκαγιες
υποχρεωτικα
λιουμπ
σαφεις
φρεσκο
χορωδιας
δευτερευοντα
αναπαραγεται
##πελιε
type
κολοκοτρωνης
συμπατριωτες
αφυπν
πυρομαχικων
φεγγαρι
αρχισυντακτης
παντζαμπ
αλικαρνα
οραγγης
fol
now
tα
ορον
φλογες
##hz
##χογ
##16
καφ
τασος
προτυπου
##ρελι
γιατρους
##μεση
##στρος
στω
περιοδων
αλλαζε
δημοτικων
περισταση
##λισσα
17η
##κυαν
παιχτης
σιτηρων
αριθμηση
σωθηκαν
##ump
cher
αττικο
ισπανων
θυμιζουν
215
##ando
πεντελης
ερωτικα
γαλατες
##πλασμα
εμφανιστουν
πεισιστρα
αιγυπτιο
αλβανικης
υποχρεωσεων
μοιραστηκαν
coup
θεμελιων
υδατος
expl
1683
περιπετει
συνδεδεμενα
πολυτιμη
κορασιδων
θεμελιωδεις
ισχυρισμος
κολυμβηση
παραπεμ
παχυσαρκ
πεδινο
δωδεκαν
αριαρα
ζυριχης
παρεμποδισ
κατασκηνω
academy
οσιρι
διαφαινεται
κλωστουφαντουργ
kal
va
θρονος
κινουνταν
##νιτ
##μφισβη
##mond
##ισεν
απολλο
καταθεση
κοπη
τεφ
ευδιακρι
χατζ
##φην
μεγιστης
##ania
πολυπο
καννα
πλαστο
##γονι
##γγες
νεαροι
νεοτερους
κατηγορωντας
οδηγους
γραφικη
οκτωβρη
προσεθεσε
αραμα
κανονικου
εκτελεσαν
ακριβειας
οθωμανικων
επαναστατικες
επαναστατησε
##oper
arth
αστυνομικων
##γιεν
σπανιως
##θρακες
αεροπορικο
διαστημικου
αντιμετωπιζοντας
φιλελευθερη
μεσσηνη
σκοτωνεται
1648
γουεμπ
μογγολια
πρακτορα
θησαυρος
captain
προσκληθηκε
νεοσυστατη
τεχνολογιων
επικεντρωθει
turk
##ска
φολκ
καρπενησι
λεμφο
ξημερωματα
special
διθυραμβ
αποχρωση
dam
ef
jer
mix
ατε
ιμπερια
σφεν
##υλ
##σμ
##δμ
##40
##fo
##τοκ
στηριζοταν
ναουσα
ταλι
προλογο
##ρχιων
##ελινα
μεταξιου
κομπ
βαδισ
νοτα
νοικια
χαμενη
λαθρε
ομαλο
##arl
φυλ
##γειτο
σοφου
1750
νεοφυ
συνοχη
χαρακτηρισμος
ελεγχονται
βαλβ
αποφασιστικα
προσωπικους
ζωγραφιζε
μισους
τετοιοι
απαντουν
στοιχειωδη
χειροτερο
εξεγερθηκε
αλβανικο
αυστριακου
δελχι
ελβετικη
ολιμπικ
τοιχογραφια
προκλησεις
ανανεωθηκε
χτυπηθηκε
θειικο
συνεισφορες
usa
ισοπαλο
καλεσει
χαλκιδικη
γιαννινα
henri
νοιμαν
αιμορραγια
αλευρι
daniel
αναποσπαστο
hay
kir
money
ton
ww
ιγκ
ινω
ιφι
κλισης
##θλιπ
##wig
##ολες
##καρα
διαπλα
αλδευ
##κανον
αντιτυπων
στρατιες
φατι
##γενειας
κενη
τυχερ
ιδρυει
δραματικο
##σουφ
##διδη
##τελεσμα
σπουδη
επισημων
##τοποιησης
λοφων
ανωτερου
προβληματικη
πειραματικα
διαταξει
ρωσικων
##τσακ
ετησιες
φιλοσοφων
κινηματογραφικα
##τσεκ
##upp
##δερι
εκτασεων
αστερισμος
χωρισμενη
αφοπ
βρογ
διασπαρτα
ορκωμο
διαμαρτυρο
χορευτρια
βιντεοπαιχνιδια
##house
φωτογραφιων
##oyd
##uction
κηφισια
πεπερασμενο
αλληλουχια
βραχιονα
αναμιγνυ
aff
pir
μχ
οτα
##νις
##17
##ιστικους
##καινου
διατροφ
νεκρα
##onna
ουγενο
##ριζο
[...]
