[SEP]
[UNK]
[CLS]
[PAD]
[MASK]
!
#
$
%
&
(
)
*
+
,
-
.
/
0
1
2
3
4
5
6
7
8
9
:
;
=
?
@
\
^
_
a
b
c
d
e
f
g
h
i
j
k
l
m
n
o
p
q
r
s
t
u
v
w
x
y
z
{
}
~
¡
¢
£
¥
§
¨
©
ª
¬
®
¯
°
±
²
³
µ
·
¹
º
¼
½
¾
¿
×
ß
æ
ð
ø
þ
đ
ħ
ı
ł
ŋ
œ
ſ
ƒ
ǃ
ɐ
ɑ
ɒ
ɔ
ɕ
ə
ɛ
ɡ
ɣ
ɨ
ɪ
ɲ
ɹ
ɾ
ʀ
ʁ
ʂ
ʃ
ʊ
ʌ
ʎ
ʒ
ʔ
ʕ
ʰ
ʲ
ʷ
ʹ
ʻ
ʼ
ʽ
ʾ
ʿ
ˁ
ˈ
ˌ
ː
˚
α
β
γ
δ
ε
ζ
η
θ
ι
κ
λ
μ
ν
ξ
ο
π
ρ
ς
σ
τ
υ
φ
χ
ψ
ω
а
б
в
г
д
е
ж
з
и
к
л
м
н
о
п
р
с
т
у
ф
х
ц
ч
ш
щ
ъ
ы
ь
э
ю
я
ђ
є
і
ј
љ
њ
ћ
қ
ү
ә
ө
ա
բ
գ
դ
ե
թ
ի
լ
կ
հ
ղ
մ
յ
ն
ո
պ
ս
վ
տ
ր
ց
ւ
ք
א
ב
ג
ד
ה
ו
ז
ח
ט
י
ך
כ
ל
ם
מ
ן
נ
ס
ע
ף
פ
ץ
צ
ק
ר
ש
ת
ء
ا
ب
ة
ت
ث
ج
ح
خ
د
ذ
ر
ز
س
ش
ص
ض
ط
ظ
ع
غ
ـ
ف
ق
ك
ل
م
ن
ه
و
ى
ي
پ
چ
ک
گ
ہ
ی
ܐ
ܘ
ܝ
ܟ
ܡ
ܪ
ܬ
अ
क
ग
ङ
च
ज
ट
ड
ण
त
द
ध
न
प
ब
भ
म
य
र
ल
व
श
ष
स
ह
ा
ि
ी
ो
ক
গ
জ
ত
দ
ন
প
ব
ম
য
র
ল
স
হ
া
ি
ী
ে
ਾ
க
ச
ட
த
ன
ப
ம
ய
ர
ல
வ
ா
ி
ு
ே
ை
ರ
ಾ
ക
ര
ാ
ി
ා
ก
ข
ค
ง
จ
ช
ณ
ด
ต
ท
ธ
น
บ
ป
พ
ม
ย
ร
ล
ว
ศ
ส
ห
อ
ะ
า
ำ
เ
แ
โ
ไ
་
ག
ང
ད
བ
མ
ར
ལ
ས
း
ა
ბ
გ
დ
ე
ვ
ზ
თ
ი
კ
ლ
მ
ნ
ო
პ
რ
ს
ტ
უ
ქ
შ
ც
ძ
წ
ხ
ᄀ
ᄁ
ᄂ
ᄃ
ᄄ
ᄅ
ᄆ
ᄇ
ᄉ
ᄊ
ᄋ
ᄌ
ᄎ
ᄏ
ᄐ
ᄑ
ᄒ
ᅡ
ᅢ
ᅣ
ᅥ
ᅦ
ᅧ
ᅨ
ᅩ
ᅪ
ᅬ
ᅭ
ᅮ
ᅯ
ᅱ
ᅲ
ᅳ
ᅴ
ᅵ
ᆨ
ᆫ
ᆯ
ᆷ
ᆸ
ᆺ
ᆼ
ក
ជ
ត
ន
ប
ម
រ
ស
ា
‐
‑
‒
―
†
•
‰
′
″
‹
›
⁄
₂
₤
₩
€
₹
℃
ℓ
№
ℝ
™
⅓
⅔
↑
→
↔
∈
−
√
∞
∧
≈
≡
≤
≥
≪
≫
⋅
─
▪
★
☆
♠
♣
♥
♦
♭
♯
⟨
⟩
ⴰ
、
〈
〉
《
》
「
」
〜
あ
い
う
え
お
か
き
く
け
こ
さ
し
す
せ
そ
た
ち
っ
つ
て
と
な
に
の
は
ひ
ふ
へ
ほ
ま
み
め
も
ゃ
や
よ
ら
り
る
れ
ろ
わ
を
ん
ァ
ア
ィ
イ
ウ
ェ
エ
ォ
オ
カ
キ
ク
ケ
コ
サ
シ
ス
セ
ソ
タ
チ
ッ
ツ
テ
ト
ナ
ニ
ネ
ノ
ハ
ヒ
フ
ヘ
ホ
マ
ミ
ム
メ
モ
ャ
ヤ
ュ
ョ
ラ
リ
ル
レ
ロ
ワ
ン
・
ー
一
丁
七
三
上
下
不
世
东
中
丸
主
之
乐
九
书
事
二
五
井
京
人
仁
仙
代
伊
会
伝
伯
体
作
你
侯
保
信
元
先
光
全
八
公
六
共
兵
内
出
刀
利
前
劉
力
加
動
化
北
区
十
千
华
南
博
原
县
友
口
古
台
史
号
司
合
吉
同
名
后
君
周
命
和
唐
商
嘉
四
国
國
園
土
地
场
城
堂
場
塔
士
夏
外
夜
大
天
太
夫
奈
女
好
子
字
学
孫
學
宇
安
宋
宗
官
定
宝
宮
家
寺
小
少
尾
屋
山
岛
島
川
州
工
巴
市
帝
師
平
年
广
府
座
康
建
式
张
張
形
後
御
德
心
志
愛
成
我
戦
所
手
拳
政
教
文
新
方
族
日
昌
明
星
春
時
景
曲
書
曹
會
月
有
朝
木
本
朱
机
李
村
東
松
林
校
株
森
樂
橋
機
歌
正
武
死
母
氏
民
水
永
江
沙
河
治
泉
法
洋
洲
流
海
清
港
湖
漢
火
炎
無
燕
物
特
玉
王
球
理
琴
生
田
由
甲
男
町
画
界
白
百
的
皇
相
省
真
知
石
社
神
福
秀
秋
科
秦
空
立
章
竹
第
紅
經
線
編
縣
羅
美
義
老
者
聖
胡
能
自
舞
航
良
色
花
英
茶
草
菜
華
藤
行
術
街
衛
袁
西
言
記
語
谷
赤
超
趙
路
車
軍
通
速
造
道
郎
郡
部
都
酒
里
重
野
金
鉄
銀
長
长
門
間
门
阳
阿
陈
院
陳
陵
陽
隊
集
雪
雲
電
青
面
韓
音
頭
風
食
館
香
馬
马
高
鬼
魏
魔
黃
黄
黒
龍
龙
ﬁ
！
（
）
，
～
￼
𐤀
𐤌
𐤔
𐤕
##o
##i
##l
##s
##a
##r
##m
##e
##n
##j
##p
##d
##c
##f
##b
##g
##t
##h
##z
##2
##3
##4
##5
##6
##7
##k
##v
##u
##x
##w
##8
##y
##º
##υ
##α
##ρ
##ι
##κ
##ο
##ν
##0
##1
##ø
##τ
##ς
##q
##ə
##ʻ
##ß
##מ
##ס
##פ
##י
##ק
##ʊ
##ˈ
##ɛ
##م
##ي
##ر
##σ
##η
##λ
##ψ
##ε
##π
##ω
##9
##θ
##ف
##ق
##ʲ
##ɾ
##ı
##а
##т
##л
##і
##ц
##к
##я
##ि
##न
##ð
##ᅢ
##ᄋ
##ᅴ
##ᅯ
##ᆫ
##ب
##ا
##ᅭ
##ᄀ
##ᅩ
##æ
##ː
##ʷ
##प
##त
##ी
##ュ
##ー
##シ
##カ
##ル
##ᅥ
##ᆼ
##ᄌ
##ᅦ
##е
##р
##ф
##и
##м
##ი
##დ
##ש
##ר
##ד
##μ
##ร
##ย
##ะ
##ラ
##ム
##ŋ
##ی
##و
##ع
##ш
##ј
##ᅳ
##ᄅ
##ᅵ
##δ
##γ
##о
##щ
##ь
##н
##п
##в
##ำ
##เ
##อ
##б
##с
##ل
##س
##ћ
##г
##đ
##ո
##մ
##ի
##տ
##ե
##ł
##ג
##ל
##д
##у
##ו
##ת
##ി
##ک
##χ
##ɔ
##ʃ
##з
##ェ
##ス
##ე
##ხ
##ბ
##უ
##რ
##თ
##ს
##ю
##צ
##ה
##ζ
##ふ
##ม
##า
##ა
##მ
##ო
##ლ
##ᅡ
##ल
##ɪ
##リ
##ン
##ク
##ᅮ
##ᆯ
##ע
##া
##য
##х
##ᅲ
##ᄇ
##ᆨ
##ʹ
##φ
##ɹ
##タ
##ハ
##ロ
##ッ
##ト
##ত
##র
##ম
##ض
##ه
##د
##ة
##ξ
##ʰ
##ᄎ
##ᄉ
##נ
##ן
##ط
##ح
##ъ
##э
##キ
##ち
##ゃ
##ん
##ن
##ホ
##ᄆ
##ᅪ
##ظ
##ч
##β
##と
##ᄃ
##ാ
##ɐ
##ன
##ி
##خ
##ª
##ข
##น
##ห
##ว
##ล
##ก
##ต
##ж
##غ
##ɣ
##ج
##フ
##ォ
##þ
##ᅣ
##コ
##エ
##モ
##ョ
##ो
##ष
##ជ
##ា
##ន
##ក
##ម
##ノ
##ミ
##ケ
##ك
##ى
##ப
##ா
##ய
##ы
##வ
##ர
##پ
##っ
##て
##は
##さ
##қ
##ᆷ
##ˌ
##œ
##ت
##ᄒ
##ᆺ
##ء
##ﬁ
##ろ
##こ
##イ
##כ
##ם
##א
##の
##く
##に
##ல
##स
##ᅧ
##ב
##ט
##ʾ
##ᄊ
##り
##ɑ
##ص
##ᆸ
##ा
##श
##ง
##จ
##บ
##ธ
##ு
##ம
##メ
##レ
##サ
##マ
##ட
##ز
##ण
##र
##ज
##ც
##ป
##ァ
##ʿ
##ナ
##ヘ
##ⴰ
##ณ
##ब
##љ
##ր
##վ
##ս
##セ
##ө
##ே
##ை
##い
##ზ
##ニ
##ア
##ᅱ
##テ
##ィ
##म
##य
##ח
##ش
##ף
##た
##も
##ᅬ
##ث
##か
##へ
##ʁ
##ী
##ক
##ি
##ნ
##द
##ด
##ท
##พ
##ค
##チ
##ウ
##ա
##կ
##ն
##ट
##ܪ
##ܡ
##ܐ
##ड
##ச
##க
##し
##よ
##う
##ז
##ʂ
##ვ
##چ
##ſ
##オ
##ソ
##ヒ
##ま
##ᄂ
##ħ
##স
##গ
##ʒ
##ʼ
##ү
##แ
##گ
##め
##ղ
##ɕ
##ך
##ʌ
##გ
##ひ
##ལ
##な
##あ
##つ
##る
##ส
##ไ
##հ
##រ
##ប
##क
##ग
##є
##ւ
##ャ
##ᄄ
##ಾ
##ტ
##ন
##མ
##ག
##व
##โ
##ワ
##ᅨ
##ք
##ә
##ᄁ
##ძ
##わ
##գ
##թ
##そ
##れ
##պ
##შ
##კ
##ช
##ᄏ
##њ
##ɲ
##ɒ
##ɨ
##յ
##ে
##হ
##ほ
##み
##ᄐ
##ذ
##լ
##ქ
##ら
##ᄑ
##ക
##を
##ʔ
##च
##や
##ང
##ര
##ා
##բ
##ɡ
##ց
##ল
##ץ
##す
##ਾ
##জ
##த
##ར
##ស
##ʕ
##ہ
##ǃ
##ศ
##ह
##བ
##き
##ध
##भ
##µ
##դ
##ត
##ܬ
##ܝ
##え
##ʀ
##け
##ツ
##ܘ
##ـ
##お
##პ
##ђ
##ರ
##ネ
##দ
##ヤ
##প
##ܟ
##ব
##せ
##अ
##ས
##း
##წ
##ङ
##ˁ
##ℝ
##𐤀
##ℓ
##𐤔
##𐤕
##𐤌
##ད
##ʎ
##ʽ
##ƒ
de
##on
##os
##er
##en
##an
##ar
##as
##es
##ci
en
##or
la
qu
##ad
el
##al
##ot
##st
##ent
##in
un
##ic
quot
con
##om
##cion
##id
que
se
##ra
##re
##ia
su
##ro
##ue
##it
los
##am
del
##io
re
##un
al
es
est
##do
in
##ol
com
##is
par
##te
##il
##ado
##ab
por
##ri
##to
##acion
##ti
##ente
##le
las
una
##em
##ul
##ta
an
##ran
##el
##ist
##ec
##ien
##at
##de
##ada
##res
para
des
pro
per
como
cu
##ig
19
##ed
##la
##ter
##ion
##cia
##im
##ica
##ch
fue
##us
##iv
##ur
##ir
##go
##ob
##ier
##iz
##oc
##ido
##ud
##uer
##ac
ac
##ando
##idad
no
ex
##ales
##um
##qu
##ico
20
##ici
##od
##lo
##tr
mas
##ados
##ient
ar
##mp
##po
di
##orm
##ant
lo
##aj
##ues
##era
##ios
##tu
##ap
##rim
##ru
le
esp
##ay
ap
ent
pr
as
##mente
##amb
##ras
##ero
sus
hab
##and
##ian
car
mar
##tor
ser
##gun
##et
##vo
##ub
##gu
##mo
##ib
comp
prim
##se
##ez
##ador
##que
##aron
tra
##co
##end
##tra
res
esta
##bre
##du
mu
##if
esc
ob
##ida
##tos
entre
##ana
ha
##amente
##aba
##ano
##encia
##oci
am
ad
##ers
##ino
tamb
tambien
##adas
##ma
##almente
##icion
##eci
du
##tiv
##ina
cas
200
ch
cor
##cu
##da
col
dis
##cl
##iento
##per
##ens
##ias
este
##ces
##tro
##ca
fuer
med
inter
pres
##las
##ug
ab
##rit
201
cons
##ie
##ante
##ce
##ento
##ut
form
##les
sin
sol
##pues
##cip
fin
ter
pa
sig
##iem
me
##og
##za
18
##aciones
imp
##con
##por
##jo
son
##icos
pero
pos
pre
gran
##ista
or
dos
##ener
sob
lle
nue
##eg
cam
##ismo
##ores
don
##rante
##av
may
##los
##aliz
anos
##itu
deb
pue
##asta
##cio
##son
##zo
##tes
reg
era
##und
##ccion
ma
##ov
sobre
segun
##idos
durante
##fer
##iendo
##lan
em
hasta
can
man
##icas
##ubl
##op
otr
te
desde
##rig
##ario
ci
cre
##00
##antes
##ara
despues
rep
parte
tem
san
##ena
primer
##va
##ill
##oria
donde
##ip
ca
##udad
sal
ciudad
prin
##aria
##entes
##no
cap
##ajo
##eno
ano
##ision
mon
pas
emp
tod
##icul
const
cuando
##ten
##enta
princip
ed
##lam
##rib
##tin
tien
##eo
##ga
##br
pol
of
nom
jun
##jer
##he
##enci
fran
##den
tras
##ciones
##ort
##anos
conv
person
habia
##able
##ona
##argo
produ
##til
part
publ
##lacion
##ones
cal
##ivers
oc
ag
gu
inf
mus
au
199
##arse
lib
gener
##pe
ju
exp
##tura
var
eran
incl
cl
##cid
##ba
##ine
##ech
her
mun
algun
trab
##ing
##ares
especi
contra
##ves
##tas
to
lu
primera
##acional
cent
ya
cer
##ard
cual
##ose
##az
men
##ura
##na
##ieron
##aban
##teri
aun
##min
fueron
us
den
##ich
##ipo
pod
##gra
ten
prop
bar
##ito
emb
##eros
##cho
##man
pob
bas
pe
ver
is
apos
parti
estud
##tar
equ
ing
si
actu
estado
##uego
af
tan
desc
gra
fam
##ial
hist
##ag
rec
##iente
##uy
##adores
##all
llam
gob
##emas
gru
##mas
##gan
otros
the
##ron
##ora
solo
dist
tu
uno
cab
##uel
##ton
##ros
##ern
min
##endo
tiene
##alidad
##ria
##ific
asi
##ja
##ve
mil
dest
198
reci
##iones
##amiento
inst
alb
hi
ul
mismo
super
##icio
ind
guer
##ult
val
tran
lug
realiz
hac
mad
##anz
pais
ne
##pos
apar
co
comun
forma
muy
##par
##tivo
prov
mat
tres
##cuent
univers
##ord
##entos
tiem
vez
##ular
dire
rev
ev
##mit
pel
encuent
conoci
mod
quien
##rop
vol
num
##pon
trans
sim
hom
##ider
soci
##je
##cha
##olog
aunque
##ctor
tr
loc
##idades
nor
ulti
##car
ep
197
tor
av
constru
dia
mient
##ita
mientras
##ecto
cos
15
puede
##rist
##istas
embargo
##edad
##anda
pun
nombre
##rol
##ulo
na
17
ademas
bu
pla
def
famil
sur
nacional
##mos
##embre
conf
##eces
##itar
mayor
##atro
poblacion
lugar
pes
tiempo
##eria
orig
util
##eron
##pre
estaba
##cos
##uso
guerra
tom
nov
inv
##emp
##ierno
sub
sido
##ies
##izo
sigu
prot
amb
han
pal
todo
##ania
##illa
grupo
tar
##ral
ese
hacia
import
##oco
ro
desar
much
##so
ra
##atal
##ii
tit
pl
##idas
cada
##omin
##des
mis
siglo
desarrol
prof
elec
ej
polit
16
mej
bajo
general
196
##ert
##osa
##lu
div
otras
anti
camb
##aje
nueva
##gua
##yo
sh
antes
nuevo
junto
ext
##bol
##tal
##tiva
##ira
##enos
dec
##oca
10
plan
##ril
clas
at
viv
difer
##quier
tempor
equipo
gobierno
luego
##ior
##ema
vic
comen
rom
presid
todos
eu
##gar
##ucion
##anol
12
encon
utiliz
estados
recib
fun
perio
repres
##uras
contin
##lig
##ge
partido
espanol
ref
##li
##ea
estos
muer
##fici
tanto
##gos
norte
fund
##ne
##est
##onces
album
##erv
jug
ho
##inos
comple
ejer
alc
trabaj
serie
##elo
##cias
pues
##lic
sist
pad
##ct
fil
ofici
##cis
194
sen
organ
algunos
esto
##miento
##ced
hay
cant
capit
##arios
pelicul
situ
ella
ay
hum
vida
debido
inc
trabajo
##tion
##inas
habit
sep
##ene
ba
##xim
final
tot
universidad
exist
jo
siendo
cin
##rio
mes
193
##cer
##ancia
195
entonces
historia
doc
##teg
##icip
familia
municip
##ural
##imiento
int
##dos
pequ
##gen
##ientos
##ele
public
##ental
tuvo
##tros
mer
##ible
unidos
personas
gan
alem
jul
prob
##enas
##reso
fl
pat
##ula
miem
log
and
sa
posteri
op
segunda
intern
##udo
arg
incluy
ig
gol
##jos
##uela
fr
amp
sec
rey
mujer
##ques
pop
consider
##ell
fe
serv
##tado
hech
dirig
der
otro
##rado
carac
amer
##erg
rio
mal
##oso
ven
##pend
##dad
ejerci
continu
varios
##eza
mejor
fal
club
mundo
ins
blan
cuatro
##icia
14
encuentra
autor
##ela
mor
##pa
##cep
##tist
##encias
gen
##ientes
escrit
mex
##orio
000
cul
centro
numero
km
##ece
temporada
11
po
provin
tele
##iano
herm
lig
13
progra
dere
##uc
via
permit
perd
espana
##ice
prom
ante
profes
pi
llev
entr
hizo
poco
mom
mot
tenia
##ep
tec
apro
trad
##bres
lim
nuev
bien
mov
estable
caracter
origin
particip
##iciones
tarde
recon
pap
##rot
estas
mo
ata
tier
vers
ellos
banda
##tan
les
##bo
line
orden
campe
poder
ve
##tio
estan
##ond
##ormente
##icamente
unos
lanz
rad
cond
septi
##ric
##che
casa
carr
real
convir
jose
camp
julio
##cel
##tig
sistema
obra
pin
pelicula
traves
tal
region
##omb
vis
segundo
##ver
##cido
##enso
pueden
pueb
proy
dici
192
##tivos
muchos
##vio
fu
nav
93
##ya
bo
mant
91
neg
cop
##ik
represent
mayo
ejemp
inform
##bro
organiz
otra
##tir
da
paso
lleg
ef
nat
##ical
juan
largo
comer
raz
mund
principal
##tras
igles
histor
present
##dor
##itud
econ
total
cancion
sem
econom
##ivo
mill
##cas
2010
cru
hacer
frances
destac
##ide
contro
presidente
##vi
cuenta
##racion
comenzo
relacion
fa
enf
##ilo
not
term
##eles
tecn
##amer
apo
inici
##ilidad
octu
so
##ecu
octubre
medio
anteri
are
191
puer
##cir
caso
estudio
crit
septiembre
ge
ejercito
##jas
bal
##erio
muerte
##este
zona
##atos
padre
bus
##ong
##ceso
prem
##osto
publico
gal
##onia
frente
##ite
cir
grandes
junio
neces
##cul
##eta
ir
##zas
dem
momento
##ef
segu
dentro
ah
met
result
cont
##raf
perten
cuer
inves
habitantes
hijo
##ang
agosto
sab
marzo
niv
rob
id
activ
ocu
##ologia
abril
ital
##ind
enero
dias
argent
conc
interpre
menos
tipo
##ix
##tamente
ang
##aro
institu
artist
conse
empres
ley
th
##uda
diciembre
dich
##ense
##uvo
cualquier
ol
partir
baj
mundial
varias
dio
desarrollo
haber
25
musica
epoca
##land
gr
##iar
ped
gar
crist
algunas
iglesia
ub
##eras
finalmente
hace
fre
mayoria
bel
arm
##ire
##olucion
resp
siguiente
##iembre
noviembre
carrera
art
victor
##ven
##anas
##ima
hecho
republ
##rid
et
dan
##rede
for
constitu
##nos
lit
hor
##enes
os
alrede
inde
leg
misma
escrib
##ual
##acio
tri
fut
be
##oto
##ust
##eder
antigu
termin
##ke
funcion
director
jov
##iva
derrot
##graf
posteriormente
##itos
mag
obras
ide
##brero
##sa
##quel
vio
##tam
ale
ultimo
territ
pra
##minist
##iante
cuar
habian
fer
sant
##ensa
brit
##eccion
##ry
divers
##igo
decl
30
sent
jue
##ren
encontr
##iana
domin
vir
division
##iet
importante
periodo
inm
color
titulo
##lado
edu
##iles
produccion
resid
todas
investig
##das
igu
nin
edif
##abor
tienen
mos
europ
anim
estudios
##ama
##cimiento
##hn
##cial
##ile
##atura
##bros
social
febrero
esa
manera
pesar
mexico
distin
escuela
##rend
disco
red
uso
he
descub
convirtio
##reg
municipio
exper
primeros
##ome
comien
##uto
caus
##irm
cele
disp
##ala
compues
popular
aut
enc
alrededor
maria
##igu
juego
cat
##tel
minist
casi
provincia
llego
control
##dic
ejemplo
st
cerca
ur
ingles
tierra
hombres
telev
##ectos
conocido
##ha
sign
independ
##ota
##tera
agu
mur
obje
llamado
##ecio
cambio
##cto
ori
futbol
veces
aquel
aust
cinco
grab
ta
##una
##unid
edad
millones
vid
##cado
##icios
rap
fra
estre
oper
central
az
estadounid
ren
termino
##cil
punto
##andose
jap
construccion
##rito
cier
ima
##ifica
dej
len
pueblo
##ipos
##iedad
agua
exito
toda
internacional
mujeres
ambos
##iencia
##oma
base
diferentes
##ka
ases
civ
##ple
##ban
linea
version
capital
##ograf
programa
perman
ru
##ign
proble
##usion
tur
##via
sac
tener
puesto
##rar
reino
santa
indu
##iera
##port
miembros
nivel
##jun
##ock
fac
##ork
ban
politica
##art
decid
britan
numeros
interes
##edia
isla
er
on
##iel
pon
acuer
##orn
batal
##ris
ubic
tradicion
vuel
paises
fuera
sp
mit
lado
##adamente
##mat
##umento
##americ
incluso
inclu
##iados
pri
##inado
ara
##ret
alli
francia
##ilar
fis
##vieron
##isp
2000
dar
bol
##ck
trop
gobern
24
finales
2011
##ect
##cidad
militar
administ
lar
##tivas
libro
pen
##can
fab
proyecto
reun
norm
asoci
obs
feder
ii
emple
aband
porque
cargo
estaban
madrid
cuales
tam
ens
desp
##ajes
##tores
natural
eleg
seria
decada
21
##rem
##illo
190
##ater
qued
lan
ocas
arte
pract
mucho
##adora
##iro
2008
##ate
pose
jef
anun
sir
cur
##omp
john
cuerpo
expl
##uestra
yo
localidad
##tico
suf
posicion
mater
##fico
ram
##gas
ningun
ampl
indust
francis
100
pan
2007
atra
##aran
##zos
##ki
estilo
##ono
bor
22
just
gl
europa
conjun
2009
sele
enfr
##iado
depor
liber
##quit
recibio
nombr
rus
##alo
compania
br
siem
muchas
##ificacion
conoc
##ins
##llo
acuerdo
##onato
defin
paci
batalla
media
ros
actualmente
##ev
cla
empez
##onio
denomin
cel
##ital
##urs
luis
##tiene
union
2012
##ler
sino
relig
##laz
campo
##apar
temp
genero
period
fig
madre
##tuvo
estuvo
carlos
castil
##be
##ph
2006
papel
sociedad
medios
reconoci
rel
##ola
23
##avor
pot
television
##imo
fuerzas
din
influ
comb
siempre
##chos
mediante
republica
catal
tex
##form
ado
argentina
hon
compan
##cios
metros
refer
har
area
ofre
sust
##ase
##entar
meses
conserv
##ables
sex
imagen
ultima
igual
puntos
##itor
lider
miembro
cabo
senci
##osp
nacio
cruz
inicio
estru
ni
gano
##ack
liga
actual
video
##riz
##ff
razas
##ivos
##bor
capa
dip
partidos
favor
##erto
anton
respon
ident
hoy
particul
asist
##bra
cong
##antas
principales
##quia
nun
seis
##ciendo
##adem
oficial
integ
ello
189
pu
movimiento
##lar
##entemente
quin
dol
epis
va
2013
##ick
arquit
##iza
mol
canciones
euro
cub
##ans
##resion
vent
origen
estadounidense
primero
profesion
alto
proceso
censo
york
seleccion
posible
##iales
seg
##lin
auto
direccion
superior
destru
##bur
##nas
campeonato
liter
ber
acep
fech
vend
##unt
ast
##rian
##itio
edificio
record
academ
##ulos
terc
redu
electr
aleman
mont
victoria
##fic
grupos
propio
premio
ingres
bos
especie
nego
servicio
elem
rod
aproxim
we
debe
##inacion
vel
hub
2014
ocup
##tencion
asc
##ension
26
##iso
fon
##izacion
##bas
llamada
ben
trib
##her
hombre
mi
condu
##mar
hol
alf
##tivamente
##agon
28
##rom
maxim
compos
##illas
oeste
##irse
comenz
2005
oblig
##one
torn
colabor
grande
bat
dra
27
go
fuerza
regist
original
principios
dif
##rip
compar
territorio
188
costa
encar
van
francisco
##ho
radio
hisp
jud
dens
trat
consigu
##ardo
2015
derecho
fel
##rica
##ecer
cuad
copa
fron
alcan
martin
estacion
episod
##cin
civil
asia
principalmente
realizo
##tur
apoyo
##rando
obtuvo
##onas
mul
##fo
alta
reb
latin
resto
bur
dice
fuerte
caracterist
salv
cad
##tacion
teatro
separ
##qui
fern
bra
gas
ahora
alcanz
##iere
importantes
tenian
##uls
perteneci
interior
##tiz
america
espanola
conci
tes
##ocra
##ley
categ
##rada
joven
deci
cult
##au
dedic
incluyendo
band
oro
hermano
palab
regreso
alemania
compuesto
frecu
mig
encuentran
##ane
lin
##acionales
esper
unico
rock
acer
logro
anterior
nunca
50
187
occid
paris
empresa
algo
terr
##th
musical
especies
186
##mon
pil
plata
resultado
especial
##adio
depar
##nes
##me
##alla
protagon
ste
enfer
especialmente
cand
dav
conocida
revista
flor
fes
pron
##puesta
modo
calle
##igos
##omas
prue
inte
##ht
disc
##eca
departam
conjunto
##hib
mencion
aer
2004
##respon
##ow
enter
hija
bras
elecciones
colon
torneo
ayud
gri
##cida
significa
tema
puerto
deter
##ticos
riv
sil
##amp
superfici
##tada
hu
local
29
elim
correspon
consecu
pedro
densidad
##trodu
demas
xv
##arca
observ
libre
comunic
peru
estar
comba
decir
sede
recu
produc
##ierto
hijos
nombrado
edicion
revolucion
##cepcion
##ument
cine
llevo
unas
llegar
##rimonio
##fa
antiguo
sea
leon
energ
dijo
propia
##ner
gracias
##ger
dispon
alim
articul
##ex
diseno
##ly
antonio
conte
##rup
corre
encontra
jugador
new
circ
maes
##cipo
introdu
##gon
rela
##ablemente
educ
##ulares
poc
declar
##ecta
##orge
##gado
iz
##ment
2016
publicado
chile
jefe
extran
europe
instal
tend
long
asp
menor
ps
alter
equipos
participo
pens
##ivid
juegos
##ted
problemas
entren
mem
##oz
acomp
volvio
museo
bot
situacion
limit
cit
eta
priv
estrel
40
lev
##estion
##iam
##tener
campana
brasil
##otos
##ore
propor
ocur
tre
##ayo
will
tropas
aplic
formacion
decidio
investigacion
##ecen
blancos
##ber
dios
vin
mision
distrib
alm
festiv
noche
aparece
accion
organizacion
##are
aud
##etro
gre
pud
##oble
ger
##ego
nar
americ
char
envi
corte
buenos
modelo
mez
incor
pers
capacidad
bre
catol
trata
nuevos
##ianos
##tica
##ulas
religios
consejo
##rir
lond
unido
##iete
individ
pare
tercer
cerc
##iii
lat
##up
extra
ayuda
libert
##arias
primeras
barcel
distrito
##elos
imperio
propiedad
luz
cultura
##ila
pequeno
ellas
sup
##ble
finaliz
cm
mando
##uri
##edio
jes
sencillo
personaje
tercera
2003
##etas
espacio
plaza
aproximadamente
acab
consist
il
milit
##ham
##quer
##urales
##ender
escribio
particular
sch
raza
abs
31
##irmo
colomb
ministro
comunidad
coleg
##ace
##rum
instituto
##lad
##ibles
mel
sold
artes
##ifico
##ines
##olo
##eda
##han
partes
##itas
informacion
##ua
villa
##arlo
##anto
podria
contr
campeon
hog
lista
proporcion
italia
ciudades
##uales
regres
guard
ll
music
185
fru
mm
fecha
ingresos
conven
##ires
dicho
ran
verdad
##ung
##esa
##isto
abandon
facil
##ucle
voc
hel
##oro
vas
##ak
principio
barcelona
##emos
lucha
##ok
politico
##ime
##uelo
cantidad
bib
##ald
incorpor
canal
##anci
educacion
doctor
fem
labor
altura
cient
mac
##ash
dic
sor
nuevas
##utos
alej
##ille
muestra
##ector
describ
sov
murio
infer
cump
pudo
##ts
enfrent
2001
prepar
mich
cod
##aya
jam
##anza
sector
profesor
portu
##ende
xx
determin
austral
publica
torre
izquier
planta
cic
unica
##reto
cabeza
falle
constitucion
pied
amor
conten
ph
valle
desapar
quedo
anuncio
temas
creacion
estudi
decis
bro
2002
soviet
##cal
##uridad
mic
##der
nucle
conver
camino
comerci
siete
objetivo
insp
blanco
##entales
kil
bio
tamano
hosp
##ctura
actividad
experim
categoria
moder
causa
marc
derechos
##posicion
gira
do
departamento
china
##puesto
blo
suces
lic
ingen
184
similar
##manas
superficie
proced
2017
mexic
##wn
obst
pequena
elementos
mitad
##rad
esposa
escu
debut
##avia
fort
ninos
ultimos
menudo
##idamente
manuel
defensa
##ote
horas
diez
honor
##later
cantante
##bu
##imientos
parque
ant
antigua
##viv
personajes
persona
enferm
baja
reform
##ierta
resist
proces
disen
democra
resta
arch
##fia
presencia
##erva
colum
ja
ton
estat
clase
conqu
armas
quienes
valor
##rados
##urso
##accion
ataque
##ificado
##ys
sitio
castillo
japones
empezo
ron
ga
comand
##laterra
inglaterra
bl
toc
coron
exteri
aires
cien
##alizacion
1990
tab
portug
episodio
intento
##wa
consid
firm
servicios
iv
183
luch
##ibilidad
emper
##pas
eg
perf
relaciones
estructura
meto
##fe
act
etc
presenta
dig
diversos
recuper
gobernador
cated
##ye
##encial
mercado
dejo
guitar
desemp
energia
diput
##americanos
acompan
dev
##ches
##amientos
##int
##tim
islas
comision
longitud
reco
profesional
##ker
londres
dado
semana
rol
jugo
jer
##atorio
##tad
fot
zonas
anal
datos
##orias
reemp
##rique
ferro
##tero
calif
diferencia
##ectura
amplia
hid
filoso
reti
prision
##tre
sustitu
##uta
vie
60
##olas
##enda
productor
##turo
industri
grad
rem
mec
condado
inmedia
pacifico
descon
realizar
secret
japon
tales
medida
enem
182
ocho
##lea
ocasiones
##endio
35
##yn
hici
##ij
dicha
##isa
todavia
generalmente
nos
adap
venez
##ivamente
idea
respons
lanzado
transpor
latinos
##val
amar
##aca
##sta
ces
iii
##orios
matrimonio
incluye
##aja
sam
comienza
paz
novela
##ram
1999
existen
pag
##clam
divid
lleva
negro
resul
tradu
santia
festival
##ecia
influencia
##sh
##gia
tierras
elegido
demos
mano
##ispo
policia
marco
continuo
realidad
personal
afro
veg
##emb
posee
casos
motor
monte
efec
##jes
##lev
181
##ezas
##ole
adop
apoy
seguridad
##alu
financi
##ulado
simple
peliculas
##inar
##ale
depend
##cepto
fo
manif
##etos
estadio
##abilidad
##gio
expres
##amento
manten
eso
cuyo
santiago
sos
cob
tomo
palacio
situado
verano
adel
capitan
##uros
##otes
metal
hot
proteg
##tante
jur
veloci
material
mc
multi
ambas
xix
##eti
fabric
hispanos
rum
vig
clar
sum
viol
residiendo
##rido
consegu
som
transform
mejores
permite
##lav
##we
extre
combate
##ablo
carta
##dez
opera
miguel
congreso
500
##ulacion
trabajos
respecto
caball
ingreso
trabajar
urb
lengu
##itario
##ko
bill
1998
far
arbol
consiguio
dom
##imp
creo
sc
temper
libros
2018
##aco
formula
##rieron
asociacion
encontrar
existe
soldados
##apa
diversas
velocidad
80
conta
podia
##itado
veci
##tific
1980
manos
conflic
parlam
##asa
occidental
##ianza
padres
concl
pier
william
##dose
##imen
artistas
actividades
desarroll
otor
haciendo
vuelta
##let
recor
refle
##ft
auton
ord
##ky
roma
hip
carre
minutos
independiente
completo
##ney
participacion
##acto
rebel
contrato
compet
etapa
dor
##iores
mediados
enfermedad
jugadores
hermanos
parece
formo
secund
ingenier
estra
aire
##ualmente
esf
bomb
retir
dim
voz
militares
nuevamente
autom
plantas
nic
sing
camara
seccion
enrique
ses
##jar
arro
californ
contrib
hubo
cumpl
flores
mantener
academia
fernando
varia
conform
##irma
vista
espir
##rantes
gente
libertad
convirti
##teria
##eas
golpe
disput
consum
david
sigue
##elas
wh
##ance
##tom
ocasion
orb
condiciones
elev
gon
##ices
jovenes
figura
mecan
bene
estr
considerado
##berg
crear
siguientes
deri
##cla
mayores
teoria
merc
1996
simbol
importancia
##culo
entrada
administracion
amena
top
emperador
barrio
##iria
paul
pronto
presento
cuarto
1997
salud
tuvieron
##af
pocos
comercial
sentido
lugares
produjo
editor
##irio
cuya
viaje
aparecio
fundacion
##red
##onso
proxim
hal
alcanzo
ras
expos
celebr
##cta
##ny
sera
ejec
##izar
sar
buena
asum
adqu
formar
vi
1970
##uyo
caracteristicas
california
fies
1995
pobl
32
evitar
##stru
##ish
representa
asun
##tando
actualidad
excl
senal
humanos
##vers
cultural
distancia
fotograf
##ricul
chil
##ood
sociales
##onica
pred
post
concent
tim
razon
##uro
pequenos
escen
unidades
conoce
70
exped
hall
##amos
all
design
municipal
obtener
unidad
aprend
##vent
independencia
##endose
contemp
##ometros
economia
je
##idio
corri
obstante
asim
piedra
rusia
calidad
##rael
traslado
industria
reina
respec
hospital
fase
acus
1994
##echo
bru
90
##ure
45
nie
##ivas
modern
lengua
femen
##mientos
contiene
flu
colegio
oport
##ington
##erd
asiaticos
posterior
1992
prog
##ks
suced
templo
ensen
toma
mantuvo
probablemente
pasar
acceso
locales
glob
##itivo
israel
sistemas
artista
numerosos
##chas
amigo
rode
##liot
wil
tip
dep
sev
localiz
fuente
lanzo
imper
oportun
falta
##etica
restos
##rios
bul
rot
lanzamiento
rapidamente
debajo
##ini
##tran
utiliza
llega
amerind
##ieran
pant
tratado
hicieron
fuego
afroamericanos
espa
##cidos
formas
enci
cris
oriental
escrito
izquierda
efecto
ecu
film
francesa
vien
coloc
##ursos
##isis
estreno
ganar
##ctamente
dispar
veh
profund
mate
kilometros
dinero
cambios
pasado
##uo
marca
originalmente
indic
##ward
difici
federal
traslad
comercio
encontraba
azul
##atica
defens
##ertura
inicialmente
crim
##enses
convertir
hogar
amerindios
##ecido
##eres
##ancias
animales
##use
cuanto
aguas
anteriores
lad
##sen
1991
obten
madera
estudiantes
puente
##mer
coleccion
productos
show
compon
##don
gab
evid
pobre
britanico
##guay
nada
wal
confer
36
incluyen
solici
tomar
goles
sang
hojas
ejecu
##hu
referencia
dolares
colombia
doble
cron
maqu
fen
garcia
sufici
1993
##entado
sier
##ive
correspond
critica
legis
hen
angel
avanz
oficiales
fundam
ninguna
vehicul
##icias
aprob
amigos
rich
promo
##turas
llegada
##ey
bon
verde
dibu
##ling
jack
parro
##ilio
inicia
rojo
llevar
##gada
##raron
1960
ciencias
nino
escena
##jero
##cen
promedio
docum
bla
idi
espanoles
##olit
mand
presion
##erse
##america
pul
##ight
estim
anad
##ificar
perdio
variedad
areas
considera
##ides
33
##zar
aj
##rodu
aumento
quim
##unci
senor
oficina
castel
semanas
casas
pequenas
kar
canada
actor
comunicacion
war
##lust
principe
##ique
tradicional
robert
literatura
sens
palabras
bibliot
gir
##itaria
pueblos
jard
lineas
resultados
elabor
web
tro
familias
angeles
ee
##izado
atencion
fuentes
olimp
##ipe
crecimiento
conde
accid
peter
ib
sat
##elen
estu
aero
tron
##abil
prueba
180
##culos
volum
practica
india
##ples
##crip
acerca
magn
boliv
##bia
ka
santo
##burgo
indig
lor
##cent
jugar
##idores
palabra
dirigida
james
numerosas
fondo
volver
##iqu
pelig
empresas
##iter
star
politicas
debuto
##gue
bastante
mens
##vas
##lant
repar
inferior
1989
##izada
##ologico
decide
promocion
utilizado
##ith
##iga
simil
republic
suelo
gonz
##jetos
diario
##by
nacido
fines
austria
asimismo
adicion
institucion
hora
##tien
pregun
conce
buen
problema
alguna
cree
egip
entrev
alum
tecnica
isl
ronda
##onte
curso
##uye
construido
sorp
arque
hier
sala
sonido
hermana
economica
you
entro
lago
##gin
invas
realizado
maestro
##iller
reemplaz
##uelas
programas
chica
prohib
virgen
australia
futuro
##men
##carril
sobreviv
ilust
permitio
llegaron
exterior
tiempos
grado
politicos
peso
ferrocarril
jesus
##dio
##ame
tall
edificios
formado
esco
puerta
obispo
larga
##andez
mostr
espiritu
creado
fundo
frontera
escal
llama
##ps
visit
declaro
establecio
situada
existencia
naturaleza
aprov
##50
comenzaron
##aster
crisis
cabal
atrib
triun
unio
esfuer
##tados
escul
derecha
dando
alcal
guerr
##omia
##uth
ray
venezuela
esos
sel
evento
##teras
##azon
emit
##ates
##itiva
estrella
christ
comandante
##hi
sug
derrota
##vis
catedral
arquitectura
hue
consecuencia
##ierte
provoc
##ella
habitu
##eos
aven
tribun
hero
##inados
sta
efectos
ruta
historico
jorge
captur
administra
decision
escritor
patri
ec
fol
ox
300
carb
usa
pertenecian
siguio
cadena
##tle
dr
mezcla
quer
italiano
records
um
produce
adelante
completamente
objeto
##dan
##tia
haci
34
medici
org
prensa
pic
ministerio
anteriormente
bern
transporte
autoridades
papa
got
encuentro
argentino
##ste
elector
pet
resistencia
alterna
estrateg
ciencia
paral
pintura
secretario
aus
uru
alex
imagenes
mues
ubicado
##ity
uu
dirigio
rios
##ford
##omo
ves
aquellos
##iada
1986
pruebas
nave
especif
cosas
##ael
##inada
evolucion
cra
experiencia
##rana
##osos
colec
operacion
catolica
maximo
comite
usu
acciones
##ws
especta
##ertido
asamb
##orme
venta
aqui
encontro
1987
autores
busc
##way
corona
actriz
tipos
##uez
##andro
carretera
##adoras
africa
estruct
1988
cordo
##jeros
lop
retiro
##bles
realiza
competi
##illos
38
hacen
##leg
1985
respuesta
nacion
rend
37
gestion
##entacion
desemb
##ismos
##idor
##inal
my
##taron
transmit
##ield
nad
##grafia
clases
refug
recuer
george
titular
debia
retra
rit
capaz
estand
##atico
presente
tum
banco
nacionales
nueve
valencia
aerop
levant
play
usar
pablo
directamente
diam
human
##ld
internacionales
justicia
hig
puso
siglos
explic
motivo
pareja
fortal
##esion
versiones
##ann
canon
dificil
##istica
iba
contacto
distintos
regimen
##rano
descend
##ium
operaciones
publicacion
regiones
junta
##ciente
precis
metodo
aparicion
pasa
##iacion
deben
actuacion
suele
salida
orques
oce
decor
regular
##undo
recursos
blanca
facult
votos
premios
adul
##var
1950
##inte
##ander
##uerto
ce
dirigido
179
##iss
felipe
##rista
letras
sierra
##adura
wor
##anes
##yos
duque
britanica
franco
piezas
##uracion
filosofia
port
conflicto
##arra
expedicion
antiguos
vot
tour
fi
bron
1982
later
oposicion
oscu
##oles
hered
detras
fic
conocer
##gica
##riendo
cara
##tienen
facultad
vuelve
afirm
ina
construir
michael
habria
tub
conseguir
fos
bloque
abog
##emente
escrita
lopez
reprodu
##arla
texto
naz
trip
fusion
supon
increm
##ath
concepto
temporadas
intent
##ctu
fundada
agricul
##cop
histori
monaster
islenos
capita
interven
##iendose
##ej
dismin
geograf
objetos
perdida
dificul
cro
vision
mismos
eleccion
##yl
invol
solamente
asent
1983
##zan
andre
eng
##abel
ded
1984
tenido
vivien
coronel
infl
##grafica
dinam
##urado
##lom
##eth
contempor
abandono
analisis
rango
pie
crea
vivo
bah
nombres
menores
##bio
##ast
queda
capilla
exig
campos
funciones
latino
candida
exclus
distintas
nues
castilla
##pl
xviii
##sto
barb
penins
atac
opin
grieg
clima
recibe
ov
marcha
condicion
pared
arb
nap
llegando
##ade
corpor
articulo
oficialmente
proteccion
clasific
mir
extremo
##rera
titulos
##zado
alianza
aleg
series
exposicion
dejando
##ritos
##lia
##titud
salio
tol
ret
asamblea
##tional
tecnologia
##bral
proyectos
##rales
alemana
##jeron
expuls
sovietica
ahi
envio
mala
1979
contaba
utilizar
invers
42
##antil
##tum
explor
visto
alcanzar
amist
##vos
pref
##ulada
continua
fich
naciones
europea
fantas
temperatura
calles
niveles
seguir
ua
dete
rech
victi
participar
##tista
mucha
avion
##inato
reconstru
dejar
##ius
terreno
jac
posibilidad
circun
arrib
pobreza
retor
planeta
##wood
humano
intencion
respectivamente
diferente
fus
ancho
trabajadores
registro
maxima
alemanes
absol
musicales
##arc
prev
clasificacion
posteriores
frecuencia
convertirse
vill
candid
promov
domingo
deportivo
cerro
roy
cortes
montana
1973
sangre
materiales
brig
win
interna
producto
torno
anunci
##rey
##ologica
##ror
##itz
conocimiento
sun
modelos
conced
##ertos
exitos
berlin
##urar
romano
montan
1976
tir
##ague
conocidos
llu
construyo
it
inn
parlamento
fundado
aeropuerto
permanecio
hechos
##fon
hem
##ty
titulado
necesidad
1978
memoria
pros
##ectar
portugues
producir
criticas
uc
negoci
1975
generacion
reconocimiento
##my
comprom
representacion
ascend
colaboracion
rub
fracas
##esia
agrup
almac
duro
similares
biblioteca
##raneo
basado
plas
world
entrenador
reaccion
ejecut
manifest
colonia
##icidad
hues
##tian
nuestra
cuen
geor
tun
inaug
##nam
##itacion
sola
regional
involuc
territorios
reyes
comienzo
alfonso
##ics
constante
ganado
ruso
mist
producido
aum
natal
cuestion
corto
ideas
alcalde
41
ubicada
oportunidad
asign
##ilidades
embaj
sabe
frag
44
ayudar
##atoria
ordenes
sacerd
excepcion
##puestas
veget
invierno
figuras
##ili
exter
39
##kin
program
##ise
necesario
aprovech
##entas
discip
nega
destaca
##rita
distribucion
65
##chi
empi
##ensiones
concierto
coin
estrellas
ana
apertura
proven
preoc
cere
corazon
hit
jean
king
demasiado
xvi
carga
especializ
hidro
apenas
propios
coci
subs
##onimo
##quis
economico
pese
##olver
pret
##cciones
##orth
convierte
richard
1981
entrar
rechaz
colores
##ux
diego
1940
contrario
##inta
##uma
logra
fas
##grafico
1930
##alez
roc
escuelas
ambiente
eventos
sag
##cimientos
videoj
revel
vuelo
llamo
intens
##bes
von
normalmente
rafa
podian
terminos
tej
guion
##ator
frank
leyes
1977
##ioso
generales
##esta
disf
gonzalez
##ianas
acto
provincias
consul
celulas
##cieron
composicion
propos
perteneciente
extension
black
##ware
estadounidenses
bandas
articulos
ordeno
extrem
##untamiento
dese
rest
habla
escribir
convers
conciertos
fiesta
deten
aparecen
cordoba
ayuntamiento
justo
deriv
##urg
cord
##andes
48
sufrio
periodico
renov
lob
progres
sit
fisica
air
cierto
imperial
contenido
##ting
178
salir
basada
1936
distribu
matemat
intelig
43
##esti
##com
##col
plant
ais
##tividad
lou
claro
octa
fach
fle
encima
1968
grabacion
2019
##vid
totalmente
1974
tratamiento
##ugh
ataques
busca
##vel
bajos
firmo
75
guitarra
industrial
noro
##oras
##pec
inicial
simplemente
habl
orquesta
medico
copias
##lica
usando
complejo
rodrig
supre
forman
terror
pista
noroeste
franceses
##orno
peninsula
##osas
##eco
musul
ham
botan
charles
mam
ascenso
sevilla
plante
ken
##uf
ira
impresion
sopor
marina
aspecto
medalla
dispos
1972
conocio
codigo
equiv
avent
##ek
apre
plat
recha
consiste
estandar
rica
vivir
inmediatamente
bosque
federacion
monasterio
equip
lid
establecer
guad
plataform
##olid
metrop
teat
decreto
poderos
renta
salvador
estatal
##tria
aves
1945
sul
vac
busque
candidato
bahia
aten
ries
##ville
instru
castell
desarrollado
##icales
400
##uk
sencil
##igue
guar
roman
autoridad
destino
##tol
previa
fri
isabel
fallecio
abre
compuesta
explot
wash
##cidas
ofrece
##cede
avenida
automov
esclav
recien
caida
aviones
##augu
##ari
bau
conquist
##rer
amplio
sud
##imos
formato
##amor
teniendo
reforma
1969
alber
famoso
juntos
medicina
resulto
prote
sello
##amin
muerto
desempeno
judios
##utas
##idae
recl
hotel
47
portugal
64
vivio
descar
perez
tecnicas
barco
presidencia
flota
griego
populares
adecu
depos
bienes
##ement
abierto
juvent
dificultad
lima
cientif
queria
abund
rodriguez
##landes
extend
##aces
surg
atle
pertenece
dominio
armada
naturales
demostr
prol
##yendo
##ello
##iracion
##etico
##mision
lec
carl
critico
instrum
ric
comport
52
jardin
continuacion
propiet
##ave
escenario
dinas
daniel
1920
estudiar
##avera
arquitecto
##mith
exhib
##hol
proclam
esas
lograr
98
carreras
nacimiento
provincial
escala
##ticas
etn
masa
guate
##inales
##yas
arco
1967
##antino
torres
piloto
##ilos
##anzas
direc
vit
pis
##ecieron
puertas
asal
alas
escol
guatem
anot
city
thomas
washington
##sk
fuertes
gro
patr
fernandez
creada
##americana
fundador
meta
##ieren
150
sind
cum
doce
espec
1971
nucleo
ojos
movimientos
vocal
##ciales
islam
97
##itivos
##board
hun
impues
acced
inaugu
nob
edit
punta
comienzos
companeros
cd
##uos
alla
idioma
cuarta
##usa
discos
bay
decadas
humana
pies
177
poesia
europeo
deleg
##istan
recibir
interc
infan
colle
ke
##iense
concurso
##entan
##icial
invasion
##ologo
pira
impos
##ster
##quin
psic
reunion
##iese
##radas
escas
##ude
cataluna
viejo
sm
46
atras
gig
mark
rico
##ilia
incon
bob
usado
conden
##zada
##wer
convoc
tribunal
vide
disputo
sy
suelen
##mann
##leo
centros
utilizando
bil
arabe
expans
secu
env
expresion
##angel
editorial
##cy
##egu
convencion
cerem
##aticos
diciendo
publicada
##teros
asuntos
##enciales
noble
bret
fabrica
tv
west
agric
cau
##ike
inspir
encontrado
##tier
pintor
pena
agricultura
sk
##rest
interpretacion
##burg
##mento
##arian
comerciales
##otas
haya
##atas
estren
responsable
confirm
1939
luna
ko
ace
naveg
aquella
vecinos
volunt
ventas
55
reconoc
preocup
detal
biolo
torm
##rende
indigenas
acerc
rue
51
##iene
rosa
huel
##rion
realizada
mascul
deja
descrip
atlant
neu
secre
##etes
aconte
esqu
directo
siguiendo
bajas
mexicano
familiar
##ata
arma
rafael
celeb
fenom
dieron
encab
escenas
aument
visita
unicamente
instalaciones
britanicos
1964
mix
ocupo
multiples
recibido
##aturas
completa
audiencia
oriente
considerada
instituciones
teniente
busqueda
clubes
##erson
##ordin
construida
jav
bronce
gris
eduardo
interpreto
cristo
alberto
vino
alejandro
miles
cuenca
clave
guiller
buscar
desconoci
distingu
sw
compositor
##aras
##estr
denominado
altas
dramat
elig
escuad
estad
requier
lenguas
extin
negra
propuesta
poderes
trabajando
hierro
fres
cif
fc
corta
diputado
1966
dob
pasando
tecnico
gil
comput
impuls
##udio
##ott
arboles
cambiar
##quil
montanas
quinto
orbita
poner
##xto
carn
##cher
cola
poeta
xvii
convertido
##idente
reales
alde
gom
trono
repor
##ence
uruguay
polonia
competicion
liberal
guardia
incluido
sirvio
religion
##trop
ciclo
rein
prefer
document
turist
identidad
reclam
dura
cinema
asesinato
##orial
espect
##etra
secundaria
cierta
margen
intercamb
almacen
bea
micro
aerea
listas
##exion
renun
juven
electoral
##encio
grav
celebra
##char
juventud
1965
episodios
96
##lie
necesit
##su
##urus
##urre
##arqu
ramon
incid
tru
manana
##ologicos
billboard
49
desplaz
biz
reinado
enviado
carol
presentan
accidente
especiales
cuba
relev
##pia
pocas
propias
investigaciones
medidas
brill
lee
solucion
encabez
##yen
guillermo
##uz
recom
ciudadanos
ultimas
transfer
afect
valores
1941
fachada
comunes
##aman
borde
corriente
##ski
trato
muertos
moderna
cayo
cesar
internet
##onico
fama
##tadas
anual
expansion
sebas
##riel
testi
protagonista
smith
albumes
##cripcion
bud
##yan
gor
tren
1962
quiere
escudo
##cesis
mantiene
martinez
invit
criticos
##ejo
competencia
personalidad
cup
1944
destacan
realmente
llevado
##stein
licenci
conferencia
love
historias
rig
socialista
suminist
tac
clasico
augu
##alos
volv
rib
altos
cue
relativamente
normal
mexicana
mult
aseg
emig
periodista
compro
##yeron
corea
##rimiento
integra
95
##lor
barro
vive
artill
recientemente
acum
limite
comunidades
regresar
lenguaje
hard
##oper
suficiente
##ato
comprend
impacto
##eramente
altitud
##tiende
cubierta
1963
inmig
umbral
planes
adv
companero
cicl
alar
volumen
##ax
metropolit
##ife
graf
##20
emo
dul
canto
##landa
scho
##torio
##alia
indica
marido
excel
benefici
intele
llan
##cat
cil
descrito
boca
grabado
primavera
patron
53
##sion
99
universal
semif
termina
bosques
civiles
denominada
europeos
asegu
exac
senora
ido
treinta
vert
##rich
terminar
reserva
##erios
adoles
rapido
##ete
enemigo
##alizado
infanteria
manda
dedico
pasaj
##uno
explos
abrio
posiciones
comunista
greg
exit
54
desaf
##orden
##tif
organizaciones
phil
diplom
adolesc
##bc
arres
cav
veinte
jorn
dro
breve
egipto
debil
barcos
##vin
##uelos
##izas
124
sober
dam
##uciones
sean
santos
utilizan
##raciones
practicamente
##arle
piano
residencia
aragon
pidio
diametro
digital
ejecutivo
##puestos
##gadas
modific
circu
aliados
##field
##unda
##illera
56
rog
conto
hos
##well
elemento
##imas
ced
convirtiendose
triunfo
formada
cafe
requer
plano
arreg
nicolas
publicas
refiere
aspectos
##arde
##eso
entrevista
describe
##edas
irlanda
end
rin
1958
intenta
afric
ecl
dinastia
1948
aficion
molec
poblaciones
salon
bandera
transc
rechazo
franqu
marques
sosten
instr
juicio
podrian
##dia
opinion
##taba
##fos
##azz
##bus
presentacion
vehiculos
superiores
vil
costum
##gados
cha
abandonar
##apor
reac
representantes
encargo
completar
acabo
max
raiz
joa
cargos
formando
cuerpos
opon
##odia
propiedades
conquista
enemigos
##tud
duracion
diferencias
gam
##uch
afirma
combust
jon
implic
tard
factor
saint
##mentos
metro
##alizar
firma
porta
bac
perder
##ariamente
caracteristica
urbano
vincul
##jado
hung
arist
violencia
ms
mary
andres
popularidad
particularmente
saber
aplicacion
cinemato
bog
llevaron
sha
acor
coment
cred
bretana
municipios
solar
llamados
romana
andalu
guatemala
chicago
park
ambient
##ars
alma
##tiles
lis
convento
intelectu
cerv
juega
emision
textos
puestos
##epres
##americano
arriba
lun
denom
utilizo
reh
american
57
##sos
stre
disponible
seguido
empieza
tradicionales
tray
suiza
1943
pieza
big
##ites
1961
##udos
musicos
descubre
jim
escap
igualmente
fras
otom
homen
ganador
1942
arz
fan
1956
entra
##ls
##dores
iglesias
reconocido
potencia
incluyo
62
hablar
league
cercano
##ison
conserva
ala
lagun
esque
henry
diputados
##lada
granada
fla
lideres
college
educa
up
tamp
##ctos
escapar
restr
oscuro
viajo
lam
ti
zar
plane
clin
animal
sexual
##rador
abajo
dur
##istico
razones
parroquia
documentos
vall
##chez
afirmo
##udas
notable
176
##usc
cho
llegado
liqu
tw
##usieron
vicente
##isf
she
##aticas
##ere
rena
tib
serian
ucran
provoco
##lares
posiblemente
petro
vo
cot
soft
caza
entrega
noticias
grecia
bateria
campes
bases
##tain
fondos
##ku
tomas
estructuras
incluia
cle
ecuador
actores
desarrollar
teor
1955
58
hern
1937
##bert
##landia
coal
eje
materia
letra
zara
suecia
mid
##urada
canad
cria
monumento
amistad
##urt
vest
clara
##arquia
grados
##uria
estaciones
volcan
74
universo
televis
carden
##cle
procesos
##iares
##ilacion
representante
ost
cr
evangel
school
riesgo
##ett
sorprend
pico
##enio
tap
##its
##tern
piel
1959
global
##oda
entorno
debio
mediter
1957
sosp
cuid
originales
historica
lab
intervencion
segundos
##guer
##segu
moderno
vicepres
empleo
lesion
comedia
##iot
encontraban
concepcion
medie
66
##old
##atan
1946
resulta
dal
##ricidad
mario
italiana
motivos
ganando
latina
culturales
ensenanza
princes
ofer
muestran
practic
tocar
batall
momentos
cooper
transmision
##si
disenado
pantalla
oceano
600
##opa
instrumentos
atacar
perdido
63
61
##ull
negocios
ign
conm
##ges
motores
mostro
liv
##pi
##quez
85
pasajeros
antiguas
##lazo
##taciones
unidas
proposito
peligro
fall
1938
presu
admit
consumo
ater
royal
continuar
derroto
sebastian
une
amarillo
ocupacion
redes
astron
companias
comportamiento
oliv
##ont
ficcion
##edo
##esto
##guard
enorme
ty
salvo
ambito
##iedo
68
##cular
nombro
obr
##ctores
##ecera
##reste
##ped
fortaleza
delan
generos
mural
liberacion
permanente
reserv
emerg
simon
hamb
oton
victorias
carne
activo
cri
pinturas
beat
homenaje
pales
precio
sanchez
arzob
matar
160
alimentos
sand
asesinado
reca
circul
mismas
publicos
norue
##itivamente
##abe
abad
##vd
sospech
gomez
pretend
hill
trin
##amo
prestig
1947
coincid
##enco
identific
secreto
1949
tampoco
##etido
derrotado
set
naval
dolor
narra
once
##itarios
agente
bran
pago
elimin
consta
secues
tramo
gradu
religiosa
pec
##andolo
ediciones
texas
arena
actuo
mort
bov
mejorar
joseph
cay
musulman
cambi
pueda
76
directa
actos
zel
designado
plataforma
fracaso
compr
1952
##iertos
negocio
ingenieria
nina
cement
denominacion
##olis
metodos
diaz
##rupcion
sale
baile
moscu
descubierto
ple
##erte
dial
ocupa
1933
lejos
corn
emplea
dedicado
inicios
1931
##osex
om
cristianos
finalizo
mandato
quedando
1954
habitual
ricardo
cartas
##ings
profesionales
contemporan
nadie
pur
usuarios
grand
abogado
exteriores
alo
artilleria
consigue
autonoma
##adero
vias
caja
belle
zo
##uss
contexto
cuel
roja
##eran
acog
##ips
72
excepto
##pio
garan
iran
orto
1953
ingeniero
cientificos
opcion
presentado
viviendas
##rillo
tratar
federico
##yd
encontraron
xiii
intereses
romanos
ciertos
playa
informe
suici
##oreste
##iernos
presentes
victimas
chino
mira
descubrio
##har
columnas
amenaza
ofens
efectu
##enia
explica
fues
jazz
##ets
demanda
##alen
simbolo
escritos
##gs
cuadro
noreste
exam
sonora
mezcl
patrimonio
acu
tok
objetivos
71
partid
absor
88
verdadero
cy
1934
pelea
individuos
grabo
millon
59
enla
hin
aux
herram
movil
core
revistas
tel
realizaron
cientifico
##dy
84
##esper
bellas
##hal
bombarde
alvar
##tis
herramient
apod
recuperar
establecido
stan
##ons
agust
capitulo
apreci
##kov
ocul
##roso
regimiento
suro
##lio
prove
brown
##ani
##orro
67
concep
proteger
73
relacionados
##aldo
##sey
discu
coalicion
##pla
oscar
software
nerv
espectaculo
##pes
sureste
cultivo
##iadas
##itores
78
ciertas
espectadores
terra
culto
limites
1918
esfuerzos
inferiores
cilind
hop
##ologicas
nas
musico
cuyos
##zgo
previamente
columna
##enar
asturi
kir
carcel
ampliamente
campanas
filip
##ifer
imple
bach
##itales
cumplir
frecuentemente
cabe
utilizada
infancia
##otipo
trabaja
alco
precip
anf
artistico
olimpicos
175
corresponde
adquir
voto
contras
##arco
florida
coche
miner
misiones
remon
ligeramente
recorrido
##etr
##edor
##jan
cosa
evidencia
92
ubicacion
dictad
escritura
##cesion
azu
##ze
asistio
louis
unif
escritores
comida
adm
lados
arti
carbon
destacar
tercero
defender
coro
##viera
pastor
balonces
estuvieron
800
im
trafico
perm
avance
ampli
defend
diocesis
fundamental
alcanza
94
ak
leyenda
##ese
##tic
tropical
test
extranjero
sectores
horiz
gust
vii
##iertas
dedicada
unirse
exca
documento
claus
producida
##eck
##rea
cercana
esperanza
graduo
quinta
ileg
cristian
##rino
guitarrista
femenino
confeder
1929
1935
constitucional
interm
actuales
87
descrita
lograron
pagar
##organ
##entalmente
vehiculo
loren
equival
critic
sirve
rusa
restau
tio
deseo
canales
posibles
atmos
inglesa
contar
actuaciones
##win
##ilib
quedaron
him
atraves
rat
recur
clasica
debian
77
##inea
gusta
hielo
asumio
revela
participaron
acepto
espacios
tin
diferenci
recep
declaracion
satisf
##ficio
provision
complic
ejemplos
##ajas
llegan
champ
##rez
cruc
desf
familiares
##erias
1932
legal
entidad
telef
##ters
ausencia
concre
86
noruega
abd
privada
roca
iniciativa
guerras
evalu
automovil
bis
ocurrio
recop
describio
radical
caud
##amica
1951
algu
canones
boy
##ulso
urban
adaptacion
hacerse
suroeste
jar
ann
disfru
cancer
caballeria
deportes
esfuerzo
##uir
fruto
by
##ocia
castro
americano
##acos
restauracion
pone
factores
gim
japonesa
##tina
vul
sed
innov
viento
alguien
decidieron
horm
espera
pagina
retirada
data
penal
concentracion
caballo
paredes
pudieron
infra
equilib
caz
wol
portada
actitud
roberto
##alizada
ajust
obligado
##iens
sitios
viene
inteligencia
adqui
wa
rival
posesion
extranjeros
laterales
bet
##ecas
##urb
virgin
zarago
ayudo
princesa
novelas
##hel
##amentos
abierta
hacerlo
250
dictadura
conocidas
ejemplares
profundidad
crecio
parejas
march
atletico
delante
day
adultos
dieci
pele
nuestro
participantes
##antos
##cam
siguen
120
hubiera
baloncesto
jugando
1914
estudiante
ly
anoto
desn
desen
poemas
##esp
reducir
69
incluida
peti
osc
destruccion
pist
aport
danos
turismo
##uelta
desm
rebelion
minuto
gub
junior
quimica
cof
##inete
rebeldes
prisioneros
campeones
refor
catedra
titulada
##rarse
##nm
papeles
historiador
dre
fiscal
81
83
enfrento
cementerio
semin
futbolista
ball
universidades
fiestas
rab
espacial
tarea
legisla
individual
rosario
carib
informo
piso
##real
green
celebro
considero
ofrecio
terrenos
acces
dun
noc
mudo
facilmente
1928
adquirio
##wan
pit
##resa
bad
empleados
##idez
1919
duo
##aliza
dvd
emocion
senado
propuso
venezol
ocurre
pensamiento
publicaciones
ritmo
humor
finalizar
fib
cielo
reper
iban
naves
juez
1917
encargado
patro
propag
circulo
indios
rural
libres
tig
##para
agencia
puntu
##ju
maquina
nord
##endas
famosa
fox
##elia
predomin
bailar
82
scott
##iri
entrenamiento
north
##eciendo
german
minas
deporte
##geno
caballero
pasaron
tole
elog
gabriel
##aros
bell
##eler
export
habilidades
circunst
oh
##rick
aliment
##bs
crom
economicas
enfermedades
viajes
adam
##ectado
##osh
categorias
duda
comparacion
##rico
vasco
rendimiento
electrica
jan
##acu
viven
continente
cristiana
tabla
permitir
presentar
jacob
##lados
destacado
aumentar
dispers
llamadas
llevan
jackson
event
hermanas
satel
pudiendo
toledo
cultiv
##uga
reciente
##daf
nombra
xii
##uca
sara
holly
ejecucion
extiende
componentes
representan
gales
cuartos
##cada
definitivamente
tesis
hungria
##fera
artistica
podemos
map
habitat
flam
dot
discurso
viena
zaragoza
basa
fij
desarrolla
plum
cinta
##ess
infantil
documental
pide
ilum
funcionamiento
actuar
##uyen
one
##emia
kn
cen
pacientes
apun
historicos
arbit
mesa
##rigo
##key
disputa
##izados
fechas
bolivia
alumnos
colonial
tax
sacerdote
tormenta
poca
##eng
significado
barrios
conn
costo
destaco
1910
national
arras
compra
esclavos
probable
ventaja
menciona
ot
retorno
79
potencial
miss
##ji
certific
lum
redon
od
edward
lanzada
religiosos
164
##etir
establecimiento
perspec
rama
##esias
paraguay
femenina
##irante
plazo
religiosas
hacienda
##urn
jane
moral
calor
mensaje
partida
morir
abor
nº
aprendiz
fenomeno
##trando
arcos
escultura
single
ax
dada
proviene
sacri
economicos
valenci
homosex
totalidad
eug
##ocol
house
exilio
preced
derrotar
constituye
excav
89
emis
requiere
##of
deberia
luchar
##lina
##imetros
##aste
periodos
comarca
cog
belgica
##ormes
net
mue
jord
high
dificultades
seguidores
##rias
##anta
ceremonia
hy
otono
poseen
##arro
parecer
agre
solitario
fisico
tendencia
##vision
logrando
south
aparte
hispano
americana
##uido
##redo
escocia
regresa
suspend
##king
##estre
introduccion
sucedio
cientifica
recog
llevaba
artifici
confirmo
organo
galle
##fam
recin
usan
sexo
circuito
##ileg
johan
sucesor
aparecer
corrientes
off
##ologias
ensay
conservacion
grabar
buques
##ni
##hy
sencillos
seres
trataba
##ati
surgio
salto
cens
gall
vicepresidente
combinacion
vendio
##uyeron
producen
brillante
habiendo
##jud
arzobispo
canta
fueran
organizo
company
empezaron
belleza
##rin
nota
activa
juvenil
pion
##ms
abra
escond
negros
1924
##oli
divor
universitario
manifies
xiv
marcos
consideraba
##ifa
156
manusc
temperaturas
marit
domest
consag
zap
simult
##van
situa
jurid
guadal
##ball
deg
pend
agreg
precios
##iosa
consideran
cabecera
acompanado
buenas
161
buque
##diccion
transicion
participa
##ning
videojuego
sueno
##aves
kat
jones
lingu
estancia
disney
alcohol
descubrimiento
pudiera
disponibles
javier
abarca
153
independientes
noctur
##arez
gem
resolucion
1925
agentes
##sch
comento
##ova
estrecho
sudaf
basil
merced
intentos
persegu
hond
vender
detener
alcance
depresion
##rones
##tv
hund
utilizados
kg
navarra
irreg
sop
relo
##iff
converti
##bar
superviv
##acer
castellano
clan
escand
monum
argumento
traduccion
vieron
arn
##tarios
emprend
deportiva
dimensiones
encuentros
##tions
primaria
democracia
controlar
nace
determinar
combustible
lorenzo
neutr
hura
huer
cristal
night
semifinales
privileg
secretaria
oferta
kim
arabes
quince
##alda
protagonizada
maris
detalles
salas
privado
tasa
mah
##tone
recol
##iencias
##ologos
sexto
tendria
prus
##heim
milan
asalto
habilidad
exclusivamente
semillas
grues
kra
voluntad
wes
habitacion
##uegos
montes
1927
declarado
arquitec
##cuenta
##andole
carmen
conexion
paginas
xi
permiten
ramas
ferrovi
huracan
rique
separacion
gobiernos
170
1922
gh
fotografia
##ografia
farm
##sal
fuese
humanidad
1923
wat
mide
unit
galeria
trayector
##ciano
signific
juris
arre
lanza
gla
cincuenta
##hur
174
retras
dirige
enfo
caballos
##ll
##ualidad
##mes
parroqu
creciente
##bi
juz
raices
interv
colaboro
obtiene
chris
capaces
reemplazo
informa
catalan
laboratorio
acido
inund
brigada
li
tiro
constantino
instrumento
protest
ejercitos
rapida
brot
##curs
154
caracteriza
gubern
merid
##estruc
establece
interac
tomando
legisl
157
asistencia
crater
##hr
saque
bordo
##ory
ans
mediterraneo
##rump
venci
acontecimientos
incurs
##ette
arquitecton
panama
gib
##age
retro
159
primo
invitado
margar
##raft
##iran
##etio
polem
celebracion
##allo
##dox
williams
##usiones
bir
1926
religioso
millas
virtu
agustin
tienda
##zon
disposicion
rescat
dano
apariencia
proximo
diag
163
1912
investi
vigil
152
inversion
vist
introdujo
dragon
mana
causo
grave
cambia
##crib
det
##uge
ix
tripulacion
mach
drama
pronunci
ocupar
bater
esposo
tomaron
siguieron
pid
etapas
igna
aran
definicion
denomina
matt
config
##elle
pc
luc
##rue
acos
vendido
debate
suerte
empate
atlantico
integrantes
patrocin
conflictos
santu
bom
##asis
wood
171
##garo
some
expand
##mita
piedras
recuerda
sr
destruir
##eladas
fabricacion
desig
moneda
tareas
origenes
##itivas
158
sid
estando
desper
joaquin
##tiendo
lluv
viet
registros
divisiones
investigadores
mostrar
programacion
##ass
box
antigue
canton
napole
presidencial
antiguedad
pistas
abrir
##ami
##uera
dependiendo
cocina
ts
terminal
##enn
posib
oficinas
fom
nuclear
simp
medieval
efica
sto
conmem
usuario
parlament
1000
icon
laguna
1921
judicial
ford
##hl
formaron
agricola
eslo
dulce
adn
tay
ment
somb
musulmanes
antic
##erno
aplicaciones
impulso
difusion
doctr
##urio
suma
incremento
multitud
hogares
realizan
estrategia
##gones
reglas
puesta
bab
##ery
reformas
archivo
white
msnm
productores
pilotos
verdadera
taller
diagnos
comunmente
audio
bolivar
influencias
galard
apell
individuales
autent
reunio
enamor
agrad
hitler
god
caer
marin
iron
##pin
muro
pareci
suje
modernos
##ss
aparentemente
hecha
##tang
##lfo
hermos
mud
perdiendo
##matica
mete
but
arc
republicano
##gues
correspondiente
murieron
claramente
triang
colonias
times
catolicos
error
hollywood
beb
reduccion
embara
##amora
localidades
cuello
casado
##andia
atrac
mantenimiento
comenzar
poblado
deriva
cuarenta
##asco
joe
segura
desped
imped
extraordin
zelanda
##ali
peron
combin
realizacion
sugiere
ropa
young
acero
mata
destinado
trayectoria
derrib
##elli
acud
intentar
salvar
renom
continental
pregunta
pasos
dil
largas
seguro
voces
huevos
##tales
apor
agrupacion
embajador
way
##gor
##opol
ok
danza
espanolas
##restre
lanzar
dirigir
ingleses
retirarse
noticia
##chester
street
consolid
steph
cald
hil
##cht
##ring
personales
griega
techo
estilos
escultor
##ush
relacionado
time
mendo
##iber
173
confianza
atom
ubica
medicos
norma
efici
bogota
##itan
magist
comics
ejercio
incendio
##estiones
##ori
casco
##cismo
##bilidad
ciento
submar
##quim
euros
##usto
campamento
##estructura
ida
insist
155
practicas
incluir
nan
realizadas
saga
ninguno
descenso
##ally
incorporo
batallon
tech
varon
vivian
anillo
viz
cita
susp
supone
historiadores
suger
inmediato
tomado
##utacion
rup
166
acord
lidera
responsabilidad
##zi
out
inclinacion
revelo
##uco
1913
erig
soc
1900
impuestos
revision
nit
##inaria
avan
fuertemente
baron
romant
redac
aceptar
encarcel
##vies
##ogen
poema
caminos
japoneses
cancel
stra
licencia
recup
convirtieron
##uj
filas
golfo
##roc
##uyendo
ignacio
##sburgo
sot
vene
flujo
nick
blancas
conect
##isc
necesidades
jerus
negociaciones
refugio
fortific
instalacion
recinto
##di
relato
genes
ze
168
700
tos
demo
marron
desh
##urgo
fia
tono
##cian
occidentales
existentes
izquierdo
jaime
##oros
moda
162
existia
entertain
graves
aprobacion
sobres
##logia
paisaje
maestros
alternativa
str
dorm
hijas
08
organismo
doctorado
##uelto
abst
jornada
coc
##ns
##ary
ali
aldea
descripcion
asesin
daba
literaria
ganad
videos
bord
coord
fur
tas
viaj
grabaciones
##ots
espada
recuperacion
lord
iber
compromiso
temporal
recomend
live
azucar
recientes
ideal
guerrero
alonso
##andad
electron
ojo
##tias
pata
rojas
occidente
##familia
hectar
supremo
traicion
land
obteniendo
dientes
acabar
organizado
producciones
explotacion
urbana
barra
estric
##nia
##tive
cordillera
muere
gubernam
##fica
sinte
##eticos
brazo
trama
entertainment
vapor
denun
giro
##ih
boston
united
siria
buscando
##bras
yu
hipotes
triple
difund
hipotesis
pala
fores
volvieron
flan
mall
terrem
asociado
##ificada
raw
cov
incluidos
otorgo
acercarse
##ecos
comprende
stud
##ds
eclesias
##ipi
presupuesto
ofensiva
consp
armadas
##arlos
reemplazado
candidatos
expon
chileno
veter
##yer
tumba
volumenes
dibujos
pom
##enz
autonomia
yug
emitio
servir
interpretar
residentes
peticion
cierre
detec
dioses
och
patio
caracas
dinamarca
vietnam
relie
cursos
pir
ele
funcionarios
cuyas
##lamiento
eliminar
supuso
crio
cientos
aprobo
1911
cuentan
representar
archivos
cac
nik
asentamiento
dibujo
##fin
1916
entender
international
petroleo
temprana
heridos
kon
##icis
largos
parecia
acceder
jr
masc
interpretado
fusil
reparto
comprar
##elacion
casti
##nar
legit
influenci
rocas
##endario
##grado
##bal
##igas
griegos
depende
manga
rebotes
##oresc
andalucia
pale
##cum
##mond
peg
meg
recibieron
comienzan
funer
marcas
asistente
congreg
##ocas
za
##ional
nu
metropolitana
perci
##atorios
elegir
06
pp
leal
muros
sublev
restantes
establecieron
trag
brian
cun
##lot
jerusalen
centrales
robin
definitiva
videojuegos
rick
periodicos
dominic
##dal
##ridge
carolina
desempen
decoracion
##ston
167
protes
1915
##ecucion
##toria
lap
##mino
resolver
peligros
##edores
quedan
cura
imposible
award
##ruz
mente
estima
##bon
##oces
embarc
siente
secuencia
aeron
##arte
nativos
organismos
vegetacion
09
individuo
campeonatos
rh
italianos
##rina
viii
hugo
seman
contienen
limita
prestam
parci
asesino
cae
vencer
jeff
##icop
01
##yu
rug
pertenecia
porcent
electro
considerar
sesion
jurisdiccion
dispone
cres
inaugurado
cardenal
elect
excent
johnson
adicionales
abuelo
senador
maj
04
canadiense
impon
nub
nig
##aneamente
with
tradicionalmente
preparacion
empleado
continuaron
##ume
napoleon
municipales
resca
intercambio
##jera
estatua
incidente
enfoque
lav
##entada
renunci
proteinas
##ometr
##allas
cerebro
che
##plic
cantidades
autop
05
trabajado
chan
##ross
aflu
quem
arran
##alizo
ss
vallad
virus
mendoza
teatral
frio
malas
##onios
##quilla
respe
melod
esperaba
naran
discografica
03
georgia
##ago
coh
dc
propietario
regionales
gole
alvarez
gusto
reed
##idel
##chen
creando
aprop
hectareas
frutos
paj
matematicas
elenco
disparo
##iego
refuer
aterriz
cero
##isticas
herido
considerable
detenido
pesca
harry
##uero
vieja
cantab
inmigrantes
turquia
lla
subd
antrop
femin
sas
idiomas
##atar
retrato
asesor
escribe
gimnas
precisamente
logrado
controvers
##olvio
impres
dona
##ika
rusos
dejado
cadiz
spe
rectang
notas
ortodox
##rag
conti
condes
comunicaciones
suprema
construyeron
democratica
wilson
santuario
tera
mecanismo
especificamente
subter
permitia
desierto
ye
vivienda
nobles
creia
jas
pobres
165
destacados
perdidas
trenes
orbital
distritos
inauguro
##xion
07
poseia
culp
adicional
sucesion
novia
garantiz
##kins
anat
retablo
caribe
desac
minimo
pierre
monstru
dichos
toneladas
##tique
candidatura
##alidades
lateral
perspectiva
formal
amiga
mong
instalo
cuadrados
ocupado
##quete
vientos
##tron
marx
escuch
virginia
aquellas
heroe
gi
combates
##rie
senalo
gabinete
frase
##rand
blue
morales
manip
clientes
trist
perdieron
superar
repet
estall
tribus
observar
columbia
##idea
costas
blind
##izan
tony
dispositivo
galardon
notables
peces
serp
fir
compuestos
maquinas
viajar
windo
irlandes
tiendas
numer
##tuvieron
monta
limitada
necesaria
marm
virtud
perro
semej
mike
1905
##onna
anivers
circunstancias
vocalista
corpora
tob
vera
normas
##video
151
##amanca
##campe
afil
cartag
compart
##lon
##leto
##mina
nazi
haz
impac
steve
parecen
caballeros
cantar
argum
lucas
usada
frecuente
decisiones
mr
brazos
jesu
machos
equivalente
ofrecer
relacionadas
apoyar
##log
aereo
cosech
desaparicion
territorial
mencionado
##tarse
punk
trece
##odos
ultra
chap
desemboc
cuentos
montevideo
entend
disenos
recaud
preserv
bomba
##ricas
exposiciones
proporciona
##yac
##mentacion
##fas
experimento
00
teresa
palma
nba
valladolid
stone
monedas
chico
llamar
sao
##lao
##ieta
clasicos
gana
nacida
##guardia
##raba
##entados
##onima
vivia
obtenido
##len
reclut
soporte
nobleza
visitantes
##olia
harris
participado
130
cuidado
realizados
##els
lectura
decia
vega
##teo
pacto
camaras
descubrir
causas
darle
guarn
integrado
huir
yugos
llevando
estatus
sport
talento
invad
169
lluvia
asturias
aniversario
estrenada
##tus
##itis
equilibrio
torne
respet
quizas
riqueza
walter
atenas
##isco
ritu
liberales
aceite
island
##cing
herb
##arre
champion
##acea
sint
##ism
##imenez
separado
traspas
concedio
hemb
dueno
cima
1908
rutas
##ily
inoc
##hum
tension
escar
172
confund
rasgos
concluyo
##ensis
hembras
##clo
arroyo
altar
trabajaba
holandes
parcialmente
crimen
##pan
seran
malv
##rang
joan
kan
captura
##tieron
lew
concej
hib
tribu
good
monarca
haberse
soldado
profesores
ruiz
##ienda
necesita
visito
cristiano
disputar
##enario
bin
##low
pasion
puedan
realizando
clim
alrededores
ministros
ash
gram
georg
chip
cueva
circular
jardines
victima
ross
cristianismo
comentarios
##tz
permitiendo
##itada
mejora
gold
bilba
cable
##orce
reconstruccion
prolong
##kh
carbono
incend
obligo
ceramica
procedentes
##cif
##ueras
vari
elegida
exitosa
descendientes
asegurar
compone
malaga
##iferos
esteban
guia
sudafrica
imit
profesora
windows
##down
saj
ucrania
ave
encontrarse
aline
ensayo
colonos
subcampe
acusado
agres
stor
telen
violin
leer
fronteras
costos
##iros
verte
visitar
espar
marcador
paseo
flora
##cre
lagos
bueno
renuncia
directora
alcanzando
pleno
miedo
##lico
terrestre
bow
ermita
##cina
##ogra
confederacion
02
comando
firmado
entero
extens
cuartel
conservan
jin
demostro
absoluta
animacion
salamanca
orilla
hacian
jefes
aceler
##iccion
law
##ken
copia
##aso
electronica
enfrentamiento
sesiones
ador
##terias
judia
conciencia
alab
gama
interno
cadaver
situaciones
##core
secciones
integro
best
let
publicar
125
sci
secuestr
##lanos
monarquia
hiper
drogas
##ades
bando
vuelos
revolucionario
##cor
irregular
kong
campesinos
interpreta
alexander
kep
##ervo
coun
renuncio
dat
sof
aprendizaje
fotografias
sher
##iev
universitaria
socio
senala
retom
brasileno
anarqu
sho
permiso
pensar
1906
pase
gratu
sici
seguia
broad
##fal
barran
demand
bbc
apostol
ventanas
dy
torneos
hermandad
valent
##acia
concreto
eliminado
list
toco
river
progreso
concesion
motiv
roj
dow
contemporane
##comun
##arato
competir
##obal
crearon
comuna
vier
onda
##elago
vidas
iniciar
elevado
europeas
partidarios
ku
149
1907
tox
ere
fundadores
mariano
seno
solicito
##olu
##brado
considerados
suel
capturado
chilena
divide
promin
teorias
romper
##chus
##chel
valles
albert
lleno
septimo
aqu
alejarse
habil
herramientas
halla
##ony
prior
extendio
apellido
antio
placa
batallas
reducido
jurado
christian
##raria
1909
solista
cumple
supuesto
fotos
cooperacion
##encialmente
interpretada
pav
##usias
pesos
talleres
##nie
memb
venecia
sovietico
consecuencias
ecuator
argument
moreno
conocen
verdes
proyec
nev
felix
##icismo
telenov
##rus
dichas
procesion
reconocida
ensayos
rose
pierde
sav
master
##ogo
pereg
diab
aparecieron
hoja
exces
implica
team
promover
##ors
consistia
opos
card
autobus
excelente
gt
paulo
nombrada
cn
ruinas
electo
preven
terminado
ataco
blas
sinf
reglam
sorpresa
vag
##ray
peruano
madonna
negativa
antar
muestras
##kar
tanques
publicados
respondio
fortuna
rodo
mantu
volun
cualquiera
informes
cuadros
sn
##aton
abandonado
##eto
entusias
usualmente
##teto
genera
cortos
veint
berg
incap
condenado
incom
##bury
academico
regul
montanos
compuso
conferencias
##work
1890
##berto
##adi
vencio
catolico
rivera
unieron
determinado
organizar
##erna
enlace
hernandez
predic
revis
profundo
descan
referencias
comis
nieto
wwe
adopto
##edi
mercados
cis
profunda
simples
anna
kaz
inci
##garia
frecuentes
particulas
##oral
dance
tradiciones
astronom
vamp
dispositivos
cercan
transport
orientales
##mi
define
existente
##ulturas
rumbo
entrego
infin
bes
ganaron
galicia
##andola
explosion
defici
encom
oportunidades
##ienta
atrap
pertenecientes
observa
##usk
##ajara
impro
ore
ejercicio
protector
forz
##pus
deber
intelectual
##une
dejaron
nicara
life
ester
1904
heredero
##igon
visual
cercanos
##ganza
empresario
persecucion
mapa
aviacion
pien
##elly
augusto
literario
##bit
capitulos
marav
pac
##ser
concejo
bautiz
jub
sesenta
conservador
alberga
reorgan
sabia
cust
transformacion
beneficios
camis
filipinas
doug
fried
cifra
tercio
verse
activos
##itarias
oxig
ola
crucero
insectos
fred
ath
sentimientos
##abeth
marcho
kepler
escolar
enviar
representado
##mov
peor
turb
permanecer
gay
produjeron
##enden
center
asedio
##iang
construcciones
suficientemente
foot
parecido
litu
lir
##izadas
##ridos
##tt
##tistas
culturas
gio
has
##adel
vital
heroes
coches
mars
inspiracion
##tantes
##zy
serbia
israeli
influy
atmosfera
correg
mutu
amaz
pse
contraste
manio
##ety
ri
ill
##gom
##igan
honduras
teologia
orillas
sociedades
celebrado
##cados
negras
palm
colombiano
medica
cobre
##ega
publicidad
##vania
ky
##edy
anime
alcanzado
aventuras
colo
invent
stu
posibilidades
eligio
hur
gigante
bella
haw
liderazgo
masac
roger
##ule
##mis
particulares
porcentaje
pisos
kenn
seminario
interf
ligas
##uts
sonidos
##tino
seleccionado
indigena
centimetros
acaba
coste
cuestiones
mostra
permanece
##etti
abol
composiciones
beneficio
shin
esperar
proporcionar
taylor
cultivos
britanicas
enfrentarse
casarse
kal
impar
ivan
mecanica
##otros
imag
deteri
cubierto
perpe
senales
acepta
contratado
reuniones
reconocio
anadio
cubre
presentaron
masculino
maiz
condujo
ges
marti
comunistas
vende
tendra
bilbao
apariciones
kh
regla
almirante
guadalajara
estrecha
pak
emble
libras
sustituido
eric
recopil
judio
demol
1880
lluvias
asunto
##ellon
legion
puertos
neo
orientacion
seco
arturo
aventura
terremoto
##uas
munich
intensidad
contenia
dirigentes
1903
localizado
famosos
eliminacion
viviendo
##lash
sexta
##iami
jal
indo
industriales
1870
##icto
culmin
university
##iko
gras
##elar
angulo
contribuyo
pecho
meteor
viuda
sabor
elaboracion
philip
nich
helicop
votacion
comm
chinos
usados
##nis
representaciones
polaco
poderoso
persist
miami
adquis
infloresc
eventualmente
##irian
##atorias
##alogo
##tesis
reele
catalina
invitados
lanzaron
variedades
galax
extremadamente
##tana
alv
##rores
lucho
conocimientos
aficionados
teles
yugosla
solid
gue
nut
toro
excentricidad
##ificaciones
gun
quito
cambiado
leche
##etraje
##randose
reloj
jamas
pab
##inio
puebla
##icacion
##ury
1902
indice
camar
trastor
##ildo
brook
morf
##mad
##pol
##anal
desas
amante
espiritual
rurales
##inger
encues
pelo
##ertida
alimentacion
##quero
advers
anuales
fosiles
presa
desaparecido
##shire
die
sovieticos
aristocra
reinos
pintores
biolog
ignor
eliz
##fil
lent
dj
protestas
##eticas
patas
##omor
aumenta
tokio
cristobal
##rog
compens
creador
hebre
marcado
140
virrey
deuda
##icciones
carm
perfil
ingenieros
bent
requis
sobrino
agricolas
patria
catalog
brev
lie
deciden
pino
asso
bav
##mania
##rida
relatos
feria
neer
pedir
santander
visible
plena
huesos
gigantes
wrest
##ild
tipico
integracion
mtv
nova
ker
bernardo
respeto
##itando
inca
##isticos
road
ruedas
altamente
inscripcion
indias
sirv
marino
balon
gord
##sc
experiencias
costumbres
lewis
tort
especifico
instancia
reconocer
convenci
decimo
ful
provoca
transito
nuestros
variante
catorce
campan
finlandia
##boa
cumbre
hong
vacio
verti
sound
enterrado
dividida
limitado
unicos
##ifero
cuch
alguno
paralelo
##kes
##lim
rector
isa
fragmentos
pesado
lyn
gutier
boda
##tendo
##gi
##non
davis
evacu
game
wrestling
testamento
boveda
##right
presentaciones
trasladado
##oth
##inadas
craneo
estaria
disciplina
reich
##taban
##try
boh
compositores
wolf
sintomas
etique
dividido
cf
mina
entradas
##ijo
cronica
associa
conclusion
secundarios
burgos
llevada
colina
demostrado
cupula
inspirado
renacimiento
##ispos
conductor
##din
ornam
interpretando
##cte
brad
vib
acred
##irez
massa
enz
paciente
##eman
colecciones
escanos
funciona
murcia
traje
adh
consiguiendo
syst
##tizacion
fallecido
electrico
esculturas
##puestamente
enfrentar
detall
concil
rid
##atia
francesas
conceptos
nintendo
##ture
provenientes
esquina
separa
celular
rayos
##garon
desesper
cubr
##efa
mato
tai
viernes
sucedido
emilio
proxima
propietarios
convertiria
blues
guardian
diversidad
supuestamente
escuchar
previo
iniciales
karl
##ah
tenga
##erta
reputacion
bag
fallo
##sas
crece
##azquez
quiso
amenaz
ventana
restable
##for
##abol
lej
magnitud
anth
singles
pasan
sexuales
exitoso
cerrado
promul
olvid
aparecido
circulacion
democratico
republicana
doctrina
cercanias
##iti
camin
bancos
##ecimiento
nosotros
marie
raul
dinosa
gloria
und
privadas
tratando
110
revuelta
rally
alic
sultan
cartu
represento
asociados
oxigeno
constituy
evidente
dud
estudia
habitualmente
espalda
##box
desconocido
sujeto
pio
dimension
gregorio
##ach
chicas
sindic
inus
interrump
back
centra
##ruecos
##izos
pura
elegidos
rostro
##usos
coop
pach
##dem
gobernante
reconoce
remod
sacerdotes
power
adu
igualdad
atravies
navidad
latinoamerica
ramirez
inac
rut
##cula
envia
##quiera
gustavo
milag
acuerdos
otomano
##tela
restring
leones
videoc
aur
indones
ascendido
basados
procedente
recomp
herencia
precision
constituyen
pares
combatir
kur
##pp
protesta
1898
estrech
##restres
barroco
rodaje
marruecos
infraestructura
discusion
frust
desple
bizant
liquido
##jada
##orra
bun
corrupcion
tail
asistir
provisional
vik
tenis
establecida
expertos
endem
liberado
departamentos
rodeado
##olv
cofrad
defensor
##back
arquitectos
sky
variable
##amba
sistem
##landesa
somet
rueda
arthur
contrajo
hallaz
mental
miran
recre
bebe
editado
1901
destruido
mend
beis
alfredo
soberania
cadenas
bang
denunci
actua
surge
industrias
maz
flot
tubo
embajada
expreso
bi
uefa
ibn
norteamerica
venganza
##tamen
trio
simultaneamente
habana
errores
##zman
perfeccion
hembra
lt
sostiene
##teles
##uv
radiacion
consejero
alemanas
autonom
predeces
manz
pamp
alz
partio
bajista
little
embal
soy
##ats
cabezas
##especi
hostil
pertenecen
oscura
plato
kent
lisa
##ortun
sap
mancha
##entista
##osaurus
propuestas
manteniendo
ficti
renovacion
cliente
rodrigo
perros
propuesto
glaci
##itorio
geografia
900
quedar
maced
apres
cv
##tible
sudes
heridas
maestra
rescate
masas
asuncion
##andra
sufrido
##gaz
brus
comerciantes
productora
contemporanea
coloco
extremos
from
##gara
julian
especific
napoles
manifestaciones
cercanas
marmol
rumania
poblacional
ficho
absoluto
##bido
ejercer
utilizacion
meridional
consiguieron
espectaculos
elite
constantemente
mallor
##iosos
instruccion
1860
pay
##fel
chav
arsen
bod
##lip
misa
protagonistas
silves
obstac
prestigio
east
fiel
abaste
##cusion
administrativa
lud
yan
nel
##ogia
##uck
platino
tantos
experimental
samuel
supl
filme
parcial
alp
heav
nieve
refugiados
entera
##ocar
disolucion
conseguido
vidrio
bautista
explicar
psicologia
escog
inex
##ries
setenta
shak
sentencia
dark
##romo
procedimiento
gav
society
fundamentalmente
##guayo
preh
adquirir
necesarios
abrevi
##etts
campus
escenarios
##sin
gutierrez
alimento
ducado
construidos
basilica
vlad
alan
##ilde
chart
separados
asentamientos
wo
indican
contemporaneo
organos
ochenta
diarios
recibiendo
sib
extensa
tratados
curios
lot
sudeste
palestina
sacar
##cripciones
directores
emplaz
mundiales
entregar
kam
periodismo
spider
##ship
cuerdas
rivales
satelite
spin
##ipielago
##lf
cuant
marvel
herrera
lon
interaccion
vertical
##10
radic
organiza
archipielago
russ
costumbre
##iser
nombramiento
come
fauna
desapareci
tematica
organizada
bruce
botanico
andes
optim
demostrar
robot
defensores
recupero
capas
portal
escuadron
telefono
hidal
electricidad
medic
model
legislatura
plazas
automoviles
variaciones
aprender
##line
##unes
jimenez
acust
responsables
refleja
lang
preci
reproduccion
folk
voluntarios
kev
selva
juana
##brada
desconoc
##oph
americanos
relacionada
michel
ut
pardo
tocando
aman
pudieran
beisbol
colap
##cito
dolores
burgues
fijo
arroz
manejo
squ
pascu
haria
fertil
fria
huelga
adolescente
##feo
aliado
juntas
congregacion
duran
catalana
reservas
cama
protagonizo
anch
tramp
##hat
cuidad
macho
formalmente
talla
neur
elevada
navegacion
ole
pand
temprano
publicaron
beca
ip
barbara
delantero
entreten
enviados
sergio
publici
hechas
##vic
sueco
##onse
bombas
varones
olimpico
suyo
planos
ocurrido
franja
##now
quedado
##isimo
delegacion
mans
bernard
emergencia
ora
entidades
nucleos
ceremon
##itucion
mercedes
exil
anex
##rat
romp
empu
reves
hans
zh
giras
sufre
firmar
polar
observacion
mejoras
iniciaron
represion
celes
##inc
piensa
medina
armado
existian
escasa
dominante
hart
financiera
feliz
administrativo
experimentos
mob
disfra
##ugia
escuadra
plen
##ladas
encer
magia
##day
1895
sumo
artificial
medias
1897
abadia
referirse
aerol
##etta
trajo
boys
hector
enfrentaron
cabello
intelectuales
##gui
planet
propone
previsto
##cot
##iciales
incursion
##lob
llena
periodistas
retirado
abundante
##hard
conduce
templos
youtu
controversia
##xo
##ump
obispos
ama
comenzando
identificar
gotico
alvaro
restaurante
##olar
apartam
comic
##rome
positiva
uniforme
generar
suprim
##bach
proteina
dobles
148
ruptura
cubrir
##tent
##ometro
socialistas
mamiferos
vestido
gravedad
##die
manchester
correo
carreteras
simbolos
preocupacion
llamaba
localiza
tejido
##ingue
asociaciones
filial
pontif
siglas
supervis
franquicia
run
agot
##sky
ocupada
sombra
prepara
##cad
##jeras
citado
guarnicion
##esco
darse
##onto
tecnicos
##station
benj
calendario
clausura
viva
rav
##amas
variantes
##isos
news
brevemente
##ciende
bart
contam
directiva
microso
##tima
minima
retratos
instrucciones
solia
microsoft
rean
considerablemente
cinematografica
mantienen
incons
lesiones
eter
estetica
jab
morris
encontramos
tallos
extincion
continuidad
creta
credito
modificaciones
abord
fronter
logica
coral
##abora
tecnologias
escoces
##fl
##graficas
mik
romero
conjuntos
repertorio
##isima
petrol
descanso
inauguracion
##leta
fallecimiento
intend
encarn
discografico
nacionalista
##ipa
constantinopla
1899
exactamente
cosm
dog
simpl
##hua
##seis
racing
florencia
pso
rema
convencer
##tida
simpson
sancion
escritas
singular
dificiles
celebrar
senores
contrad
guan
pia
##copio
especifica
pretendia
corteza
ampliacion
cobertura
thor
armenia
batman
wit
##quera
warner
eros
johnny
massachus
capturar
argentinos
mantuvieron
##fis
altern
discre
##ear
quedarse
pian
conforme
estabilidad
homer
massachusetts
coordin
sepul
vecino
celula
democrata
##quita
espon
mineral
dream
spor
##cientos
ametr
mayoritaria
plate
disenada
system
responde
moz
##ernos
bec
ech
nep
financiero
eusk
##iero
urg
desaparecio
1896
catalogo
##far
adent
##nik
secuela
rara
##izaciones
##igh
##util
##omen
playstation
ernes
##esiones
clo
isid
penso
caracteristico
##ueve
cano
clasificado
##over
mecanismos
relieve
magdal
danes
zamora
cancil
describir
oxford
guzman
open
lady
significativa
componente
jersey
youtube
postura
causando
prado
bail
definir
hat
lisboa
epocas
cruce
profundamente
studios
misterios
lind
##ulados
vuelto
dieciseis
tunel
##taria
derrotados
elizabeth
sever
aparato
recepcion
enfrentamientos
diosa
compit
flex
conservatorio
##ae
##trica
levantamiento
caj
socios
madril
indio
ayudante
pilar
##cista
monet
interiores
##agos
venced
obreros
aren
rosas
cotid
muse
##anni
147
imagin
quiza
colorado
creen
rar
##ulla
kara
inest
your
empezar
##orar
whit
cortas
ferrocarriles
##eb
dead
actuando
that
##wick
integrada
psico
legislacion
investigar
heart
##reza
dialogo
afecto
nicaragua
dub
football
coopera
bry
dama
generaciones
ofrecen
demuestra
##rik
neum
dicen
pub
abc
configuracion
##mal
##rible
anci
##grim
tortu
pinto
psoe
##urreccion
ametrall
adquirido
ey
heter
disminucion
ocasionalmente
##egro
duques
stephen
podido
bombardeo
festivales
##lis
silva
impuso
margarita
bulgaria
##lins
sony
match
##esc
polo
licenciatura
gros
peruana
kevin
paras
reciben
interesante
localizada
rand
legales
enfrenta
home
misiles
realista
visitas
piram
ascendio
contes
ern
##tinos
septent
glu
animo
gastos
efectivo
puntuacion
ernesto
kid
##aticamente
modos
firme
himno
fans
modernas
polemica
kit
cartagena
ass
utilizadas
fray
cana
zur
compati
demostra
redonde
suelos
##omot
bartol
utilizaron
solicitud
gobernacion
##brados
versos
octavo
##cur
poetas
chur
investigador
##ulaciones
septentrion
prototipo
licenciado
guarda
invern
futura
##tem
sintio
tag
usos
1889
proclamo
group
##atri
cc
esencial
aprendio
escribiendo
gonzalo
historicamente
irak
flo
homonimo
niega
apoyado
rele
vistas
cartel
tenemos
contemporaneos
##ecciones
resal
cass
mariscal
biblia
##rato
cast
128
py
##icato
trinidad
convirtiendo
rectangular
estil
##eme
toler
sufrir
trazado
propuls
calificacion
dick
##contin
##gata
douglas
song
tipica
##rac
dieta
sinc
sensacion
obtuvieron
caliente
##ramento
##elec
declaraciones
guerreros
benjamin
hein
favorable
claudio
adecuado
sod
##teca
##uci
##sea
##lando
clasifico
send
opciones
##vard
1891
bloques
monumentos
certamen
incluian
precipit
explici
siquiera
wall
portuguesa
iberica
estamb
insign
complejos
intensa
jugado
elip
cristina
alicante
##ificados
premier
ganaderia
canarias
parroquial
##ufici
telefon
robo
pam
conocia
telenovela
##antiles
permitido
jacques
derro
humanas
cler
##ellin
planetas
destacando
mantenido
laur
##ilvania
distincion
magdalena
corporacion
intr
maur
potencias
encargada
fases
hawa
enfermo
light
depositos
procede
##edos
##ute
##worth
cabildo
mane
##oter
regulares
visitante
sustitucion
causar
##ashi
admir
1868
desembarco
inaugurada
stal
dedicarse
vuelven
##wen
soledad
significativo
minerales
bici
##aval
armados
ryan
celebre
coinci
correr
bit
entraron
prosp
##omon
cruzar
asignado
##cano
country
ahor
sad
presun
caracteres
conversion
transferencia
##fi
acom
jay
1888
##bir
naranja
camion
ladrillo
##ilas
exploracion
horizon
manifiesto
belga
prost
receptor
monjes
##quen
temporalmente
##icar
identificacion
ingresar
armamento
aseguro
##fort
##aduras
desarrollada
bizantino
##erdam
plumas
pakistan
crimenes
##anti
enfoc
sucede
##ristas
mostrando
##pool
billy
ascendencia
flash
jen
impuesto
muel
desarrollaron
##iden
ard
suave
externa
ances
marsh
pertenecio
redaccion
quedaba
rond
bolsa
indico
ler
101
xxi
rompio
hir
##mana
competiciones
##urbios
##tara
separadas
dedica
##hon
prima
formaba
morgan
contenidos
placas
##kers
presentada
##iers
cuento
chicos
asumir
jugaba
aplas
paralel
puentes
laboral
ordenado
vein
operativo
suministro
orle
panor
observatorio
comenzado
vulner
##eland
##xt
ribera
parques
impedir
conducta
remonta
##haus
iluminacion
prusia
extrano
ninas
##icon
lobo
promot
bode
jimmy
intenso
##ecian
dominicana
death
rehabil
##atu
joy
asesinados
aprobado
##bos
lamp
##guin
registrado
##acruz
luces
146
federales
muralla
creencia
frontal
##tillas
fug
secundario
republicanos
##war
aceptacion
alumno
bala
escalera
subespeci
historicas
privados
gato
pobladores
1892
ined
criminal
1500
fabricas
unida
representada
rojos
adquisicion
turcos
cromos
inhib
tak
terminaron
elena
escritora
viaja
giov
perpetu
##erado
dies
tropicales
literalmente
dorado
##asion
adjud
hend
cantantes
##graficos
rugby
1885
##ocal
presidenciales
suspension
benito
ligero
grabada
testim
sudamerica
turco
adquier
basica
silencio
persa
patrones
baterista
1893
destruida
brun
lara
##ansas
psi
intentaron
toca
algor
sofia
empresar
similitud
auxil
cirugia
atribu
obrero
sill
delta
ballet
##mano
##utor
wel
propaganda
toronto
incapaz
azer
ariz
ria
glab
rolling
presentaba
explico
cerrada
veng
miller
rotacion
##sov
##ritas
iniciado
##30
##lanta
##vieran
docente
1850
tesoro
param
geografica
##inda
infante
tla
expulsion
ecos
sobrevivir
##wart
105
vener
cifras
seguida
encontrados
##bour
laura
realistas
amst
tucum
emisiones
latitud
jueces
suarez
##sp
old
pusieron
##illeros
##atre
##hara
curva
presidenta
deposito
##eira
orqu
testigo
orleans
participando
##cilla
##edes
oficio
llamarse
brind
spring
subterran
over
dispuesto
##gust
chi
interprete
funcionar
##entarias
incorporacion
3d
howard
lien
well
granja
pesc
disparos
entrevistas
kor
charlie
representando
labores
vivos
##atic
esquema
novio
prisionero
awards
mauri
cena
cuentas
facilitar
##inosa
chal
##tende
##cus
##atra
llanura
destacada
exhibicion
carro
tranqu
fidel
sicilia
eva
libertadores
episcop
sucesos
association
vigor
bloqueo
aclam
veracruz
allen
##odar
saco
anto
nazis
terrestres
decidido
avanzada
##alizados
muertes
mensajes
emitido
cuerda
who
habrian
epid
asistencias
divorcio
aceptado
memorias
consol
##matico
##tures
aloj
mallorca
kras
##agn
compitio
mitologia
facilidad
aragones
jason
amate
redujo
asociada
transcurso
##house
cia
sintesis
anderson
##amina
incorpora
pulgadas
tejidos
lem
asientos
reune
ricos
expresa
ideologia
hidalgo
resultaron
afueras
querian
##grafo
folcl
manual
delgado
##irman
boc
avanzar
definitivo
clark
pez
propon
rind
anteced
comed
estrechamente
cross
sufra
expulsado
moore
crip
down
tramos
##liga
##urios
prosper
plataformas
ceci
delic
beach
perfec
relativa
cuevas
vald
lance
anunciado
cubiertas
estatales
miranda
##bel
genetica
fundamentales
positivas
mansion
iny
apodo
internos
caudal
acta
conservadores
##lov
neuro
concilio
buck
##astas
##laje
participan
dirigidos
guardias
##oman
1871
##range
matriz
venia
book
1894
reflexion
sugirio
alba
1886
correspondientes
produciendo
grabados
lincol
vargas
trigo
corredor
engan
barrera
127
antiguamente
1848
enseno
friedrich
indonesia
coch
sedim
polvo
asegur
##izando
decre
convocado
##gh
ciudadano
otorgado
state
##ivind
academica
gene
##wig
anfit
atraviesa
count
testimonio
lincoln
observaciones
identificado
necesitaba
##rilla
estrib
##ellan
sintetiz
llevaban
hidrogeno
janeiro
algorit
maestria
helen
guinea
aterrizaje
crecer
rene
obligados
1881
girl
calculo
llaman
moleculas
documentacion
busco
##ienses
nelson
##tador
reivind
vigilancia
adjun
mantenia
colectivo
##arcas
mediano
salieron
subir
pedago
##ezan
reconqu
pedido
electronico
digitales
1884
ambiental
caci
1830
prestamo
gordon
predominante
tipicamente
##timo
bull
orgul
##ises
distinto
ring
caras
##lle
creer
molina
##tario
defendio
##encion
resum
pecul
##inidad
alca
adelant
##inois
urss
1840
##enado
autopista
##anica
concur
irre
gard
lema
paisajes
##oclas
tabl
##ai
planificacion
creditos
ranking
dosis
publicamente
provocando
ine
formaban
reunir
##inamente
##atio
masiva
agra
##med
##ecn
corresponden
certificado
navarro
foto
activamente
personalidades
guay
notablemente
draft
##tral
matricul
acre
principado
bits
preguntas
1876
tia
basicamente
desafio
##imar
arra
1887
##ometria
piratas
auge
sabado
estip
probar
ted
incluyeron
atribuye
purp
avances
pasaba
recuerdo
##jug
##edra
creencias
hand
emer
decora
##oceno
andrew
atacaron
constituyo
##uston
civilizacion
1879
silla
oviedo
nes
caps
freder
contando
arrestado
kw
##izaron
stand
introducir
delim
computadora
carter
gracia
academicos
doming
internas
lux
buscaba
##into
signos
romance
poniendo
noches
maci
mercad
dibuj
espectro
##quet
giovanni
velocidades
atacado
explicacion
mora
aprovechando
monter
manuscrito
castigo
degrad
uk
basandose
detenidos
diagnostico
##copa
sentimiento
dign
segmento
diccion
cintur
acompano
graficos
remat
celebrada
##ectan
nacionalidad
lex
tril
##eronimo
clinica
bend
108
lento
##deci
metabol
figu
enmar
##arth
##jetas
##zu
##olin
biologia
venezolano
alcanzan
##jon
hablan
podra
autos
universitarios
sentia
concretamente
had
interfer
##umbre
mateo
lunes
motoci
##table
alien
1865
##lut
ingred
fisicas
115
##enberg
##azar
queb
##phy
lealtad
##imir
apple
proveniente
guionista
##turb
##iaron
humedad
##ava
135
neerlandes
esperando
marinos
habitaciones
reacciones
francois
illinois
variables
hueso
despa
mexicanos
surgieron
##oga
erud
inesper
empat
usaba
pozo
natur
regularmente
hap
alternativo
bond
hell
trasera
henri
detect
ohio
basicos
matrim
##ister
##quias
##oes
121
##gn
##gando
kelly
##vaquia
improvis
1878
##stas
##acan
bille
cambridge
##bios
anualmente
adyac
##utica
134
terminando
##eche
broadway
118
##iki
opiniones
parada
convencional
juveniles
poderosa
##otico
belg
luchas
supo
arts
mencionar
ki
##oya
guy
volar
mald
##ffy
depre
asesinatos
aconse
museos
secreta
##orada
##inae
iguales
145
##tizo
##ividad
126
situados
nam
##astro
laure
abundantes
precurs
ordena
restaurantes
entran
##gal
##hai
chin
olv
electrones
abu
vocales
109
abstra
ligera
impr
perdon
oracion
examen
##mus
implant
##rero
recurso
manch
##ichi
gradualmente
##bai
1864
##tega
laz
incluidas
bert
alfabe
##stad
oral
jesuitas
##anico
desl
vegetales
senorio
derrotas
ajed
almacenamiento
legado
##ancio
oliver
recurr
inj
corporation
pig
antis
cedido
##iner
sobren
cortom
##laza
regalo
minor
tendencias
basico
toros
testigos
sindicato
bened
##pu
respaldo
london
medir
presentarse
sagrado
lentamente
fieles
taxon
glas
abuela
capacidades
hidra
complement
significativamente
lep
##ester
alfred
yugoslavia
salva
##aceae
constantes
reduce
##udonimo
##garos
intim
town
aerod
variacion
lomb
plantilla
aplica
tallo
cantando
veia
1861
##uru
pep
suficientes
playas
discrim
portugueses
feudo
legend
anexion
permitieron
combati
manifestacion
huyo
checos
hungaro
evaluacion
ortiz
vanguardia
preparar
camiseta
introducido
califico
unen
integral
utilizaba
contribucion
trasc
144
dedu
maneras
adolfo
sindical
remo
parana
desgra
##iac
comparte
eco
amo
##rinos
algodon
pabellon
athlet
harvard
gargan
tomada
litros
pizar
tanque
bano
recuerdos
##quetes
##ben
##umi
aprobada
fifa
positivo
homonima
dipl
memor
topo
colonizacion
mg
espinas
condados
##igno
if
valenciana
etio
conecta
esfer
chac
holanda
chel
congres
##atriz
septima
arbust
confron
extrema
##uelve
metales
turistico
culpa
medellin
nominado
cientificas
ilegal
distinta
##tib
network
existir
1872
ist
supervivencia
medallas
##ilton
1869
filosofo
##otica
consigo
varsov
viejos
##cales
##orte
desarrollan
sarah
138
determinada
rumores
##lend
ilustraciones
pampl
definido
1882
##osamente
incre
1883
##enne
christop
julia
##iesen
renac
ramos
prohibicion
atraccion
##aver
antioquia
##iba
##ensas
largom
abandona
alcanzaron
mandib
lake
luchando
##jeta
colinas
disputado
##apur
marcel
herramienta
colombiana
atend
jordan
##asen
##cientes
grafico
protoc
bank
ocupando
adulto
rell
significo
##umer
sirven
trofeo
sustancias
pho
##olina
separada
zan
eficaz
soluciones
rebelde
logran
fuga
calib
mostraron
requieren
suenos
toman
atp
sarg
accede
meseta
botanica
erron
villas
insufici
repent
##aderos
##ibal
##gers
##lyn
lector
ganadora
vegas
anade
inquis
129
geometr
maya
##culares
conversaciones
bicicle
hort
reen
cerrar
carab
##ierten
123
lujo
domici
necesitan
personalmente
varsovia
indire
desastre
##pen
ust
tratan
##gaba
irse
croacia
despre
litoral
gubernamentales
anthony
##aldas
hara
##queta
mauricio
bm
supero
bust
potente
espejo
marcada
autobio
gerente
yuc
pensaba
mio
reunieron
##bell
inscrib
efectiva
##trado
munoz
repart
tributo
rodeada
manager
taiwan
subfamilia
hallaba
fenomenos
grueso
##idi
erosion
##eceria
volveria
grem
350
geo
##allen
enfasis
turistas
amsterdam
edito
johann
basadas
deportivos
wy
sufrieron
1867
anillos
psiquia
rud
##andria
carp
shar
bri
recip
refuerzos
goleador
##apacidad
fundaron
##ienen
hus
seat
aguila
rivalidad
recub
murallas
##net
limpi
inmun
1873
pilares
compartir
radicales
fabricante
##rillos
desembocadura
aplicar
margin
lucia
tuviera
face
magaz
confusion
dirigente
wild
producidos
bey
##gre
##uter
##emon
ever
golpes
reunirse
anadir
water
##rific
##irre
platos
tiros
750
delito
dudas
bartolome
##chevi
atraer
contactos
membrana
globo
descripciones
##tillo
adorn
inters
salen
subcampeon
##tah
legislativo
##urnal
seca
tablas
##ingham
fundar
mono
1863
especificos
garganta
mostrado
##ectores
111
##abilidades
palacios
unan
levanto
conforman
inmigracion
1875
disparar
kennedy
unir
pretende
descubierta
say
##linas
great
desconoce
kos
funda
descarga
kle
lineal
detencion
contener
gravemente
reconocidos
divul
talentos
frutas
hambre
##dt
representaba
ral
adecuada
bros
moon
viendo
houston
salta
fire
coorden
inspiro
correspondencia
##mund
estabil
finalidad
prec
cardia
tienden
alcala
tul
##mont
##guen
nac
cher
consciente
calcul
fantasia
otorga
##iblemente
logros
sco
censura
bund
alquil
##iew
formaciones
financieros
gent
decepcion
sustancia
khan
##ctas
adolescentes
reducida
theatre
1874
construidas
1866
hayan
sindrome
nec
esencialmente
##more
filadel
##head
considerarse
gala
escandalo
smack
eman
1820
##ager
##voz
athletic
132
manchas
fm
##elio
rever
136
alice
##rans
probabilidad
petersburgo
desb
municipalidad
cronicas
soul
encant
russell
entretenimiento
##jet
semifinal
##otipos
presos
declara
afirmando
ejecutado
eno
dorsal
desencad
ry
renunciar
queen
tarjeta
gine
hugh
##oriales
3000
oz
dependiente
##illero
114
fantasma
decad
derrotando
acusaciones
combinado
derivados
liderado
detalle
distinguir
##logo
teod
122
colaboradores
inteligente
aga
alberg
transpar
priva
hamilton
recoge
cambiando
acompanada
soberano
mencionada
racional
divorci
##ufac
1862
107
##ness
cantabria
signo
sobresal
##town
impidio
horror
intentando
chev
finanzas
moviles
melodia
117
bombard
osci
emisora
baviera
tucuman
competencias
mostraba
##cc
instrument
##illon
verso
under
inqu
vele
##itter
avila
cry
##uya
liberar
localizacion
this
jama
##gy
transcur
##uld
##lla
operar
vendidos
dedos
##iger
104
diplomatico
duelo
journal
lectores
testimon
declarada
diputacion
adoptado
atractivo
mito
##zco
atlanta
villar
trabajan
fair
luisa
lp
necesarias
##sex
integrante
##lat
alt
##enios
extender
##book
petalos
##cico
hablo
especializada
beatles
manuscritos
perfectamente
smackdown
conting
alegre
manufac
decim
compil
did
inclusion
conservado
##entando
##edios
dominios
nido
biel
##tido
##ival
manej
destinada
137
get
##idacion
evolu
depred
pamplona
dandole
gland
##apo
atentado
kol
##orado
transformo
##iebre
precipitaciones
##cadas
valio
##ueva
nucleares
relevancia
descans
autora
##illy
perfecto
repeti
conviv
monumental
arizona
salvaje
suministros
estatuto
designacion
fresco
epist
onu
excavaciones
##iando
##oracion
pendiente
heg
##wich
instalado
virre
concurs
circuns
invitada
datan
lip
firmaron
gases
andrea
106
traducido
ny
##menes
mayoritariamente
daria
imprim
misterio
penas
asiatico
dod
119
gamb
##hen
abraham
alfa
causado
asume
escape
circulos
derivado
unicas
condena
virtual
filadelfia
insta
pistola
##ui
andy
1812
praga
realizaba
disenador
policias
urbanos
##paraiso
bruselas
compleja
apues
1877
descal
belgrano
serio
exportacion
acun
porcion
extranjeras
##grama
##ispado
sajonia
canciller
bacterias
##bida
conex
##ody
arqueologico
marte
protegido
pianista
##abo
##ockey
ciudadania
##isas
cuadrado
azules
aumentando
acoraz
##riano
monitor
abe
calderon
convert
##ologicamente
139
1810
valparaiso
escasez
sidney
afecta
falla
liver
##inam
suya
contribuciones
dion
casada
proximos
traslada
bordes
capturados
chia
##queros
##hou
deberian
josep
##cro
nutri
##xido
descendiente
consejos
sentir
queso
amenazas
suple
delitos
diana
nag
##hers
masacre
electorales
sego
terminada
costera
lamin
ataca
consecutivas
fomento
##inter
excep
guaya
afgan
conquistar
ug
was
interpretaciones
##iosas
limp
deseos
##rob
publicadas
hablando
##entimiento
cancha
ach
##ses
reemplazar
habituales
defensas
parad
corrio
aldeas
auxiliar
##cino
sugieren
nunez
anchura
##alupe
##fac
garantizar
novel
noventa
encarga
opuesto
independientemente
situadas
considerando
transmitir
desplazamiento
##vey
rompe
truj
jugue
subsist
apa
ritmos
kub
neoclas
comparten
rechazado
dinamica
montreal
vinculo
empiezan
hul
guadalupe
conducir
septentrional
complej
proyeccion
expecta
hebreo
caliz
ratific
criterios
hipot
colapso
inmediata
protocolo
orn
tango
amarill
amarilla
leonardo
michigan
##aceas
juarez
alturas
tumbas
direcciones
relata
##ija
agrego
ecosist
guayaquil
cofradia
parker
transvers
cintas
recordar
mezquita
heavy
aparente
claust
mascara
##itus
insurg
pictures
##eau
jess
1857
discipulo
vacaciones
chu
derrotaron
gn
marta
difun
cauc
jornadas
coordenadas
##itados
favorables
originario
pregunto
##bourne
kas
112
desarrollando
tribunales
tibet
##icaciones
tenerife
mier
finca
entregado
mantenerse
##cap
##odes
vease
otto
ajedrez
opuso
desea
constituyente
anticip
basal
##orta
octava
consideraban
fisio
respond
##helm
centenario
someter
##ee
estandares
costar
culpable
referente
restricciones
dividio
secuencias
##uladas
##oni
posesiones
tuber
plana
esfera
confirmado
convoco
tonos
elevacion
yucatan
##fu
##guas
##cosa
131
amateur
diecio
poseer
recoger
gy
dave
escasos
jeronimo
##rosa
minoria
repos
##inga
monopol
contienda
popularmente
##acas
locomot
semi
ganadores
videoclip
abiertos
ondas
atmosfer
retraso
peculiar
caos
referend
apice
organica
quimicos
insc
ubicados
cruzada
##cind
dependencia
arsenal
consola
##ublin
derrum
componen
catedratico
suicidio
simpa
suborden
116
decidir
##fol
colocar
abogados
quir
##rara
alcald
australiano
vigente
respald
foro
llegaba
cerveza
##esis
varian
llegaria
clero
conjuntamente
acordo
financiacion
fija
puls
##cones
consideradas
esclavitud
anne
teatros
radios
penit
grammy
enormes
prefectura
##abal
checa
noveno
fat
ejemplar
piernas
gibral
##oton
chamb
encarcelado
militantes
habido
merida
companera
comprome
##gracion
defien
leyendas
conjunta
inversiones
quis
##iliano
principes
animada
regente
superando
llevados
intervino
bic
armadura
stad
dejan
ud
barry
pelota
malasia
##odon
elaborado
colegios
cargas
ordenador
extraccion
dramatica
conformado
aereas
asegura
das
ove
liceo
tira
estoy
shang
minim
capaci
estatuas
deliber
madru
pene
##uber
102
##fc
hud
ion
porto
valv
silver
normales
abandonaron
coloca
afectado
sustituyo
rif
extenso
1821
astro
ginebra
##kel
acuso
pato
##ordia
confia
contratos
norteamericano
inmue
cran
carto
decenas
coronado
extranjera
llo
conduccion
narrativa
proyect
##trico
infeccion
destro
violacion
dispuso
linguistica
duras
solido
cuadrada
ejecutar
comprension
ari
intra
hormigon
championship
aerolinea
colaborador
biografia
mccar
parado
stef
villan
brasilena
arqueologicos
anglo
abarc
trom
hemos
permanecieron
destruyo
magazine
policial
gubernamental
christopher
##esh
africano
ritual
circund
august
sencilla
cruel
chavez
boe
bou
shel
1800
marcelo
chann
primarias
mart
educativo
cilindros
##nan
sald
##gonal
azerbai
superado
lidero
##stone
pacific
conspiracion
marcar
macedonia
percepcion
especificas
reto
superfamilia
patrick
bracte
360
##pel
##xi
what
provocar
apunt
exclusiva
consiguiente
institucional
huevo
inundaciones
##tenciones
resultando
ruido
1859
temor
embalse
##hattan
gastron
migracion
conversacion
arreglos
tronco
##hid
obed
jos
##isfer
week
verd
tang
demonio
ensamb
##amar
##andolos
resenas
denomino
##eton
golf
sustituir
report
##tamientos
arreglo
borbon
implement
rodolfo
hubiese
protegida
##hero
##ulantes
especializado
promesa
enviada
cogn
##igna
acop
##clas
##ricos
provinciales
albergar
143
aca
cs
##alon
extendido
estallo
cep
dirigia
devo
##iculo
funcional
curs
transferido
delantera
dylan
##trans
ic
charlot
balance
cinturon
peci
arru
1856
##mel
merito
juzgado
electricos
cortar
viajeros
experto
adoptar
reflej
referendum
##cuad
gel
mama
mack
franklin
sonda
nominacion
opto
cedio
rayo
favorito
##feld
llamaron
mason
beck
##olitico
113
##bat
afganistan
alicia
componer
conceptu
terrible
choque
faro
odio
abiertas
contaban
melan
monstruo
usadas
raci
asesinar
ocupaba
abreviado
caridad
inspirada
mosa
##zen
ritm
embarazada
jung
promovido
consecutivos
elogio
afirman
seguros
aliv
austin
procedimientos
necesariamente
administrador
vecina
afron
reside
dean
mayormente
pilas
conmemora
interesado
cbs
vinos
mapas
press
sv
isaac
soportar
acostum
dum
##see
destinados
nacionalistas
vegetal
dieciocho
##ction
tiende
1854
bienestar
estadistica
nevada
bravo
##caya
codice
originaria
austriaco
grim
wag
musulmana
stalin
horizontal
fisicos
justin
responder
polaca
mixta
internacion
congo
##eller
estallido
nitro
##oll
##rod
##wi
radar
wind
gibraltar
rent
paquete
manhattan
expediciones
rendicion
##ocacion
serpiente
##inaciones
leo
british
vecin
creados
juda
shows
sales
##cinco
deseaba
##ulia
complejidad
cajas
challen
rodea
asiento
transf
venus
gallego
liverpool
ende
franz
apoya
horario
baterias
suceso
quimico
##ctiva
existio
##urez
novedad
consistente
1835
fum
##ition
efectivos
gimnasia
prehist
hep
denominados
unesco
mass
determino
hamburgo
baby
rang
##risto
descubrieron
singapur
evangelio
coca
molecular
aure
coordinacion
colocado
teatrales
plastico
cerebral
maritimo
##zz
##unas
paralelamente
wright
perjud
habita
detuvo
sobrepas
usaron
esencia
leopol
bush
mercan
colaborar
efectivamente
intenciones
##uble
alaska
masculina
##fes
esplend
patente
emma
acontecimiento
arresto
cans
##onder
modificacion
artisticas
despeg
vela
vice
roll
levantar
clasificados
receptores
consenso
tarjetas
carnaval
aeronaves
hemisfer
##uar
hiciera
cim
##oladas
extras
argumentos
leopoldo
tela
sudo
133
controv
patriarca
adams
cabrera
cumplio
adolescencia
##round
comunicado
custodia
##ket
requisitos
matematica
reapar
##ticismo
nbc
sau
delegado
oax
creciendo
aceptada
monterrey
conexiones
anta
transportar
diccionario
oscuridad
cabina
suponia
instrumental
lech
matando
tasas
put
mercancias
mister
diablo
menciono
##guerra
mineria
poblada
cach
conducido
monto
descubren
aluminio
israelies
afectados
comunica
fals
pulmon
oy
superficies
1814
wilhelm
tragedia
kay
##pro
polim
vendidas
senalar
uruguayo
regulacion
visuales
encuad
arqu
polacos
curv
materias
##ulin
hercul
espontan
oval
francos
vestu
lana
rp
ocuparon
##igma
##ibo
constituido
quebec
ganancias
trasladaron
cumpleanos
preval
invito
margenes
revolucionarios
proporciono
amistoso
##troit
sime
guitarras
respectivos
borg
##hammad
trujillo
vina
estrategica
desarrollados
krasn
propiamente
arquitectonico
##ree
hierba
pidiendo
##onimos
fraccion
separo
descont
prohibido
emitir
pasaje
##igar
141
pseudo
desprend
mirada
enm
metropolitano
traer
foramin
volviendo
##iche
anuncia
montaje
contaminacion
compara
presidio
feud
usaban
comprender
##cton
madrugada
##tios
pescado
nominada
selecciones
adicionalmente
inusual
kun
etica
mega
##alizadas
like
exceso
construye
indicar
procesamiento
##uct
arca
##trati
supervision
103
estelar
segmentos
palo
silvestre
##sson
episcopal
ortega
##arl
ark
bate
vizcaya
cualidades
afluente
milicias
presbit
##yes
detroit
preparado
respuestas
misioneros
1855
sobrevivientes
alegria
sobrevivio
pensilvania
##mouth
salsa
luci
zac
dedicados
franquista
dorada
lobos
fed
zomb
intes
evidencias
walker
josh
##ejos
##ceae
xav
combina
fiebre
##rimientos
county
compartio
supervivientes
involucrado
criaturas
##quillo
1851
##iman
destacadas
autobuses
entier
ferroviaria
intentan
yacimiento
funcionario
delin
superman
secretos
sindicatos
veinti
falso
distra
distancias
regresaron
tibur
songs
##gam
desorden
nombrar
aeronave
##gl
abundancia
##ijon
bip
ebro
estuviera
##bl
bosnia
ampliar
##onde
destitu
ubico
##temp
cali
puntas
luchador
fabricantes
negativo
dispuestos
##oa
##uba
catar
eficiencia
descom
apartamento
micros
tito
antepas
andro
chor
##lines
walt
eslov
conservar
memorial
estudiantil
##omi
##ueltas
spar
origino
multiplic
futuros
cronoes
dren
work
espor
ocult
leop
edgar
grafica
sueca
nativa
##inario
presas
protestantes
soto
##ranas
cem
1858
electronicos
##icular
poetica
lament
subord
chocol
bolchevi
##rence
velasco
innovacion
field
presentando
compuestas
permanecen
observo
##anov
hospitales
accedio
coruna
volta
##ineos
jaen
grabaron
ponen
playo
capillas
norteamericana
##ancha
##abi
externo
medicamentos
francisc
adquiere
sancho
secuestro
negociar
criatura
exacta
influenciado
velez
famosas
felici
pierna
aislamiento
kin
polic
##illerato
lituania
intercep
condec
abar
extremadura
costarric
head
church
dublin
##oy
subio
arana
ventajas
realismo
ilustracion
1833
patrona
##hor
revolucionaria
sinonimo
armonia
marshall
mak
bachillerato
##athan
kurt
matthe
prevenir
tailandia
combatientes
##ardi
consideracion
abandonada
vencedor
playoff
especialista
llor
twitter
sujetos
fero
suizo
prolon
dallas
pelos
raf
hermosa
##urados
australiana
brillantes
oj
reno
disenados
cazadores
##anea
penales
aprovecho
privilegios
harrison
speci
##endra
panel
transforma
mercurio
ww
##endria
integrar
erot
infierno
venezolana
raramente
##fran
carece
despierta
identifica
especimenes
elef
entrando
africana
emocional
eugenio
denuncia
##rona
mog
sl
##enh
cruza
observado
profundas
trascend
hob
secos
monarqu
sostuvo
encuesta
escapa
estamos
explorar
desconocida
wayne
parame
jup
diploma
scar
inscripciones
homosexuales
feste
##itch
corporal
alcaldia
edificacion
relevante
atomos
nazar
pionero
submarino
beta
especialidad
resultante
reflejo
##ader
mortal
tensiones
abuso
exc
utilidad
recorre
clasificar
zor
rescatar
##esor
##udia
##less
puro
vazquez
modalidad
solidar
##emn
##imidad
gobernantes
islamico
arbitro
infil
sagrada
esqueleto
##ules
distingue
##uka
vladimir
cronoestrati
atrajo
##iliario
llave
cubano
##inoso
continuan
cie
##ede
cata
##boro
incursiones
apareciendo
invitacion
portavoz
eb
escob
retiraron
huesped
##ortunadamente
dirigidas
vinculado
culmino
dramatico
malos
avanzado
jenn
clemente
interfaz
swe
marcando
estara
ensenar
facultades
##ures
##deon
saliendo
buscan
lenin
##att
herida
inflorescencia
kiev
##gg
cayeron
channel
ortodoxa
televisiva
entrevist
toque
autorizacion
dri
ego
especialistas
parientes
enlaces
isidro
criticado
bibliotecas
##idal
caceres
sinfonica
recta
titan
juridica
prohibio
emitida
frescos
gus
##istia
africanos
prominente
hallazgos
maniobra
ez
##mentar
yacimientos
cronoestratigrafico
sak
ruben
regal
antena
empe
nash
arias
lesb
estrenado
sina
modificado
humedo
convencio
descu
roque
escucha
convierten
##tienden
apolo
golp
##omica
lagar
colabora
saud
tecnologico
catastro
colegas
despedido
##zano
seudonimo
##indo
##imetro
aver
helicoptero
alg
western
roble
laser
##iertamente
debera
blanque
inta
superhero
##iste
perry
1845
142
foraminifero
solares
##kan
conflu
declive
ferre
##mu
unam
tipicos
nocturno
seda
contrab
persigu
market
desigual
equipado
estimada
##sd
duenos
literarias
socialismo
designo
salario
ramal
##icks
parlamentario
formados
servido
falsa
precipitacion
detectar
antropologia
acent
##fato
cumplimiento
clasicas
nativo
terapia
transmitido
##riera
notar
servidor
fanaticos
##ctora
correcta
claustro
tc
imprenta
marinas
golden
reab
pekin
divina
empresarios
##ficas
wis
apreciar
trem
##guar
##tonia
aparatos
estudiosos
##row
ancha
atre
sometido
sensibilidad
conquisto
procur
abiertamente
tigre
##trices
poderosos
##del
enfermos
portero
audicion
reson
produci
godo
##estruct
renacentista
##iformes
tric
aclar
hd
calcio
llano
plantel
quiero
institute
pn
emin
bebida
sz
##agen
##gacion
alegando
editada
devocion
sedu
##chan
polin
reclamo
arenas
robinson
emplear
obtenidos
##eri
cerdo
solian
oponente
##espe
comentar
influyente
discul
palmas
predecesor
prosa
visibles
reta
##ridas
trasladarse
##tie
huerta
##iliares
devolver
donald
##imb
dinosaurios
reli
inmort
quedaban
atlet
azerbaiyan
##boy
sporting
terroristas
miel
capitales
manifesto
cubiertos
sacrificio
##yle
emite
arbustos
ensenanzas
tardio
##alismo
enven
relevantes
grant
##osi
##ogle
galardonado
tengan
continuamente
deform
##icioso
panorama
kansas
cubana
introduce
otan
vient
ascender
kirk
##sor
##ctivo
##estad
1824
requ
desech
##camp
jueves
##aurus
hindu
masivo
adopcion
1847
sacro
castillos
flamen
kate
pesada
cantera
ejes
asistentes
limpieza
bada
almeria
analog
reglamento
escaleras
afectada
otomanos
segovia
1836
track
embos
ideales
escaso
funeral
escla
##etida
ponerse
migra
enviaron
huerf
##andos
aci
voy
hms
gasto
comisiones
concejal
estocol
jerry
expresar
ingredientes
sumerg
decadencia
alias
##under
class
##haw
rechaza
##tilla
##ceno
susan
madurez
apoder
main
paneles
anuncios
eficiente
convenio
libera
berk
estocolmo
ofreciendo
defensiva
##trar
alcant
renault
purpura
haga
expresiones
##yr
demandas
##imension
##emburgo
202
controlado
hawai
##ardos
disponia
urbanas
dir
mante
sudamericana
celebran
aristot
implementacion
forestal
shakespe
picos
##isen
aproximacion
1852
alternativas
nordeste
jupiter
##esas
##cision
transportes
trayecto
reforzar
injust
1853
baso
servia
deterioro
sudoeste
lac
rain
embarazo
chipre
esten
pesados
pintado
recrea
cohe
deportivas
##vales
desempena
##enson
abside
extraordinario
##kee
ue
##vial
ambientes
residente
perfecta
ein
cometido
##ione
##irtio
convocatoria
mediterran
fila
definio
##ialmente
barras
phoen
carg
extingu
krasnodar
nasa
corb
stanley
navio
dialog
vatic
##gins
confeccion
preciso
##atl
##wski
xbox
cook
child
habsburgo
1842
sargento
##ost
##det
promovio
##tag
adrian
muerta
habitan
meso
ofrecia
pix
inmin
donacion
caido
eddie
bruno
circuitos
inflam
orient
delincu
gau
elias
estro
1834
anteces
jonathan
escudos
sociologia
1823
1825
lazos
quit
perifer
sra
mitch
endo
supera
delegados
incendios
placer
avanzo
lawrence
syn
##gb
##izaba
homosexualidad
##tora
seguimiento
aerona
toy
exclusivo
semejante
##ulando
austro
protestante
carav
escapo
##wald
linaje
utilizaban
fren
parametros
##top
terminales
cambiaron
concejales
claude
forzado
eurovision
obligada
largometraje
marg
lunar
##stre
pasaria
loco
paramo
##ombre
aguirre
google
kilometro
1849
trig
permanencia
mp
rip
carril
terry
antagon
almo
mari
##ingen
crean
##americanas
ejerce
emperatriz
estructural
promete
espectador
alfabeto
##py
eficacia
submarinos
gaz
asistieron
dependencias
croata
apag
oak
##radores
neb
reporta
pompe
##lante
presiones
infantiles
inclus
##hue
cuero
ciruj
ascens
correctamente
consulta
campbell
1846
cretacico
##ficos
reprim
##ipuz
serrano
budismo
##foro
mini
alimentan
acompana
flamenco
obliga
seattle
oaxaca
charlotte
##als
##rov
indiana
graduarse
constancia
mencionados
phill
aborig
boeing
castellana
sucesivamente
games
##icado
usd
vs
##guaya
liderada
emigro
##lem
now
calific
alban
rioja
stev
steven
inspeccion
agujero
llamas
comerciante
expulsados
juniors
##dura
garden
pronun
##lock
##orp
literarios
vocacion
arqueologia
##orum
##oluciones
percusion
libano
desaparecer
##hun
disolvio
##rix
correcto
oculta
krai
oscuras
femeninas
quieren
maquinaria
ciclista
bello
determina
aspira
tubos
queens
dispara
arabia
entusiasmo
graham
disturbios
pavim
progresivamente
cera
goberno
recibida
arroyos
encabezado
significaba
acudio
nak
gary
amino
##lah
senadores
diplomaticas
hidraul
ciclos
bentonico
seguian
airlines
plumaje
prod
embar
remix
editores
##igraf
caracterizado
desplie
extrana
##herine
acogida
acusados
matematico
encabezada
caracterizan
nem
france
banos
##nett
destin
diesel
##sche
nacionalismo
elimino
fitz
colectiva
daban
lyon
insul
romantica
ich
registrada
accidentalmente
empezando
parroquias
hockey
##termin
caen
argelia
acantil
producidas
kap
break
feminista
free
determinados
tabaco
hercules
##gie
levanta
grit
##gel
convencido
exced
salinas
comisionado
shakespeare
syl
acabaron
ambientales
interactu
##lum
romanas
1837
enamorado
estudiado
terminan
##itica
llevaria
iniciada
##acete
##etin
franca
basicas
sentim
promocional
educativa
1839
##bau
narracion
finalizacion
estadisticas
rojizo
##ather
expresidente
sostienen
##adera
completado
radial
##last
celebraron
aprovechar
navales
ubicadas
trabajaron
hex
vestig
testimonios
lava
bola
luchadores
1815
anadiendo
adquirida
##peta
especimen
##sol
##zaba
practico
interino
automaticamente
restaurar
detective
##eamente
religiones
superficial
fotografo
omn
descendencia
tommy
hablaba
##rioso
centr
##reria
practicar
sla
##econ
reviv
divididos
##tiza
bancar
materna
foc
pd
consideraron
linda
sombrero
rehabilitacion
git
sati
trastorno
sacrific
primitivo
##oteo
dictador
lil
remol
rituales
xavier
manifestantes
anima
esmer
claves
medievales
mueve
irlandesa
alejo
knight
sugerido
cohete
ian
disfrutar
diecis
acidos
supuesta
monica
lub
force
afirmacion
dario
paro
triangulo
residuos
calent
##ove
modificar
devas
bamb
levante
inconsciente
##ingo
veneci
tribut
fragmento
galerias
comisario
diecisiete
agricultores
flanque
ayudado
indian
recuperado
riesgos
dres
##vina
geometria
stewart
##ift
monje
dras
##nell
milenio
jugaron
olor
vector
##ei
1811
rodean
baut
##idiocesis
bobby
yard
terrorista
pictor
vertiente
espaciales
born
estero
limitaciones
##chet
##umo
canc
macizo
trajes
##000
hoteles
##iler
coros
mons
creek
desfile
brooklyn
inflacion
stein
cayendo
octavos
mago
##teniente
anadido
casino
cervantes
trilogia
facto
1844
habito
abrieron
criterio
square
salazar
zen
faccion
itunes
hispanoamerica
plenamente
phoenix
advent
controles
bandos
incorporado
inspector
riego
##yi
shah
almas
cole
amanecer
gin
1841
islandia
empresarial
billetes
dijeron
##jeria
astronomia
##aga
comet
controlada
murray
450
girls
##ineas
malo
bale
empleada
cresta
##ayan
patin
excepcional
condenados
enfrentan
brothers
prelim
robar
battle
cocin
intermedio
opositores
emplazamiento
lion
##out
amn
instalaron
oliva
estrategias
##deos
balcan
##democra
##ranza
amy
herz
disputas
peligroso
mord
definida
hueco
##uke
invento
batallones
parlamentaria
##torias
vivieron
persas
campanario
apasion
perturb
paula
temple
estableciendo
rastre
suena
moverse
hallado
##ymp
converg
juegan
emociones
canaria
tuberculos
vientre
encend
bautizado
itin
plomo
comparado
desvi
penet
cuadrang
dedicadas
flandes
wagner
lenta
invis
aproximada
cercania
turner
falcon
##idu
yam
analizar
economicamente
pascual
##enarios
cuantos
coronacion
sincron
##iforme
balada
ines
paralela
monasterios
fibra
atletismo
##ormemente
ficticio
zapa
carros
comprim
alcaldes
establecimientos
nobel
bara
utiles
accidentes
##ermo
plut
molino
desacuer
##enter
situan
anglos
territoriales
previos
emprendio
reten
##ficios
math
magal
quar
desaparece
hallan
ceremonias
pib
ond
fruta
fabricar
ferroviario
exportaciones
##ipuzco
fina
1843
miden
nubes
##rell
acabado
solicitar
audiovis
oso
1822
limon
bohemia
##ondo
gallo
gratuita
hes
banderas
palestinos
islamica
bundes
alpes
apodado
primitiva
##arum
##apolis
caro
obtencion
vinculos
criminales
galaxia
##gram
deser
##icho
satur
retroced
banca
honda
electricas
ocupan
poblados
valenciano
franc
arroj
ibero
##urgia
honores
copas
sostener
manto
monten
describen
mascar
llevara
four
destinos
causada
sinfonia
angust
compas
establecidos
turca
impresionante
trim
mecanico
torr
pensando
moderado
##adir
guipuzco
instant
beg
tif
pila
tradujo
fiat
##loque
1838
revelacion
anfib
suplente
experimentado
hardware
##oven
##nah
volante
##identes
carpin
representados
constituida
magico
magna
dono
contraata
indicando
rubio
cinematografico
equipamiento
bielor
##ribe
vand
traccion
francesco
lagunas
influyentes
condesa
oido
##amia
##igi
vivido
operador
libremente
ecuacion
##atus
vienen
##bla
##unde
circo
asociadas
vano
crecen
indis
egipcio
repob
turno
proximidad
hierbas
##ueltos
murci
olig
autoria
sustan
concluir
##gate
evans
##rett
insignia
inquiet
adher
quinteto
pim
obrera
costado
anunciaron
planeado
maritima
##vol
desgas
concert
semanal
demostracion
##udes
celda
solidaridad
##torios
tortura
socialdemocra
clav
cosecha
folclor
raro
last
##anth
activista
danny
corredores
coincide
ald
escamas
miser
triunf
##ticamente
sets
porn
tocaba
homici
azar
discurre
estudiando
provocado
embarcaciones
heinrich
obsesion
eliminados
nervioso
boxeo
key
##tizado
silenci
decisivo
##iu
japonesas
visu
ceram
rota
impid
violenta
##orf
habra
restante
aguilar
##ecida
##aviones
##roll
macro
fosil
llanuras
##joz
##bria
misil
##ondicion
persu
plantaciones
cohetes
nacer
respira
expectativas
kill
joyas
funciono
incidentes
caric
armon
compatri
gasolina
etiqueta
grito
espectacular
muebles
manejar
novena
##rillas
oficios
estimado
artificiales
##yp
cuarteto
##acao
##borg
mover
cristales
pontificia
##andesa
seguramente
lucio
##ology
point
cruces
##illado
salomon
rachel
stark
gilbert
larry
ejecutiva
barca
respectivas
jacobo
afuera
molecula
amazonas
abel
aparecia
intendente
##ulan
##iendas
presidido
determinacion
story
optica
disciplinas
bap
artisticos
proporcionan
asocia
##alte
##ropolis
##zca
serbio
vale
##iras
concursos
muelle
##itora
pantanos
laderas
##oba
obligacion
entab
proporciones
monstruos
malvinas
fabricado
museum
inad
mineros
tomadas
promocionar
iris
flecha
oscuros
habitos
cristianas
##fs
5000
alimenta
computadoras
celebraciones
thomp
deport
algoritmo
##idencia
mundos
bed
online
obt
techn
itiner
##ige
invita
adjunto
elige
og
reunen
ingresa
zamb
josef
vueltas
darwin
##iya
herald
bizantinos
valley
esperado
entrenar
hallo
1808
science
chih
ocurrir
jerarquia
dimit
clev
kiss
dato
hudson
internacionalmente
recibia
hemisferio
fec
panz
wu
##pres
positivos
presentador
tropa
afirmaba
tunez
##raban
##elaje
rapidos
norman
verticales
juridico
armando
votar
prefiere
amplias
##iol
fragata
horizont
fara
gijon
alejandria
dialecto
caudillo
discriminacion
##def
castig
provienen
labr
mensaj
precedentes
erupcion
hamp
tus
conson
disminuir
mim
elis
##otip
agencias
1813
thompson
tora
reag
turin
nariz
imperiales
sd
apocal
##ecturas
reparacion
##aceo
madres
permanentes
virreinato
##geo
##lanes
ancianos
inflorescencias
##eticamente
gat
##ways
atr
satelites
taquilla
dejaba
exige
claros
concluye
fusiles
kab
cierra
##ango
humo
comprob
criado
dop
duquesa
hp
cuesta
pension
expuesto
infantes
olymp
filmacion
##ridad
senalado
lut
deudas
temporales
##adilla
harina
sufragio
barr
instante
##etrajes
emplean
aa
atender
felicidad
transmite
progresivo
bris
chat
palido
1832
lloyd
confluencia
desa
documentales
valdiv
fit
anciano
arcilla
artesanos
##hs
carlo
##vej
trap
narrador
badajoz
newton
exigio
##stadt
##ceo
recompensa
inminente
##mers
catolicismo
fro
ville
##set
desvent
recopilatorio
##zados
della
##kas
desin
creyendo
expone
refrig
aguil
determinadas
milimetros
capsula
suyos
patricio
diaria
##ajos
conformada
reconstruir
##eley
babil
arbor
manifiesta
birm
tambor
ludwig
rudo
surgen
tara
rechazada
pajaros
kom
asust
bug
alza
grano
colaboraciones
televisivo
bovedas
oreg
niet
##here
desemboca
tormentas
mozart
##viese
anonima
theod
recorrer
escolares
##isca
##imon
veteranos
antia
roles
sospecha
abren
precisa
paleont
orlando
intereso
secundarias
debilidad
epic
hablantes
satisfac
##aneo
chocolate
consumidores
enzima
##anato
adentro
reconquista
cleveland
convencionales
concha
clinton
margaret
clor
aumentado
traspasado
gian
trastornos
astero
decima
##ely
bombardeos
##antia
celta
tendrian
absolut
agregado
fatal
studio
contrar
defensivo
bebidas
posguerra
heredo
##star
sudan
homosexual
mandibula
beau
##xa
mejoro
ficha
hernan
podio
facciones
fiscales
linux
beatriz
zu
##bil
promedia
entiende
into
pedia
destruidos
relativo
progresista
solida
##evit
##endez
negativos
tacticas
simpatiz
ade
zag
##echa
chilenos
bruja
financieras
compac
terrorismo
bestia
##alm
pasajes
realizarse
caracterizo
chic
gua
dominacion
evita
cosmo
lanzados
more
blood
villanueva
##zig
##lee
debiles
variar
angela
java
ates
cines
arequ
informatica
consistio
crimea
alusion
fraude
frecuencias
##crit
albania
politicamente
##aldi
sublevacion
incrementar
sports
vigo
desap
trataron
hulk
rc
quie
empar
polv
poly
1829
patrocinio
debieron
avis
soph
finaliza
encabezo
oculto
satisfacer
##12
antologia
contrarre
##macia
granos
atlas
marciales
vestidos
legislativa
beth
comprado
concedido
jamaica
ceder
##entaba
##ultado
ibm
ques
costeras
traducciones
calido
callao
divis
##ils
jalisco
motocicle
##mm
##fri
##itt
pete
nikola
matias
##liv
marineros
gw
pante
regener
valdes
realizaban
nacidos
mandar
geografico
creian
distribuye
adaptado
llegara
academy
lienzo
fog
##uman
marro
##utico
muhammad
coincidiendo
celeste
primarios
space
sudamericano
colision
clandes
retirar
intervenir
##ubio
distribuido
1826
diplomatica
corriendo
comentario
##eracion
agraria
ferrer
villano
surgido
inevit
##tigu
mancomun
proto
establecerse
##burgh
estrictamente
##enciado
gray
pintar
ponce
aborto
##vez
pertenecer
stars
georges
tapa
##deo
despe
sarmiento
paraiso
mendez
piramide
enlaz
sucesivas
abolicion
##onial
comenta
actuan
sirvieron
teclado
nancy
2º
mann
decorado
prioridad
parentes
extendida
anarquistas
encontrada
multim
summer
alvarado
iones
pip
deton
tengo
velas
##hin
##anca
duplic
enciclo
llen
camiones
malta
cartago
afirmar
renombrado
espiritus
sensible
guiones
griff
militante
sovieticas
rogers
fortificaciones
##emin
##izarse
saxo
remodelacion
anfitrion
nervios
aval
llegaban
encla
##campista
claras
omar
suicid
remit
luke
how
encaj
decisiva
vestuario
##garse
invencion
antecedentes
campeona
sirio
semestre
cesped
playoffs
##olito
neil
sangri
utah
##oke
##ibar
coloniales
express
brujas
##timiento
formatos
instalar
##mado
##ezca
centrado
bast
querido
nou
entrado
##kai
non
##issa
creadas
refieren
acusacion
distribuida
##mod
##ecd
baker
boom
##burn
prede
excelencia
masters
generado
madison
aviso
textil
declarar
1200
querer
revers
disenar
redactor
biblio
licencio
requeria
preve
independent
renombre
trampa
caucaso
gaspar
demonios
resistir
relaciona
enfure
jesuc
frases
adver
##agas
catalanes
unificacion
capturo
mixtas
##othy
impide
first
sie
salvajes
1831
sombras
milicia
trabajador
bajar
iniciativas
vitoria
aquello
fibras
involucrados
anotar
despacho
##esimo
##ornos
chen
italianas
desmante
interacciones
autentico
jesucristo
dale
anden
creadores
evitando
racha
hubieran
romantico
kane
sellos
hind
##fuer
hablado
dignidad
##lanca
sedes
estres
apla
negativas
farmace
##ucky
aereos
astronomico
##omico
clon
##dorf
disminuye
subespecie
enamora
##letos
bak
bienven
sabio
ferrar
rodilla
negociacion
urbanizacion
sofist
vendiendo
acustica
##ulf
##ezo
genova
caliza
biologica
despertar
##ragona
directorio
coloracion
anglosaj
parodia
piedad
##entaron
agrupaciones
tarragona
inquisicion
destinadas
correos
femeninos
gotica
eclesiastica
riz
afectar
rust
antartida
zurich
##alizando
ofrend
citada
codigos
olimpica
##teza
efectividad
ejecutados
triste
generalidad
cairo
buc
prometio
##inski
ascension
mck
marines
minera
horizonte
ds
foco
mia
adolf
jerez
privilegio
##dis
presidentes
descubrimientos
laboratorios
primario
helicopteros
nocion
estrategico
##tres
##queno
administrativas
##him
octo
instancias
pesetas
semilla
externos
fascin
siberia
##alias
tennes
modernizacion
tardia
partidario
##idumbre
animados
votantes
##movil
##iciado
leales
significativos
tiran
##entino
organizados
##ople
subst
##asi
municiones
controla
amplios
encargados
##icula
ponte
electrom
dedo
dominado
gobernar
reflex
bryan
vaticano
##alus
cruceros
firmas
acomod
##ols
gramatica
telecomun
1828
ausente
especializados
extraordinaria
##icus
ados
repetir
mero
vor
donaciones
bols
eugene
ofrecieron
huida
modulo
experimentar
resultar
telescopio
calibre
desgracia
yun
palat
preparo
ayudando
finalizando
divino
##iesa
residencial
paraca
sonic
discursos
coco
amantes
##citos
##iculos
inaugural
pescadores
distor
kel
grey
acumulacion
futuras
##cera
noruego
##verde
##ishi
genesis
milagros
here
nuestras
eslav
ontario
recurrente
again
##omeo
interseccion
##raje
trabajaban
ensena
conservadora
paulat
nort
##dle
triangular
envej
convo
financiar
herederos
cortometraje
his
rop
tantas
##unya
estamp
##ieri
incorporar
cadaveres
producirse
descontento
##zel
serena
consa
gad
quil
diagnostic
reanud
matrimonios
prestar
calv
eleva
denominadas
spears
gand
dante
allan
filmes
wres
daily
vestir
parecida
##iani
##alizaciones
monton
##rong
subtrop
escandina
arnold
##gro
##hm
cart
montar
moham
despo
negaron
grabadas
alve
huyeron
estatura
obispado
libia
construyendo
serbios
inmediaciones
extermin
accesible
laminas
perdidos
higgins
##ject
##itat
presto
mitos
goya
escolta
recupera
##ulosa
surreal
##doro
##eses
liz
candel
quimicas
discutir
argel
turistica
eliminatoria
mentales
monop
senior
reality
costarricense
wan
##iscos
##erapia
uss
egipcios
provocaron
##11
acompanados
superioridad
pioneros
influyo
rincon
oregon
usarse
narcot
fior
copenh
roth
chelsea
inclusive
rim
caminar
subje
dulces
germanico
lanzamientos
adulta
vacante
##icut
##dea
wrestle
##ox
leip
coy
fisicamente
led
males
anecd
melbourne
veterano
##tit
ilusion
hito
sinfon
polig
barn
choc
monjas
reproducir
lobulos
##eppe
anterioridad
extrater
frias
ametralladoras
##ink
albacete
##tificacion
mercenarios
luxemburgo
place
deteccion
quij
##tarias
aleks
pond
coe
intermedia
rebau
uran
##ceria
##ange
elimina
cacique
consor
##oplas
finalizada
repit
oscil
congel
orange
##idimension
desnudo
perseguir
complejas
amplitud
colaborado
cp
pasta
vincent
viejas
amarillas
similitudes
##ος
ejercicios
proximas
elaborar
anarquista
matanza
gobernadores
concentraciones
curvas
helio
##zadas
agudo
bailarina
crecido
1600
alam
incorre
##camiento
##idar
prologo
chang
prestamos
adhesion
granito
suaves
##master
raion
mess
influido
##monte
escud
paquetes
valido
denuncio
##iriendo
decano
##velt
aficionado
##dom
##ieu
salido
inmers
reeleg
elegante
correa
intel
pelear
maurice
velo
##islao
expuso
dimision
nauf
roose
thunder
beber
##ateral
prevencion
conveniente
pajaro
encomend
defiende
oleo
##uida
secular
fuj
arrend
##rys
yang
##entr
pagos
confirma
recordado
six
chich
jinetes
tud
##kow
producia
reconcil
angulos
atravesar
comedias
tennessee
##adeo
rusas
laborales
know
##toles
##ving
cables
registra
declararon
absorcion
cotidiana
mariana
contingente
civica
##tibles
tardo
rito
presum
monro
balas
somos
hits
imponer
sumamente
romanico
preferencia
preservar
aaron
obtienen
edades
mampos
terape
teorico
sirviendo
pasada
mator
sucesivos
bracteas
cantos
multiple
fuselaje
shanghai
marquez
stock
glaciar
wonder
##ants
tocado
designar
inestabilidad
exci
bif
vaya
estonia
lane
distorsion
cubren
##icu
##azos
##eli
desvia
eucar
debutar
consagro
lejano
##coles
##cou
apartado
minnes
dominar
##maticas
alienig
obligaciones
libreto
##etto
resurreccion
johannes
##reb
repente
roland
piz
disponen
listo
oblast
melodias
movilidad
activistas
vial
##cesiones
sacrist
camer
cruzados
read
intu
chasis
cerd
aislado
prominentes
potosi
discusiones
invasores
ferrari
cras
maduro
row
catalunya
favoritos
consiguen
solos
nacieron
spir
ayudaron
compartido
ramb
##19
martes
repitio
cazas
shaw
orgullo
horacio
pariente
##torri
robust
arribo
patrulla
vistos
despedida
arries
comandantes
exitosos
etnia
excelentes
trasladada
plantea
jag
crema
piscina
esqui
ninez
bailarines
inutil
pieles
desarrolladores
reorganizacion
aristocracia
asciende
abrup
debates
calzada
mediodia
sustituyendo
advert
tetra
parto
tercios
operas
ensan
afluentes
slam
finalista
turbo
##eter
comunismo
sorprendente
insurreccion
warren
##ablos
acercamiento
never
salarios
films
bian
continuando
##cistas
burguesia
mamposteria
##stal
haciendose
diamante
admite
valentin
gesto
natacion
anotando
endemica
##encer
trae
autod
gral
pech
##zal
rapidez
breves
1817
quitar
##lay
estambres
belgrado
ofrecido
cautiv
irlandeses
etiopia
yosh
cerros
transcripcion
##inata
corpus
chihua
parar
dividir
mejorado
coordinador
resena
escasas
mino
common
volks
fluye
textura
guerrilla
coincidio
oo
figuran
parroco
cib
algas
hosped
##estacion
bailes
ayudan
domestico
tablero
misterioso
gale
##ao
late
##adier
patricia
holandeses
rondas
##erie
sumar
##uche
guaran
family
dirigen
organizaron
iniciando
##maticos
distribuidos
woman
velazquez
poseian
##etano
dragones
esperaban
##trandose
ster
##zer
##ops
benav
baden
commun
coher
comprobar
jor
tat
##tney
##ificadas
plural
sierras
ocean
nathan
angelo
##fono
##ardia
minia
moun
advierte
aporte
grace
budap
oir
pensamientos
hidroelec
raj
esenciales
frecuent
lecciones
incomple
cham
recopilacion
obstaculos
esporad
discipulos
bicicleta
nitrogeno
legalmente
cereales
matthew
pall
##the
##hman
inmac
cartucho
juramento
pok
minnesota
maltra
graduacion
figh
sustituto
cuna
##wal
larvas
porf
trasladados
viola
1816
calcula
decap
extinto
tactica
walla
comercializacion
flanco
pich
conectar
rex
##quio
interesantes
##light
revelado
hills
vampiro
wik
edificaciones
angos
##ierro
intentado
llevarse
copenhague
musculos
caracteristicos
##iness
aurora
duros
##cara
colocacion
hed
##uan
embarco
vasca
two
agradable
aminoa
huye
estere
acondicion
interrum
##cker
brillo
creyo
vengadores
dominguez
##tid
banc
boris
ausp
tripulantes
cecilia
##oteca
espesor
apend
interpretes
intervenciones
retaguardia
zig
##rario
##hab
rail
cordero
##adia
##lovaquia
emisoras
nigeria
emblema
pent
##iador
##itadas
##ope
dados
ming
yama
coma
maus
enteramente
magallanes
##uilla
reyn
griegas
directos
recomienda
##quena
puertorri
vertebras
conocieron
##rices
zero
desert
##imburgo
confes
ceb
recoleccion
telefonos
marion
costes
atrapado
ptol
sube
cruzo
repercusion
budapest
##pedia
demues
profundos
fachadas
automatico
recaudacion
vaca
##oder
calvo
comenzaba
epidemia
clado
bolas
nombrados
##jugador
gur
edge
240
jennifer
detiene
##gonia
##vira
##ibil
chaco
finalizado
generico
condens
atacando
leipzig
pm
comico
vendieron
lucro
castano
soria
##chin
##anova
##iy
##cock
patentes
estancias
pidieron
eri
plus
autonomo
bulgaro
equivoc
mancomunidad
etim
partiendo
actualizacion
centroamerica
murphy
ecuaciones
telecomunicaciones
gius
racial
pronos
festividad
gaga
restaurado
documentado
educativos
ernst
termica
facebook
saqueo
concesiones
adela
damas
connect
consecutiva
##etil
comandos
raton
roosevelt
apel
mares
calculos
##doso
horno
dependen
fluido
circunscripcion
aplico
ocurren
rindio
entierro
uz
locura
ralph
potenciales
aplicada
pass
podran
intrig
reporto
admitio
coreograf
chad
pacheco
hilo
recal
frailes
acababa
auxiliares
domicilio
fbi
deuts
helena
gustaba
##km
violento
fidelidad
cemento
unia
anibal
##usse
humill
poniente
traspaso
resuci
afectadas
pink
acudir
planetario
##alth
mccartney
##alles
escano
conservo
establecidas
##viales
responsabilidades
nube
##fag
basan
dara
mv
desag
palmer
herman
japan
linf
rumano
automatica
disputaron
rangers
lena
##40
aniqu
antisem
##rust
agru
basura
fluvial
alian
aristoteles
edo
roto
wang
##icultura
checoslovaquia
earth
party
departamental
significativas
aplicado
sic
uva
##lus
apol
mirando
disponer
corral
chiapas
trun
1819
dag
inal
interro
alejado
droga
##vich
##onda
sacramento
cardenas
people
sentidos
desciende
informado
herbert
superv
raim
edwards
lagrim
legendario
terminaria
castellanos
cuchillo
remontan
##vara
alerta
dispuestas
libertador
sobrenat
haiti
atentados
portaaviones
##anias
consentimiento
nomen
vicario
humilde
futbolistas
seleccionados
tipicas
compensacion
almacenes
gastronomia
arequipa
pedun
mediana
##tinas
tregua
##timore
ek
cate
saltar
intentaba
krist
##iarse
pau
ambul
acerco
telefonica
encarnacion
danubio
consolidacion
asilo
recto
belen
aliadas
##ecret
lock
retira
tolerancia
escribieron
lennon
permaneciendo
esquinas
side
obligatorio
usted
magnetico
##uraron
primord
denominaciones
enterarse
dirigieron
genio
##udencia
saca
impulsado
pizarro
emigracion
esplendor
##bn
montenegro
bios
vidal
##tip
ambitos
inser
trit
##idge
descubiertos
capitalismo
##ugn
tup
educado
##gante
seriamente
preparatoria
honorario
kings
resumen
resolvio
sinies
llevadas
ejecutivos
veian
##uki
dester
hut
refin
marketing
conectado
conlle
procedio
reeleccion
puedo
gang
mandos
prosperidad
tramit
dirigiendo
destacaron
balne
pendientes
due
wur
comunas
liderados
hallazgo
estrada
1809
anatomia
##olon
confesion
inmob
resistente
triunfos
##ding
amur
daw
salvacion
preocu
huelva
abastecimiento
miercoles
##estructuras
##oticos
llamaban
gerona
neutral
ernest
carecen
judiciales
evaluar
##odo
cenizas
venido
templado
hongos
preocupaciones
seul
##olor
call
descendio
spr
sexos
sedimentos
subida
tribuna
huecos
##ceas
dialogos
enormemente
seguidos
referido
cauce
##itlan
casaron
impl
tanta
creativo
huellas
docencia
etnicos
promotor
obvia
afin
apogeo
sotano
dormir
alineacion
##ulario
manzan
baltimore
convence
presidida
encub
generando
greco
benedic
##cana
fly
gerardo
vasos
eras
contor
##iental
marcial
navios
colocada
borgona
pter
pastel
proclamacion
##ampo
carecia
continentes
trasladar
explotar
##say
beng
introdujeron
lici
picas
marfil
interrog
distintivo
elaborada
rechazar
##vir
formadas
repite
palermo
claire
masculinos
##genero
rapero
bote
hardcore
inglesas
gemelos
externas
apropiado
piv
##idan
##urgica
notici
acompanar
##donald
habitats
canadienses
frit
ligeros
leonor
elevadas
vog
chim
##agle
bh
caban
afectan
englob
petr
hombro
chihuahua
novo
regimientos
indefin
auditorio
mixto
exiliado
exal
sonar
manzana
entregas
simetr
ilegales
subterraneo
bowl
confiesa
densamente
ahog
spencer
relieves
monopolio
procl
##ceta
prince
avanza
horn
mudarse
normandia
incent
gaza
otorgar
sometidos
shan
friend
surgimiento
peste
servidores
cirujano
vila
verdaderos
descritas
continuaba
##tricas
##ifas
investigadora
allende
hipo
mutantes
sangu
tyler
sentimental
sentado
extraer
1818
zeus
##olio
cuota
descender
miniser
acompanamiento
guerrilleros
desembar
computacion
reactor
denominan
reduciendo
##ietas
relan
alu
complut
hoff
judaismo
suav
abusos
replica
despob
stro
trasero
cunado
antiaer
sepalos
dividen
cantautor
##ibol
vos
quiro
##irar
abus
maravillos
##enza
ciudadela
diverg
observador
tendran
cronista
dispersion
cooperativa
##itura
efim
correspondia
emira
representaban
fruc
bares
comicios
resear
magic
candidata
##continental
##ologa
storm
involucro
paco
homo
semanario
##chy
pepe
pilastras
##couver
##ciencia
barba
##exist
titularidad
planteo
cid
##pal
coll
reemplazada
vencido
gatos
pozos
admira
estela
municion
frios
extienden
sobrina
monoc
romeo
220
pensado
##zando
aguda
hunter
utc
valdivia
anom
filtro
acordaron
kath
porte
orientada
asesinos
severo
sobrevivido
blu
##otti
multin
ronald
uci
##ulu
boton
peleas
lecho
cuan
castan
ligado
observan
mada
portico
cus
##aps
collins
juicios
mind
protagonizado
insurgentes
partidas
challenger
giuseppe
calcular
vendida
invadio
causaron
propositos
contrarres
ita
##rise
ocupados
reconocidas
disponibilidad
orejas
mortales
llaves
antepasados
true
planea
argumentando
aguilera
##mones
figuero
amarillento
ris
##izadores
##rocra
adyacentes
mb
funk
holandesa
perimetro
estatutos
1827
ciclismo
##vre
comod
revancha
robles
pantallas
empuje
sri
##gob
apoyada
aless
asom
dirigirse
##rupciones
bonapar
humanidades
fomentar
amnistia
aprecia
diciendole
escogido
sient
crucial
1806
##allos
montanosa
gill
##quies
valiente
sustanci
prolifer
proyectiles
voluntario
recogida
penta
stadium
panzer
humedos
desempleo
##fen
##arn
##enciar
liberados
lucharon
atacados
gm
##vias
establecia
panico
molde
destruye
impactos
exiliados
vestigios
bres
pasapor
harold
vecinas
raymond
olvido
figueroa
hermann
##ilan
teclados
carlista
atar
fino
##alizaron
mang
hann
reflejan
##umb
##idora
maximiliano
golpea
grasa
raras
##atario
mensual
apunta
##zh
bass
arab
explorador
##llos
asigno
terci
nestor
solidos
paloma
guardar
adaptada
roberts
mortalidad
ice
##jol
salones
muchacho
herac
revelar
alge
inconven
estimaciones
research
protagonismo
##grafias
##lade
adaptaciones
egipcia
##ming
anaran
bomberos
simetria
pollo
maximos
convenciones
keith
contratar
muda
bata
michelle
reconstruido
##osaur
mitchell
##ertir
cuadra
modificada
quema
regencia
mafia
tutela
politecn
watson
tamanos
hermoso
cuantica
sucre
banks
corola
neill
derivada
4000
##factos
pack
burocra
originarios
cobro
rasca
ente
compatible
wrestlemania
paraje
rasgo
atletas
##skaya
admiracion
##witz
vancouver
contribuir
cut
pasara
shado
veneno
traducir
girar
estambul
centen
flag
##ain
##pto
argentinas
combatio
maryland
deh
##ellos
poll
verb
americas
certificacion
nup
sequia
empir
minorias
internado
deficit
ponia
medicion
villal
prehistor
recibidos
papal
naturalista
increible
##rs
##uu
cono
##rel
sweet
dru
carras
jesse
luminos
tortugas
vasta
##emen
precursor
##icom
escep
mayas
coa
esparta
ricas
ubican
registrados
buscaban
programado
irani
coreano
suspendido
puramente
##temporada
danzas
nodos
visig
atribuido
envuelto
dramaturgo
explosivos
remodel
##fisica
connecticut
crey
informar
renfe
traduce
agregar
major
prospero
##inarias
##uli
mananti
historio
orientado
take
prevista
derrotada
tigres
argumenta
##etia
miz
monsen
institutos
enemigas
sulf
venciendo
##quito
dejara
trev
1789
serra
cruzado
hispan
legislativas
##pun
##itismo
climatico
jj
kre
pagan
##his
##ird
espiral
##tenas
graci
pilot
betty
lirica
baleares
perenne
jacin
higado
mk
morelos
replic
participaciones
parlamentarias
hungara
kla
##ellas
importar
semici
permitiria
llanos
complicaciones
milagro
reptiles
subg
pow
brigadas
transmisiones
jefferson
cabana
pacifica
toponimo
administrativos
etnico
teorema
complutense
nominaciones
estructurales
maniobras
nidos
rov
##bot
infect
##ografica
right
variados
espin
tratamientos
tocaron
avanzados
bundesliga
##itico
lynch
filogen
austriaca
chevro
averigu
1º
bombarderos
leonard
senalan
alcazar
wallace
eul
##andre
asignacion
erroneamente
franciscanos
##iduria
tesor
ovo
##uran
agujeros
##nio
perform
colm
contrapar
chevrolet
##cra
##itaron
sail
operado
transversal
monsenor
huracanes
enzimas
vole
saf
##ografico
custod
##idon
milici
clay
##icola
reliquias
electromagn
spa
tl
canas
ciudadana
consejeros
luisiana
##borough
##alista
##vedo
defecto
sorprendio
sucurs
palencia
prestigioso
morfologia
##emo
##ulco
edimburgo
cyrus
sueldo
bj
gior
##isma
acorde
retomo
##gang
complemento
condeno
linter
sombr
fortalezas
aislados
morrison
excepciones
establecen
dani
introducida
conquistadores
estimo
##gart
genoci
robots
editoriales
parten
adaptarse
yardas
presentados
eurocopa
competidores
pitts
guido
filmo
isma
##bis
##abar
compilacion
salidas
residio
prohibida
##ciendose
integridad
mantenian
veranos
permanentemente
nieta
patriotas
pascua
afrontar
violeta
beren
vanguard
tuneles
kentucky
engano
nocturna
##lahoma
socorro
kyle
proximidades
disposiciones
amigas
artefactos
ucraniano
women
##vie
reas
sabiduria
compostela
sostenido
wwf
buda
tna
scre
zapat
hegem
naufra
lope
espadas
ordenadores
extremidades
##tifico
ligada
faci
bacter
autobiografia
cuat
eliminada
proporcional
cesion
rumor
sobrevivieron
##cura
completos
balcon
jerem
domino
cameron
predominantemente
##iculas
embrion
transmitio
dadas
##bie
exprop
venian
mencionan
lorena
marge
estimulo
oklahoma
ovejas
americanas
editar
murales
bonaparte
separar
marsella
sg
##mid
##amarca
chinas
peores
moto
funcionan
suponer
sion
milla
virg
proveer
gimnasio
imaginacion
ganados
##cons
##rier
medall
money
centenar
administrar
sorteo
chuck
torped
visitado
##ences
descentr
azteca
ocultar
esclavo
genoma
bolonia
doom
column
atacada
icono
conceptual
asfal
adelanto
rastro
crias
olas
snow
##endar
agar
lorca
especializadas
hungaros
eliminatorias
ampliado
veinticinco
apostoles
satir
tratarse
ik
whe
##gard
pasados
madame
aislada
gos
guipuzcoa
##rial
nahu
audiencias
preocupado
manipulacion
##pone
thr
vinculada
inundacion
jak
dennis
autorizo
metalico
arbusto
dialectos
efectuo
irregulares
jesuita
##adavia
desarrolladas
niger
cartuchos
rca
parra
hombros
enverg
alamb
regalos
amparo
fore
celos
cilindro
posibil
ciclon
martha
##nal
##xis
##igio
freud
expandio
despliegue
##cinas
lost
##gae
revueltas
drake
##fra
claudia
domina
lamb
infraestructuras
owen
every
libertades
sulliv
##obia
##antin
hospit
modifico
hornos
jerarqu
adoptaron
transmitida
jessica
inmaculada
##ilares
##brar
sexualidad
golpeo
expor
judias
quiebra
##strong
montado
front
##chner
##obo
resultan
quedara
botella
filosofos
adoptada
oponentes
##tigas
glenn
persia
pecado
situo
##owa
dimin
ilustrado
##produ
completas
destruyendo
invasiones
rag
##amon
debuta
lugo
entrenadores
emperadores
psicoanal
noto
mascota
escucho
ametralladora
listado
azot
encier
refuerzo
frederick
naturalmente
dei
magica
habitada
instalada
vampiros
rita
##eds
gravit
volo
seleccionada
cuidar
##scrito
absolutamente
nab
##leas
bolcheviques
aque
mh
nfl
ward
lay
##icados
tep
separaron
extranos
concebido
exacto
ganarse
protegidas
recorrio
arquidiocesis
remez
equipados
agresion
##ingrado
procedencia
fuesen
asegurarse
##aden
ciclistas
cromosomas
nico
disputada
niebla
rascaci
aber
abur
mesop
damasco
berkeley
pere
prototipos
encontradas
cebol
combustion
feroz
##ml
##anco
suscep
danado
envergadura
sida
##atarios
cruci
plasma
##jados
##etz
##iley
sufren
agrav
difunto
sullivan
##ents
platon
perseguido
cartagines
arri
carroc
dioxido
favorita
restaurada
prer
maldon
botanicas
estadios
erigio
paramil
##gir
basket
ner
yuri
finlandes
centrada
barroca
cavidad
ritmica
compag
casar
sahara
recuperarse
##izador
##quina
##pop
estrechas
voleibol
distanci
disenadores
craig
difundir
nation
noved
jugada
##tella
conference
latinoamericana
castellon
atlantic
lamina
novelista
repro
contund
expulsar
cland
vinilo
anadieron
distinguen
panteon
miniserie
bela
norteamericanos
peruanos
patriar
evacuacion
##ondas
mecanicos
semicir
compresion
iso
puig
telon
##xon
karen
pirata
lanceoladas
empare
fascista
nominal
variadas
genetico
declarando
atributos
serpientes
ecuatoriano
consolido
sentirse
##venir
celulares
segreg
autentica
escobar
rascacielos
mao
propicio
simb
historietas
trinch
complicado
##istos
proclamado
ji
##armon
desaparecidos
cors
incapacidad
fet
hones
luigi
quintana
consisten
curiosamente
##gow
utilizarse
activacion
sublevados
mongolia
sodio
weekly
mick
osa
democratas
budista
lus
##abas
##erturas
clandest
ensegu
espinosa
recurrir
tuvieran
generan
brecha
biod
enseguida
aliada
exha
poster
modesto
terceros
vestib
peregrinos
juras
domestica
aletas
##dov
acento
clip
harvey
touch
refiri
reparaciones
heroina
nacen
scha
abuelos
portland
impresionado
alabama
lazaro
carrillo
graba
pesa
maggie
ilustre
elevo
2ª
##ideas
burdeos
dependia
##eal
jefatura
sepulcro
lucy
armstrong
ruf
teorica
##guera
vamos
##wo
prieto
reconstruida
innumer
bue
existido
lanzando
examenes
baz
##rama
##ffe
cerco
##tizada
exager
contratacion
sufriendo
holmes
##utz
participante
##lish
medicas
densa
dioces
adaptar
suceder
##quetas
palom
cito
empleando
recort
sustrato
fronton
extendia
uniformes
bizantina
depredadores
yer
##kos
##amoto
progresiva
euskera
sujet
barranco
dibujante
abrum
monaco
##aderas
estoma
rivadavia
decorados
mongoles
aborigenes
bielorrus
viajan
puntaje
policrom
reiter
##olla
##iji
opositor
verbo
relleno
madagas
transcurre
inse
##tenientes
operativos
concede
comprometio
##ids
##ivoros
publicando
duramente
viking
marchar
andalus
ibanez
zun
carteles
##alizan
cangre
tranvia
automa
productions
1792
aumentaron
alojamiento
duero
obligatoria
recuerdan
nudos
##icada
apoyaron
ofertas
##quimica
patagonia
almoh
kl
ober
micho
mostraban
atro
retrans
logo
primogen
pastos
cumplido
elevados
##apan
rehenes
amberes
cambian
dolar
legitimo
peral
saw
enteros
contribuyeron
maldonado
protege
reemplazando
inocente
balcanes
kob
baltico
regresan
1793
sudafric
manila
filologia
contribuido
univ
dedicacion
infecciones
alqu
##uradas
2020
benz
teodoro
##bona
nomb
frentes
fortalecer
##hem
sey
##uncion
##endi
eligieron
ryu
##lands
##ternidad
##jin
##asio
surf
galac
sufrimiento
aprovecha
low
##music
concursantes
pf
##istar
fallido
madagascar
certeza
renovado
mentor
opuestas
##get
portadas
demuestran
tach
enterrados
procesador
alianzas
wii
quebrada
##ulaba
extensiones
potable
difiere
lom
##olos
vulgar
champions
##born
bachiller
ciego
obtenida
geograficas
inmueble
narcotraf
aw
nip
ow
excurs
virtudes
ultramar
elliot
escribia
hey
electric
##timenta
##kovic
randy
bland
##ueta
operadores
aceptaron
jordi
cef
##mor
##jord
##chu
emily
empuj
boletin
motors
supercopa
comunicarse
psy
##eado
##bord
doscientos
variada
tutor
brigadier
##16
bald
correlacion
calentamiento
asesinada
colega
##inense
molinos
elas
##eamiento
rabino
inyeccion
paisaj
mataron
ladera
arqueologicas
avenidas
repeticion
invisible
##ructu
inmensa
banquillo
identifico
vestimenta
moc
violentos
vih
vinculados
domesticos
invadir
valvulas
sien
birmingham
reutil
maestre
ministra
contribuye
parlamentarios
pinos
##onal
constaba
estarian
filmado
##losa
nativas
heredera
estomago
yar
canchas
cineasta
rt
##grafos
jake
conquistador
consorcio
pus
##80
prime
atrapar
empezado
protegidos
##etismo
hispania
magnus
romanica
circunstancia
ml
ose
pug
##lez
tecnologica
separarse
relevo
nilo
##sar
corin
intercontinental
consulado
##iega
musculo
concentra
1790
conj
buff
limpia
comenzara
marxista
peregr
renovo
glo
trump
doctoro
arqueologica
apuesta
algebra
traducida
federa
lov
chron
torpe
caldera
madrileno
race
efectuar
desaparecida
##entaria
teruel
corresponsal
califa
conclusiones
cumbres
biologico
gog
saboya
sumando
cazador
intervalo
sistematica
samp
dak
interesados
materi
dotado
emprender
##hausen
tinta
juj
estrechos
atraido
recomendo
insistio
pleg
rs
solem
aram
citas
fusiono
kok
menendez
flechas
deca
230
equivalentes
crian
##jano
economista
##oney
blake
defenderse
forest
pasto
penul
crateres
forzados
##azo
corrup
remp
denis
artico
obligaron
latinoamericano
tome
undeci
##umas
prorro
groen
sinago
madero
mw
mys
disminuyo
reconocen
650
finn
postal
creativa
##uti
descargas
hardy
peticiones
zapatos
taur
bibl
adopta
precedente
tortuga
ariel
impulsar
##iciosa
##venia
##ramer
carmel
aria
ordenacion
catherine
particula
observadores
warri
degradacion
avellan
sucesores
vizcon
lgb
borra
jubil
##kon
##uza
preso
presta
palos
citar
tet
##tea
##tuoso
subven
travesia
existiendo
armenio
separan
mercantil
incidencia
siles
##inia
indign
hacerle
prix
burbu
policiales
comites
emprende
cox
cow
sufria
previas
olvidar
mesopot
##itia
##ween
esgrim
collar
mitre
ingenio
eliminando
roci
insert
##omer
##itaba
humed
decorada
iowa
##genos
##any
psiqu
nocturnos
lerida
qing
chop
pastores
dominada
##long
titulares
impact
santisima
residencias
registraron
hibrido
juguetes
##lava
indemn
##phone
defendiendo
subespecies
innumerables
mutaciones
##consin
cazar
##lett
dinosaurio
minero
moderada
rayas
sicil
opuestos
project
debida
filarmon
##eu
basaba
moro
esculp
exitosas
antoine
hoci
expuesta
##ayor
resurg
##avos
##araz
quedaria
consecutivo
blog
sumaron
arquitectonicos
inviernos
falange
discapacidad
defectos
brut
##dif
delgada
sain
molda
##illaje
##ograph
protectorado
til
##region
desfavor
laval
comprendido
perpetua
##cienden
antip
sumado
wars
anexo
misteriosa
puedes
soport
pubesc
desigualdad
##kia
##isio
avanzando
locomotoras
##icen
desat
camisa
docena
ligeras
canter
libero
atomo
transformar
ladrillos
##estiona
estallar
wisconsin
md
guill
coefici
ferrea
brom
esperanzas
hope
alquiler
mascaras
opuesta
##wagen
##chon
##caa
actuado
florece
experimentales
extr
muriendo
descart
valioso
incub
promueve
animado
colectivos
campesino
fiscalia
miro
confisc
grabando
swift
baptist
##critic
arquero
licencias
arcade
kv
##kien
monos
steel
editora
##nado
##zin
ayala
cuarteles
##uato
volcanica
nodo
sabana
##sau
##aux
transformado
centre
astrona
flauta
abarcaba
beso
hunt
ruth
tent
##ivar
albums
rivas
elogios
desalo
examin
##anton
rancho
fragment
combinaciones
paga
##azones
ganada
oru
##ibus
corono
usur
claridad
yas
anales
costillas
viajaron
inspira
cover
grosor
reelegido
##iola
luter
##ifican
supresion
##poner
innovaciones
##izante
climas
misuri
designada
mayord
representativo
winter
peligrosa
##onos
bruto
espirituales
compitiendo
coinciden
liguilla
localizar
exigencias
tlax
##anales
presentadora
tah
burns
regresando
capiteles
rotten
1803
derribo
salt
epif
clasificarse
entendimiento
neoclasico
nim
##irieron
alfomb
implantacion
magne
apoyan
gibson
adyacente
capellan
convertida
sty
ceso
farc
enamorada
##dam
aleta
paraguayo
acres
armenios
comprometido
bodas
fay
##rain
parc
emi
instala
brid
comidas
pantal
richards
inventario
sanguin
validez
sabiendo
villanos
defendia
relojes
##ranos
##ernidad
lancas
comunico
rox
boliviano
##ernas
escalada
pastoral
guevara
interferencia
refiriendose
##anismo
eclip
bridge
##dale
santana
integramente
##lista
actrices
checo
irene
springfield
emancip
euse
abriendo
importa
indicios
comprendia
tena
tert
pierden
shu
potter
##itre
barril
zhang
ecosistemas
carroceria
gac
tenor
tomados
paterna
pronuncio
electores
stuart
almacenar
asime
crow
metacritic
arrep
aporto
##ablanca
conteo
goma
cuzco
##tracion
protocol
denominarse
escoger
consagrado
mech
##cles
asocio
preparados
involucra
desafortunadamente
abdomen
pokemon
jura
importacion
##onne
madura
viajando
rompiendo
madrilena
##atsu
capturaron
medianoche
gremio
##cub
##yon
infructu
##erner
ferdin
acabaria
antid
escalas
sujeta
zorro
##time
cerradas
destacamento
pacif
metaf
necesitaban
teoricos
##eber
##edora
marea
pluma
radiales
maximas
desaparecieron
horizontales
##itamente
alh
envenen
constelacion
comercialmente
prosigu
deseado
desacuerdo
##rap
venir
afirmaciones
reman
resultaba
alteraciones
marcados
asumiendo
reclamar
ceg
##obos
aza
##iday
century
incert
autocton
constitucionales
guatemalte
esposas
basales
planeo
huesca
sacerdot
danz
##run
mude
organizadas
sabemos
purific
1794
lineales
estudiaba
actuaba
after
diamond
pampa
##andr
grises
##enko
postre
refirio
compartiendo
senalando
curiosidad
##lex
cimientos
ferg
gesta
lod
app
1700
apoyando
propagacion
denuncias
definen
ateneo
formales
prometido
cuencas
glasgow
sacristia
posgrado
profeta
croatas
agrega
fav
##entadas
##led
perse
logotipo
domingos
##ful
heredia
alud
mija
verdaderamente
admitido
eslovaquia
palestino
farmacos
look
gp
taj
deep
agrop
linn
tiroteo
almagro
kot
meyer
##graph
recar
adapta
erit
##vil
##loso
opus
destructores
hughes
preliminar
picasso
granjas
permitian
budistas
##idis
beeth
severa
escalon
excavacion
gruesa
age
infrar
caracol
republicas
resistentes
##ecidos
paralelas
omit
tij
desmon
curar
shane
emitidos
recomendacion
erik
mell
wend
##maf
cese
depender
fabricados
emmy
buffy
destruidas
turisticos
eclesiasticos
subcampeonato
contamin
sutil
1807
1801
absorb
superheroes
uribe
irrit
bird
##ificos
enfa
danesa
cultivar
extensas
inventor
beethoven
respecta
golpear
cofund
secuestrado
colin
##solini
muller
farmacia
sorpres
atravesando
aporta
hostilidades
naj
ritos
gabri
anunciada
derrocar
##jal
sevill
living
ltd
dureza
habitado
energias
dependientes
cancelado
sendero
##apaci
implementar
bmw
nomencl
distinguido
conectados
bula
##riria
##aven
##tase
peloton
##rota
bienvenida
##met
##urin
##odril
##ensos
forzada
capitanes
tuberculosis
aug
##adino
##itoria
aled
humberto
matarlo
##erground
galil
egres
tumor
remate
cuadrangular
##ische
prestado
mussolini
cantones
identificados
gentes
nm
chrys
##pora
##ucas
cruzando
estricto
brem
diera
paja
##trospec
link
fide
enrol
ambros
casados
profesionalmente
huella
desconocidos
tama
##tez
jet
##istes
recibian
aplan
volvia
##folk
sard
##idios
diamantes
polvora
indifer
epit
trep
zarz
clanes
adoracion
oscila
##amante
pearl
210
radiodif
monetaria
verduras
salia
saxofon
muscular
garantia
pronunciado
eclesiastico
escarab
our
oraciones
yes
##isse
bautismo
tell
vemos
integrados
##ła
balles
horna
absur
provee
restablecer
cigar
##quiv
aseme
perspectivas
aerodromo
milicianos
##gran
calificado
continuas
cubriendo
founda
lenguajes
escogio
ambientada
##orb
##riana
pudiese
syd
mera
desvan
amazon
busto
pietro
referentes
cocodril
resonancia
##omina
acel
thom
violaciones
congresos
pick
quejas
reaf
##andi
castr
brotes
adria
expresado
boxe
##uertos
elaboro
joao
4º
atal
ferv
coronada
tern
diputada
indiscu
cascada
educativas
supuestos
clasifica
huan
porteno
implicados
compatriota
tenta
##llas
##inan
esmal
shock
atracciones
bibliotec
creatividad
tolkien
cota
cuernos
1795
prevision
subsecret
ska
tand
##chim
##mascar
matado
renovar
fronteriza
despegue
surviv
history
difieren
schw
vej
visiones
confirmar
requerido
sis
##aru
##isch
gobernado
imposibilidad
##rigoyen
preparativos
##card
##riones
primos
hook
garantias
##mundo
endu
retener
anders
geologia
1805
folio
ininter
calvin
designa
nicholas
laurel
amado
especializacion
three
balonmano
cauca
brist
generalizada
cobrar
amenazada
colocaron
pirineos
##illeras
clasificaciones
ilegit
genocidio
kum
##alizador
machine
lola
stern
##kk
organizador
penar
movilizacion
lagrimas
luciano
dorso
arranque
dm
remar
moises
recaudo
glaciares
paulatinamente
chase
pintada
liberada
asiste
blindaje
##onim
oblon
court
transbord
shir
astronomo
filarmonica
aventur
propietaria
idol
exhaust
leve
volando
mirar
soprano
preservacion
martires
bodega
confrontacion
quech
indices
##udi
falsos
persigue
ghost
brutal
infinito
##ovar
regularidad
standard
##entina
sut
comparada
construyen
ambicioso
broma
destruyeron
devast
troncos
sometida
obama
incorporaron
estricta
repetidas
pereira
comunion
glut
provenia
capacitacion
camilo
compositora
gregor
hinch
inadecu
ininterrump
##otrans
expuestos
puno
rechazaron
auxilio
underground
leb
taqu
simbolico
asaltos
concreta
##sia
grun
reunido
autovia
academicas
agropecu
ai
hash
260
dimitio
gul
navid
seguidamente
actitudes
recaudar
totales
elaborados
inversa
graduado
presbiterio
pantalones
seleccionar
holoca
automot
adquiriendo
austrohun
##anger
escuadrones
forzar
soporta
mountain
polif
civico
traductor
digit
sometio
desarrollarse
martir
disuelto
about
##ikov
dedican
herzego
asignados
parod
avist
divididas
explicaciones
##logica
##iculares
metodologia
kop
##ensen
##uticas
ejerciendo
nieves
mezclado
audiovisual
cerdena
lujos
contador
magno
estuvieran
romanticismo
carlistas
eventual
lapso
mijail
martillo
empato
joel
archiv
saltos
demostrando
nicola
estimacion
haciendas
lgbt
nxt
##enico
estables
agenda
recordo
exploradores
zum
entornos
##ogene
veronica
colocados
ajuste
bielorrusia
khal
##nueve
mutacion
calam
laborista
disenadas
biodivers
acron
basquet
medioamb
potentes
ratas
yale
enciclopedia
vet
scot
pantano
excesiva
vanos
##cs
##igne
oslo
andaluz
abordar
michoacan
todd
fundadora
##ells
demostraron
recogido
centenares
##egal
naciente
escrituras
troy
ncaa
##ady
comesti
##sei
##ifera
registrar
##tizar
reparar
desembarc
kenia
blindados
dana
##org
##oticas
asesina
##olution
nutrientes
##aculos
espia
##egas
pasaban
bienal
presentaban
latinoamericanos
confirmada
jordania
ansiedad
birmania
anticuer
zacate
frig
tve
##idia
franjas
evito
extrasolar
babilonia
espart
robado
vigencia
prefieren
exponer
inestable
propulsion
herzegovina
##atismo
traido
misionero
simboliza
procurador
diarias
##tariado
genov
abandonando
redonda
apostolico
redis
potencialmente
azule
arquitectonica
550
cacao
denver
saben
legiones
halcon
annie
diecinueve
apartamentos
productividad
oxido
desbloque
tatu
##oshi
##icz
acl
price
code
ejercia
representadas
glen
atleta
acorazado
mediterranea
hadas
proceder
distribuidas
otorgada
cargar
carranza
transac
brasilenos
gallegos
##tosa
exclusion
##fre
##ande
quej
##ocond
adiv
debemos
secas
decirle
acudieron
##ught
descritos
posterioridad
uruguaya
contempla
colocan
forestales
monarcas
aceptadas
indicado
republicanas
##ennes
ladron
speed
subterranea
epidem
foundation
wak
normativa
prehisp
##ificaron
conmo
inh
cuantas
tokyo
desempenado
##ivel
deberes
conocian
angola
hablaban
proclama
contex
##colomb
biot
##polis
lacte
revolver
fisher
gregory
accesorios
##lag
alfar
samura
aprobar
exigia
koso
##nica
incip
compite
denso
llegue
permanecido
##hanna
acabando
redacto
orquestas
ptolomeo
guias
metalica
aeronautica
monroe
advertencia
morm
##urbio
combinar
alimentar
ng
emot
sanidad
antib
promesas
prefecto
eche
##trados
cold
especializo
matematicos
idolo
zep
##sy
##furt
comica
magos
crucif
asiatica
manufactur
##craft
##60
designados
##iradores
cometer
kang
suman
carey
prevent
##copia
ate
slo
jacinto
##ersa
mediciones
materno
ovario
subdire
sailor
avellaneda
wim
milito
lanzan
stones
proceden
liu
acosta
pittsburgh
##cita
##cili
parecio
buf
dicto
1791
zoologico
##ipsis
maldicion
##lantes
prete
sucedieron
contrarrestar
fuegos
##cuta
cerrados
confundir
gramos
falsas
firmada
nadal
retorica
hundimiento
cortado
ambicion
habitaban
pureza
prefirio
jubilacion
##iseo
amal
ciertamente
carino
fallas
enfrente
##mark
retroceso
bour
civilizaciones
ecosistema
ufc
misis
doctoral
derivadas
desnuda
consolidar
informaron
sustituida
transformaciones
abejas
##ofici
##minster
servian
demarc
gael
##integracion
##ape
camboya
archidu
golpeado
eruditos
glandulas
##larse
##wall
locutor
derroc
experimentacion
##acaf
guardianes
eres
disolver
supermer
fractura
encuestas
inexist
discrep
##toes
perpend
limitar
ocupadas
preparando
acuar
vengarse
vestibulo
hocico
ia
##uado
##guia
fantasmas
istmo
nutricion
ou
impre
vence
trozos
myst
intermedi
destituido
laber
asigna
chas
ecuatorial
aminoacidos
##abia
compras
diversa
factura
sospechoso
hug
nk
tranquil
funcionaba
enterp
suspendio
diariamente
##arest
ecologia
rendirse
##rade
paradas
morning
anglic
kilogra
paralelos
vendedor
guanaj
explicitamente
cardiaco
castle
controlaba
operan
austriacos
admision
dong
##ampton
botin
dors
sism
atacan
consumidor
foster
magistrado
antecesor
##atz
##nati
liberalismo
unic
humil
requisito
consagracion
halo
comparo
duke
casadas
chand
doctora
asemeja
##oleo
perde
cabra
joey
business
kak
exhibe
##wor
##alada
acoso
concacaf
melancol
##quitos
ars
maine
robos
conocemos
logan
historieta
enterrada
firmemente
perfor
subsigu
gamma
cnt
sena
##irantes
##lit
acap
toulo
urqu
fluctu
aeropuertos
concedida
octavio
parecian
strong
bona
##mia
segundas
280
redondo
incapaces
gentil
eol
intervin
hechic
urs
australianos
maraca
regim
estratos
accesos
manzanas
severamente
reub
retomar
wolfgang
sobrenombre
lecturas
saldo
planici
pintados
avanzaron
infrarro
##odromo
##inder
reunidos
florales
etr
shi
docentes
bagdad
dame
rentas
##once
##ulsa
cartera
##ombro
contabil
ruidos
kenny
pine
mexicanas
arqueologos
louise
##lane
partis
papas
navy
poderosas
labios
nod
##mada
##bin
finas
localmente
microp
apoyaba
##zaron
metamor
contend
panam
levantado
escondido
peronismo
percib
stutt
convergencia
##very
citando
doblete
anotacion
vita
##menta
adan
moleculares
bub
clos
casting
ferias
conductores
afiliados
elabora
primitivos
varela
guerrillas
probado
clasificada
psicologico
kosovo
incum
yuk
ensenada
apoderarse
##ovic
integran
connor
aeros
##rc
##ocesa
moros
##temberg
##inn
letonia
repetidamente
francfort
##iferas
captu
partitura
gritos
sopa
##cible
adriano
##kinson
automovilismo
einstein
cautiverio
iner
cubo
train
fundamento
garras
mitico
clerigos
informal
contact
##ress
320
distribuir
philippe
holocausto
noel
leyo
usual
diplomaticos
nix
tematicas
indul
industrializacion
conformacion
##kir
sagrados
##hos
##tizos
albanes
mencionadas
##queria
##orre
must
dispuesta
origina
antonia
##play
escocesa
planas
organicos
meritos
gaston
contraria
heladas
marcus
comportamientos
nol
formarse
emilia
afec
filmada
advocacion
echo
##leria
##kis
parciales
1804
doblaje
demografico
divulgacion
zapata
gut
hod
##tables
##hual
orfe
encuentre
residia
esperan
simpatia
##dust
caracterizada
metalicos
sostenible
obstaculo
acude
##icista
ruina
gestiones
percep
solv
##lix
etnica
quijote
secon
##ionaje
centrarse
mesas
didac
suite
##atina
rosado
correccion
abandonados
a3
reestructura
##elin
asem
abas
favorecer
enfermeria
cobra
muchacha
plantarum
galaxias
geoff
enmienda
peregrinacion
iw
##hir
continuado
##aterales
gradual
hallaban
acordes
limito
funcionando
entrenado
espejos
modulos
lanzador
enviadas
flujos
terraza
gallega
influenciada
odon
luffy
tartar
organizan
##thy
navegar
augusta
desperto
faciles
bristol
biodiversidad
suecos
1780
primas
termo
impreso
muneca
nept
caf
surcore
incrementa
amurall
progen
1802
graficas
##almirante
##deburgo
carencia
barre
linares
valoracion
1798
aisladas
gustav
eslovenia
##pur
artigas
mejorada
constituir
vuelva
voluntariamente
##fan
intercon
##ificador
volcanes
cohen
cosechas
esferas
##18
subtit
reemplazados
compartida
adornos
##corpor
wells
paramount
vom
forzo
controlados
barranquilla
acantilados
obligando
manipular
##ping
deidad
mount
solucionar
##ediando
quemar
aba
actuaron
cour
combinada
retorn
##erci
subyac
drenaje
miseric
propici
molest
enemiga
1799
convoy
prud
wc
##asaki
durm
ratones
drive
##kka
anastas
curioso
tecnicamente
inician
salvado
equipar
##tidos
##stra
conejo
##itm
alava
fundicion
boic
rush
enteras
compromisos
wellington
##lab
chamber
gong
##tuosa
primeramente
reval
reflejar
neumaticos
agro
determinante
##ged
nature
articulacion
flexible
aub
full
##ctivos
##hra
##ramiento
arica
trailer
rossi
when
geneal
limpiar
misisipi
##ciplin
encontrando
jules
azuf
##itorios
tonalidad
hyd
sinta
interpretaba
rosen
semejantes
prostitucion
##tandose
indisp
##nesio
##colm
fortificacion
neuronas
yeso
secesion
anorm
##edias
olga
convocar
wolver
salm
mercury
queret
suyas
proa
mueven
kris
##tepec
versalles
acompanando
desconf
exactitud
nepal
theater
relat
colaborando
disminuyendo
atacantes
conectada
sable
##atil
arom
cosacos
seguiria
justa
demolicion
faraon
ordenar
contaron
lente
inhum
marchas
sanz
acoge
incertidumbre
##idac
##iao
conquistas
asegurando
prestaciones
astor
riquezas
revisiones
5º
##estres
ocurrieron
lore
##iat
arce
ahorro
proponer
maracaibo
parcel
fantasy
hegemonia
diur
caserio
chate
tesoros
uranio
cargado
angular
terratenientes
vulnerable
acronimo
ned
sord
##inamica
inmovil
##ulio
aviv
describiendo
1776
klein
toulouse
##ocitos
adobe
incorporarse
abdul
feudal
acue
traza
coronas
paolo
##rote
than
otomana
pronunciacion
mudaron
folclore
##idimensional
##gaban
logico
movio
desconocidas
pandilla
##uh
review
textiles
gerard
village
aportes
blaz
##13
conca
impart
malcolm
poz
sobrevive
butler
##fried
causados
adecuadamente
watch
##ois
##tecas
subdiv
encontrandose
condor
natalia
##otrop
preju
ong
dresde
chis
errad
berm
holotipo
##pot
porcel
##chs
tomaba
coprodu
surgir
cuidadosamente
clandestin
balneario
##pton
reza
esbo
afian
enfermera
configura
##isi
sonoras
olimpia
hincap
imitacion
eterno
hincapie
alteracion
germano
aceleracion
parentesco
##icuatro
tomara
days
tajo
soltera
reggae
salz
propusieron
administrado
marcaron
consumir
##heimer
comisaria
##lington
ellen
suzu
##urismo
grisaceo
cornisa
complicada
telenovelas
ain
iman
matilde
destacable
hernando
tiburon
mena
sna
skin
interp
moch
rocosas
lavado
acuedu
kry
apocalipsis
linterna
##tiga
funcionales
stefan
churchill
puc
##lich
britney
acusa
southern
repentinamente
televisa
ramiro
saturn
sorprende
advirtio
jonas
##cester
##version
tomatoes
depres
veinticuatro
evil
padilla
boul
enferma
atractivos
insiste
volkswagen
operando
ilici
ecologico
##bias
antor
##izi
mutuamente
bicicletas
ocio
##trales
constructores
enviando
directivos
contemporaneas
stuttgart
sega
marian
270
sensibles
evoluciono
derribado
eh
distante
capturada
sacrificios
violinista
cortometrajes
inevitable
reconciliacion
debutando
atlantica
quiroga
tambores
interrupcion
mutua
rac
cloro
realizara
apoyos
castellan
shogun
emil
pasadas
atico
service
ejercido
ejecuta
patronato
diferenciacion
##serrat
phillips
pica
##zt
poligon
rodar
confirmacion
ficticia
##bru
monas
botes
mcg
fertilidad
motocicl
##fred
##avent
particion
amenazo
fenix
mirador
adquirieron
##otop
emir
cou
vivas
hispana
1797
flancos
adelantado
eusebio
inval
justificar
##lano
unificado
radica
curtis
coreana
godoy
queretaro
pasillo
isbn
##logico
1ª
porter
constructor
bateo
burn
anatolia
bailando
ble
##atron
logia
directas
voluntaria
necropolis
sosa
amanda
##rost
madrig
continentales
identico
implicado
proveedores
socialdemocrata
##uscos
entrelaz
feminismo
kazaj
gond
mn
lois
motivacion
karate
cordon
bulgaros
suicido
proveedor
conmemorar
encomienda
falang
ninja
atrae
kingston
eugenia
indie
fallece
fichaje
silvestres
jurasico
sabian
extrava
amorosa
emigrar
examinar
megal
dad
aprue
homero
probo
etce
restriccion
aro
##dista
jamie
atrapados
fecund
serios
trot
ambigu
##fago
nutr
##pul
##enan
parrilla
basilio
circulares
satisfaccion
perseguidos
glam
delf
bastantes
recital
informaciones
diversion
definidos
davies
renombrada
toyota
indispens
cometa
escom
##utado
divertido
concord
autonomas
dinamico
montanosas
inmuebles
pisa
##oler
filmar
##fonos
descomposicion
##ark
cannes
mueren
vaci
bowie
excesivo
desagrad
enam
ayun
montanoso
m2
##alizas
subasta
rata
reconocimientos
vascos
rumana
##mahon
ocupaban
##aneos
deprim
ecle
vinculacion
criticada
byr
gratuito
cardio
proyectado
botones
hurtado
insuficiente
quede
alfer
interval
favorecio
contreras
hass
monument
prematura
##mons
consume
retroceder
##ajal
wei
investiga
refund
arrestados
tian
##gico
desventaja
parma
conventos
sacado
francisca
helsin
adecuados
##main
loca
osorio
mediacion
limitados
loma
cage
semant
distribuyen
anotaciones
rpm
rudolf
asemej
puestas
visibilidad
colombianos
incorporada
solicitado
ibarra
atribuyen
embarcacion
ornit
etcetera
piens
amable
filamentos
comparable
richmond
terrazas
toscana
##pie
continuos
morro
hundio
empresariales
escritorio
tejado
iraqui
agresivo
bustamante
page
edita
aspiraciones
implici
##agi
provisiones
benedicto
tav
##enton
atta
vinieron
conmemoracion
cubrio
regeneracion
verlo
bereber
techos
dw
ال
residenciales
esperma
edition
intendencia
##fredo
##inista
agradecimiento
gate
##filo
##ieres
extinta
sospechas
shadow
helsinki
##marck
rhodes
someterse
antenas
descif
proporcionando
kirchner
bolsillo
##volucion
filosofica
fichado
inaugura
mongol
centa
yemen
##cast
revolucionarias
desempenar
##vana
corazones
galia
disputando
rihanna
sienten
susana
saenz
eeuu
lact
##ulador
heat
asturiano
bernardino
obviamente
huyendo
algar
premiado
comenzaria
oceania
cometidos
haro
##gol
action
##jou
transe
jugados
1300
permita
kai
##astres
liquidos
incumpl
##omicos
##mour
fertiles
contenian
obstru
ladrones
afirmaron
1787
azufre
atrop
libreria
ganaria
constituia
stur
prolongo
cb
amen
minister
longitudes
buscaron
asignada
basilea
als
maf
##hof
subsidi
obreras
tristeza
nikolai
850
sando
partieron
plaga
##ispr
alcantar
job
tx
##abamos
mits
year
nashville
##15
retuvo
inher
traum
mundialmente
pertenencia
emigraron
yuan
incompa
ling
aleja
amenazado
terremotos
encerrado
kant
##idado
##ambo
magnifico
estadia
stanford
parecidos
peligrosos
subditos
penetracion
laud
##emer
##ocup
acaban
orton
valer
cadu
inco
espionaje
##avedra
##tinal
confeso
cubria
iria
tut
santisimo
pup
bucarest
proliferacion
tog
intimo
edmund
powell
harper
mickey
conquistado
inocencia
##ratos
##abamba
motin
concordia
causan
facilita
pompeyo
enclave
##uroso
coreografia
aportaciones
eterna
raros
crudo
rie
floracion
jurispr
reproduce
degener
rho
paradero
ancl
deberan
vencieron
cancelacion
##omicas
##ilda
perif
josefa
turn
destructor
gozo
kaw
legitimidad
biologicos
tina
##hrer
compacto
llegados
aguja
exitosamente
expandir
estribillo
erudito
##lac
mejia
vidri
clement
##iensis
pionera
biologicas
notor
adversario
jeremy
alude
solis
mazo
espectros
sandra
mosaico
##hing
##tiem
pern
leido
consolas
botas
rodeo
urbanismo
mhz
##isticamente
faust
sabados
germin
vocab
vaso
celebridades
huelgas
desempenaba
saba
inti
hiro
concili
helm
suplemento
sydney
##radora
205
dominantes
atomica
alpha
racimos
fincas
explora
helice
reservado
prostitu
homicidio
##cientas
ejecuto
bard
##ou
perip
cantaba
poem
incorporando
ordinario
gase
##elmo
creaciones
cardenales
colind
##nox
tarifa
numerosa
sorprendido
cabez
##ificando
terminara
retablos
tiras
directivo
sosteniendo
##ciera
expuestas
espina
chester
montal
filosofico
implicaba
arrecif
cromosoma
inscrito
barreras
##tery
tower
cantada
julie
venden
felices
mobiliario
mats
##hao
contratada
##rono
celdas
inversores
documentada
bruns
mitocond
conservados
##uticos
campamentos
plasticas
atractiva
hesse
mph
deje
##oming
consorte
administrativamente
farmaco
repartidos
##dr
sole
conquistada
desactiv
cripta
destitucion
clarke
progresion
pulp
campesina
alzamiento
kr
##cala
variado
insat
galvez
##phia
1775
masculinas
dionisio
##acar
##iches
innovador
compensar
deutsche
guanajuato
word
yor
##iron
desarrollos
glorios
comparar
##cini
artesanal
caminando
raven
tana
##fus
sham
diferencial
posiciono
hipoc
esmeralda
##uni
##coy
edwin
sustituye
lienzos
saudita
notoriedad
ganaba
vestida
criollos
##ied
percy
mare
transmis
round
cintura
enfria
2500
aguilas
cubanos
omega
##ineo
secuelas
avenue
pivot
##adis
##tops
agron
importaciones
kuban
ae
kick
odia
##sons
saavedra
liberty
sugerencia
metabolismo
racion
##ize
aser
next
frenar
acompanan
enriquez
consultar
desafios
transparente
ferdinand
3º
uniendose
##atido
exili
maraton
posada
superan
##ucto
faceta
recogio
##itania
fallos
conducen
mcmahon
conforma
1783
westminster
irregularidades
nahuatl
intervalos
##entamente
anac
##part
incomp
armist
preparada
conjug
##ulle
desamor
corr
beltran
inteligentes
bautizo
##ocu
invertir
considerables
alfons
burton
especula
durango
##neros
##estias
sostenia
reclutamiento
atmosferica
##arda
cann
calientes
ultimate
concluido
anunciar
reincorpor
identificada
##lets
juzgar
zuniga
fosa
procu
recob
desplazo
proporcionado
multijugador
##urgico
##itres
calma
posturas
indicaba
spinetta
beyonce
pt
##llev
##yev
##rupo
montero
pey
##enoso
avanzadas
pagado
dicta
deshac
ecuatoriana
recreacion
lentes
##estim
receta
serge
bloquear
aumentan
dedicaba
alejandra
boliviana
evolucionado
1770
defendido
dyn
##olita
pedic
celia
neutralidad
viajaba
convertia
arista
anonimo
colera
impresa
nomadas
##grave
categor
mecanicas
petrolera
contrabando
rapidas
schwar
desato
continuaria
torreta
stream
aportacion
alucin
urquiza
gis
io
elvis
##otismo
alsa
incrust
swan
jujuy
resuelto
minimas
astilleros
portales
inneces
dakota
intercal
prel
librar
especias
racismo
genu
emigrantes
elipticas
##86
dejaria
aceptable
##ocrates
##midt
##gement
##tiendose
##usco
masivas
reducidas
instalarse
andenes
##itut
violon
generalizado
promediando
pintadas
identica
banglad
ato
cist
pina
##uet
porsche
hispanica
modernidad
laurent
jol
weber
alarma
iberico
##inf
entregados
renal
atenienses
afinidad
entreno
cruzan
english
6000
##aris
bennett
##radura
rumble
atribuida
unanime
circundante
nostal
peciolo
##alim
mejorando
viajero
ecologica
##vet
##usas
empire
milita
comunal
##ominal
##cillo
mcc
embajadores
reportero
penitenci
mesopotamia
reestructuracion
##alan
quebr
##iris
intermit
celebradas
proposicion
armisticio
##enstein
sue
francot
taka
escoceses
novedades
simpatizantes
presumiblemente
parab
vertebrados
rik
##14
##anie
##roy
fosf
conceder
hormigas
delgadas
gobernada
prolongado
antecedente
##filos
##oran
##iata
##ffa
clausula
silleria
hs
##rira
finalistas
financiamiento
drew
acorazados
obre
##ads
entregada
ganancia
limitadas
revelan
matricula
deportistas
referia
elemental
absorber
promulgo
##elf
##inov
cincin
derivo
asambleas
suicida
cyber
bancarrota
sustancial
nupcias
##nales
trabajadora
existieron
pincel
controlador
rosal
##olds
esconde
vasallos
ceuta
engine
desnudos
sif
estras
acort
luft
peaton
conglom
##berry
prolongada
multimedia
##uana
##ribles
lanka
aproximado
willie
cuidados
decretos
indianapolis
##arch
analiza
espaldas
tromb
sucediendo
stop
special
desgaste
acamp
llamando
inventado
abrevia
yendo
##ayas
##covia
formulas
insular
experimenta
devel
financiado
cumpliendo
espaci
gott
bodegas
osaka
mayer
cuerno
retornar
deseaban
exceptu
penetrar
jurisprudencia
niel
carlom
opusieron
ecole
kids
quechua
aptitud
sinalo
petit
patrul
microorgan
cisneros
cripto
tn
##bow
ermit
competidor
defensivas
pretensiones
drasticamente
amon
cip
reposo
potenci
##ellow
circundantes
retrospec
almend
allmusic
clasificaron
prestigiosa
nurem
##erre
talca
hongo
alfaro
detallada
pretexto
notoria
seguidas
sinodo
oponerse
##xter
##ularon
##intend
crazy
encabezados
imprescind
comedor
##azzo
##urias
artesania
pano
verbal
electos
incas
reconocia
presentadas
extremas
mahoma
solemne
paran
conservando
##aceos
predomina
acogio
semejanza
hele
rana
cala
neog
empleos
dedicaron
corne
calidos
vern
dawn
tunica
anfibios
##ineros
corro
baku
justamente
extensos
nuremberg
alist
inspirados
##urd
##manuel
ocupantes
impresiones
estrasburgo
##dra
salp
nomina
##chaft
empleaba
##bek
atribuyo
instructor
middle
sospechosos
hidroelectrica
incipiente
bim
##entario
integrarse
limitro
barcelones
##uchus
alimentarse
corregir
algoritmos
coahu
silesia
wander
##xx
capitania
encarcelados
radicalmente
orquideas
terminacion
independentista
diges
votado
hambr
hostilidad
desliz
nomenclatura
##inarios
comunitario
evapor
plinio
prometi
##aye
medicamento
orquest
##uidos
##yor
influir
asistido
discur
citados
fallecidos
antartica
##iadores
asienta
aglut
##agno
negado
belico
braun
apoyados
gruesas
sakura
escombros
molesto
rigor
sinagoga
reimp
meter
##ipot
##brales
poe
staff
acordado
aurelio
lamentablemente
##lph
##ulfo
##tives
respiracion
alcantara
kazajistan
alferez
pesadas
vigesimo
cordobes
quiera
alleg
desob
##podo
##aph
chem
canario
milton
alcanzaba
fichar
ampliada
prusiana
emboscada
contraataque
cian
fag
##asia
tanz
aprovechamiento
eligen
ota
##atha
today
##inge
falda
renovada
connot
contradic
cocaina
mayordomo
furia
telas
duena
orina
##iposa
problematica
prohibe
##logicos
##fren
lag
pelaje
hallados
arqueologo
fascismo
alargado
elefantes
suburbios
llenos
fijar
five
##laron
depuesto
##azu
fundamentos
oceanos
soccer
##water
##ilado
andina
fermentacion
gerald
amarillos
anaden
adquiridos
office
peronista
recipiente
arrecifes
##unk
lograria
aster
verdaderas
concentro
convivencia
##aten
mutil
caprich
bonn
dialect
escaram
aerolineas
alvear
fritz
##ografo
adecuadas
cinematograficas
##anor
coria
dracula
henares
malvado
joyce
salar
epica
glor
elevar
saban
seti
corales
farmac
satira
##alli
freno
reclutar
mobile
soler
tempo
verdu
insin
##valdo
catalogado
primogenito
organizadores
liderar
humanista
combustibles
cincinnati
cell
epo
##lora
case
exigir
ucr
1778
cg
lily
##ethe
lanzadas
##insky
catolicas
##tiful
marcharon
eur
gara
wald
seo
chub
radiofon
relativas
levantaron
ascendente
lavalle
amos
verla
esfor
convirtiera
cebada
##yug
##reo
borja
planeaba
insuficiencia
thriller
ceo
##iques
sanciones
timon
identifican
simultanea
feministas
brunswick
##mud
desuso
##ians
short
refres
devolvio
jackie
asentaron
nordico
pasaporte
clam
##ciso
donna
judas
pastiz
tomate
radiac
android
entregaron
recogidos
proyecciones
compiten
higos
alme
arteria
seguidor
remedio
altares
patinaje
porfirio
ibra
##icina
abertura
baladas
retirados
quemado
venas
rede
##ulina
##gramas
continuara
centrocampista
1788
venezolanos
children
fanes
sana
##cena
##loa
espero
barri
plie
vicev
silvia
marcadas
extendieron
bayern
tiger
luminosidad
##reros
archit
ilustrada
disminuido
infanta
philadel
antofag
durar
disolv
clasifican
fantastico
mezclas
camerun
raya
orches
luck
1750
1796
fragil
doctrinas
nur
vich
##illan
salado
empates
mt
sche
minimos
alterar
adapto
ilustres
napolit
elfos
apelacion
andrade
montgom
marcharse
iconos
tranquilo
##inus
relativos
disputados
recomendaciones
cpu
##abria
revolution
selvas
oxidacion
equivale
##ctivas
##idable
filo
consistencia
phys
hondur
turbul
##cr
abdic
pingu
luchan
aclamado
proyectada
raimundo
pergam
sarco
vacas
juzgados
patatas
freddy
piensan
ajo
regresado
llenar
debilit
arkansas
viceversa
pce
doncel
salmon
notacion
dibujar
rendir
clinico
##laba
##icadas
afan
resaltar
candelaria
autorizado
permitira
##uster
funcionalidad
vizca
els
serial
podios
shim
estanque
fechado
energetica
compartia
rhy
##idepor
penn
congresion
seminarios
nudo
##ов
quita
seth
##cidental
recetas
sexualmente
##auro
polemico
kenneth
rada
wer
merece
intensamente
requerida
##rizo
##chov
extranas
consagrada
lirico
paracaid
tesorero
##estar
##isha
##bato
julieta
programada
exhibiciones
pinochet
conlleva
##chia
posit
generador
afg
jugaria
docenas
operaba
montada
alternas
visitaron
obediencia
##plas
##west
adje
##bank
arrojo
estrena
andaluza
pontev
seven
dual
generada
hannah
simbolismo
vacuna
ase
convent
vergara
tecnologicos
there
andreas
ghana
machado
revisar
name
oasis
tero
valde
contemplar
maravilla
solas
valverde
fabio
micror
abundan
telescop
glucosa
ancestros
aleksandr
cund
dela
corria
fract
uvas
desvio
bonif
celebraba
alargada
floyd
cancelo
zaf
##17
manuales
expulso
talk
capitalista
rebaj
gestionar
subsecu
antofagasta
##adizo
diente
##ertidos
doctores
leslie
volverse
despreci
lino
see
##loj
agil
divinidad
cultiva
psicologica
arcangel
whitney
autodidac
jade
aroma
interviene
##gorod
pachuca
##guenza
vecind
tracks
lakers
contrafuer
superintend
mayoritario
vigas
consultor
neutrones
##pera
ancla
cerdos
##ffen
longe
disip
inflig
coast
##ucci
borges
tabasco
##quilib
lamparas
##mafrod
hechizo
accionistas
restauro
violentas
##urope
sensores
disfruto
duncan
reencuent
magneto
##orros
geologica
galo
ashley
evoc
simulacion
relaj
simbolica
heredado
explosivo
dispersos
celesti
groenlandia
fad
cumplen
portatil
ahorros
deshacerse
fast
construirse
antoni
vallejo
representativos
localizan
atacante
aborda
goleada
invadieron
transacciones
sef
proc
fraile
congresional
##riga
convex
ejecuciones
maquillaje
vagones
mercaderes
ropas
mutante
disgu
regina
celebres
virgenes
eas
laf
lazo
aldo
agitacion
profundidades
requerimientos
build
padua
radiodifusion
sti
musicalmente
mozamb
nietos
kilogramos
##aren
##china
adiccion
polis
verdoso
mader
weimar
climaticas
presuntamente
epistola
leopold
remov
empleadas
moderados
presupues
persistente
periferia
zub
angu
precep
fortin
happy
manufactura
vocabulario
kau
loy
##otox
visitan
informativos
##ampe
dique
militancia
preparan
tolosa
amistosos
olivia
##ugeot
cajon
linneo
rodeados
oran
riff
##tics
##itez
cometi
subcon
haciendolo
sintetizadores
divorciaron
intestino
ofrendas
philadelphia
##essa
##cea
interpretaron
schne
vascon
jaguar
criada
adversarios
##mudez
mvp
averiguar
alman
haberlo
conservada
reducidos
damian
hermafrod
pelop
1400
pretendian
heaven
guin
cabar
hammer
respetar
temia
aprendido
acusada
misericordia
drum
##has
mariposa
peugeot
brinda
zarpo
plebe
##atologia
##tru
habiendose
libra
burg
codificacion
solicitaron
pulmonar
oil
escision
##tricos
veria
future
naruto
anotador
##ismundo
##iad
##ceton
ish
belgas
detenida
escuchado
elefante
##leton
##lanco
condujeron
constituian
ios
jara
##iotas
quad
aler
##obre
caidos
polen
##castle
carnic
locomotora
niza
table
llevarlo
celtas
adoptando
telefonia
marxismo
eslavos
mudejar
montgomery
##rego
204
have
cortina
suburbio
poetico
limpio
ahmad
estacionamiento
tocan
375
refugiarse
supremacia
marginal
##ampar
roo
bever
##renal
bermudez
espad
organico
comercios
detallado
##xe
desastres
precolomb
represalia
optico
denominar
digno
cancelada
acreditado
modelado
desencaden
vena
##elyn
brooks
predecesores
hers
##pina
pretemporada
aparecian
preguntar
esgrima
##aland
##imento
empezaba
ocasiono
ausentes
fid
sle
##ners
desv
deba
spy
colaboraron
340
frustrado
crucific
##ptos
##zol
##carlo
estrello
craw
pistolas
bradley
legum
potasio
woods
##ijas
##ulata
belice
periodicamente
indicador
candidaturas
provenian
significados
galardonada
interrumpida
anticuerpos
dh
zoc
ducados
holland
andrews
predominan
entusiasta
liso
##ican
borb
multa
christina
juventudes
desplazarse
deterior
desesperacion
inscribio
temer
paterno
european
duodeci
antibiot
lote
companeras
ventura
facilito
viste
legitim
reagan
##peras
expediente
beautiful
marroqui
hagan
##ipas
##hele
musa
baston
ministerios
tao
hopkins
recolect
manolo
##enosas
ordenada
dominicos
mosca
still
astillero
##own
operativa
patriota
comediante
unanimidad
##enc
andino
cruzaron
aplicadas
recompens
crianza
pv
arta
monti
producian
herod
definidas
volviera
explosiones
dominicano
desgar
espino
maril
daim
gustos
deshab
sobresale
padrino
acompanante
1774
diferenciar
comentarista
##sberg
remaster
casc
cabeci
concluyeron
predio
bendicion
saliente
##ropia
negruz
encanto
alternativamente
impulsada
aliviar
##imiro
cuervo
nervio
hank
imposicion
volvera
ornamentacion
contundente
want
ree
inces
##zov
contribuyen
opone
esquemas
trincheras
conmocion
obregon
foso
##our
alio
##ferencia
empatar
schles
comandado
explican
preferido
afiliado
decorativos
sobresaliente
deliberadamente
enves
chern
alexandre
alimentaria
concursante
maduracion
fuji
activas
osvaldo
vasallo
dorados
modernista
##olitica
nixon
grot
zim
mali
apoyaban
decoradas
##hardt
villarreal
springs
historiografia
antillas
comodoro
moment
vacia
decian
desmor
ceremonial
monetario
reflexiones
tirada
predominio
arrebat
novato
becas
disuelta
temiendo
invoc
canadian
dormitorio
endure
##tibilidad
203
eden
euf
atari
ellis
paez
recibidas
mestizos
ahmed
magnetica
requirio
poligono
##dicion
##cm
##onez
##olf
prose
hak
diagonal
costero
225
segismundo
juventus
gabriela
delfin
##ember
perla
##egra
1100
melilla
tonight
transparencia
aulas
##yin
actas
mug
patios
francesc
interpretadas
bolsas
lieja
mausoleo
moldavia
deidades
##egie
guarani
aguard
carlota
topografia
usurp
pris
normalidad
transformarse
insistencia
indirectamente
tiz
##ances
anjou
memp
qa
patrim
janet
##ulante
rotali
alexis
descargar
gallery
orchestra
##uil
##quino
arp
##cedo
califica
bacteria
diabetes
carriles
queensland
friends
unitario
intercambios
licenciada
glabras
##mac
colom
proponia
senalizacion
discovery
solicita
tiburones
algeci
##zamiento
competitivo
rotura
troya
recreo
redondeada
canterbury
##hall
##ucos
##riosa
asa
serias
regula
geneticos
participaba
##landose
nicole
franquismo
carrasco
cote
##ska
##asico
musta
corren
termico
entrenamientos
higiene
reforzado
incierto
insercion
azulejos
##adar
princeton
sumision
desequilib
yuca
##rough
##izantes
holstein
uniform
##onen
cometio
##tivismo
caidas
male
osos
grietas
arenisca
atestigu
wikip
enamoro
yerno
derivan
rutina
carlomagno
orf
##bridge
hua
individualmente
modernismo
corregimiento
uganda
ibrahim
##fut
anular
##cagua
humbol
buscado
garg
implicacion
eze
##europe
##atlan
abb
institut
montserrat
exigiendo
intensos
patrocinador
vulnerables
comarcas
munster
muchachos
##hurst
oye
sendas
##cci
consecuentemente
canonigo
sophie
wimble
tis
suizos
##ezcan
reactiv
suspender
rhe
hacha
colima
procesadores
emiten
christmas
fiable
parasitos
matorrales
duer
infec
##inosas
victorioso
procesado
330
ear
seren
preca
supern
tomos
berry
firmando
ofensivo
bohem
excusa
hilos
##otro
cruzadas
particularidad
antano
cronologia
cros
computer
polines
completando
enfri
bande
torreon
solicitando
tumores
bailarin
sustancialmente
consuelo
capitol
turk
bengala
wimbledon
##gantes
hang
distinguio
sucum
##trada
diar
preside
senegal
conduciendo
dinamo
dilat
recipro
bid
##gono
##utsch
##zaga
##coni
##tini
socialmente
berna
comandada
indole
etnias
impartio
prorroga
gag
carnes
cerda
linguistico
contesto
memphis
dele
conscientes
kilos
peninsular
oratorio
theodore
atu
eun
werner
##70
dell
coran
meramente
fluviales
magistrados
acustico
##pr
##kor
##osidad
acarre
serran
traseras
miseria
morena
##quitas
provocada
cinematograficos
combinan
reanudo
stevens
primordial
exodo
filipo
colocadas
estrategicos
stam
lozano
bernabe
portador
##sing
##irus
medula
monzon
calaba
palanca
igor
fausto
restaur
alegor
shelley
yus
##pers
##hire
##alto
conectan
sedan
hag
sobrev
democraticas
compromet
disfraz
dubai
fisiologia
periodistica
localizados
aterrizar
insatisf
##abella
encargos
enfrentado
tallada
progresistas
plantacion
subdivid
archiduque
ased
##alizarse
burla
interrumpido
uniones
delhi
##isk
##iance
luca
completada
administrada
fons
sasha
lancaster
hbo
smo
##otaje
prole
inverte
movie
votaron
trust
franquistas
sofoc
derrocado
##dar
cielos
##tello
turnos
spike
cabanas
##omed
##rab
mercante
voltaje
wcw
coahuila
nula
##onga
##irn
tienes
minus
devil
recogen
vigilar
preferencias
imitar
remplaz
suzuki
ayuntamientos
aula
##bron
trampas
compitieron
festejos
zimb
observando
hipolito
guionistas
1782
neerlandesa
lomas
aprende
trataban
rocky
daneses
tens
munecas
valida
##imenea
sobreviven
nickelo
olaf
hannover
nora
finalizaron
caucho
hazana
intrins
acapulco
ao
##kara
##lexion
##elius
represalias
kaiser
suicidarse
vizconde
##wing
desintegracion
cupo
instalados
ranch
soportes
microfono
majestad
cardiaca
styles
##podos
##tiones
leeds
chimenea
sax
causadas
combinados
burke
ricky
prendas
conveccion
superada
breton
canonico
exponentes
acentu
parcela
##ampa
perennes
italo
garza
davila
fotografica
postulo
reynolds
pontevedra
##vik
wehr
incorporan
expresan
bisex
arbitraje
reclutado
sheriff
aclarar
anaranjado
##intesis
##ingia
madras
transilvania
olvidado
flotante
heterosex
detectado
erupciones
asis
##porto
sabido
yoko
tempranas
##formes
himal
apuntan
trompeta
##world
autodidacta
only
##ffield
reportado
esteril
mohamed
##ein
##icum
ayacu
##ellones
montados
predil
convertidos
abarcan
zagreb
contado
desal
##aculo
convuls
coexist
justificacion
indicacion
symp
fury
##arin
enmascar
amig
representativa
urgencia
brindar
respondieron
##chich
chiqu
futu
bebes
reconociendo
recuperaron
1786
especulacion
modificados
apellidos
huespedes
descubriendo
fechada
restringido
alameda
##engo
##izaban
casualidad
derek
##ridor
numerica
prolongacion
promotores
mensajero
nickelodeon
jau
##mir
small
sherman
abreviada
ea
lamar
iss
registradas
melch
enemist
globos
imperios
constituyentes
sinaloa
suegro
alerg
ventilacion
tributos
1777
ortodoxo
inesperada
evolutiva
gnu
algeciras
bish
choco
emile
##ards
volcanico
subsistencia
subtropical
penarol
spo
##comp
chir
londinense
investigo
empatado
##orpion
motocicleta
##iona
contraccion
yak
deportista
somalia
camioneta
riaa
calvario
brend
##mb
susci
ada
coau
comunitaria
fischer
protagonizar
contrasta
fresca
clinicas
##nd
##fast
superst
reconocieron
recordando
escalar
nay
##wau
duarte
abrigo
macri
peligrosas
forever
levemente
blair
adjudico
subterraneos
contrarreloj
##pace
fune
jefa
mutuo
reichs
classic
##adillo
mangas
balcones
flexibilidad
pedagogia
fujim
dmit
##ør
alquim
agon
valiosa
confio
roba
magicos
escapan
tranquila
crystal
vikingos
indiscutible
##25
estrang
contrata
festividades
presbitero
ayacucho
elisa
##uralmente
danar
robertson
concebida
navegador
aportar
oreja
alienigena
columnista
4x
aja
##lain
206
traspl
guardam
##tienne
nacionalizacion
grove
acuaticos
dotacion
acelerar
jenny
##atlant
confiar
wen
##uren
implico
camas
freed
significar
califato
1781
incondicion
maxwell
##riza
##tual
teof
##erty
culmina
mocion
saturno
subsidiaria
bb
aquit
yrigoyen
batista
##illem
summers
cracovia
fiabilidad
basta
##pat
alj
##pert
orch
hold
dictam
remedios
ecolog
vitamina
konig
descansar
##tona
##resor
trajeron
pope
vince
jaume
hallar
erigido
sienta
##cod
##chado
hait
donado
make
metas
##huacan
revelando
rescatado
desviacion
zacatecas
develop
mcl
envid
conchas
gramat
batio
ostenta
afluencia
performance
derrocamiento
grita
zinc
lau
inna
remoto
iconografia
##escrib
##omy
april
sonoro
matan
muertas
prag
ofrecian
exhiben
pecados
cyn
fuero
misso
situaba
foral
justice
mold
compartim
superficiales
lluis
miras
1784
1753
alabo
fs
elvira
alzo
##ticidad
##endido
constanza
hof
benitez
dividieron
restitu
utre
elites
##amus
marty
ferrol
##ografias
senorita
escultores
emergente
gera
regidor
protocolos
hale
yellow
zhu
##itsu
remin
mota
suponen
imagina
##stream
dee
apoc
complot
presley
indetermin
ovadas
1785
invernadero
motocicletas
malestar
siniestro
revoluciones
puntia
navar
definiciones
apostolica
delincuentes
##otecn
##insk
clarin
elaboradas
caroline
boxeador
colos
desprende
expresamente
apropiada
##reno
cantan
fotografico
sket
inesperado
##osis
##lace
acuna
##oge
crem
contratados
destacaba
beh
dorothy
management
bustos
atrev
subsecretario
wikipedia
guel
tz
estal
##ovich
semanales
ortodoxos
faj
tanda
notre
colorido
rectangulares
##dios
tours
rangos
estudiantiles
coleccionista
defendida
ved
##yar
cultos
sentenciado
##kawa
asesores
conducia
manteniendose
concentrarse
clem
sorprendentemente
abstracto
yac
##entro
pedidos
states
acuaticas
percibe
isidoro
##falia
hacend
cantado
gren
constituyeron
borrador
hicieran
multipl
respetado
##sted
carton
adios
colas
impone
canela
distintiva
cortejo
taxi
prosiguio
samurai
laberinto
wave
componia
meditacion
contraposicion
permanecia
postgrado
evidentes
gug
nid
##ames
guang
gafas
confirmaron
ucranianos
matriculo
seas
afines
cedula
gaceta
ica
kana
anchas
barros
reducen
silv
debilito
conan
amada
subgenero
##licer
frond
juridicas
exponente
aquiles
recitales
representaron
aplican
estandarte
patrono
evangelios
tsun
contorno
enterprise
zimbab
yi
ads
regia
nebras
baham
strange
##risa
emitieron
noticiero
away
eisen
##alis
##ictos
cabec
bear
encontrara
nicaragu
tranquilidad
conec
essex
filtros
piper
jaula
agresiva
##yera
eli
conrad
##iolo
monster
afortunadamente
asumido
antiguedades
kuwa
especificaciones
disem
bucar
baila
panamericana
longitudinal
transporta
instrumentales
ichigo
politecnica
##fab
quetz
##ilico
chun
aglom
modalidades
reconcili
emplearon
rostros
predecir
extraterrestre
pelopones
coordinadora
warriors
carv
tragica
logistica
danada
nombraron
migraciones
limitaba
vasquez
##ijos
##icalmente
formulacion
##tenberg
humedas
enfrentandose
visitando
provocan
systems
austrohungaro
mum
probabilidades
justicial
contribuyendo
razonamiento
cifrado
##ussel
valentia
humedales
gb
##inalmente
reign
ideologica
ferry
administradores
reunia
provisionalmente
fusilado
repentina
pedunculo
humboldt
maqueta
cerrando
magnifica
derribar
bombardero
coeficiente
bremen
##ties
##antina
lleve
harbor
portuaria
lambert
hundido
ft
##beck
##ujo
ardu
obse
cao
recibiria
fermin
declino
span
conocerse
maestras
involucrada
romances
reporte
brand
numeracion
compatibles
motociclismo
contrafuertes
porciones
208
esporas
manier
mantendria
strip
ejecutada
instrumentacion
##uit
##cit
##remos
##olvieron
desay
colocando
preferente
pedirle
sindicales
mozambique
nebraska
##ether
cortada
##wain
acoger
lampara
lagarto
cebolla
##strom
verona
negacion
identicos
dramas
secretamente
diferencian
guayana
controvertido
rory
sano
captar
activar
ingresando
bonos
##san
##idales
aparcamiento
cleop
taxones
erigida
veintidos
obstacul
pronostico
finos
calificaciones
opero
permitiera
numeroso
frutales
fluidos
dunas
subterraneas
derrumb
kru
##lore
##kol
##unidad
##itativa
popa
angustia
aaa
giorgio
razonable
colectivas
agrupados
impresos
##hart
lego
optar
metalicas
discute
coordinar
catastrofe
fergus
nana
teen
sharon
trade
limitacion
bismarck
brote
##jadas
inef
##irs
contraer
newcastle
electorado
##plano
louvre
camacho
multinacional
##wara
centran
trescientos
telecinco
participaban
extraido
##waffe
myr
nassau
inedito
advertir
crash
nh
##not
peon
board
avanzaba
arraig
virgilio
ht
##gura
neon
256
millonarios
bautizada
desbord
apuestas
grig
##ск
altam
manuela
mandado
coincidir
fijado
fijacion
proyectil
imaginario
gota
monotip
desempate
caval
ortografia
sendos
second
jut
##antha
lova
praderas
modesta
prat
ventral
disponian
decoraciones
1767
welles
f1
descienden
agujas
compartian
valvula
bifur
eclipse
##gler
casta
ilustra
richardson
tyran
odin
magisterio
revivir
cule
despidio
abogada
desean
##guero
informativo
asteroides
##isia
##ecca
arcil
trazo
invertido
liturgia
alejada
explicando
muelles
moria
pausa
junin
preparaba
recorriendo
contribu
sobreviviente
jonrones
ferroviarias
atrio
ns
gobier
poesias
remun
##amanga
strauss
rd
##tologia
polidepor
armonica
pont
1779
mixtos
delanteros
eslogan
anciana
cartoon
emancipacion
parcelas
##waukee
dandose
##qa
unil
curacion
maran
compraron
universitarias
regimenes
invertebrados
pain
gratis
superliga
quinientos
hitch
##ioterapia
imponerse
##hak
tornado
introducidos
ocurria
giros
africanas
admitir
griffin
tanzania
disgusto
##zza
##raccion
##itares
termod
heath
corporaciones
gemelo
controvertida
espontanea
excursion
##macht
julius
aleacion
ciceron
especialidades
homogen
shield
derra
##ylvania
vh
##asuna
masivos
menu
recap
pelayo
harian
intentaban
atenea
tintin
dt
##zor
estup
leuc
aflor
tecton
leningrado
almor
orbitas
reportaje
etienne
##estes
leandro
##ube
chef
hood
ocultos
impidieron
##igen
juro
wein
procedia
carnegie
loreto
exceptuando
vine
curricul
arreglar
stir
##ayn
trauma
consult
popul
brock
mioceno
granadas
originalidad
revelaron
escarp
paradigma
sobrenatural
ambrosio
any
##terio
destacandose
cumplia
1763
luth
nano
##rif
trafic
denot
entron
bajada
##ofens
explicita
vecindario
cleopatra
##rencia
neolitico
faldas
talavera
rubin
falls
arzobispado
clerigo
amores
positivamente
edicto
desplaza
estuario
preferia
acumulado
comprenden
extensamente
martirio
inmunidad
microorganismos
pastizales
gov
limbo
dominaba
schmidt
reflejado
ateniense
brandeburgo
impedia
tala
contara
reformista
smart
exactas
voice
televisivos
pretendiente
brien
kul
nectar
otero
##facto
pear
##ertidas
##itzer
##flores
riley
esther
##etal
##utin
prometida
llevandose
versus
galan
franciscano
conveniencia
alberta
desesperada
supervisar
nir
scul
exista
##rase
milwaukee
feel
##berger
geograficos
altitudes
vertice
hostiles
marl
amadeo
cascadas
paseos
publican
goza
cuadras
fantasticos
antagonista
bem
##iticas
menem
furioso
productivo
samoa
accesibles
frederic
mgm
subdivision
novgorod
enfati
engran
deduce
wolverine
bono
corps
ulster
tranvias
fry
introduciendo
##psia
condicional
1640
perpendicular
osea
##identa
##reta
cilindrico
reforzo
prusiano
preocupa
transbordador
meh
prediccion
manrique
humeda
rodillas
ocurridos
lograba
impulsor
aprueba
##antan
escab
horrible
harald
benny
trozo
corbeta
saturday
echar
##erados
##ering
alti
##aji
empeno
secta
genial
inmenso
pulso
sostenida
demografica
encomendo
kag
ciro
tomaria
filant
##genesis
olivo
step
inalamb
retransmit
##aventura
conllev
semit
bloom
##tificado
xo
##estas
##ibio
resguard
solistas
solitaria
need
##bey
pulmones
afirmado
ceniza
paradoj
##nic
anteras
##ceos
capuch
obligaba
station
reclutas
cautivos
patrocinado
interrumpio
##adell
##enosos
frenos
estimulos
wesley
abrirse
blade
heidel
comunicar
##verso
airways
intercambiar
tamaul
luftwaffe
##astr
disidentes
fabian
aceptan
xxx
maravillas
wehrmacht
##eiro
##omun
rectas
fundacional
enfrentaba
condenada
nazareno
itinerario
hampshire
mistica
##entenario
##amen
estri
##orestacion
luce
direct
inmune
murillo
interesa
brah
lidiar
convertira
##trol
half
diplomacia
intox
orador
responden
dolorosa
parecidas
utrecht
##riet
desil
denota
siembra
pensaban
determinan
plasticos
ucraniana
patagon
maneja
peralta
oda
##tazgo
##undos
tarifas
controladas
ilim
coincidencia
ballenas
confundirse
##omorf
henderson
boulev
missouri
smas
##lers
##jia
##pell
##ifolia
impreg
jurista
morado
residen
elevaciones
celebrados
cafeteria
acuden
electrific
invernal
diocesano
##chio
acert
emiliano
##rone
andorra
tratara
reformar
##annon
fusulin
pate
capo
subiendo
habitante
interpretados
penns
tragico
acueducto
##egger
opio
recurrentes
wing
##itana
ligue
bosco
sheffield
bonifacio
estel
amelia
ironicamente
wyatt
bolchevique
snake
##inon
##icle
calzado
diagrama
constituyendo
##forme
audi
suspendida
ornamental
pizarra
repoblacion
commonwe
subdirector
##obac
forbes
grandeza
obtenidas
desesperado
desprecio
##aque
##onado
##emi
##imil
ocular
yah
erra
rollins
##iliaria
olivares
regulaciones
##fire
##kal
camuf
diacon
derram
guatemalteco
sog
##cet
##estal
crecieron
calidas
##ificadores
revoc
saul
autorre
economias
thorn
sunday
challenge
dueto
ei
ledes
##ded
hanna
rook
discograficas
productiva
ordinaria
fosforo
abastecer
hano
edith
tromp
investigando
conformar
gardner
nombrando
ome
riga
sento
##arto
##ovol
olive
relatividad
reactores
gemelas
peregrin
ascensor
coherente
indispensable
##uses
##iarias
mcdonald
emerito
##ng
##espa
elche
##entia
##idados
calatra
opresion
violentamente
clinicos
intermedios
desfil
cofundador
##fly
uniendo
##ecraft
derby
marcelino
prehistoria
siena
##brand
##ymouth
darles
quesada
cascos
mecenas
redescub
sobresalen
protectora
vertientes
lour
campeche
235
lidia
recurrio
fronterizo
ceramicas
sanguineo
##zhou
mango
indist
templ
encargaron
orozco
380
kend
where
suburb
##quique
prepararse
accidental
alternativos
preferentemente
baptiste
vea
##bern
maza
clif
plastica
nocturnas
cua
said
niquel
scrip
impulsadas
joc
pog
zulia
leona
ocampo
titanes
alepo
reportes
boyaca
trimestre
neron
##tta
reap
estigma
cora
spiel
decirse
ocasionales
enfoques
corregidor
ratificado
inflamacion
commonwealth
uh
##iticos
paus
transaccion
espectral
##espaldas
1740
narcotrafico
extrad
emmanuel
consideraciones
demetr
normandos
fluor
vinculadas
1760
exterminio
miniatura
##ionales
bastion
lanzas
gear
desmond
controversias
blindado
##jordania
defec
rato
llenas
axel
3ª
tracia
##ombe
relacionan
christine
##ament
##aminas
desvin
joya
mortero
bath
persecu
starr
##psis
fijos
1768
polemicas
parasito
sandoval
pascal
##orato
crust
globales
imponente
excesivamente
demarcacion
neptuno
gund
kart
sugar
traidor
blanc
ordenanza
iniciarse
belicos
##pet
arna
roh
ubicaba
cadetes
conspira
rall
wed
lutero
roedores
insecto
seguira
interesada
limited
contribuy
inocencio
setiembre
##bard
##wyn
palace
quinn
obligar
toluca
himnos
datacion
penitencia
anh
noah
##tenos
partit
contabilidad
cuadradas
antartico
apelaciones
dv
earl
fang
senda
209
medicinales
transferir
byron
vagab
sillares
acantilado
desinteg
landa
##raca
colla
inger
ordenamiento
vispera
royce
inmigrante
castigar
lexico
crueldad
sillas
dero
biografo
recuperando
voiv
vogue
cister
pases
faith
fish
daryl
block
disciplin
torturas
gym
demetrio
ene
incis
##ensk
epico
integraron
tratada
concibio
gilles
factoria
atraveso
prosegu
dotes
enanos
tomarse
obsol
sustento
rodado
whis
vacuno
secretas
evangelista
##sters
tracy
activismo
academias
gripe
incrementado
vendedores
relegado
alivio
aim
##iologia
paraguaya
escorial
chips
publicarse
olim
resistio
entraba
tapia
galaxy
gest
##wat
##desa
moriscos
212
fracasado
##tiana
##quial
##uesa
verguenza
economistas
olm
##thon
desapareciendo
desarrollaba
chilenas
1580
triangulares
guardaespaldas
juguete
estir
##elagos
##heed
moh
anunciando
vitales
625
disfruta
rocio
eclect
##mados
##azan
ligados
izquierdas
endemicas
legendaria
creyentes
wanderers
sismo
organista
spot
glad
registran
cronistas
oscure
pastoreo
amargo
publish
foros
aranas
difundio
sirvientes
etimologia
jiang
orih
molesta
analistas
##ylus
frankfurt
reedicion
lynn
hortalizas
paramilitares
estaran
inda
apela
guantes
##terial
grau
sacra
sufijo
480
otta
corm
##yang
##stitucion
caram
pratt
otorgaba
institucionales
vectores
##rak
inap
aritm
comprada
##gawa
##itarismo
##garas
garci
urbe
azuc
anarquismo
demolido
subordinados
##emato
harmon
digitos
iberia
detectives
cloud
jedi
sider
##oniales
lazar
##emann
mona
maderas
boot
fabrico
fallecieron
halle
administraciones
estribaciones
subvencion
metafora
comend
##trarse
abanico
contenedores
cooperativas
encendido
carvajal
lif
laicos
##roen
##rane
barnes
necesitar
amoroso
sensor
herbacea
heidelberg
uv
v8
victoriano
double
pulpa
percibir
inocentes
semicircular
##loc
##ening
suero
porno
caris
adven
made
presupuestos
##iom
estetico
##cey
verificar
aviles
ayudara
llorar
imperf
musulmanas
1772
truth
bailey
descansa
desembarcar
indemnizacion
chiang
##oniaco
stri
botellas
barbaros
offs
hibridos
cofradias
supervisor
jabal
reverendo
mosaicos
xen
##atti
desol
carru
ambiciones
bende
ayudas
metropolis
fumar
spirit
mineras
gobernaba
ocurrida
procesiones
albergo
aragonesa
books
survivor
##amura
leh
abjas
##oved
bulev
gradas
estrato
asteroide
bs
beno
##entin
orin
descubiertas
intensas
apreciado
rudim
oporto
samb
perdu
profecia
romeria
negativamente
rechazados
cusco
prostituta
empal
talib
mezclar
afiliacion
confundido
nicho
decimoc
##pf
enunci
tebas
1550
sesiles
extenderse
murcielagos
undecimo
hide
##gamente
laos
asento
##tosh
calef
jugadora
andar
teletrans
arauc
archie
arroja
siento
cerraron
confid
buses
pedazos
##kus
##sten
##iendole
indicadores
agrupadas
oveja
oste
##atin
perju
organizando
boro
declaraba
bonus
alarcon
autenticidad
sciences
adjudic
##dh
revit
swing
disfrazado
sepultura
delicada
alambre
boulevard
amin
llamaria
215
hogan
muestre
hidrocar
tristan
##abad
carcas
dend
capitulacion
semia
robusto
##kees
practican
aquino
condecorado
fonseca
##stock
horarios
explota
perfiles
envolv
chrysler
bc
iquique
jing
##onales
##ilios
##thm
ochoa
walsh
##inaldo
hambruna
melo
##josa
tree
##ynn
satisfecho
anticon
membranas
hebrea
dorsales
crucificado
het
##iota
reim
herradura
afam
indy
vertebral
albergaba
huerfano
dn
deutsch
##oti
##ideo
recicl
transformada
kem
tong
##idina
incin
coliseo
impop
1520
navego
historial
anfite
acostumbra
jinete
##pod
##dn
primitivas
federer
glory
fonde
aplicando
suceden
bunker
senderos
oyentes
desechos
##orfismo
afilio
ship
fundido
ganara
friccion
premisa
escasamente
pleist
deficiencia
alternando
agrupa
bia
##hout
toni
ganadera
cnn
nice
conmov
carecian
soldad
raquel
baltas
interpretan
aseguran
superviviente
satisfactoria
dista
rda
wiz
##aray
enro
pole
too
intrans
##romos
cornell
tlaxcala
##tegui
poblamiento
##erne
irrig
recorren
promovida
plebis
ultravio
gs
wade
notorio
energetico
pensadores
eclips
bancaria
pitu
##inoidea
##utla
##avi
thing
philos
improb
hawk
partisanos
concer
intima
atado
cuadernos
acompanaba
islotes
convocada
ingrediente
rousse
##iloe
indicaciones
fracasaron
agrupan
yel
##64
reclamaciones
torpedos
kuwait
adal
room
despido
tirar
eclos
flashback
rubia
atravesado
##viesen
1492
aduana
6º
ares
evan
catalanas
retoma
reportajes
ono
dust
confl
perderia
viral
concluida
airbus
dodge
octogonal
berenguer
##zcan
trate
##uelven
fosfato
sandwich
inseg
herodoto
enju
ganan
##iciosos
vasto
kahn
queremos
geograficamente
reforzada
waters
culpables
caminantes
redondeadas
precursores
teg
oblic
neop
adquieren
indirecta
ismael
##ław
hermafroditas
calatrava
bie
stella
parraf
##igmas
invicto
panf
identidades
citroen
precedido
motivado
##fagos
##32
nef
pour
aleatoria
conseguia
villena
oponia
mantequilla
zhou
##db
delegaciones
magister
tamaulipas
conos
aden
chech
chau
ultimat
friso
excepcionalmente
council
barato
enum
solitarias
mail
sentada
##bee
fierro
##osaurios
orion
banquete
accionar
hallaron
exiliarse
##flix
##xia
esquer
comodo
veran
neal
enfoca
iniciacion
irving
favorece
evidentemente
transportados
severas
ancestral
microscop
islandes
favoritas
climax
equipada
absorbida
foliolos
wi
pertin
##ensible
norfolk
cosmos
##ixa
terminaba
tamar
quintan
aceptando
vinedos
millonario
desperd
##hawk
hexagon
lille
##entistas
salle
pure
molly
protegerse
1773
domesticas
josefina
queja
##itutas
##qua
lea
##eciera
toques
##gancia
consultas
##logicas
##zzi
##90
alaj
suscripcion
monja
distinciones
boss
jump
##bran
##xton
cameo
##ipu
introducidas
representativas
escenicas
brujeria
henrique
gestos
segregacion
reminisc
##yst
casan
herrero
logrono
faros
mentira
asesoramiento
secuestrada
##works
oleada
rindieron
figuro
windsor
halloween
porcelana
gendar
##zilla
##oby
expo
fueros
entrenados
herbaceas
zav
##taine
terran
hack
ataud
concentran
ecues
fortalecimiento
marinero
rentable
kus
radico
industry
##heran
gould
concentrado
cohesion
marilyn
##court
##illi
pinn
robbie
selecciono
rodada
proporcionaba
anadidos
prohibir
crespo
ineditas
elsa
##ularse
anda
valiosos
ther
winston
botanicos
confederados
conectadas
dry
won
##undi
inflexion
avatar
biografias
reformado
promociones
presionar
reconstruyo
garantiza
efectua
mentalidad
klaus
eagle
lc
##oriental
##quenos
prados
cash
sonata
granad
monof
convinc
ulises
papado
##bane
acumulo
graduandose
cultivadas
cancilleria
vencedores
gimenez
kyo
meca
generados
trance
brain
mercancia
excepcionales
implicaciones
virtualmente
improvisacion
carpintero
imprescindible
gosp
m3
##fio
##alco
alero
preco
roche
mediocampista
mascotas
##tov
##egi
herej
destierro
provis
brindo
##ansen
huido
timber
sencillas
8000
store
carmelo
preveia
frost
gestiona
##ibe
holoceno
cede
rifle
hm
jaz
##sburg
##fix
##cira
##unga
letal
escru
viveres
sentencias
greene
comprometida
glass
flamencos
emiratos
nis
##yde
##quios
##ificamente
redujeron
cadete
localizadas
walk
entrevisto
eyes
saurop
oakland
carson
debiendo
cantor
mills
bosch
reformada
graduados
vencidos
lotus
independentistas
afer
cabras
pensaron
ascendiendo
olivier
agregando
gruesos
especificacion
sucursal
zarzuela
##illes
shop
mother
plutarco
alsacia
altiplano
##night
##crito
##raz
centavos
hermes
federaciones
silvio
trinity
disculpa
subtropicales
buffalo
regadio
hacerla
tate
rampa
rebecca
prohibia
hamburg
decep
##ingu
##tivista
ayer
joker
intoler
rosales
newell
contenedor
fusionaron
intensifico
idaho
manantiales
recesion
##eroso
habitadas
conformidad
guerrillero
coreanos
combinando
crestas
euskal
cimas
##culas
##ffin
ecw
exclusivos
miraflores
retrasos
suelta
baltasar
contencion
ape
angle
alejados
sucesora
guitarristas
dinastias
asegurado
compradores
legitima
pnv
##quivir
contextos
ciz
##sel
##quista
destreza
sacud
rehuso
nasal
argumentan
desencadeno
joshua
enfriamiento
##manos
##imi
lust
goethe
gastro
postum
billete
beverly
mauro
nacionalidades
operada
aspirantes
conteniendo
1609
asturiana
ornamentales
##enciones
casanova
lujan
realizaria
matices
##hail
##ansk
llob
michele
explotaciones
metafisica
reinici
ampliando
meridionales
dilu
pictorica
owens
mine
##hill
##kat
sufrag
fallecida
aprecio
utens
eis
kass
##iton
mania
simone
##ryn
literal
feng
ignora
psicodel
mandarin
building
gestacion
willo
barney
isotop
quedandose
abandonan
doo
atendiendo
pergamino
pennsylvania
db
##litz
##mio
##bul
##zaki
fear
##casting
diverso
disparado
orquestal
##ihad
pabellones
##caron
cortando
dirigian
originado
biblico
fragmentacion
kingdom
celebraban
sanders
1630
niss
##cope
costados
incul
hew
montt
conducto
wilde
##ugawa
body
memorable
justiniano
rf
##asha
homogene
erich
practicos
newman
mensuales
distribuidor
mamel
dilig
crane
tijuana
##huel
marrones
tejas
locke
irrad
terminologia
escaparon
revisada
##22
exquis
suscrib
providencia
autoden
patriotica
netflix
descansan
apendice
kri
##uron
##ayos
devuelve
consumen
dispararon
duraria
redactar
redondeado
aconsej
trascendencia
desilusion
casey
evit
reunian
artefacto
##gerald
alimentado
adaptados
hawks
##itano
abandonadas
370
incrementando
fasci
twin
eclesiasticas
##igrafia
peloponeso
lama
##taker
teut
sanitaria
completaron
productoras
nazismo
mandibulas
lesbianas
olimpo
##dev
clubs
piados
semip
referida
extendiendose
1660
publicitaria
acunado
salzburgo
loki
crecientes
##aneas
insol
pierce
tacna
apodero
sugerir
korn
metrica
dais
correspondio
tripoli
1540
##defonso
labio
leves
##iffe
leyendo
mapuche
deformacion
lionel
coraje
partia
peleo
bromas
amortigu
nadar
sapris
apresado
##jana
##chis
army
identicas
germain
suministrar
agregaron
lauren
ugar
geta
vanessa
emitia
celebrando
propagand
dl
kung
##ilis
acc
##iguales
collection
estadistico
intercambia
gum
##nor
reinas
##cona
haberle
liderando
linajes
##thing
ildefonso
reclama
absorbe
prospera
aconsejo
bambu
alienigenas
aquitania
iro
marcan
infarto
norcore
viable
tipologia
hinchas
toxicos
##echea
fitzgerald
eve
jum
##ctar
estano
universales
asistia
northum
norton
visigodos
##irtiendo
##ocon
impusieron
postes
isis
follaje
eficaces
criollo
alisto
guiar
##celular
denominaba
liszt
denunciado
scout
##phe
leigh
trail
buddy
paleolitico
prostitutas
zapatero
##anicos
##inares
##lake
travis
caled
autorizada
rodas
bulgara
reproducen
fructif
antorcha
rash
caste
cag
volga
garra
promulgada
rompieron
enfocado
wurtemberg
bren
dov
resuelve
siga
contrapun
sirac
index
devolucion
remota
pantalon
pirateria
gunn
##otec
fame
##cosas
pedania
alego
ingresaron
clandestina
##futbol
##ια
##omio
##cao
centin
romulo
forense
vendria
devuelto
tallado
atenu
1769
remake
villegas
libanes
triples
militarmente
bizancio
implican
terribles
polos
hoz
geologico
olivos
declarados
disputan
aprobaron
ineditos
alessandro
jugabilidad
##hoo
ocasional
gordo
technology
##rini
##orto
##acy
sonor
integrando
recording
##ights
sultana
recintos
arreci
electronic
ensanche
espias
##loss
repel
polares
pinta
hammond
marquesado
flair
neoyor
adventure
xil
##sein
##ippi
judith
sustituidos
##huana
cambiara
##enzuela
cursar
alcaldesa
zab
##alle
leguas
finlandesa
recordaba
prejuicios
freedom
eclosion
##uen
##loe
mozar
langu
paganos
auguste
marquesa
glabros
risa
##ous
##adillas
parche
##tof
metz
vendia
rivero
criados
folklore
neerlandeses
abstraccion
hidraulica
schneider
##48
cuotas
##carn
investid
acabada
teoricamente
apasionado
pleistoceno
aeg
viera
##cz
##band
##osta
##lete
##traron
duende
teheran
##rosis
trick
1650
proyecta
describia
crimin
multic
mississ
checoslov
lax
carroll
##ubert
barrett
costeros
##omodo
cilindrica
coccion
defienden
nielsen
tez
realeza
ideo
benefic
emergentes
curvatura
##mler
detuvieron
compla
hoyos
reclamos
televisivas
caudales
##andu
monot
malla
negarse
celtics
floral
pulgar
lesionado
viajaban
caceria
becer
cigu
jem
##elles
aros
optimo
investigado
viad
turbina
viktor
titanic
persecuciones
##rinas
lah
injer
tanger
##ckland
humanitaria
reproducciones
rinde
legisladores
desgraci
huerfanos
discrepancias
cabaret
crawford
vuela
##elan
##andolas
##rash
negar
semicon
conclu
pobladas
asimil
buenaventura
suprimir
edison
agred
exploto
pensiones
suspenso
orientadas
rambla
cafes
popularizo
rua
spd
ayudantes
devon
analitica
transportado
evidenci
##huac
guarniciones
carabineros
interactuar
##uzas
##adre
retos
hayes
juliet
pedestal
sexy
persuadir
patriarcado
caducif
bishop
##selo
##kom
bejar
concluy
postumo
mistico
acumula
##chenko
palmeras
etiquetas
##soci
laus
desist
##ivoro
##umen
pasiones
inclin
rumanos
sugiriendo
ups
##oire
amas
faltaba
garib
bombay
ferroviarios
socioecon
evacuar
amenazadas
comodidad
trevor
lata
adsc
caldas
paleo
sepult
sacaron
##hoff
mulder
acompanadas
axilares
difundido
astronomos
atraviesan
reverso
vara
##tha
acuno
vala
estereo
##uvial
saldria
murcielago
echa
jill
apical
solteros
raciales
morelia
metil
##yeong
aprovecharon
defendian
juridicos
arquitectonicas
manchuria
flamenca
##rena
amot
manson
dejarlo
neuquen
deshid
letter
inconvenientes
dac
esbel
##letin
##pov
median
canteras
horda
beir
callejon
figuraba
bondad
transmiten
envuelta
1570
aranda
transfirio
esla
oblong
regan
vaug
conseguiria
refugios
desplazado
fortificada
cansado
scream
escarabajos
desconfianza
chubut
schleswig
hilar
sip
##rimento
ambr
sams
telefonicas
ona
##oner
enumer
coniferas
filosoficas
fotografos
circunscripciones
polluelos
##dance
##onicos
##enal
archa
santi
sainte
procedian
desterrado
[...]
