[SEP]
[UNK]
[CLS]
[PAD]
[MASK]
!
#
$
%
&
(
)
*
+
,
-
.
/
0
1
2
3
4
5
6
7
8
9
:
;
=
?
@
\
^
_
a
b
c
d
e
f
g
h
i
j
k
l
m
n
o
p
q
r
s
t
u
v
w
x
y
z
{
}
~
¡
¢
£
¥
§
©
¬
®
°
±
²
³
µ
·
¹
º
¼
½
¾
¿
×
ß
æ
ð
÷
ø
þ
đ
ħ
ı
ł
ŋ
œ
ƒ
ƛ
ƞ
ƣ
ƶ
ǝ
ɐ
ɑ
ɒ
ɓ
ɔ
ɕ
ɗ
ə
ɛ
ɡ
ɣ
ɨ
ɪ
ɬ
ɲ
ɵ
ɾ
ʁ
ʂ
ʃ
ʊ
ʌ
ʒ
ʔ
ʕ
ʧ
ʰ
ʲ
ʷ
ʻ
ʼ
ʾ
ʿ
ˆ
ˇ
ˈ
ˌ
ˍ
ː
˚
ˤ
ˬ
΄
α
β
γ
δ
ε
ζ
η
θ
ι
κ
λ
μ
ν
ξ
ο
π
ρ
ς
σ
τ
υ
φ
χ
ψ
ω
а
б
в
г
д
е
ж
з
и
к
л
м
н
о
п
р
с
т
у
ф
х
ц
ч
ш
щ
ъ
ы
ь
э
ю
я
ђ
є
ѕ
і
ј
љ
њ
ћ
џ
ѡ
ѣ
ѧ
ѫ
ѳ
ѵ
ѿ
ҍ
ґ
ғ
ҕ
җ
ҙ
қ
ҡ
ң
ҥ
ҫ
ү
ұ
ҳ
ҷ
һ
ӄ
ӈ
ӏ
ӕ
ә
ӡ
ө
ӷ
ӽ
ա
բ
գ
դ
ե
թ
ի
լ
խ
կ
հ
ղ
մ
յ
ն
շ
ո
չ
պ
ռ
ս
վ
տ
ր
ց
ւ
ք
א
ב
ג
ד
ה
ו
ז
ח
ט
י
ך
כ
ל
ם
מ
ן
נ
ס
ע
פ
צ
ק
ר
ש
ת
ء
ا
ب
ة
ت
ج
ح
خ
د
ذ
ر
ز
س
ش
ص
ض
ط
ع
غ
ـ
ف
ق
ك
ل
م
ن
ه
و
ى
ي
پ
څ
چ
ک
گ
ی
ې
ܐ
अ
क
ग
ज
ट
ण
त
द
ध
न
प
ब
भ
म
य
र
ल
व
श
ष
स
ह
ा
ि
ी
ो
া
க
த
ன
ம
ய
ர
ல
வ
ா
ி
ு
క
ರ
ಾ
ก
ข
ค
ง
จ
ช
ณ
ด
ต
ท
ธ
น
บ
ป
พ
ม
ย
ร
ล
ว
ศ
ส
ห
อ
ะ
า
เ
ไ
་
ས
း
ა
ბ
გ
დ
ე
ვ
ზ
თ
ი
კ
ლ
მ
ნ
ო
პ
რ
ს
ტ
უ
ფ
ქ
შ
ც
ძ
წ
ჭ
ხ
ᄀ
ᄂ
ᄃ
ᄄ
ᄅ
ᄆ
ᄇ
ᄉ
ᄋ
ᄌ
ᄎ
ᄏ
ᄐ
ᄑ
ᄒ
ᅡ
ᅢ
ᅣ
ᅥ
ᅦ
ᅧ
ᅩ
ᅪ
ᅬ
ᅭ
ᅮ
ᅯ
ᅲ
ᅳ
ᅴ
ᅵ
ᆨ
ᆫ
ᆯ
ᆷ
ᆸ
ᆺ
ᆼ
‐
‑
‒
―
‛
†
•
‰
′
″
‹
›
⁄
₁
₂
₇
₤
€
₴
₽
℃
№
™
⅓
⅔
⅛
ⅹ
←
↑
→
↔
∆
∈
−
∙
√
∞
∠
∴
∼
≈
≡
≤
≥
⊕
⋅
─
★
☆
♣
♥
♦
♭
♯
❀
⟨
⟩
ⴰ
、
。
〈
〉
《
》
あ
い
う
お
か
き
く
け
こ
さ
し
す
た
ち
っ
つ
て
と
な
に
の
は
へ
ま
よ
ら
り
る
れ
を
ん
ア
ィ
イ
ウ
ェ
エ
オ
カ
キ
ク
ケ
コ
サ
シ
ス
セ
タ
チ
ッ
テ
ト
ナ
ニ
ノ
ハ
ヒ
フ
ヘ
ホ
マ
ミ
ム
メ
ャ
ラ
リ
ル
レ
ロ
ン
・
ー
一
七
万
三
上
下
不
专
世
丘
东
中
临
丹
主
义
之
乌
乐
九
乡
书
事
二
云
五
井
京
亭
人
仁
代
以
伊
会
伯
体
何
作
侯
保
信
元
充
光
克
八
公
六
兰
兴
典
内
冈
军
凉
凤
分
利
别
前
劉
勒
化
北
区
十
千
华
南
博
卫
厅
原
县
口
古
可
台
史
右
司
合
吉
同
名
后
君
吴
周
和
咸
哈
唐
商
善
四
回
固
国
國
土
地
坊
城
基
堂
場
塔
士
夏
大
天
太
夫
夷
女
姬
威
子
字
孝
学
學
宁
安
宗
官
定
宜
宝
宣
宮
家
宾
宿
密
富
察
寺
寿
封
將
尉
小
尔
山
島
川
州
工
左
巴
市
帝
師
常
平
年
广
庄
庆
店
府
康
廣
延
建
开
式
张
張
後
徐
德
徽
心
志
忠
忻
思
惠
愛
成
戦
所
扬
承
拳
政
教
文
新
方
族
旗
无
日
昌
明
星
春
昭
時
晉
晋
景
智
曲
書
會
月
有
朝
木
本
朱
李
村
東
松
林
梁
榆
樂
次
歌
正
武
氏
民
水
永
汉
江
池
汾
沂
沙
沧
河
治
泉
法
波
泰
泽
洋
洛
津
流
济
海
淮
清
温
渭
港
湖
源
漢
潍
灣
烟
無
燕
物
特
玄
玉
王
理
甘
生
田
白
百
的
皇
盟
直
相
省
真
督
石
矿
社
神
福
秦
空
立
竹
第
經
红
纳
绥
绵
羅
美
義
翼
者
聊
胡
自
良
芜
花
苏
荆
華
萬
蒙
蕭
藏
藤
行
衛
衡
襄
西
言
記
語
論
许
谷
趙
路
軍
辽
达
运
远
通
道
邑
邢
那
邯
郊
郎
郑
郡
部
郸
都
酒
里
野
金
铜
银
锦
镇
長
长
門
门
阜
阳
阴
阿
陈
限
院
陵
陽
隶
雁
雅
集
雲
青
韓
音
香
馬
马
高
魏
鸡
鹿
麻
黃
黄
龍
龙
（
）
，
－
～
￼
##к
##и
##п
##н
##а
##у
##э
##л
##м
##о
##щ
##ц
##е
##в
##р
##ч
##ы
##х
##б
##я
##ћ
##є
##a
##n
##h
##g
##d
##u
##т
##з
##ш
##e
##с
##г
##l
##i
##k
##y
##ю
##ф
##ь
##s
##o
##b
##r
##t
##c
##m
##p
##1
##д
##6
##j
##і
##ж
##9
##0
##x
##f
##w
##v
##ъ
##2
##8
##z
##7
##3
##4
##5
##ラ
##ン
##q
##ł
##ғ
##ե
##թ
##ո
##ւ
##մ
##ל
##ѣ
##ү
##ә
##ң
##א
##ך
##ʊ
##τ
##ε
##ρ
##υ
##γ
##ς
##ა
##დ
##ი
##რ
##ო
##ბ
##ს
##ß
##ӈ
##ι
##κ
##ω
##ο
##ӏ
##χ
##π
##σ
##α
##ø
##қ
##ν
##η
##μ
##ᅥ
##ᆫ
##ᄀ
##ᅢ
##ᄌ
##ᅵ
##ᄇ
##ᅧ
##ᆨ
##æ
##な
##い
##ר
##י
##ה
##ف
##ر
##ӷ
##ӽ
##θ
##ʰ
##ҙ
##ᅪ
##ᄉ
##ᆼ
##ᄋ
##し
##う
##ψ
##ө
##ə
##ه
##و
##β
##พ
##ร
##ก
##า
##น
##ต
##म
##া
##ᅭ
##ن
##ı
##λ
##ת
##đ
##ि
##न
##φ
##צ
##ב
##ע
##ו
##س
##ة
##պ
##ա
##ն
##դ
##ր
##տ
##կ
##џ
##ᅡ
##ᄂ
##ᅳ
##ˤ
##δ
##ξ
##チ
##ち
##く
##ら
##ұ
##յ
##һ
##º
##ӄ
##ζ
##ː
##מ
##ј
##ق
##ع
##ש
##ҡ
##ŋ
##ի
##հ
##ˈ
##ð
##ց
##נ
##ק
##ѡ
##მ
##ე
##ლ
##イ
##ナ
##ص
##ل
##ا
##ح
##ᅮ
##ᅲ
##ђ
##ک
##د
##ش
##ت
##ӕ
##ɛ
##ャ
##ハ
##ս
##շ
##ք
##ם
##ґ
##լ
##ѫ
##カ
##ロ
##マ
##ニ
##ア
##ħ
##խ
##ղ
##ɨ
##ᆷ
##て
##る
##ト
##ル
##キ
##ʼ
##ᄒ
##ᅯ
##ᄎ
##ᅦ
##ᄅ
##ᅩ
##ʷ
##ल
##ा
##य
##ो
##ן
##ҫ
##ʔ
##ƛ
##း
##ᆯ
##ᄆ
##ɓ
##כ
##ب
##ɔ
##چ
##բ
##ク
##レ
##ー
##あ
##ی
##ח
##گ
##ي
##ى
##す
##ס
##ג
##ט
##ᄃ
##ռ
##վ
##ء
##ʕ
##ไ
##ʒ
##њ
##ᄏ
##ד
##ҥ
##ᆸ
##ด
##פ
##ɒ
##ҳ
##ᄄ
##ʿ
##ᅬ
##ण
##ɑ
##გ
##ფ
##უ
##ᆺ
##þ
##م
##た
##र
##क
##ɐ
##ɪ
##っ
##と
##ك
##リ
##ɵ
##ნ
##サ
##ッ
##タ
##ಾ
##ರ
##ზ
##ვ
##よ
##ǝ
##ᄐ
##ძ
##に
##き
##ʻ
##ு
##க
##ミ
##オ
##ว
##ส
##ج
##त
##シ
##ス
##ɣ
##კ
##ტ
##ɗ
##ณ
##ห
##ะ
##ธ
##ม
##เ
##ง
##ѳ
##フ
##の
##œ
##ѧ
##ხ
##ホ
##ܐ
##µ
##อ
##ล
##ې
##љ
##व
##श
##ქ
##خ
##ᄑ
##प
##ट
##ज
##ी
##ʃ
##ɾ
##գ
##ி
##ன
##ѕ
##ब
##れ
##स
##テ
##ʾ
##ん
##ʂ
##თ
##ய
##ர
##ช
##ย
##ィ
##コ
##セ
##ह
##ˆ
##ҍ
##ケ
##ѵ
##ま
##җ
##ヘ
##ჭ
##ध
##メ
##څ
##ท
##さ
##ɡ
##ป
##ェ
##ா
##த
##ɕ
##ヒ
##ز
##ʁ
##ウ
##द
##ʲ
##ҕ
##ⴰ
##ض
##შ
##ط
##ɲ
##り
##บ
##ז
##ˇ
##ˬ
##ᅴ
##จ
##ҷ
##ʌ
##ƞ
##エ
##ム
##ذ
##ノ
##お
##ศ
##け
##წ
##ค
##ग
##ˍ
##پ
##ɬ
##ம
##ᅣ
##भ
##ˌ
##こ
##ʧ
##か
##ც
##ல
##つ
##غ
##ข
##չ
##を
##へ
##ष
##は
##வ
##ས
##პ
##ӡ
##ⅹ
##ـ
##ƶ
##ƣ
##క
##ƒ
##ст
##ен
##ов
##ер
##ан
##но
##од
##ал
##ор
##ск
##ол
пр
##ел
##ot
qu
quot
##ом
на
##ет
##ии
##ны
##го
##ат
##ит
по
##ин
##он
##ра
##ем
##ил
##ои
##ед
##от
##ар
##ия
##ся
##ик
##ав
##ие
##ак
##ств
##им
год
##ам
##еи
ра
##ек
##ив
ст
##ев
бы
со
##ич
##ла
от
##ос
19
##ого
##ис
##ру
##ая
об
##их
не
##ля
из
##ель
##ли
##нои
##оль
##то
##ир
за
пер
##аль
вы
во
##ест
##ных
##ка
##ес
##ения
года
##ог
##об
##ую
##ного
##ож
##ез
##из
##еск
был
св
##сл
##да
##ок
##ныи
##на
##ур
пол
##отор
году
##сти
##ным
##сп
20
##ран
##ент
##ид
##ическ
##иц
##ает
##ован
##ные
##ник
##лен
##ать
##ист
##ре
под
##ас
##став
##ион
котор
##ро
что
##сть
##ут
##ад
##же
раз
так
до
##ном
он
##скои
##ход
##ят
##ию
##уч
##ение
##уд
##ского
эт
##ами
од
##ще
##ют
ком
##ах
##ль
##ции
##ки
им
ос
кон
##пр
##уб
##еж
##ое
посл
##рем
при
про
его
##ала
пред
сл
##ыв
##ых
##ко
##итель
как
##еч
##али
##ыи
##ые
ок
##зв
для
##ег
##сто
##анд
##иг
##ее
##уп
##тор
##ков
##ствен
дв
ка
##ить
##ная
##скии
##ус
вс
сп
##та
уч
##уж
##ись
18
ин
ар
##ым
##нов
но
##бот
##рав
##ря
гор
##еп
перв
##аст
##ня
##оз
##ун
##ное
врем
##ров
нач
ав
##ства
200
##ении
##иль
##еб
##руг
кор
после
##ность
##или
##аз
##еш
пл
##ина
кр
##ется
##раз
##ности
##ех
ан
##оч
состав
##ец
201
##ство
##кт
##ием
сам
сов
также
##его
##арт
##ян
##ред
##ную
##ум
##ера
##ания
##иб
##каз
##ольш
##де
##иров
##ми
исп
##лю
воз
##оп
работ
были
##ских
##ект
##сс
##еля
##мер
##уль
##гр
##ена
вер
##ул
##аб
##ается
##анов
##ось
##ском
##лав
оп
была
##ступ
город
было
##ющ
ор
##ают
##ип
прав
тр
##ился
нов
##руп
##нач
##ыт
время
прои
##уз
##аг
##ание
##она
##жд
бр
##ни
сер
##ными
ча
##ку
##сии
##атель
прот
##ень
##ке
кол
##ду
##орм
мест
##ась
зап
##ана
лет
соб
##вля
##ался
##ании
прин
##яб
##олько
больш
сред
##ант
##ими
##ост
##ила
##00
род
чел
##сел
##ета
получ
199
##лад
это
##ены
##прав
одн
ск
##цион
##ирован
друг
194
мар
##ерж
чер
##есс
или
бол
##рат
##пу
##дел
зак
расп
##ели
пров
##пол
##олж
же
##ощ
##ульт
##зд
##пер
рос
##орт
челов
##ому
чем
##неи
##ора
ост
##ольз
явля
свои
##ух
мат
##ики
ее
прод
команд
##рам
кл
зав
зан
##аи
стал
##ция
##бы
##люч
##яз
##вер
##ика
##овал
основ
образ
##ходит
##er
их
человек
сво
то
##огда
##ская
лю
ал
пом
вои
##ло
##не
см
комп
##инг
дж
##ара
##тер
##стр
##екс
##енно
##ины
##уще
начал
меж
##иаль
груп
##бор
рек
против
##ления
ист
сем
де
##авш
##ории
##ган
кра
##ью
##ине
##уст
##ма
17
тер
##ября
все
##лич
пар
пов
выс
вид
втор
##иш
##аш
кар
глав
гер
где
##му
наз
##стве
россии
##че
рас
##ации
##онч
##ские
##елеи
которыи
ев
##ако
тем
том
групп
198
##ени
раион
мо
##лас
##яв
##рит
##ук
конц
ию
она
193
использ
##уш
##ино
пост
##раф
##ле
##раж
##иж
участ
##ующ
однако
вн
##мест
представ
##вет
гос
эк
более
обла
##ти
дом
##ников
##вар
они
мин
##ыш
игр
15
##кр
##ению
зам
##са
объ
##ри
насел
##ял
##ящ
нем
аль
##ающ
##ещ
созд
196
цент
##тов
##ног
гол
##иеи
сев
##вест
арм
197
##ались
##еиств
##оро
##ования
##ата
рез
##ника
##ова
послед
ру
фран
##енных
состо
ун
назв
##on
вос
км
произв
вел
ре
##руд
10
муз
##ира
##or
перед
##ивш
195
192
мож
##ерс
тур
уд
только
дел
бер
мет
##in
##ено
зат
оч
над
##кои
##след
##кол
акт
##иск
чис
16
##ским
##an
иг
##акт
##олог
чемп
того
сы
##ением
##ья
##нии
##ца
##цев
##ическои
север
##убл
орган
стар
сч
191
тел
поб
когда
##еты
жен
##аться
является
##рад
12
##есп
извест
##роп
неск
те
реш
##един
##удар
разв
##мен
без
##енер
зд
стран
##аж
пос
дан
дер
##ожд
век
##зы
##пис
##иал
ук
##том
##иру
име
##цию
государ
уст
связ
составля
моск
вз
##атор
##иф
##орон
совет
##оло
##реб
нек
буд
которые
##ar
долж
мор
этого
##ть
##ились
##алось
чемпион
##яд
мон
##ических
заним
##ять
##уществ
выступ
ис
прим
ад
след
отно
##овор
распол
бел
##ление
##форм
поч
прив
бо
мог
##en
##рал
рус
##ком
##род
##илась
еще
ник
эл
##ди
##ii
##имо
ран
иск
##ша
зем
##енныи
мол
приз
##цы
конт
оконч
##ится
поз
##ате
##ское
этом
##ращ
зв
вмест
деиств
филь
дерев
##ап
обще
дек
##ются
организ
чтобы
##ному
между
школ
свое
вк
##икан
##ину
вод
##алась
##ерш
##уг
часть
тех
сел
цер
дет
##иков
через
пор
##es
клуб
##шел
форм
уже
##еннои
уб
запад
##рон
затем
##скую
##гл
##альнои
##истем
11
##ует
##овои
##ыми
язы
##ох
ты
наход
##ниц
мед
поп
фин
жел
##енные
террит
##ше
##ман
##ург
член
##ром
##ало
откр
себ
14
жиз
##аются
ян
##сточ
##иверс
парт
служ
систем
##ического
##ством
один
воины
сез
##исс
крас
пет
некотор
выпу
области
##лаг
кам
стро
музы
универс
##ило
##ье
шт
част
##фиц
два
рег
##нее
##яж
13
##ерт
##руж
##ба
##ностью
знач
дол
альб
результ
##ыч
##елем
арх
##мож
##езд
суд
каз
##сов
сог
##держ
окт
##итет
##ших
##дин
##at
ув
около
##густ
сент
несколько
полит
##енного
август
истор
города
пес
##сср
##оне
##ода
особ
инст
амер
##ники
##реч
ему
уп
##стран
##ятель
##работ
велик
доб
##рех
##иче
побед
##al
люб
##ителеи
##ование
укра
##ковод
алекс
кат
##цен
кан
##шии
импер
сил
мног
прис
общ
нед
среди
зн
##ках
спец
##аем
др
##олн
пут
##вор
располож
##нем
сша
##ительно
ат
влад
получил
продолж
бор
сбор
##ическии
##ером
##аны
мен
##пит
вместе
корол
##ic
декаб
части
##ощад
которых
##ям
интер
##иции
##лив
годах
##юз
руковод
проф
##ального
ма
площад
##ущ
каче
##ват
##уры
##ике
включ
##ента
лит
кла
мак
воиск
пери
двух
##особ
##мин
кн
производ
да
национ
январ
##эт
центр
##рет
##енд
вп
них
##ником
стр
этот
жив
##хран
своеи
##ьер
возмож
может
##есь
альбом
место
счит
уча
##he
всего
актив
##ним
го
эксп
перев
##ота
##чин
вла
усп
##ражд
офиц
ут
##os
фильм
##ические
##илось
кур
апр
лиш
##есть
##лов
##ва
изд
управ
которая
европ
народ
##ние
##яс
##ственнои
вол
##але
круп
случ
помощ
док
кажд
##ектор
##ически
##еров
##ура
исслед
##асс
##лин
##раст
муж
кв
##атр
существ
##пред
которои
##ищ
века
оказ
находит
худ
##еть
190
##еф
##ада
ссср
##ывает
много
##сли
мал
лин
##бург
составе
заб
##ителя
##га
инд
первыи
пок
##ано
гр
прог
##лож
луч
округ
три
хот
##полн
##ких
##ально
##лед
##оде
второи
25
направ
##лиз
гран
отлич
##ях
пере
##эн
##реп
тор
##альных
показ
дор
соглас
##них
класс
книг
##ита
ог
##is
##альныи
##оре
##иться
других
стан
генер
фев
худож
эн
напр
вст
ко
отд
неи
##уют
##щего
##ви
##мот
назыв
различ
##аты
30
##ивиз
остав
свою
смер
верн
годы
##овать
находится
##ры
мир
армии
составляет
##ув
##слов
##ему
автор
реки
всех
##нев
назнач
сан
##аря
##уда
установ
прич
##ард
изб
посел
поддерж
##ио
##рос
##гов
##сед
остров
фл
культ
осн
ант
##ляр
план
мира
##мы
##ализ
матер
период
##ге
этои
шир
проис
американ
феврал
##ограф
##оме
професс
##илл
##него
территории
качестве
сель
през
пре
мод
пис
##прос
##la
нес
##кад
себя
##ве
##лении
##фф
пог
постро
участв
юж
дивиз
##шеи
##деи
возв
##озя
##атов
высок
группы
женщ
##итут
##дж
мая
франц
ак
тан
пот
верх
бар
своего
теч
##ственно
защ
##урн
вед
матч
слов
опред
августа
##рах
стол
есть
которого
ни
##стоян
конст
##шего
появ
времени
институт
четы
##ела
сооб
##оров
бог
##ева
быть
сдел
##ицы
##us
##руз
карт
декабря
##фер
молод
наб
союз
проц
##ден
презид
##ош
неб
##иту
населения
александ
##ерат
сим
работал
англ
там
аб
ры
##те
отправ
##онов
восточ
газ
##гор
отдел
##it
соот
лег
осв
##ецк
день
губ
##коном
правитель
сол
соврем
##ерг
##анием
оз
журн
проб
участие
##ировал
2010
июля
жизни
189
ман
ряд
##ланд
развит
октября
the
##ствии
годов
арт
население
##ороны
сентября
##омин
##ност
если
кроме
способ
##щее
сод
тип
уз
января
##ият
##el
ит
нез
сохран
стала
##арод
отм
бал
##инов
порт
дев
деятель
минист
науч
конце
тран
нас
##ити
##аракт
государствен
##итета
эконом
##готов
сот
отнош
лишь
начале
количе
##ателя
куб
##лет
июня
впер
##едения
##образ
ред
прик
##ками
прем
встреч
фед
##рь
##овании
позв
уров
един
##пон
марта
измен
##скому
проект
студ
родился
гл
элект
него
##ари
пят
##ческ
##ерн
##лем
##стро
ус
очень
акад
музык
сн
##аров
открыт
первои
##раб
дем
возраст
##ести
степ
числе
название
##имер
академ
##истов
строитель
##иях
маг
межд
дл
апреля
работы
силь
ром
респ
##онд
дости
имеет
желез
##нь
соц
##сказ
наиб
следующ
вв
напис
характ
учен
вен
можно
##руш
##сяч
##ику
##оф
мом
##сят
##иси
берег
аз
университет
москов
##ивает
ол
разработ
республ
##ач
##ители
програм
труд
##овали
##лась
##ере
эти
##озяи
представля
##ектив
даль
искус
ге
сторон
стат
##альные
наг
##оруж
ле
движ
прос
##ню
##лек
##ябре
24
##олю
соверш
сек
22
ив
##ентов
раиона
ули
восст
21
са
фут
расс
эп
француз
автом
нап
соответ
поэт
своих
##шим
либ
##ями
междун
##енным
быв
точ
провод
##лом
международ
даже
переп
исполн
вход
необ
##анию
кня
##вин
призн
одним
нев
ноября
##ме
начин
позвол
выход
##рен
##шие
пам
человека
мил
граф
##ству
##обод
внут
прих
##ol
##ица
говор
трех
##утств
реж
стали
истории
входит
##иев
образом
одно
100
##ация
кораб
зах
однои
##ur
площадь
тот
##уть
##рыв
указ
##ола
ди
деп
благ
полож
городе
насто
двор
##иха
например
188
##овых
па
преп
фил
##il
##ете
изоб
лев
содерж
февраля
деб
англии
хотя
##строи
раб
##еры
согласно
##енная
миров
другие
лес
официаль
корп
япон
##рак
##прият
##et
##алии
заключ
партии
результате
##вые
обыч
зол
##om
рев
##анскои
##алл
раионе
23
пром
дорог
##еред
вл
##ска
собои
приним
гг
впервые
##вы
##циеи
тысяч
##минист
футб
баз
##атив
чего
вск
виде
лен
админист
церков
определ
##am
мы
уг
сообщ
##ряд
лич
та
186
##as
ап
характер
##скими
##бу
##енс
##ерации
ам
практ
##олет
лиг
##арь
код
фрон
##иса
боев
зая
##руго
##уса
##леж
здесь
перс
чет
аф
##ростран
процесс
литерат
кино
##ане
xv
##арх
##няя
позже
гражд
##ости
распростран
##ителем
дав
фун
ii
рим
связи
отс
##евич
##ателеи
древ
церк
течение
эм
187
26
вес
специаль
регион
##шла
ме
##шли
роль
позд
ум
##ion
##инои
дир
дебют
##лаш
начала
вост
свят
окончил
тогда
умер
приб
##ужд
котором
2007
##ерии
зал
##рук
собствен
##ятся
##иком
2008
неп
вскоре
смерти
##нар
##ождения
##атом
храм
##ты
##олее
28
брит
##ествен
наиболее
мм
ради
поступ
бат
основан
крит
вопрос
игрок
началь
этих
рав
примен
27
прев
##ическая
##лон
относ
переш
пс
##имп
фак
анд
услов
##орд
друго
потер
доч
##лена
##аком
ген
зад
цел
##оев
менее
##нес
2011
##лены
пох
небольш
золот
##ость
маш
приг
юго
ap
##иты
станов
мас
брон
имени
момент
##кии
##езда
опис
отказ
стороны
##ыл
попу
предлож
страны
##анс
ави
проход
две
королев
аг
##енное
##ac
приход
##яли
##инского
австр
пал
треб
дал
широк
сор
прож
благод
спорт
##анда
сто
будет
объедин
само
##лог
раст
карьер
сотруд
##ско
маст
капит
выиг
сум
большин
##оты
2012
син
могут
2009
некоторые
команды
ла
контр
выб
выбор
##анг
теп
заверш
памят
достиг
лу
почти
2006
31
##це
церкви
мл
##арии
восток
##дач
часто
прест
меся
час
серии
слож
##сер
герм
хол
##бе
##служ
##мотря
гар
##ихся
кит
несмотря
##ащ
##ида
мел
заяв
необход
произ
##рид
##реи
важ
##ерх
##уре
отдель
##енты
лиц
##ули
эта
таким
##ранич
##онт
##отов
##альная
##се
свет
##ическим
##чив
50
рабоч
изображ
##ань
стать
xi
изуч
2000
группа
##алист
##аков
##наруж
ито
обнаруж
многие
##вод
обесп
март
##ователь
##улся
дост
состоян
for
##нос
больше
вок
##унд
##нок
##инскои
трад
##ывается
##ги
2014
провин
##глав
##лам
нал
##le
выпуск
четвер
##отив
поэтому
рассказ
##явля
тек
##нод
##re
олимп
зар
случа
первым
полов
##ing
##чис
##ечат
##изм
счет
семь
либо
северо
цвет
##ивал
рел
соедин
хоро
##un
##ацион
2013
близ
##ателем
архит
гал
петер
голов
предпол
ны
ул
обеспеч
игры
влия
##уэ
##новь
мех
физ
##ировать
препод
еп
компании
вновь
перес
29
авто
##дает
##адлеж
состоял
##цов
цар
рол
одна
принадлеж
##уется
##елен
кав
игра
сцен
польз
тяж
сын
##енко
вступ
бл
имел
несколь
свобод
##ическое
##юр
тон
##рач
##асты
apos
тит
##раг
дух
##ея
композ
2001
совета
участвовал
пример
одного
##пров
пож
40
благодаря
популяр
##ракт
##ышлен
ним
шв
##ослед
##яла
возвращ
185
занимает
##иан
сезона
вд
нос
тыс
генерал
мн
##ратив
вет
сказ
##рукт
ответ
##кур
##еден
in
рам
оцен
##шир
всем
##инам
франции
##би
организации
##орож
председ
постоян
##ch
##елич
st
##чит
##илии
кос
##сь
##има
дов
ба
пат
выполн
##лением
##пл
##ице
выд
теат
##авшии
##аго
##оды
##анта
территор
информ
##орта
петербург
##ентом
интерес
проблем
ох
университета
вал
##сколь
##ицион
новыи
1941
количество
торгов
##имости
назначен
бан
людеи
монасты
являются
тру
##альным
ниж
2015
впослед
##вержд
##кого
##рыт
впоследствии
подпис
колл
##ады
семье
кал
княз
возглав
##лаз
##овала
возник
##режд
##ублик
осуществ
хозяи
##ичто
пун
##ату
разм
стрел
погиб
##леи
ль
учеб
вооруж
борь
тол
2005
объяв
асс
власти
##омет
обуч
именно
исключ
миха
ир
значитель
ид
источ
провел
##ологии
постав
револю
съ
##ико
автомоб
преж
директор
своим
увелич
посколь
поскольку
##еле
возду
##ическую
##овые
##цами
##сия
смог
попыт
##сон
##ter
##альном
##ro
административ
##ичтож
суп
сыгр
стало
##ци
принц
ур
цель
##шая
прям
##аточ
успех
эр
окруж
атак
которое
бра
подготов
куп
школы
нет
##ископ
первые
##равн
большои
нью
##ed
##ича
##ическом
##яет
дон
##лся
##нолог
жителеи
округа
приказ
событ
женщин
##id
граждан
ном
##ad
доктор
первого
функ
баш
##ирования
уничтож
бои
плат
##лу
лид
макс
##ящее
1990
##ового
##еро
вас
твор
тяжел
ноч
особенно
пит
семеи
колон
##енз
рост
создан
шта
имя
очеред
жил
преподав
##оедин
отмеч
немецк
ходе
##амен
ли
##ды
прек
основном
пыт
креп
##ери
турн
дома
##изма
##авис
##иями
метров
##ерь
##естьян
бит
детеи
внутрен
запис
мощ
##рез
конф
крестьян
став
184
##инскии
2016
##ованием
бриг
##никами
2004
земли
##шем
##люд
село
##оу
размер
европеи
работу
выпущ
##енную
соз
##рии
биб
##альное
дальнеи
груз
##ивается
1944
глуб
##ха
##иеся
частности
комм
текст
млад
##орв
император
обрат
##гу
отец
би
защит
иде
сс
крым
матче
плот
пав
каф
##кие
совмест
компл
полностью
##лено
себе
независ
серед
##онач
вернулся
удалось
гон
поль
данным
##прин
##во
##иста
чемпионате
##екта
низ
единствен
докум
сю
##ту
британ
лат
секрет
раздел
треть
другои
обяз
сезоне
сб
посв
##лот
кил
двиг
линии
таких
длина
прид
##нова
##олов
располаг
##изации
су
##идж
наступ
дог
месте
роб
системы
##атора
##рас
ранее
дополн
потом
собран
дивизии
подоб
##чет
##гром
масс
мировои
академии
трет
руб
##ацию
аэ
режисс
183
##iii
завод
еи
мик
сборнои
нескольких
сраж
##рации
многих
обычно
##жения
кир
1999
##оны
промышлен
##яч
возрасте
ход
##алов
механ
стил
круг
##ором
воиска
берегу
фот
##mu
##ани
вын
пон
##альную
сереб
случае
джон
1943
мун
000
##ig
инт
принял
элем
жизнь
восстанов
##ене
##ерта
##ia
никол
солд
##имен
##ече
пора
отсутств
присоедин
псих
пись
бур
десят
##um
##илов
полу
млн
анг
успеш
принят
вышел
выстав
диск
канд
различных
голос
четыре
##ir
профессион
позднее
наук
конкур
новои
##тон
германии
вик
пара
##енными
##ире
##ске
арест
шах
тю
звезд
##ывал
##остав
##ениях
республики
##ака
коп
181
##кон
##ющего
европы
35
##ec
церковь
такие
украины
первых
##реш
опублик
пла
которую
прост
мно
помощью
xx
факт
чемпионата
##фа
сен
внеш
решение
прожив
бла
182
клуба
эфф
##аном
заг
пункт
нового
##ница
первонач
провед
##ывают
времен
завоев
##матр
##ары
##mula
весь
социаль
настоящее
##ющии
олимпии
однов
россиискои
##иками
##лял
факульт
команда
##роз
материал
##ающих
formula
наслед
синг
##яется
реч
замен
кост
ныне
одноврем
избран
##анных
вним
2003
2017
перешел
##наз
огранич
получила
##кам
этим
спуст
60
##елл
своем
выступал
титул
четырех
управления
of
помещ
минут
прир
отв
тренер
религ
##орот
##лению
##аясь
множе
##im
##оном
2002
an
специал
боль
иор
91
сет
самым
##хоз
1942
##ut
губерн
##ившии
##еис
слав
утвержд
1945
93
соответств
##ent
мастер
##ократ
##онаж
прош
##емат
##ософ
##мет
люд
зим
##жды
##ернии
##ума
освоб
убии
комму
фон
эст
названием
жан
##лик
xix
##лиж
га
##идет
общества
виз
##атели
раск
сравн
медиц
захват
этап
##числен
приоб
##виг
прок
артилл
трансп
##ну
персонаж
вызв
##енном
учили
футбол
законч
обоз
##ивать
##икации
комплекс
##актив
переписи
скоро
##ите
главным
альбома
##od
кандид
1980
сорев
##омб
губернии
##икс
метод
иног
оруж
милли
должен
москве
##алог
##альян
обществен
днеи
мужчин
##еств
тов
станции
постанов
некоторых
отряд
версии
##дается
долл
вар
военно
иногда
обвин
песни
большинство
университете
высот
##ерк
##лаб
сх
степени
деревня
##ски
живот
##нич
мень
##ицип
##ована
имеют
рем
##азд
места
##стоятель
философ
нее
муницип
имен
яв
спустя
сег
примерно
##ристи
1960
одновременно
ино
итальян
редак
империи
##евои
вари
кафед
максим
##разу
сок
##рес
проп
##овед
##евид
протяж
хорош
пан
##ясь
##рок
спас
##ицеи
стад
крест
типа
института
должность
пт
топ
##ающии
инж
180
вин
число
сезон
##итар
норм
##вол
разб
кварт
марш
фильма
казах
культуры
ден
членом
сест
темпер
маи
##дии
задач
марк
##елю
предприят
помог
компания
##анные
1930
бок
ов
техн
первая
технолог
тому
переход
каб
мэ
##город
##ляется
свящ
##гар
руководством
##ека
##амб
##исты
ря
мост
##лян
фер
брат
##илет
прес
рад
##иция
окончания
первом
усил
му
благо
посвящ
##ательно
1970
##авлив
стих
##па
##орус
##st
##ереж
глаз
корот
фор
школу
##алы
роз
кто
ленинг
##роф
веч
de
эв
##атер
##чат
##ято
испыт
готов
гвар
##овавш
##су
замест
##цу
1920
конца
штат
депут
театр
пех
##ra
кры
рак
поверх
христи
занял
##рев
сразу
поряд
##верг
##ывать
бак
пас
плем
##фор
##уру
библи
32
соревн
моря
1992
китаи
чув
завис
##ow
полка
iii
##иза
союза
##кин
перем
плен
самых
##уя
45
структ
происходит
разруш
суб
двум
дже
##овым
командир
которым
нан
стрелков
##енности
##яр
произош
верхов
##цат
кров
##ованы
##анского
появля
##уляр
фр
герц
яр
президент
лонд
села
культур
снова
##оже
##op
честь
1991
целью
##еех
первую
немец
школе
##енции
переех
##ениями
рода
пуш
##виж
веке
всеи
становится
##иля
##роч
##ело
реб
противника
##имость
центра
основе
##мит
контракт
##онии
поэ
река
##нут
обращ
великои
здание
##мат
литератур
скор
хим
отече
объект
##ьев
доход
произвед
##умы
подчин
##ностеи
отмет
##анныи
пед
##ослав
##ибир
##рис
белорус
##год
эту
ха
веро
##ертв
отца
духов
##ительнои
энерг
воспит
почтов
##обрит
севернои
##iv
мит
проч
другим
дэ
операции
курс
великобрит
епископ
короля
##шее
фили
температ
##ород
свидет
самолет
возможность
практически
александр
##ирует
права
владим
достаточ
наблюд
расшир
##уля
плав
##леч
##куп
зр
##лось
упомин
##над
хор
привод
меч
1998
долларов
корпус
дебютировал
новые
##ерв
##ольно
удар
километ
вместо
люди
am
80
##ким
орден
##ляет
дня
телеф
ch
##ниж
##ительных
преим
карьеру
этому
##бер
##си
70
сал
деиствия
##ительного
позиции
летом
лаг
##ама
2018
право
##аки
вероят
##ницы
##ующих
1940
каждыи
##за
179
семьи
1950
пока
деятельности
##егда
публ
награжд
##стан
селе
##еру
ку
приш
оруд
##икои
##ьют
роли
силы
возможно
новых
разреш
мнению
##сф
сеи
библиот
##пар
концерт
1996
замет
##икл
киев
кад
работе
команду
санкт
##иона
##опас
##рои
играл
1918
служил
##оры
##ини
##ation
провинции
включая
первое
##ительные
присутств
потреб
исследования
частью
находился
откры
языка
бук
##начала
движения
молодеж
1997
эд
прист
усть
песня
отечественнои
оно
пути
подт
##кан
ож
##ива
конструк
строительство
трав
использовал
##иоз
западнои
мире
сос
часов
герман
мать
##верд
последнии
гим
сыграл
развития
традицион
##эм
доступ
нат
евреи
представляет
геро
службу
##ующего
##ивают
##адает
жест
драм
полков
другими
теор
реп
сначала
##зем
##гля
солдат
сад
пять
артиллерии
##ниче
южнои
1993
##ающие
##сом
1994
леи
инженер
должны
##овая
##нет
##ающеи
##енц
1995
выз
коммун
девуш
опас
катол
состоит
##нял
крупнеи
фиг
##ущественно
серебря
##ирование
опыт
предполаг
преступ
всп
восточнои
мус
душ
прибы
сюж
##ическими
образования
министер
острова
##иссии
конс
середине
пап
происх
##ag
язык
хар
видов
баталь
поступил
ег
система
##нюю
итоге
охран
яд
перевод
художествен
солн
деятельность
##ождение
##em
нуж
завед
##реческ
расположен
##ительныи
государства
отк
##рещ
36
1939
##оруд
забил
начало
вза
##стрел
архитект
##фин
многочислен
перен
##ard
шест
##ьез
##аде
область
кубка
помимо
област
иванов
##овского
парлам
65
##ющих
вариант
власть
сар
воды
двумя
происход
символ
угл
подраз
железнод
клад
герцог
железнодорож
матери
главныи
непр
учился
ситу
##чик
##ителями
дат
покр
помощи
нар
##юс
иностран
констант
быстро
бю
называем
принцип
##яг
хран
64
бед
бесп
турни
отличие
##ично
книги
##охозяи
##ировали
##итов
отношения
социал
контрол
##ографии
##иду
основнои
отношении
##ерами
индии
ил
числен
косм
корпуса
##ясн
##саж
##тора
долго
языке
изра
хорошо
##уск
##рум
танков
закон
такои
трен
##орг
обознач
расстоян
##амент
рядом
главного
домаш
як
афр
пь
##and
##вета
##ялась
роман
##итен
здания
беж
предостав
лиги
маль
тал
##oc
катег
##ропол
одном
зелен
кли
чит
1989
рис
мае
сд
деревни
камп
серьез
##уков
эпиз
эск
##кая
добав
объем
##еин
спортив
испол
##ственных
неф
самого
православ
33
##овало
38
дис
польш
учрежд
второго
куз
рок
известно
внимание
восп
пораж
всегда
##онст
длин
сына
сиг
##аса
демократ
выраж
знамен
теперь
##нош
1917
журнал
##овыи
образование
брать
разных
транспорт
##ицу
поход
рамках
январе
правительства
виль
сентябре
рыб
прил
500
##име
августе
##лы
пев
развед
##ович
нам
протяжении
дли
дип
##еса
чемпионат
##уются
вит
повыш
пил
##ul
безопас
##ствие
аналог
телефон
покин
правительство
сформ
дочь
##ующии
##екает
недост
перег
владимир
бомб
реформ
занят
считается
ведущ
передач
90
профессор
##аре
##ывали
##рег
встр
стрем
клет
марте
##олен
##овался
никола
договор
слова
поле
начали
поним
случаи
рассматр
##кип
сосед
##ыс
перест
большое
должности
гиб
##ерба
выпуст
##ния
уступ
##звест
огром
имели
сид
бес
ниже
укреп
##ующие
##коп
приглаш
ван
тат
бен
главе
неактив
станд
реализ
##уки
первоначально
христиан
опера
##ансов
театра
##ющие
дмит
искусства
фильме
держ
178
тела
вся
##енность
300
очередь
оборон
прием
октябре
##ионом
премьер
декабре
программ
мер
##оск
встрет
##ирована
образован
стране
ве
вышла
##анавлив
экспер
останов
##ово
повтор
будущ
герои
гип
париж
устрои
##раш
##ево
##нер
##истр
##инга
предел
спект
сильно
полк
##шую
существует
словам
используется
бронз
наст
##истом
студии
президента
достаточно
италии
##авших
##оса
браз
женщины
стен
справ
34
соглаш
футболь
вокруг
##осто
андре
сельского
статус
разд
облад
самои
работать
богат
##берг
сир
##кими
свидетель
перек
кали
создания
документ
наруш
##осред
занимался
##аку
##кест
выдел
##дают
размещ
съем
федерации
##верж
экспед
##точ
##ву
1919
##рел
влияние
австрии
дуб
гу
##цем
игре
##ицию
производства
конеч
лок
хл
могли
уэ
получили
##ток
##оц
нич
эпох
тра
взаим
ориг
##стер
хан
сочин
июне
##кова
ед
государственного
математ
ног
##пт
никак
прит
##вид
комисс
июле
выше
прие
архитектор
al
религиоз
##илия
ленинград
##мар
гид
большая
##ie
##гер
##ay
металл
поиск
просто
членов
##ящии
произведения
шк
сопров
##еки
##ужден
знаком
предприн
национальнои
конфлик
##осп
написал
леитен
##лять
##нит
1937
списк
празд
музеи
##час
сопр
##одня
греческ
работа
кот
потому
переимен
##ируется
простран
апреле
врач
опер
коллектив
центре
ек
флот
писал
воло
##рош
##арм
##еися
всю
множество
творче
непосред
кант
сух
диплом
##др
1938
кас
##ированы
##руч
фронт
фест
##ербаидж
федер
экип
пир
среднии
ближ
лаб
азербаидж
училище
##алом
неизвест
##уна
подверг
##учи
ош
воев
ассо
сибир
путеш
одино
дело
##рест
##аниеи
одну
##енн
выв
индекс
##жа
украин
медаль
австралии
оригин
предполож
ах
шар
воздуш
##истан
четверт
ноябре
деревне
фронта
хв
басс
поля
колхоз
##ици
лив
##слав
великобритании
ток
результат
транс
таб
пассаж
русскои
##50
живоп
похорон
пехот
цвета
37
регуляр
святого
воине
егип
школа
играх
кап
компьют
победу
##нике
##укт
гост
департ
армию
феврале
1988
##ивали
##дов
проекта
принимал
финансов
уезда
революции
сним
следующии
реи
отстав
комитета
стандарт
леч
##яться
некоторое
самостоятель
инструм
вм
com
последние
история
сул
мужч
испан
педаго
серб
##ющее
нав
советскои
##ябрь
муниципал
лод
использовать
испании
убит
музыкант
пад
дисс
участник
##ином
##еком
деревян
семья
шоу
##рабат
ио
фир
правило
##ентами
екатер
выш
закрыт
срок
экипаж
активно
##авшего
службы
группу
средств
предлаг
кп
обл
болез
выигр
военного
##рут
карл
оборуд
красно
сооруж
налич
лиге
динам
смен
чех
неод
определя
значительно
##ировала
увид
##авр
развитие
##ившись
кис
##овскои
постеп
аппар
прежде
дар
лист
являлся
дин
##нику
выиграл
нер
чист
которому
посещ
##рост
бель
государственнои
поезд
дороги
наид
большую
1946
месяцев
александра
далее
коль
клим
ключ
заказ
различные
изнач
брю
##опол
известен
##кс
##эр
серд
эксперим
##адь
мисс
армян
печат
электр
44
##ыгр
##изирован
##20
будучи
##ers
консер
фаб
##аннои
##шт
арг
филип
площади
довольно
матчеи
##ленных
##og
армия
грам
##дон
земля
##еко
премии
##оим
##евых
слаб
станция
востоке
ними
формы
сегодня
совместно
начиная
отб
##дущ
король
подраздел
##етов
вор
##идер
причем
подход
судь
кер
xviii
##цам
своими
пласт
малень
сериал
команде
смерт
ест
##ющим
условиях
iv
группе
значение
доме
звание
сторону
##рих
##поль
##ислав
актер
##лер
соревнования
программы
кавал
композит
оке
преды
награжден
любов
отраж
прет
##ока
насчит
ряда
призв
скуль
поруч
рест
побереж
##ср
европе
музыки
японии
##юн
1986
оба
состава
пул
виктор
##ta
изготов
блок
усл
позн
иници
одерж
ирланд
##атором
##лат
##енью
турнире
печ
1987
общеи
коллек
знаменит
протест
иб
##чиков
петр
выпол
дальнеишем
говорит
тюрь
##олев
отт
московского
военных
друз
верш
##ce
моз
португ
лед
решил
новая
сеичас
осад
177
##альд
биз
класса
таи
##ывая
##нен
подав
проходит
мад
##эл
##лиш
сборную
##ивания
##аф
1985
застав
араб
данных
##ону
относительно
турнира
ту
##отвор
уезд
##инах
запас
верт
бег
sp
создав
вось
ранен
##bo
конститу
гом
кин
обороны
##мир
##ap
патри
##кое
1968
иван
магаз
искусств
ребен
##уем
военнои
##еньш
песен
доказ
##ождении
##ысл
олимпииских
исл
##еиц
зако
##око
##бин
##ri
уровня
состоялся
следует
море
тих
##оволь
переб
путь
заявил
##ча
##под
##цом
##аяся
крат
##ill
центром
лек
напад
направлении
автоном
##алу
узн
иорк
##ующим
среднеи
дворян
вплот
привлек
##иям
флота
##цать
центральнои
штур
##жи
оркест
старт
москвы
самом
надеж
работает
отступ
##сию
вест
##ьера
кг
1936
##ииского
скорость
##стеи
вернуть
необходим
1965
швед
георг
числа
неуда
движение
ом
автомобиль
реак
суда
##чи
прор
педагог
целом
пенс
посет
41
проигр
края
вслед
##циях
защищ
направлен
##пуст
1984
позволяет
конфер
уменьш
##овскии
журнала
находятся
преимущественно
здании
бого
руд
преобраз
##альными
##сен
журналист
анализ
заслуж
производство
1948
пуст
штаб
официально
уиль
избир
##est
##ща
##иат
самол
означ
тои
помощь
строительства
никогда
соответственно
оккуп
дю
диал
##ши
статист
положение
иер
взят
1975
эль
ne
1956
плотность
диссерта
форт
спис
временем
ar
сом
экран
##охран
должна
электрон
42
##еческ
крист
1959
сопротив
теории
русского
##анная
##рун
полном
шот
##тором
вступил
##ub
григ
re
понят
##сфср
национального
1979
борт
43
##евского
сделать
##кина
пяти
##шта
улицы
обит
рсфср
рец
исследовании
меня
вероятно
ассоци
1967
штата
un
##мотр
вещ
игров
##инь
первен
серг
##сы
спортс
поселения
##ившего
орд
1954
советскии
##отреб
лик
ошиб
мяч
##гон
относится
изначально
версия
спорта
1921
1972
швеиц
священ
почтовыи
термин
##бан
будут
1935
зуб
##егии
массов
1976
##никам
##ительное
сконч
протекает
сюжет
гре
фа
краснои
покров
39
михаил
##ениям
представители
улуч
фе
втором
деиствии
трои
занимал
##арда
##зе
историю
баб
радио
##ov
снят
книга
постепенно
деся
родилась
продаж
1982
началась
1962
тар
##оки
##итом
охот
##езде
старшии
велич
150
##ато
инф
чар
матча
эф
##мана
начинает
##лись
почет
платформ
жители
храма
разно
1958
##ыва
##уголь
эффектив
интерв
вплоть
##ственные
and
1974
юр
##ратно
##уа
##гам
бизнес
продукт
переговор
языков
уровне
большого
прошел
правления
еже
пришлось
шесть
путем
мере
1964
75
россия
лучших
улучш
боя
парк
##мо
##иваются
шер
1947
взрос
шотланд
модель
комиссии
##иент
##ственного
корабля
##рока
внутри
1966
достав
##есса
императора
ежегод
русскии
предп
1983
##со
1957
##рада
оказался
западе
товар
1929
вывод
состоялась
епарх
завода
кож
системе
представителеи
страт
##ульман
рот
победы
1949
##окс
раза
записи
преслед
##роб
независим
постоянно
издатель
новое
половине
взрыв
самыи
##пуск
своему
1978
председатель
расположена
##арем
1973
1922
безопасности
земель
##иле
гвардеи
лав
окра
##овую
рубл
периода
исход
дважды
бомбард
известныи
миним
обязан
1971
иль
48
идеи
1963
дик
##ряда
##нему
произошло
министра
##алиф
##оду
##ленные
##назнач
##шись
кавказ
##екан
автомат
джор
факультет
назад
1981
##нул
##шими
леиб
сделал
мекс
эксплу
##кнов
озера
широко
##уи
##ировки
сопер
московскои
введ
предназнач
1961
##амет
раун
построи
##ище
смеш
коммуны
##ука
##аторов
штаба
длинои
дочери
сед
прол
вынужден
1934
институте
эскад
веще
аэроп
##лан
1969
уровень
весьма
друга
категории
названия
прояв
##ивая
коллед
прон
началось
брос
функции
to
вида
сельсов
##ленныи
городскои
стороне
1977
##одеиств
третии
дес
главнои
петров
1924
1931
исследов
телефонныи
боях
счетом
1926
сак
архе
появились
паралл
разг
фам
чемпионом
рф
##ряду
##ud
након
сср
1932
румы
нидер
тро
вып
##ord
мусульман
воин
зрит
рекорд
вдоль
коммер
##ессии
построен
парламент
еди
книге
марии
уход
модели
регионе
en
рож
ти
муниципалитет
крупных
##ема
##авшие
русских
старше
##ительным
уж
лабор
силу
следующем
рич
##ящего
##рор
леж
казахст
51
флаг
возможности
работали
начинается
тонн
внес
воль
##бус
труда
дн
ворон
средства
форму
боевых
##ствия
турнир
способств
##еков
странах
джордж
евре
революцион
##едии
##овано
рын
наград
управление
##нуть
получить
исч
55
отр
фабр
xvii
воина
ракет
игру
присво
рублеи
оск
1933
реке
устро
рук
##яло
##ованию
находились
сц
новую
взгля
##обр
тоже
хок
##еном
советского
##нает
1914
сфер
управля
47
норв
##оид
неудач
список
николаи
составляло
мало
##art
46
##ательнои
пиш
леон
машин
полос
данные
точки
400
вошел
##пы
фактически
изменения
##ящих
1923
удал
##up
мем
##ава
концеп
##евича
##улы
сообще
нему
организация
друж
##ионе
##ine
##аемых
##гель
исследователь
партиз
ничего
1953
1928
ва
появился
москва
соответствии
драмат
##ереи
воисками
имеется
##ствах
иоан
стиле
##анскии
истреб
информации
приговор
россиискии
гн
сверх
авиацион
татар
распред
неоднок
##сол
тело
проблемы
##оваться
дз
##ницеи
азии
корр
дивизия
##ади
##озмож
командованием
появилась
приобрет
подк
хр
контроль
гитар
принято
мель
украш
комитет
государственныи
1955
176
сигн
хвост
##ированных
бух
чуд
##уман
музея
переехал
##инки
успешно
реит
##чика
##ясня
зрения
степень
##яют
посад
##енского
городов
уль
представитель
научно
слиш
##ываются
ваш
пак
пари
пищ
нен
52
слишком
брата
гражданскои
принес
американскии
возглавил
##ant
здоров
иран
гит
состоянии
##евскии
основные
##igh
##ошел
выступил
предыдущ
пуб
ду
2019
имела
##ста
великого
##овом
улица
##ификации
отправился
жена
##ae
прямо
клин
новым
комн
##орф
животных
замуж
##ыше
1952
##асть
убеж
##амер
##фон
форме
харь
##ak
сна
шп
##ательных
##езж
устье
воину
ас
князя
##иеп
газеты
асп
члены
гимназ
рабочих
прекрат
покол
дела
общество
бывшии
играть
##ьми
эпизод
бригады
##грав
залож
сав
путешеств
мах
функцион
начальника
##щиков
фигур
##очнои
се
##иде
наконец
наити
добров
##ациеи
покрыт
мух
арестован
золотои
верховного
антон
##еиз
вторая
##бол
сказал
##ct
поддержку
поверхности
технологии
##ущего
среднем
##еза
температура
##ip
улице
1925
начальник
началом
концу
##вач
чаще
миллионов
человеческ
##ировался
льв
предмет
##if
##анного
распор
1915
запрещ
еж
ков
составил
##ab
политическои
##кл
##гии
сынов
боб
ближаи
большим
собир
относят
орденом
##инд
##ющеи
мыш
покинул
выт
бара
пулем
##олго
сах
##инском
зависимости
ордена
писатель
##щик
каждои
данныи
территория
##рип
желт
выхода
вошли
##руб
наибольш
монг
похож
эмиг
александров
##мов
острове
именем
частеи
##бище
литературы
##реж
юрид
случая
зач
кандидат
ро
супруг
решения
партия
основным
рэ
досто
сингл
выборах
возд
##ственныи
##ировано
встречается
глубок
джеим
официальныи
цк
архиеп
рес
местных
ска
слово
1927
бул
холод
взросл
мур
попал
событии
корабль
эффект
##еев
вице
опт
генерала
окончании
основных
необходимо
##разд
издания
создание
венгр
##ексу
высказ
картины
осенью
мульт
поселок
##ерд
1951
законод
##никах
жертв
##мон
базе
бассе
##сем
предложил
оль
ваго
флор
гам
финанс
циф
реконст
##очных
##веи
капитан
##ывания
земле
выпущен
##нограф
сокращ
##уги
исполня
адмир
леитенант
суще
париже
железнои
другом
лос
судеб
борис
одиноч
сотрудниче
##леннои
деиствие
расположены
преоб
##елли
куда
подписал
исчез
выделя
##ающим
волости
сведения
сельск
дум
состоянию
визант
гот
династ
sh
работала
инициатив
месяца
метал
сельскохозяи
председателем
монастыря
выступления
включает
владель
лондон
орг
произведении
неактивными
##еда
ночь
остальные
жили
##таж
зас
запр
участников
замеч
кладбище
##илиз
высшеи
фар
защиты
василь
##пись
##илеи
природ
##ресс
второе
фрид
вра
##io
бою
лучшим
мария
лор
употреб
##ist
пресс
общего
подв
последователь
##бек
##all
остался
##оих
##рать
песню
удосто
xvi
параллель
школь
адрес
мне
художник
гет
##ell
##30
продук
##цент
командира
##оссии
##ага
группои
задерж
деле
авт
итогам
##ареи
бир
экз
##ающая
##40
освобожд
##эк
сети
##амп
деньги
невозмож
чеш
56
систему
##рд
большие
снар
борьбе
58
##ируем
неоднократно
предпоч
веснои
композиции
отдела
##озн
произведен
yo
городского
плох
##нам
такого
соф
##бои
руки
голуб
руко
промышленности
привело
##евым
скончался
режиссер
клубе
##поз
вот
##рол
##ария
##ивших
харьков
отделения
##цати
нег
создал
##ательного
##овое
amp
мотив
##ега
##ератив
##етом
графа
##кома
вынужд
##ительности
звуч
крыль
матчах
вооб
меньше
канад
численность
дети
##иала
обс
серге
голланд
##инеи
номин
творческ
##ывались
th
##гн
президентом
1905
социалист
небольшои
уровнем
сниж
##av
коммерческ
le
участия
миг
полуфин
дистан
идет
борьбы
##ьи
ху
##рами
##ess
москву
традиции
остается
окрест
легко
##идов
использование
каждого
израиль
инду
индив
вир
известных
основании
спектак
использования
появляется
коз
62
##адж
##ионы
освобод
49
высота
немного
##ируют
намер
получив
герб
народа
телевид
лош
баск
лица
стек
эксперимент
оформ
отмен
чрез
одеж
оружия
приняли
##чан
компаниеи
евро
##ящие
пользу
разнообраз
лаз
##лиц
международного
синт
электро
##умб
департамент
театре
##ьями
добр
сход
склад
##ожид
##ога
современнои
сат
обе
##нице
границы
археолог
нидерланд
##еку
филипп
юг
##ын
##ствами
пришел
хозяиства
диамет
территорию
квад
бож
султ
прекращ
одноим
господ
##ющая
открыл
##люб
##ыта
мужчины
поврежд
##ическому
##10
телев
события
банд
компьютер
обслуж
##иискои
##ичныи
очков
называют
консерват
посред
##ывался
встречаются
##анова
советских
научных
горы
битве
родствен
цз
совершенно
получает
##ателями
крем
входил
построена
княже
михаилов
распредел
##мос
##янут
отвеч
поражение
##th
цик
наказ
##град
местности
севере
корич
руководство
##рация
##гресс
времена
востоку
заместитель
остат
гус
домин
отриц
бас
финале
##ностях
пу
заниматься
пото
##оспособ
коричнев
дает
##есо
наряду
##меи
октябрь
кораблеи
сама
калифор
##ne
отказался
такое
склон
##илли
стоит
науки
##оно
главных
фонд
уильям
выда
##ительность
петербурге
средняя
упразд
##имира
сергеи
проведения
труб
##очки
направления
продолжил
директором
происхождения
основания
яс
познаком
евг
##мои
домов
##поле
создании
взял
1910
единственныи
выполня
бос
смолен
##емон
бесс
##ge
поедин
ауд
##рия
памятник
##ету
результаты
руч
юге
бывшего
момента
начина
##гонь
дворов
заболев
установлен
##ательныи
пьес
рождения
монастырь
расход
председателя
воск
американскои
##ывалось
##ывала
министр
игроком
предше
правил
агент
##овались
коммунист
западу
##алия
чувств
собор
##ъем
ух
создана
спут
землю
сня
андж
57
груд
абсол
1912
приступ
составляла
##ати
1916
закреп
pr
абсолют
##оточ
князь
удач
##ерб
художника
##яются
связь
возраста
##овер
лог
варш
находилась
##инских
международных
хорват
машины
##аха
прозв
вторым
пытается
каст
##ану
перенес
подвод
ориент
##омина
морскои
звезды
устанавлив
аргент
габ
аст
цеп
##озг
восем
портрет
командиром
прус
vi
вклад
министерства
страх
америки
николая
иностранных
кита
##исти
упоминается
сочет
цен
миф
##стока
свидетельств
фас
опубликован
бум
##писи
53
игроков
пен
##тр
организован
полаг
отз
режим
стоим
вследствие
##иды
##ницу
округе
120
взаимодеиств
##сона
##вд
##ополож
товарищ
##ерыв
##оичив
превыш
среднев
непосредственно
обучения
##нег
прось
##иваться
феод
бот
хозя
продолжал
бут
дель
конференции
увер
##шин
##ичных
54
превращ
километров
интервью
жены
засед
финлян
кубок
bo
##атории
##инации
пик
букв
выбран
нужно
создать
чинов
огонь
##антом
кем
бригад
сут
##американ
содержит
стрель
предус
вырос
архиепископ
командовал
профессора
##мент
книгу
отч
оф
сравнению
##лев
68
финал
созн
приводит
меро
болгар
##ичные
заняла
полно
неожид
##филь
экспедиции
причинои
большеи
##ащих
отделение
значения
героя
местах
##очет
последнего
провер
##ичнои
переж
##вед
проходил
##ьше
##анным
##антов
шести
черт
mar
76
фильмов
##лах
тракт
##остров
напряж
##ательства
квадрат
выступает
спортсмен
сих
вов
улиц
зл
нанес
высоте
женился
нак
реитинг
шел
преподавал
митропол
rec
демон
##онос
птиц
ислам
##окол
растении
мероприят
##ляют
югослав
венгер
##гот
##торов
частично
ресур
##рослав
be
какои
народного
гаст
берл
##зи
доктора
командои
##ft
##нения
##етров
##енов
карьеры
иметь
##языч
дос
полицеи
##ящеи
контин
народов
##вал
реком
тес
мои
лауре
собира
окончательно
похоронен
тут
##кость
географ
удерж
индивиду
измер
обмен
больших
дра
используются
смысл
раньше
покуп
объясн
##ельд
основана
брак
ответствен
прибыл
##енскои
топлив
1913
выходит
##ялись
паль
##шему
ведом
##неш
пишет
приблиз
плод
заводе
семеиства
крупные
##енда
1907
совершил
##end
назвал
экзем
обы
единственным
балт
##ировании
диза
возоб
##ующеи
поселка
##ехал
видео
провозг
трем
##лия
##ьет
начальником
доброволь
##иа
трам
63
расстояние
мот
лов
лично
тренером
кок
распоряж
##альности
уник
ша
называется
бон
местного
якоб
двад
оппоз
псев
##ивались
скульпт
##ind
предприним
естествен
1000
атмос
смот
возглавлял
##до
выж
нефт
славян
обработ
крепости
##иры
тест
петра
квалиф
экземп
активности
спарт
бразилии
сыном
отряда
##низ
##ноз
сур
175
##ецкого
восстания
иллю
##енскии
современного
моб
##пе
берлин
солнеч
краине
##ue
высокои
мг
памяти
##ченко
престол
варшав
стаб
перевоз
святои
роберт
руководил
вперед
170
клубом
патриарх
##ыж
##ленно
##авшим
##рус
обучение
##мах
ярослав
причин
se
причинам
фанта
##цип
издание
преврат
замок
72
участи
66
##раде
лондоне
возобнов
##уле
романа
переправ
74
утверж
юн
прох
бе
##кую
кампании
вернуться
случаях
##кор
попытки
медали
##ight
владимира
ворота
осман
наступление
назван
##ефа
этапе
показатель
расслед
скот
республикан
1900
дожд
##ry
евреев
воспомин
эс
##эль
млрд
имеются
приходится
хотел
процессе
политики
латв
проник
полуостров
кие
сон
эваку
лож
царя
потери
новгород
чарт
аэропорт
лан
приех
числ
озеро
кавалерии
динамо
общая
директора
знак
номер
##истами
ветер
##евскои
характерист
##ительная
разгром
con
военныи
стив
супер
недостат
отдельных
##луч
шаг
национальныи
осна
##ою
##мена
##очныи
1906
означает
вообще
ассоциации
##ph
си
немецких
##ифиц
преб
воздух
силами
##еих
быстр
впечат
##ob
связано
##бит
стратег
предвар
##ещения
чж
современных
получения
59
##ens
остр
телевиз
офицеров
##оза
сериала
отставку
##риха
##ляются
принять
девят
##анты
островов
##пресс
игрока
дипломат
вино
объявил
каль
хлеб
##анчив
дороге
внутренних
стены
##ычаи
делает
рк
либер
67
городах
##ута
превос
всемир
160
относятся
рассчит
архитектур
труп
##und
григор
гвардии
кисл
характериз
град
госпит
##ивался
анс
фестив
исключением
##ивание
br
##80
полиции
телекан
многочисленные
##осс
переи
карла
воздеиств
вести
##ственное
двои
600
третьего
монт
любои
участок
##ноп
молодои
сотруднич
##ове
1911
##ними
хит
сант
##олит
##озд
##эи
всему
сож
архив
##инт
линия
собора
##ированныи
##очного
соль
##интер
считает
обнов
кпсс
тверд
##ологических
мам
сканд
##ляем
переведен
##ik
баскет
реку
##оке
влиян
масшта
продюс
сосред
нынеш
музыку
любим
смерть
##яна
жизн
85
казахстана
угроз
ступ
философии
ожид
климат
##итор
порядка
оказывается
художников
##нув
реклам
##ецкои
##енному
61
гром
этаж
атл
исключительно
симп
концов
##ok
криз
us
##ившиися
71
##евого
гиг
уголов
конец
маршру
теорет
подоз
проявля
секретарь
должно
автором
составлял
международнои
банк
##ившихся
дорога
##ища
депутатов
востока
##ып
расположено
##вида
кубке
диалект
##едж
##ившие
последних
столет
сцене
##ированнои
##отип
власт
дни
##ian
##яем
череп
анджел
##евые
##ive
##звод
воспитан
тим
##риса
премию
##окои
##линг
польши
оказались
бло
##овыми
династии
record
ико
##ифика
##ционнои
элементы
режиссера
хал
деят
прошл
00
могла
принадлежит
оружие
##анно
резерв
ядер
отсутствие
цит
подс
tr
цели
вул
проживало
состояние
##оход
попад
публич
вил
реконструк
имп
новом
слуш
##номор
##уне
лим
зо
передачи
джона
##ательные
ушел
разные
леса
продав
##инок
верхнеи
фан
конструкции
01
co
виды
##мом
##ензии
вышли
##уме
основал
лучшии
магнит
новос
лип
неж
##оля
##эс
кул
##акон
французскои
##чики
монах
переименован
диссертацию
трудоспособ
персон
##енад
астро
##цел
серия
равно
подроб
младшии
фотограф
тепл
офицер
самолетов
is
нель
планиров
играет
##дом
##неиших
инвест
##амм
кореи
##бл
представлен
вильгель
##ившим
бомбардиров
очевид
мяг
автобус
сами
десятилет
аэрод
ленина
техники
me
стрелковои
сценар
атом
##ополь
середины
военные
##иискии
греб
крепость
делег
память
прилож
бет
веков
основу
бельгии
коммуна
анти
73
сектор
бу
ло
1908
абб
свыше
враж
##зя
персонажеи
вруч
домохозяи
обещ
обстоятель
кара
военную
премьера
политических
эпохи
болг
##авшеи
##енте
пенсион
толст
коллег
успеха
масса
активных
призван
правом
##миру
захвач
сражении
самолета
##ерп
пассажир
рель
акции
месяц
большев
заслуженныи
западном
so
паст
резко
контакт
развер
##60
лучше
последнеи
##одор
киш
факультета
заместителем
##инская
подготовки
женои
атмосфер
считал
##аторы
##арского
1904
##крет
условия
скорее
налог
концент
олимпи
известны
##летвор
ров
могил
зен
орудии
начались
телес
##нец
русские
##енств
прекрас
французскии
наблю
##черк
модерн
##терн
журнале
стиль
##овлетвор
##егистр
карьере
##ящим
свод
видим
гроз
##кот
американского
##оли
дисцип
опубликовал
приходилось
существуют
соревнованиях
сосредоточ
рубеж
обратно
ими
обу
оснащ
##енция
однажды
##прои
водои
оказалась
чуть
партн
##иума
отличается
1909
оставался
статьи
ввс
безработ
##ированные
отзыв
##ционных
жид
самые
##жение
изв
##орган
непод
изгн
la
офф
ситуации
нел
раств
изучал
саб
известна
командование
подар
днев
##енцев
##ice
раунде
##енду
хреб
торже
##изация
фрак
##гин
##иальнои
батальона
восприн
противор
сборная
королем
вне
##дам
лагер
##осе
сумел
заработ
припис
##енческ
моно
95
лоп
уол
смогли
яиц
##пед
пилот
##бр
франк
69
##общ
рог
вошла
ана
возле
##очные
поклон
кэ
убед
тенн
государство
тысячи
требования
армиеи
располагается
кабин
кантона
учит
##аниях
сопровожд
подним
new
##авшая
##кеи
красного
академию
бюдж
недостаточ
пересел
долг
подряд
возвыш
скорости
шве
чрезв
экземпля
sc
pro
экономики
канал
##ецкии
монарх
##едение
##ib
количества
стихотвор
зимои
##ительную
молодых
тура
региона
##ялся
##ерап
гарниз
составляли
хут
##яя
ланд
нрав
административныи
##истскои
конкрет
голосов
миш
которыми
позволило
мят
##альному
##цо
раионов
174
зарегистр
##авшиися
письмо
##ort
последнее
завоевал
тренера
столь
крыш
запись
пропаг
хрон
андреи
восемь
собрания
британскои
##истана
основная
сара
наш
##инами
немецкии
77
поражения
bl
##ология
##ерия
программа
энергии
неит
кардин
родители
населенных
игор
молд
гав
172
террор
проекту
следующие
жал
семин
гориз
глава
сборник
подчерк
зер
студентов
кирп
предприятия
приез
##рик
парка
камер
колок
объясня
вооруженных
at
джо
поддержке
али
даннои
индеи
просп
##исе
##ордин
результатом
картина
идент
настро
ада
превосход
ворот
##сло
##ировались
америке
женщина
предложение
кош
экст
##улиров
мез
красныи
финала
глаза
арист
орудия
выраз
плеи
##фе
имев
трасс
партизан
стеф
специально
идея
##лера
##ующее
материалов
he
редко
бассеина
пользов
##чест
##one
такт
потерп
оставил
освобождения
##олии
чеч
рассказывает
ган
спир
киров
паш
призер
троп
изобрет
открыто
обсужд
предприятии
домои
заканчив
апост
клав
египет
секунд
корм
пытался
возр
##ула
##ляции
помест
каждая
немецкои
траг
аппарат
англиискии
баг
издав
##кир
##куда
кен
обоих
бах
records
половины
##олоч
##еланд
добыч
кук
##ген
условии
##ителям
надпись
ивана
решает
объектов
элементов
долгое
финиш
администрации
любовь
##ома
сэ
состоялось
##ао
вечер
чрезвычаи
привлеч
##чиком
легенд
шум
##этаж
##ироваться
капитана
спр
обшир
вражеск
##кут
самое
снаб
##анное
##еке
отдельные
##чж
07
##езии
заняв
залив
##фт
живет
##ште
##еме
ансамб
особенности
81
250
другого
используют
речи
прошли
светл
##елях
свободы
избеж
вопросы
влиянием
вб
пещ
третьеи
света
mus
гв
энд
венгрии
вашинг
принимает
правиль
##онеч
165
русском
живописи
мотор
ведет
##ивала
повстан
воздуха
существования
русско
валь
такая
строи
использовались
##имов
##ирур
алексеи
##убеж
as
триб
соп
рыц
раионах
обязанности
##фил
известность
тя
##улир
корабли
имуще
##иром
##оте
рисун
##ver
оказалось
провинцию
выити
центрального
приобр
преод
##гои
##спектив
нац
победитель
болезни
астроном
горь
изображения
западного
##онг
подтвержд
китая
сино
набор
##остью
##аром
воскрес
##инка
михаила
##ительном
абд
прошла
##верх
отдал
послуж
причине
167
вращ
##елла
##аниям
171
девоч
прокур
павлов
эду
фронте
ежегодно
##ковых
дворец
черн
погибли
gam
тре
стихи
фраг
##иальных
##ственным
аренд
164
воду
французского
пострад
меш
78
te
##вои
ми
наличие
##имися
##епт
97
берет
приток
##ющихся
1890
присоединился
мелод
представлены
лап
полномоч
марок
недал
173
подн
форма
xiv
##скор
встречи
иос
##аемые
##хов
шахмат
ex
вертик
семи
сеть
россииского
выдерж
батальон
главы
данного
##оработ
московскии
лидер
начался
99
автора
коммент
человеком
##щика
монет
никто
нижнеи
##фи
фаш
сельсовета
закры
##онс
тет
паци
боевои
составила
местор
греции
столкнов
##ыр
спа
двое
европеиских
увлек
россииских
анат
считают
потенц
кель
откуда
усадь
##ug
юнош
федоров
болгарии
son
достижения
ущ
##исом
мист
деиствительно
xiii
депутат
атлант
участники
gt
неделю
интернет
издел
##ичного
минер
конфликт
всеми
отдых
мюн
колонии
##ционного
поэз
##аги
патр
нео
##улись
высад
жд
##авшись
гиль
атаки
жить
##оссе
лоб
##ряз
использует
тир
лест
800
##основ
##ang
массив
87
недав
аш
выясн
##имом
отцом
макед
местные
бун
засл
туда
бюро
сложности
##алеи
оператив
включен
каждые
руководитель
природы
касс
битвы
##ьян
##цвет
возвращается
санд
фестивал
старшего
темно
впол
fr
##енностью
колес
любви
##ast
костю
82
актрис
составляют
##арк
неиз
англич
1897
иорке
переговоры
швеции
неред
чт
структур
дед
победил
пары
архитектуры
##ировалась
вылет
исторических
восстание
выступать
профессором
участием
интенс
курсы
##циями
грав
побережье
##ыск
торпед
покину
креис
бога
газет
пределах
полот
lt
никаких
эксплуат
адв
##шиеся
берега
##ык
защитил
##едлив
подня
риск
лар
комплекса
денег
компон
##оратив
##торы
государственных
##тона
указом
малои
волн
слух
поводу
удается
##граф
колумб
поселение
зоны
вернув
парам
впадает
елиз
##кас
##ившиеся
музыка
##аля
##ock
ощ
преем
96
мемор
партию
племян
##ослов
крупнеиших
книж
горазд
противореч
приглас
музее
пропаганд
маиор
сити
царь
хочет
вполне
##тен
##ыла
кред
писателя
обеспечения
##ранж
выяв
одному
##ate
дириж
кафедры
фаз
выгля
недель
##бурге
недели
гораздо
цикл
катаст
поддержки
##ковои
большинства
судов
дне
португаль
сестра
##шихся
##ься
приняла
1902
##тернатив
маз
##сящ
наимен
годом
хоккеи
ситуация
маик
дочер
мятеж
##улу
1903
канала
находящ
недалеко
охват
162
учениками
денеж
ширина
перспектив
##мира
##ициеи
четверть
зоне
##ваи
полковник
городом
известного
научнои
##шед
##ившеи
бран
магист
##ающую
армеи
критиков
##ld
##алт
училища
узбек
##есоюз
вьет
народнои
##уга
##изован
владел
##изу
запрет
xii
переехала
материалы
вопросам
соревновании
металлург
анна
перел
существование
##ящая
or
подзем
необходимости
##ck
##кар
88
it
украинскои
подтверд
параллельно
северного
напомин
психолог
актриса
литературе
экономически
решили
остан
границ
выпуска
##az
##илла
##ающего
братьев
##ыль
##имых
положения
коб
промеж
пола
маршрут
сообщества
линеи
списке
урож
##ica
крови
##ласс
##провод
ремонт
талант
головы
десять
водо
губернатор
процесса
ссыл
альтернатив
владения
фантаст
органов
пел
уа
84
##оряд
манд
интенсив
самая
вдох
##ечествен
общины
##ичным
высоко
последним
телевизион
началу
##омн
механизм
техник
россию
вычис
98
запада
алк
анджелес
инг
##ероссии
##пром
американских
претенд
##лизи
берн
мужа
копии
тиб
используя
генерального
ph
позицию
##сков
вышед
резид
последующие
ночью
##езап
##ционныи
ужас
закончил
закона
мари
приближ
##оту
немецкого
милл
асср
воронеж
пород
негатив
ребенка
бое
среднего
студентами
молдав
wor
изображение
гипот
##рочем
##ичи
хам
тремя
самостоятельно
##роект
впрочем
отметил
настолько
тюр
программе
румын
колеб
генри
##зу
##lay
зрителеи
куст
плане
работои
звезда
женат
будущего
регист
ученых
##отех
бригада
публикации
дмитрии
мяс
##ляли
авиации
гимназии
##осом
рожде
нах
приблизительно
римскои
убииства
разрабат
черно
стадии
92
яков
осадков
объединения
спор
выборов
информацион
отправлен
такими
##ивалась
оправ
известным
зарубеж
серию
отношение
##нож
братом
коч
удовлетвор
##ity
проходили
десант
богослов
брод
##шен
епархии
всесоюз
африкан
##рин
выборы
шоссе
мнение
ано
86
следующим
регулярно
государств
##очь
##уц
международныи
инструмент
дивизион
хо
##ательным
дворе
елизав
##соверш
03
ям
ведь
корресп
местом
речь
09
##кости
##итм
inter
константино
комбин
языках
vii
василии
входят
побережья
##овалась
фотографии
##ковского
лун
остались
##ируются
расстоянии
отклон
распространение
ричард
источников
вмеш
##риг
великии
изменении
пеш
устав
наполе
##исов
связан
классов
фред
хирур
фрэн
секретарем
укр
возвращения
руках
##ust
отбор
##ообраз
##остеи
независимости
континент
##ающихся
диап
препар
надо
башни
##твор
##илизации
##иального
участвовали
даг
миру
участвовала
пек
нередко
сохранились
##едены
реформы
##бурга
огнем
известные
молек
активными
расчет
врат
каждом
08
##ly
##ангель
комсом
беск
161
медвед
##енеи
дяд
входили
##авра
исправ
братья
президиума
газете
сцены
годами
##зор
мысл
тавр
обладает
решением
влюб
ара
персид
приказал
иванович
##пи
##алит
фильмах
##ленного
прогресс
ирландии
лом
##ряс
дэвид
авторов
жар
турции
##екции
##ностями
украине
перера
аэродром
##усал
##ольнои
##жу
ви
вкп
собрание
169
устра
##ack
дорож
статеи
границе
тун
используем
перм
пожар
писателеи
168
05
##аемыи
on
немед
ad
сми
стра
соглашение
сун
летнии
погреб
поединке
серж
диаг
дизаин
креи
генрих
серв
166
остальных
николаев
популярность
##улась
возврат
выстрел
артист
точно
радик
адвок
томас
1901
##авшихся
130
перемещ
вблизи
югу
##очно
километрах
открыта
чемпиона
информацию
анны
##оги
вокз
знам
##пс
людьми
цир
псевдон
менедж
##интерес
вторую
калин
##ественнои
погранич
герцога
снаряд
нк
##иня
республике
терм
163
реин
движении
1880
приходит
##лова
белоруссии
противополож
нож
##ательство
сократ
издании
воевод
выступала
вспомин
открытия
отношению
категор
сыновеи
##усов
риг
##едр
провести
торговли
большинстве
высоты
тул
##гран
метра
тему
южно
посоль
жесток
##альность
напада
молодежи
##куш
напротив
кинемат
общее
##даются
мертв
##ющиеся
##ельных
достигает
устоичив
стрелкового
##ватор
ибн
удив
79
лекции
вдохнов
камен
росс
дальше
диф
историк
канц
танк
удоб
библиотека
северу
освещ
византии
ер
королевства
вис
едино
конкурс
цифров
девушка
лют
иерусал
неприят
использованием
героев
фонда
пунктов
существенно
двора
двигателя
взять
проживали
##етт
волос
##ленд
построики
##хи
министров
эксперт
кун
инструк
сообщения
##отв
содержание
пист
глас
152
глоб
полез
павел
диапаз
83
##арскои
##ep
общественнои
разработки
двигатель
##станов
кругл
имм
племен
довер
gr
критики
крив
помочь
представляют
##ерсон
##уэр
побеж
узнав
газета
случаев
выиграла
вожд
признав
ускор
называли
письма
белых
отход
совсем
лаборатор
##управ
композитор
признан
совп
сж
##аге
убить
цил
раионы
комедии
##аемои
нельзя
дать
морских
переч
саите
##ies
пулемет
##te
энергет
бав
##щики
марки
учитель
предположительно
министром
##ори
##хл
составили
приезж
##овалось
чемпионов
холм
высотои
04
89
происхождение
палест
##ment
##ace
сирии
местнои
болот
скрип
##ированного
##хо
##бо
лауреат
губернатора
семью
показал
севера
голову
фортеп
сценарии
op
излуч
леб
##bc
air
программу
демонстр
франциск
моста
гнезд
направление
горизонт
догов
глад
масштаб
157
хват
сообщил
чарль
съемки
##ich
хью
1860
##итив
1896
студенческ
тираж
красную
подрост
сексу
службе
независимость
вода
##ури
интерн
джеимс
##илию
использовали
##арта
##цикл
свадь
тв
критик
дам
победителем
упраздн
##ифа
эволю
##берга
ученыи
старшим
##акова
футболист
##ласт
бек
номером
ma
вред
бли
##алию
##вард
автомобилеи
##ованных
инсп
насеком
троф
литов
всероссии
белые
лам
гибели
открытие
хана
осуществляется
письмен
ввод
##лялись
155
эксплуата
ликвид
назначения
окончила
прибор
северныи
тк
##орачив
организовал
необходимость
португалии
##ащит
лад
##эд
##наит
поим
берез
искусство
толщ
##ушки
делать
уваж
риме
##ys
ки
1898
построено
700
заняли
деятельностью
##qu
собственнои
озер
белого
учред
##нями
вене
##цкого
использовался
водос
##ach
скв
##оган
саратов
руководителем
##лях
голова
мид
##арев
мюнх
фоль
перер
94
аре
мут
##щиком
белыи
сверд
аспир
1870
скрыт
##ируя
седь
щит
представлена
общем
положении
истин
##ire
алт
скульп
повеств
звания
берлине
результатам
##раду
заявля
159
недоволь
мала
##евая
##ализации
штурм
этн
##ольф
короб
уда
штате
конгресс
преступления
инициативе
внезап
задачи
соч
черныи
редактор
общии
wh
третье
col
неактивных
дании
другая
установлены
звании
##шло
##ide
леп
говорил
дворца
брака
индустр
музыкальнои
департам
представлял
крыма
##ляя
финляндии
##озв
канон
установки
неожиданно
локом
tim
парламента
##уточ
1899
средневек
пересеч
cl
предотв
##ившая
семьеи
друзеи
невозможно
расстрел
##юсер
препят
полнои
ряде
##емы
темат
хаб
достоин
##акии
пенсионерами
людов
творчества
##уф
##int
атлет
участии
##ьях
благотвор
небольшие
ra
грун
##атуу
покинуть
мартин
зависит
коатуу
##овка
124
##нор
качества
часа
двенад
сообщение
трак
занимается
борьбу
олив
юрии
многочисленных
##ару
применения
потерял
гостин
заст
заинтерес
считать
основного
восьм
умерла
##лада
предсто
предшествен
карп
продолжает
##еже
эпоху
музыкальных
венец
дистанции
лицо
##бран
якобы
корреспонд
элемент
страну
смогла
правда
афган
проповед
леитенанта
застрои
##аза
поверхность
comp
построены
##овоз
заим
ряз
находилось
формиру
многом
успехом
обез
родину
продукции
гуман
чин
столицы
интег
древнеи
##мерт
##ix
лук
выкуп
сопротивление
оперы
мини
отп
изучения
круж
шан
роста
роты
адам
утром
поселке
блю
передав
начать
##остро
осво
десяти
##анском
viii
императр
##адолго
пале
par
отра
диз
красив
созданы
батареи
предлагает
##ковскии
делам
канады
##нах
попрос
краи
выпустил
начинают
юни
стоимость
возб
конституции
лагерь
твер
локомотив
нор
##бил
жю
башкир
европеискои
##надцат
боевые
man
ранних
воспольз
проиграл
лаборатории
##икам
схват
южного
заповед
##ающими
рат
приобрел
учеников
посту
станислав
1895
завершения
танцев
##еид
140
отверг
минуте
нашеи
строительстве
##ительными
мастера
молит
сыграла
восточном
##никова
##ряде
bill
лир
алл
эмо
подразделения
##se
лот
##ательное
упом
##остан
победа
руководства
транспорта
посп
состояв
звук
##ющиися
##ron
заключения
родителеи
сообщает
сестры
развитию
православнои
языки
##ково
структуры
представления
посвят
##изии
ик
таш
предм
коллекции
угр
славы
предусматр
##ленная
польского
1892
катастроф
рестор
равн
##ограм
необыч
солнца
полет
рассмотр
зенит
шев
##урои
110
длину
применение
отоб
участке
156
романт
корн
##ющую
оон
эстон
кс
англииского
убииство
отметить
go
амб
юношеск
среды
выступлении
живопис
##кер
шлем
крупныи
сотрудников
контроля
сап
незнач
провозглаш
немцев
внимания
##рю
колоколь
фоне
##ушка
продюсер
##ows
рен
воиско
##емонии
##ыка
орб
враг
современные
говорят
алексе
публик
появляются
конечном
газа
##ску
левому
банка
прежнему
состояния
романов
дмитр
центральныи
несколькими
##ожан
звер
семен
шам
##iz
##уже
порядок
ro
гур
##иолог
крымскои
##акс
##едена
миссии
пределами
##ционные
##иально
##звуч
##ost
штраф
освящ
энцикл
возникнов
королевскои
границу
влияния
вооружение
гастрол
отлож
##команд
объявлено
граб
режима
народных
кристи
##цкии
##измом
подпол
последняя
материала
днеп
требует
##еста
произошел
черного
узнает
выпущена
координ
статистическии
ну
преподаватель
расч
##елия
##ore
порядке
мино
синд
военным
гроб
##ect
брюш
##пущ
уил
ix
течет
консерватории
тщ
иоанна
спин
ученые
бург
##нами
##онах
ремес
торм
##улиру
##крат
японскои
тяжело
маиора
анн
перешла
эскадр
##оле
экипажа
cr
способности
формирования
германия
дивизиона
могло
специальности
познакомился
разговор
##ond
исследование
ботан
восс
хром
пусты
ниг
поэта
##ывалась
##лис
обществе
1889
субъ
ноги
национальных
подчиняется
обеих
присвоено
прибыт
маргар
осталось
грузии
статье
пехоты
##елями
остатки
социальнои
цех
выращ
обстанов
колледж
обуслов
черты
московском
проводились
устроиства
##елов
##еслав
калифорнии
китае
тенд
отличился
подполь
связаны
##оват
бад
ста
имея
решено
разделя
четвертьфин
##рали
опор
##ung
выдвин
бом
корпора
##енос
плац
юнаит
другое
высшего
картин
имена
##тое
противо
##умент
охраны
158
одержал
экс
##овы
первыми
современ
хозяиств
длины
сток
персонажа
юнаитед
хозяиство
02
правительством
##енцию
одес
одобр
появление
##мор
договора
ркка
полныи
##аниями
решении
армении
видит
стара
##изем
содеиств
страд
восьми
особо
вверх
всел
##лод
северная
вуз
##емся
##ольского
трид
совхоз
небольших
пассажиров
подполков
швеицарии
морского
режиссером
прошлом
полковника
методы
##ающиеся
раскоп
помощником
##оге
религии
властеи
мексикан
##имин
##аемого
здрав
1864
горяч
справедлив
##дя
исследователи
принимать
эг
иркут
израиля
нужд
культура
##пц
сериале
стер
скрыв
церемонии
##имои
прибыли
правому
казач
собственно
виш
африки
перешли
##board
немцы
главные
орлов
##man
##авы
специалистов
деиствует
латвии
строго
мощность
лечения
соответствует
ес
ослаб
тэ
носит
##имы
##еве
любитель
украинского
выпустила
линию
шат
библиотеки
поколения
энциклоп
редактором
теория
##иная
##форд
главную
парад
конч
демонст
общим
клубов
алгор
летних
##орона
привели
стадион
кинематограф
ввиду
оправд
##ьем
##инское
попер
заф
зерк
##нс
сфере
информация
первенстве
океан
средизем
взв
##юк
разрыв
квалифика
##новид
##ированная
вернулась
целях
футболу
##арус
##гом
петербурга
##огор
теннис
базы
##ber
зна
правах
свердлов
сопротивления
пло
игровои
##ившеися
становятся
нерв
главои
уволен
коал
мухамм
сло
##арскии
захорон
печати
фронтах
приказу
норвеж
фунд
проектов
киеве
##кта
овлад
##надцать
католическои
туре
миллиона
отчет
связана
ассист
пролет
##стон
##ито
восх
##мель
##ленным
##изы
являлась
заж
##оген
состояла
шотландии
wind
таг
06
##реть
фок
##ath
силои
##ащие
##юч
you
125
фридрих
вопл
третья
новосибир
замка
##ателю
стареи
ниб
##еит
кип
барб
петрог
оценки
##аду
##ork
поставил
met
авторы
восточно
размест
валент
##вести
пи
рефер
##иро
##ыг
некоторым
лидеров
винов
##ализма
проводит
клетки
##едении
##ure
подп
##утствии
##енг
play
##иум
биолог
случаино
делу
##олом
ощущ
детства
##энд
управлению
землед
экземпляров
обнаружены
эрн
теб
завершил
оптим
осталась
##атами
фунтов
реакции
##ингв
передал
реис
автономного
борту
##ствием
санта
защиту
переул
участвовать
советские
##ипа
##ываться
джер
дали
звуков
грузов
ведущих
проходят
важным
##иках
специализ
птицы
версию
епископа
безработных
отправил
настав
##инград
##ичь
поро
фундамент
удостоен
матчи
вак
входила
автомобиля
billboard
саль
безу
лигу
активное
##озеф
отвер
1894
богород
конкурса
доклад
писать
правила
##las
##мещ
поезда
франция
##лят
временно
упор
we
пришли
##производ
бесплат
симфон
предприятие
созданию
думы
##ооб
примеру
известнои
вызывает
креисер
##олк
наших
друзья
##рян
крепост
метропол
растения
архитектора
устья
продвиж
##убии
услуг
##еднев
полное
польше
крон
пояс
##шиися
системои
нации
натур
##ational
ким
черниг
документы
численности
world
приключ
облож
третьем
хэ
собрал
1893
##аян
температуры
живут
различными
виру
индон
стиля
##ессы
беларус
специальныи
1878
154
##ирается
предпочит
кум
операция
марка
показывает
достиж
слыш
##ga
раствор
##усом
##ish
##ову
##ноч
розыгр
##ети
##адают
отмечает
целеи
винтов
мурав
своеобраз
внутреннеи
продажи
сева
заговор
крут
геолог
левом
далеко
радиостан
разработке
спрос
##зав
##энь
планы
советская
опять
стабиль
лих
1885
южном
ликвида
монограф
соединения
военнослуж
россииская
проспект
##орота
##iss
мелкие
тоб
##are
плана
непрерыв
общественных
гриб
плоск
##янь
ураль
пропуст
блока
муч
##дер
забот
стю
гарант
находясь
просит
##онта
добиться
влаж
##авшиеся
уехал
отправляется
появления
табли
сегодняш
sy
поли
нашел
принимали
перенос
окрестностях
##ельс
полета
насчитывалось
англо
экв
оборудования
главно
членами
призером
павла
муд
лошад
##ственная
площадью
собственные
восточного
##есн
памятника
##идя
полку
сокол
привел
научныи
среднюю
##инским
темы
столице
указывает
языком
преимуще
##ованныи
учебных
1861
##ans
##ольскии
установлена
##les
испытания
##анских
усср
##ma
летоп
сибири
архангель
осл
сражения
фрег
карте
прямои
##яне
##ствовал
виду
одинаков
вечером
матерью
1887
задача
вернувшись
уна
концер
высокии
##еллект
прототип
барон
годам
магазин
кут
значительнои
источники
среде
тиг
релиз
дим
верхняя
грамот
связанных
польскои
столк
способность
душу
##бон
намест
форс
чуж
##наче
fo
##иано
бразиль
титу
соединенных
городских
##иальныи
##ольскои
скоп
древних
ухуд
подм
деревню
немецкие
нест
##очная
неч
наде
врага
осужд
дивизионе
##лии
федор
результатов
городу
генет
работах
##елет
дорого
оборот
аварии
вынуждены
подд
основои
данном
кафедрои
##иана
бывшеи
населенныи
описание
##рар
съезд
раунда
##ичная
оттуда
содержат
немедленно
##ерация
##олч
##oll
##удов
сумму
бил
##жется
количестве
скорост
значительное
западно
выставки
##оком
восприним
##охранили
допуск
интеллект
детстве
северном
преодол
огня
евгении
вьетнам
присп
океана
ac
трое
разработан
соав
главная
##цид
пеиз
сыр
кого
##езу
##штад
христ
цив
людям
1891
увидеть
воспитанник
народныи
отсутствует
посредством
вражд
маикл
личности
клеток
пеизаж
1500
режиме
прибыв
##атуру
старыи
приготов
францию
югославии
гора
древес
старого
попытка
##иатр
солдаты
пожал
визу
посетил
минимум
##чев
проработ
неправ
зафикс
jo
##ену
##онав
отнес
##удь
153
джекс
почему
старин
установлено
1812
источниках
американская
свободу
лидером
##тации
аспирант
##истые
меры
подвиж
мгу
проживал
треуголь
политику
понятие
##иво
излож
борьба
##утся
##ивер
зачаст
##ованные
##цах
##ющими
трол
конкурсе
музыке
шли
##опа
аристократ
##омат
вокалист
зачастую
западных
тадж
следующего
комиссия
##нера
##овод
ухудш
##шеб
1886
произведение
aw
##ившее
конфликта
##ывание
ближе
внешнеи
фирмы
ри
экспорт
общественного
##имые
music
##ущих
допуст
##ившегося
добился
похищ
участка
телег
мих
##ированию
##янов
служит
питер
угрож
домашних
##ожет
1877
экономико
административного
ежеднев
севасто
появилось
жер
авторитет
попадает
публика
нба
ион
учителем
##уляции
казахстан
устроиство
видел
управлением
отряды
повлия
компанию
фамилии
зеланд
избежать
##ериал
таком
призыв
административному
преф
создает
характера
фото
дата
устран
юга
равен
навод
нквд
##иальные
вызвало
являлись
водохранили
альбомов
##юш
##елье
мелких
новор
утверждает
композиция
экск
живых
лучшие
высокие
напечат
суш
##елии
типов
пересек
законом
екатерин
сезонов
##ick
мег
помещении
##рора
четвертыи
путеи
константин
алког
ульт
##даем
##авшеися
бывших
крестьянскои
святых
княжества
политика
##арныи
##уко
танка
связанные
гвардеискои
выступление
sch
называет
назначил
главнокоманд
беи
планеты
расположенныи
сотни
проводил
баку
традиционно
чест
основными
конв
пароход
вяз
##спорт
развитии
здоровья
гигант
блест
обратился
риту
рацион
фел
1863
султан
##они
##ателям
старои
микро
трек
документов
##ерту
разрешение
влият
переработ
левыи
наступления
челя
##бах
политические
занималась
просв
спасти
экспоз
ширинои
##новод
##тс
основное
##едом
трин
интерпр
вент
##истои
турк
##ивалось
каш
монеты
сказать
цин
секретаря
утверд
прихода
исполнял
выгляд
англичан
бру
отличаются
ухода
пожертв
оккупации
##оков
неизвестно
массы
##олы
установить
башня
##енбург
песчан
областеи
еф
##ольных
##аново
награды
поляр
союзников
пространство
проити
строч
британского
едва
южная
социальных
реализации
медалью
отечествен
149
атт
проводится
##ff
war
продоволь
наркот
азиат
македон
терап
алта
процед
третьим
стои
примор
профсо
атаку
получило
1888
провела
станет
технических
##готавлив
хищ
наруж
рынке
политическии
захватил
##ms
пребывания
##вата
музыкальныи
кирг
переселен
стадионе
##одоб
гола
единиц
золото
мав
консульт
плацд
уэль
##енде
высл
фильмы
англииском
##едия
экономического
телесериал
специф
девять
очереднои
урал
кости
высоту
##орад
##ущее
подготовке
унаслед
нападения
нагруз
вниз
буль
этапа
##стью
крыла
нот
отсутствия
убивает
пункта
ракеты
веб
страна
создано
##12
залива
научного
исполнение
браун
дочерью
молодого
сохранить
воинов
барсел
попытался
##ирает
палаты
питания
no
политического
гуд
основано
схож
возвращении
my
вым
выл
внедр
показали
структура
кадров
большом
сколько
cor
отрез
текста
карол
запрос
##ивнои
таврическои
девушки
##илы
##алифиц
тара
современныи
##егает
неуд
какие
повел
груб
высоких
вели
##арки
эсмин
экспон
сгор
##лию
all
##яма
использоваться
##хе
декоратив
##ицкого
окс
придвор
саит
ахм
##акомп
считали
незакон
музыкального
фрагм
##анными
метро
профессиональныи
барабан
##прип
переводе
учреждении
основы
общин
хун
работают
заведующии
норвегии
переизд
алб
покор
зло
мощностью
##егов
трон
воде
георгия
придерж
манев
азербаиджана
windows
привед
турнирах
##ательная
смысле
государственном
исполнитель
##стера
##ировка
распада
##ицкии
турецк
иоган
выставке
сф
карты
награду
занятия
лекар
освобожден
ват
##ированием
лежит
##асов
##езжает
##пет
##ельныи
ходу
правыи
галакт
погл
родов
перу
самки
краснояр
предполагалось
нибудь
жуков
1876
храме
другу
международном
последующих
играла
сочинении
недавно
определения
музыканты
теплов
##астлив
отзывы
таин
1884
услыш
генриха
##авшее
монастыре
машина
черномор
лорд
##енч
краинеи
вещества
драк
лоз
бежал
лагеря
музыкантов
убежд
учебы
шут
попала
утверждал
курса
боеприп
##арнои
крещ
занимались
фаль
##эф
работников
организацию
практике
каких
принца
уор
##ующая
пого
подобные
обеспечить
максимальная
дуг
трижды
написана
иначе
##исы
хас
##уров
почит
ново
княж
республика
слои
роднои
инспектор
шип
водор
рабочего
советов
размера
нефтя
кинг
##ah
топлива
##ium
издал
езд
ког
волшеб
авиакомп
вспом
оборону
экономическои
##авшую
знал
новому
##азы
пин
частях
hot
самок
творчество
##енском
румынии
роберта
прорв
анализа
хер
правои
возникла
реже
умира
министерство
пля
центральная
физики
альбоме
##артии
чика
шиф
пра
##ометр
деревьев
незадолго
китаискои
кух
оранж
смир
выиграв
##раль
распространения
уничтожил
аренду
мороз
еванг
сниз
скл
будущем
джаз
##ьеи
культуре
##арного
департамента
1859
британскии
рельеф
домохозяиств
страш
национальном
раунд
факультете
пространства
жиль
адъ
важную
биограф
##ельнои
##прод
собственных
классе
приц
старых
##инге
##ята
игроки
автодор
озн
тюрьме
##ith
давно
##рана
сердце
мос
просл
lov
подозрев
нау
##ank
угол
спокои
car
вела
прошед
киб
1865
задум
мозга
##idae
объектив
аним
##ельного
подб
французских
##анную
оставив
прыж
особое
главное
чему
сергея
обыкнов
реконструкции
пункты
изобраз
разъ
младшего
сопровож
имело
прочих
сомн
##адель
источником
поэзии
следующих
засел
барт
прися
фестивале
штатов
##овавших
раионного
чехослов
филолог
пошел
звон
левои
жерт
взрослых
замену
миль
демократическои
расформ
боицов
молодые
##we
##рался
фестиваля
марс
стеб
##сте
плеч
##етраж
альп
##олюб
системат
ряды
147
прощ
оао
##орб
отделении
##ere
гра
чикаго
спуск
##опостав
##фред
немног
выпл
##маном
##оохран
противосто
дебютныи
депутатом
##аю
1862
керам
числилось
фикс
служить
пуг
военное
собственную
андрея
папа
ип
восточнее
##имыи
послево
правление
##алах
сик
владении
русская
##авшегося
1882
уходит
##ance
меи
львов
##топ
слия
западныи
астр
оставить
1881
мобиль
мэт
сингла
днк
##иски
##оин
сторонников
##uc
синтез
##тера
христа
грин
туп
уравн
озвуч
##ающее
соборе
высокого
основатель
##лялся
105
перехода
##имым
##ться
таил
стэн
сотрудник
##авказ
сила
сделали
помещения
плохо
введен
гонке
##анте
тюрьму
доля
пушки
уделя
##ионер
играли
заместителя
футбола
##ros
подъем
идею
веществ
аниме
нижняя
футбольныи
берем
собственныи
органы
деиствиях
образователь
смит
давления
##яса
точка
кро
sk
бежать
планировалось
заключается
символиз
проводить
креста
контрат
мэр
рынка
долине
киевского
##ческои
кандидата
центров
##начале
западная
запущ
данная
сина
корон
вначале
##11
среднег
этими
джан
церемон
ценз
тихо
частных
говорить
кредит
разум
особого
памятников
##лаж
противостоян
1850
днем
##аче
##ina
собрании
комб
хад
южнее
уити
краин
тюрьмы
приговорен
##арных
##ственную
крупным
комплект
##истка
##риф
камень
жила
занять
признал
провели
останавлив
##национ
калиб
разоб
учителя
рет
следователь
фельд
канале
размеры
кузнец
##ичное
рынок
1871
несп
привез
саунд
столетия
художественнои
южныи
химии
европеиского
реорган
рон
сменил
дагест
##прессии
престиж
независимо
##еву
краев
казни
футбольнои
сравнительно
баскетб
знат
видимому
касп
115
прип
цез
швеицар
белои
##асси
профсоюз
do
##sc
мысли
##ииском
##ичности
деш
другую
##инские
##узы
des
островах
предметы
макк
моменту
африке
подъ
густ
судно
cd
иис
##елом
приклад
разновид
жанре
фонт
высших
алф
диска
построил
шла
##ательств
нижнем
полуз
gro
картину
соотнош
объединение
детьми
открытом
лиценз
обнаружил
##оо
процессов
исполнения
обучался
трениров
mic
населением
глин
понимает
руси
##одом
полиция
арсен
взлет
1867
затруд
##еси
лето
##естр
самоубии
##ленное
захватить
вспомог
1879
дэв
проз
азербаиджан
окружающеи
бост
дерева
собственного
##осн
пригород
строг
участником
планет
отрыв
назем
видом
##есточ
принос
демоб
полного
образов
номинации
хир
бактер
нашли
##рече
парке
мэри
решет
захватили
попереч
сюда
применяется
трамваи
конд
согласился
нидерландов
##аке
##изму
##ащии
бх
пополн
122
значительные
1830
##ися
выступила
подготовку
построить
британских
выработ
самцов
##ору
королевского
##ерго
выидя
генеральныи
##ite
##евает
небес
пытались
всев
##тар
##истских
эксплуатации
признание
германию
фортепиано
##лажд
легкои
магистр
отраз
паровоз
становился
последнем
##лая
##егч
куль
##лист
самоуправ
кафедре
передан
образуют
##ардо
франко
манчест
киноте
##уны
подобных
##исл
эколог
усоверш
##чер
колледже
трев
луи
задачеи
падения
##отои
вашингтон
мультфиль
##юда
##ею
вещи
##алами
каталог
сиц
клю
обер
источник
##tain
машино
##очаи
##рацию
##anc
пресв
последов
##ото
клип
линк
столицу
дополнительные
акк
мирового
фолькл
названа
сохранилось
1883
##енцы
стим
##лач
##ужеб
русским
вышло
содержания
##еде
концепции
уничтожить
продуктов
теле
рецеп
чрезвычаино
конфед
усовершенств
##ial
сверху
физическои
достигла
поведение
наблюдения
##екса
объекты
##нк
помогает
апол
верс
волост
специальных
областного
поед
специалист
заметно
оружием
уш
прямоуголь
специальные
течении
канаде
видеок
##ульф
справа
##мун
вык
историческои
ен
жилых
##нат
пришла
нефти
таун
установил
оборудование
первенства
совещ
оркестра
##лит
флан
##по
присутствует
травмы
bla
платформы
джим
королевы
##изн
##хан
наше
троллеи
определяется
чемпионатов
классификации
научные
художником
формирование
аванг
рукоп
##ass
изучение
дани
выступали
поворот
ненав
высоким
олег
##бю
сторона
##говар
предуп
римского
прибреж
сражение
западнее
лак
хак
примеч
баскетбол
члена
физико
отсутствуют
наследия
рестав
ирак
приспособ
позволя
иллюст
отдыха
известная
##изме
эксплуатацию
получают
109
достовер
наидены
отношениях
капитаном
ge
лис
юно
##ольныи
сюр
участвует
номера
знает
календ
встрече
проходила
подключ
юб
обог
продолжали
##говора
техас
бытов
словами
утрат
снабж
восточных
кому
василия
гонкон
ткан
смертью
политике
выступили
pl
хлоп
шап
##ern
строя
возникает
полт
джек
призна
идеолог
высшее
произошла
саксон
слева
##иальная
stud
##фы
статья
утвержден
властью
##ляться
предъ
исполнении
нех
проживает
##раструкт
приняв
тен
##ковые
##ичем
завяз
sup
полосы
##ущии
отстран
веках
enter
трудно
пожил
таджик
актера
украинскии
среднегод
мастеров
царства
лингв
зале
тюрем
тепло
сыну
похода
единственнои
обладателем
1866
воплощ
##ессе
помеш
выиграть
прослав
созыва
дорогу
эстонии
##ящую
использовалась
заплан
тяжелои
психиатр
аспект
иммиг
##ески
числу
клубы
стоял
палуб
возрос
масл
снег
элиз
##уэль
листья
летнего
разработал
певица
##кового
воевал
вулкан
##уты
##ированным
заведения
127
привести
горно
##ропеи
встав
##енера
значительную
##еди
желание
евреискои
##oth
запуск
отказаться
дворце
ташк
жителя
количеством
мона
разработка
##ажд
##old
##енса
##уза
историко
особня
инфраструкт
игрои
методов
оценку
серебряныи
полуострова
суток
юв
нит
казаков
криш
##ованнои
mon
вернулись
ветв
##илит
собственности
страж
1868
##емии
собак
руку
отверст
выполнения
##езду
обсер
##душ
##урт
##алеку
дала
зон
заседании
sm
картине
окна
128
принадлежал
##еран
дым
исповед
наблюдается
детектив
попали
социально
участки
самолеты
переходит
dv
мрам
парамет
агресс
резер
распространены
императором
сочинения
##голь
реценз
наши
взгляд
##унь
неподалеку
луг
##нулся
##имет
сыграв
представляли
1848
нелег
заимств
браке
адмирала
##ван
проблема
принятия
1873
обвинения
проводятся
давление
набрал
храб
счастлив
астрах
горах
разор
пах
##бат
избав
альбомом
##оборот
##иологии
средних
бюджет
##поля
подтверж
##ителю
##бов
##ert
разрешения
##ающиися
предыдущих
##bs
обеспечивает
##ивных
##22
1869
попытку
вав
##ига
красная
казн
##элект
мете
##очка
считался
свято
джефф
корт
быст
разряде
##изацию
сержант
et
определить
технического
##ировку
сельское
учебу
промежуточ
убил
превышает
бэ
ира
историческии
округу
маркс
перех
способом
игорь
съезда
##ственном
говоря
исторического
##pt
яица
##ьева
взяли
федерального
двадцать
3000
анатолии
крупного
намного
дез
##елы
##лок
лошадеи
супруги
переговоров
духовен
эмигр
украина
отдельно
специального
mag
предвод
караб
ser
напомина
восстановления
##евод
тони
усилия
одежды
##дик
джеи
гэс
1840
##иметров
сооружения
итальянскии
рабочеи
национальную
волеи
##ронов
крылья
секции
мощности
107
брян
колхоза
киноф
увидел
решению
пиан
многими
##ics
##ииских
135
властями
мужчина
##ляв
##як
ею
##оче
тать
ств
размере
племени
перестро
кустар
кандидатов
подозр
лета
будд
обоснов
путешествие
таки
двин
италия
очевидно
командования
коллектива
прерв
учетом
мином
командующии
классическои
подобно
владе
бояр
мужем
ночи
мадрид
черные
важнеи
располагался
корс
##age
гир
эстет
##иоп
назначение
издан
банков
наем
успел
отсюда
учреждения
гидро
архип
##олос
акс
непол
гарри
##na
##осексу
каким
навы
высокая
##надцати
пьесы
использовании
соблюд
калифорния
испытании
ленинградского
напоминает
##св
оси
пур
страниц
сооружении
ярко
начинал
популярных
предметов
смоленскои
##леров
впад
скоростью
средние
сорт
библиотек
##ыб
##000
алфав
сэм
хоп
##ux
##обода
адри
el
волны
отказались
налож
ученого
репут
житель
##осв
ed
инс
сможет
тема
реперту
драматург
##мут
управлении
золота
прозвище
ткани
погибших
военном
вселеннои
бод
сумма
политех
предполагается
съемок
##атуры
минуты
круга
быт
австро
колод
##оити
владение
надел
передать
слом
##мысл
отделом
выгод
какое
англиискои
цикла
лесу
послан
землет
танковои
##erc
intern
иса
балет
сг
горных
граница
акцион
медицинскои
художественныи
землетряс
видеть
накоп
привела
утра
мст
ресурсов
судна
улич
сеп
фу
благодар
серьезно
предсказ
кафедр
снял
наоборот
привяз
всеобщ
уезде
екатерины
олен
вопросов
лыж
нии
##остеп
1875
##фл
сербии
укрепления
тексты
обстрел
##ельные
горд
##act
виноград
телевидении
шанс
фасад
заполн
родж
117
##ятои
уех
##ельно
представителями
курган
муже
137
машиностро
рул
восточныи
образована
голлив
командующего
мвд
церквеи
1872
##илова
опыта
сбеж
исследователеи
данное
изъ
изменение
создали
абу
деи
подлин
сведениям
##руже
гимна
рах
любит
духовнои
вег
считая
em
##isc
##альда
экономических
поста
моделеи
проведение
фестиваль
инцид
поддерживал
железнодорожнои
обладатель
вт
##мя
машину
рабочие
областях
электром
встречает
завоевала
турецкои
располагались
трудоспособного
##уды
соглашения
ваг
лидера
нижнии
##ующими
выходил
нижегород
вынес
докторскую
##унг
пролив
франс
инди
относящ
da
##ественно
##жев
145
предложения
award
образцов
будто
требуется
##елло
аир
##ичность
изготавлив
краснод
приказом
оттен
тяжелые
битва
##land
##ict
малых
этнограф
аренды
беспоряд
дикт
иоанн
очка
бакал
гранич
человече
проведена
врагов
широкое
gen
алексея
##част
реаб
специализирован
деревень
кризис
нарком
##кому
фраз
##арова
облегч
представление
регионов
##own
ель
1874
148
портр
сотрудничество
алм
##езе
заслуги
брош
восстановить
приехал
высокую
англию
созв
чарте
нанос
интеллекту
аку
проиграв
вовсе
аналит
следовательно
##рощ
##ительностью
редакции
мара
хилл
ожида
бенз
продемон
продемонстр
включают
защите
##25
##риру
129
дебютировала
поглощ
талантлив
разведки
инструментов
заканчивается
узлов
множества
качество
вертолет
поправ
галере
научным
##ier
основателеи
##ke
прият
фос
##остр
##рот
многолет
законов
##ственными
уефа
##ившаяся
шаш
наталь
чернои
формально
сдерж
кратер
организациеи
гонки
целыи
импуль
подош
антонио
заключил
##лл
значит
императорскои
религиозных
лодки
куч
торг
набрав
бокс
мю
##арами
описан
прикрыт
эмб
октябрьскои
##ификация
като
описал
##огон
вооружения
глубине
##рог
читал
здравоохран
решила
##olog
##части
мечт
##дах
буг
ставшии
постановлением
151
двук
небольшая
кажется
нович
депо
im
134
королю
сердца
##ленную
турист
раннего
сути
понач
##ari
предшеств
зала
хосе
can
судеи
играют
губернатором
нум
123
поначалу
##истых
критике
дискус
карто
попасть
двигателеи
боснии
остаться
##инцев
101
февраль
солом
преподавателем
ленинграде
##агу
община
поселении
##илем
мячеи
крыльев
cod
матр
##ициях
ребенком
дур
безд
созданныи
##опут
кру
харт
объявила
почетныи
хат
##культ
##ory
поисках
рио
квалификации
королева
воздушных
лем
угод
впечатление
##кв
ситуацию
называемыи
геи
тома
##проб
итальянскои
дых
##оиз
отмечал
пособ
расположение
##ковым
рима
ликвидации
gu
##энерг
крестьяне
аркад
тяжелых
гдр
священника
аут
##нав
##уни
принимала
кримин
138
включены
диаметр
описывает
витеб
##цин
##имого
##алон
##24
внезапно
##городе
личного
запорож
фракции
диффер
ele
##отан
принята
железнодорожная
осет
норманд
##ывало
##urn
административно
оренбург
##ыша
старые
бесконеч
боже
финлянд
mo
##ome
окраска
компакт
письме
##иева
поддержив
больницы
##тиф
мич
позволяют
ind
ноб
##еска
подруг
##лаин
удлин
елена
челю
сердеч
пытаясь
производству
валют
риф
пыта
голод
пуск
##енту
женскои
##метр
просьбои
творчестве
медицины
улицу
эсс
оскар
вильгельм
учащ
джен
завещ
упоминание
1856
1829
станцию
приглашен
кольцо
абх
количеству
товаров
fl
расстр
love
брук
волог
помощник
##абет
придум
саита
вынуд
##идар
прошло
##unt
amer
опубл
##lin
##гона
водосбор
рик
объекта
ополч
черная
официальнои
голоса
##sp
##ольного
##ешно
##ачи
монастыр
буда
кана
аббат
##истане
коллегии
идти
бедности
амстер
видимо
женского
##нении
##ногор
##емых
##окуп
древнего
126
сущ
важных
##ult
осозн
##ившую
106
##ализм
рекоменд
спер
адъют
фи
накан
огнев
невы
больных
священник
оставшиеся
##23
горе
элли
встреча
разведыв
##ions
ответил
##атои
счету
севернее
обработки
##рость
представителем
##орока
упомянут
спортивнои
советское
существовало
размеров
##останов
аэропорта
##имон
usd
##адеб
жену
вилл
##ешь
##рее
госп
тихооке
ясно
певицы
присл
dr
стихов
григории
##ien
##усе
139
кинофест
114
трап
крае
османскои
варь
великол
настоящии
постоянного
диссертации
##оюрод
полю
карьера
слеп
сельсовет
примером
143
##ющегося
рв
египта
рыбы
транз
тель
##уан
телевидения
юрис
актеров
лебед
мэн
назвали
пристав
хру
##рантов
нерав
драф
основную
артур
огн
лука
даб
днепр
квант
американские
уильяма
назвать
накануне
##истского
киевскои
##еян
##ольд
иосиф
113
##рывает
подал
ландша
образовании
богослуж
малая
##ирать
дмитриев
будущии
##аркт
гарнизон
отличием
реих
норт
##цз
контек
вызвал
##вая
гин
цветов
жанра
васс
##ерно
производстве
двоюрод
наск
отображ
обыгр
окраш
##ыз
эпид
dvd
##атах
провинция
кэр
художественного
##еллы
##ательную
входило
сильным
star
повести
следующее
получал
тогдаш
счасть
вирту
ля
аппарата
увеличение
своиства
ростов
эфир
офицера
границеи
##идесят
кус
##оним
##инскую
##amp
оставалась
восточная
чехии
sa
конструктор
##овав
лицом
половину
мюз
модификации
базу
миллион
отрав
скота
породы
деф
отдав
сухопут
переданы
природе
пистолет
черв
просвет
композитора
art
восстав
108
##арка
креисера
эб
суде
##алистов
##очным
##чества
турне
труды
##чиками
протестант
##хрон
государством
ролеи
десятков
##ческих
рап
судьба
внук
ях
леипц
ферн
##анса
##son
открытыи
граммат
жителями
молодым
официальных
артиллер
фра
##был
146
камня
конечно
проведен
возвращение
глубина
саундтр
##фии
##лялась
1800
золотую
рабочии
шаб
##цкои
наста
##итер
производится
отыгр
##орег
350
##ающем
знания
отцу
оппозиции
##ствам
течения
##ca
104
слабо
наив
##еские
крупнои
скром
116
мок
комик
построек
симфер
кристалл
рано
ем
весел
фен
##езы
вах
вершины
##мены
выпущено
хирург
мальчик
сада
##уха
трансли
предпочт
провал
##эля
меньшеи
кислот
мох
баллов
уступил
опубликов
сильныи
опубликована
веры
гаи
обряд
чарльз
##ивании
##ельского
эли
##ерз
сталинград
солов
захвата
мк
##цет
##ладель
взорв
упомина
листов
##ящими
ранга
##икова
экспресс
свободного
гил
##чаль
бесед
##ющимся
среднее
##аемым
переити
изол
ветви
младше
никакого
##me
европу
##ele
преобла
дисциплин
волго
##ильв
италию
коменд
золотые
ел
передана
##иба
изображен
соединении
высочаи
выполнял
подкреп
кольца
сотрудничал
чили
шл
крип
исток
выступая
тимо
покровитель
коэф
произошед
интересы
повышения
продолжить
коэффиц
группами
сты
##икат
##альского
служеб
образует
руководителя
консуль
бро
кент
опл
##21
снеж
подразделении
иконы
сюжета
остановить
1858
##ичную
пропуск
мач
##оди
выясня
альян
деиствительности
петербургского
луж
романе
патриот
инои
компенс
риж
афро
пределы
разным
меди
##оноч
недостаточно
##гал
##лачив
##нот
покои
##аро
швец
текстов
ответственность
##лины
создавать
##oft
продолжение
парижа
шасси
епархия
144
премия
давид
георгии
энт
вуд
новыми
##итами
##ути
столицеи
землях
опубликованы
широкии
императорского
легких
восстановление
удара
владислав
лекс
столько
исполнил
развитием
чемпионатах
студент
искать
118
служба
отдельнои
встретился
свин
пространстве
обход
##мотреть
провозглас
явления
##овича
##инс
империя
продл
одни
##ыток
турб
государственную
души
выстро
железных
буквально
шеф
##инер
явно
ритм
поки
академик
объявля
ребенок
##ous
такую
любого
ствол
сталина
ао
небольшое
арав
вагонов
поведения
существовала
##енчат
заключен
зеландии
опасности
дополнение
токио
абдул
##овещ
расстрои
зачете
фердин
законы
обладают
евреиского
местность
чемпионка
особои
характеризуется
фигуры
слобод
рабоче
почвы
задачу
##ерскии
буш
##рист
##опит
феодос
выполнять
оркестр
кеи
совокуп
занимают
поддерживает
авиан
изучению
##инав
тесно
троллеибус
посещал
##ису
увлеч
##штеин
##ve
наклон
паре
живопись
##дои
константинополь
широкои
##ичу
месс
частями
волок
собрать
##any
ископ
отвечает
##евую
интерф
выставка
шек
##есом
карточ
##ong
интересов
сегодняшнии
долины
проекты
фактор
обороне
##адор
##асы
терми
порта
размером
индонезии
головои
эскадриль
119
остаются
мужского
полуфинале
уступив
епископом
посчит
коммуник
разног
бренд
гуманитар
привил
глух
понять
николаевич
организацион
консул
##опр
##ечения
принадлежат
наибольшее
##рим
рекоменда
##евна
открыв
спортсменов
квартира
ведут
официальным
##yp
сторонники
немецком
##ничества
##аме
следствие
родном
хоть
##риб
поступила
собирается
нашего
больнице
получившии
описания
##ерных
кладб
желуд
заключенных
праздник
весе
##нист
##ленными
гармон
огромное
полузащит
ag
загад
польскии
префект
хокке
екатерина
училась
большими
четырь
##филд
пригласил
##еначаль
верст
упад
##кино
мань
васильевич
клавиш
сквоз
##евка
землеи
значительная
пушкина
entertain
гряз
эмоцион
структуру
происходил
уни
королевство
коммунистическои
руж
##orn
реитинге
четырьмя
мнения
мероприятии
900
##фу
кавалер
##нево
итогов
##att
покинули
жир
союзе
националист
теорию
орт
обращение
аск
школах
носил
половина
вмс
##индр
монумент
левого
массовои
происходят
туль
ожесточ
##амин
названии
броненос
противник
существовали
раскрыт
гру
переключ
государственные
благоприят
акту
присутствуют
военачаль
##огии
алтаи
людвиг
водосборного
математики
въ
хоре
##енье
франсу
симпат
##цик
морф
рубежом
убиты
##ata
заряд
##овавшии
##лина
сохранилась
заявление
восстанавлив
group
фридриха
очист
гог
дубл
брест
расположенных
южных
##ek
неот
белорусского
##етон
великобритания
якут
длинные
полтав
исторические
бывает
entertainment
фильму
статуса
прилег
фав
сост
##езия
дуэт
алж
оставались
запуст
пьер
постояннои
написан
##няет
представил
передвиж
слег
сотрудники
прошлого
детскии
музыкои
диаметром
фара
папы
бронет
121
деиствовать
закрыв
##иальное
группировки
трактор
назывался
прорыв
престола
дают
136
##рочно
##ореи
дэн
черных
мастерскои
##рала
##ьего
любом
ведется
чертои
тюрк
культурного
сутки
курорт
князеи
##ичными
ферм
понрав
фур
##анка
##ировав
##ущие
перерыв
политехн
населенные
особенностью
белая
партнер
считалось
дмитрия
средневеков
драго
противников
##очек
привыч
##еги
социалистического
сплав
анджелесе
праздн
зона
двери
северных
художеств
кооп
##чо
сотрудником
объектом
герба
богд
виктора
занялся
неправиль
##ысла
поездки
адмирал
неа
##роном
rock
популярности
гусен
офис
кризиса
срока
##нас
##олока
мв
##уска
спонс
сделано
103
обращения
причины
эдуард
##скоп
кардинал
альфред
продюсером
концертов
называлась
133
великолеп
сильные
яче
почв
1857
могуще
молодежнои
ранние
уруг
протокол
##центр
##уждения
баи
##атые
симв
вала
мант
желая
трибун
предотвращ
рыболов
торговых
заметил
способны
чан
##ковскои
самим
##кен
хотели
инженера
итальянского
манчестер
терп
протяженность
штор
##ельным
местеч
встретил
агр
##шив
показать
короткии
сталк
особыи
настоящего
##ыть
мужскои
##эмп
##овки
полем
примыка
авиа
взвода
##ящему
обеспечив
набереж
канцеля
111
разбит
кле
гомосексу
осп
отозв
солнце
деятелеи
голливуд
родом
детали
млек
пару
##ожде
подбор
невест
сигнал
кни
эфиоп
учиться
позволили
хутор
свободно
евангел
иуд
участков
деиствовал
хребта
##ожен
красные
японских
наименование
лью
эстаф
узнал
1842
седьм
##наб
##аемая
попросил
богородицы
шлю
трудом
противотан
выяснилось
закуп
чувства
##ash
эсп
##икт
хуан
мероприятия
отчасти
болель
выводу
вкус
переднеи
значении
немецким
джонс
двукрат
небольшим
вольф
изображением
турниров
триум
заведующим
красноарм
##брид
совете
неофиц
##vel
адап
пропор
контролем
сыновья
балета
вычисл
забив
лиф
иерарх
прию
1820
вершине
сослов
обозрев
##бур
##писеи
гем
1855
венес
странами
десятилетия
##ood
насекомых
очер
фредер
net
песнеи
кровь
спектр
единственная
квартире
документах
ослож
сведении
смещ
представляла
преображ
муниципалитета
центральном
##ывающии
малыи
##лялось
обнаруживает
куд
некоторыми
недолго
воискам
калмы
одноименного
разыгр
взаимодеиствия
иерусалим
##пан
##атаи
активность
медицинского
хранения
дерево
легион
ep
##лип
гражданского
джорджа
получали
кратера
классу
пехотнои
свидетельствует
med
##ющеися
##аками
рота
попытке
ассамб
пво
##ничество
национальная
##план
безусп
тиф
##анцев
одиночном
камеры
каждое
титула
тбил
владимиров
находят
точек
американским
записал
##пеш
гражданских
врача
строении
практики
соседних
архипел
отдельныи
кожи
комарки
академия
ирана
давлением
популяции
##вина
июль
леипциг
##ущеи
победои
параз
наказания
состоят
владив
георгиев
восприят
счете
темп
##предел
вторжения
вопросу
##ху
слегка
##получ
связеи
часы
##ероят
костром
задеиств
##мущ
услуги
имущества
люкс
семинарии
##ple
корона
погруж
игроку
миниат
студииныи
black
сцену
исполнителеи
регионах
отрядов
##авшими
попеч
перестрои
прибалт
звуко
1853
голосования
прохождения
##ios
общину
поднят
##ream
стрельбы
следы
отказывается
xxi
##очном
окончив
десятки
international
отто
касается
константина
погибло
местами
мес
разоч
царств
борол
пожара
благород
наим
пятыи
шаиб
приор
магн
трип
пользовался
##рыл
микрор
характеристики
##ватории
лесах
держав
элизабет
соединение
неитр
франциско
выполнил
пуч
написаны
поиски
av
##ерскои
напит
церковью
pol
подразум
публиц
диагност
роск
und
делают
алю
баль
псевдонимом
увол
бронзовыи
##ялось
эмиграции
изделии
стюарт
способен
медицинских
постановление
концерты
процессы
##station
##фим
литвы
##гли
перечис
иорка
сорок
дуна
политическую
округов
подписан
гвардеиского
крыму
##анская
восстановлен
симптом
der
##манов
убиистве
льва
правителя
rad
медленно
лице
разными
серьезные
грод
##ивные
##ковыи
значительныи
обнаружили
мальчика
вильгельма
будапеш
сотрудничества
идут
увеличения
местныи
фиш
##номоч
##ающеися
милиции
передел
лошади
приостанов
говорится
взгляды
рю
##алк
живои
дег
месту
пск
продолжительность
бизнеса
руководителеи
абхаз
крис
параш
инвал
клубу
выигрыв
пуль
растение
полномочия
правого
робер
расы
свеж
мета
сильное
разработку
вооружении
дону
располагалась
элементами
социального
украинских
имущество
малого
лучшеи
общественныи
##ivers
густав
походе
##сбург
протек
внутренние
операцию
взяв
событие
зрел
##аторами
камб
поддержал
##станции
##фель
ооо
леик
1802
соавтор
развод
хорватии
называться
референд
гитарист
лингвист
##авшаяся
бориса
лечеб
##ательном
перепис
блэк
составная
восход
1854
отмечается
съезде
трудов
короткие
цы
простои
выходят
павиль
туркмен
банг
энерго
жизнью
получать
римлян
pe
популярнои
князем
загряз
##ировало
проведены
джеимса
вырез
##цеп
четвертого
##ащего
польских
организовать
скульптуры
берегов
профессиональную
месторождения
тормоз
песне
урожд
голове
##оста
резон
кафе
##ящихся
следующеи
предусмотр
агрег
млекопит
эпизоде
включена
дополнительных
планов
отклад
сук
предупрежд
##эш
отрядом
сицилии
афроамерикан
основание
посвятил
инженером
представителя
определение
чуваш
стреля
фланг
просмот
##оку
высшую
##ild
gl
##нского
саж
разработана
ru
развивается
провинц
оскорб
гов
##сб
великим
греческого
просвещения
1849
белок
делению
чекан
рассказы
пластин
##чивает
бассеин
##иди
##оего
дуэ
чехословакии
лагере
обозначения
mod
сохранился
враждеб
гаг
вам
##осип
располагаются
playstation
вяч
психологии
one
див
записан
##ale
##ированное
отличия
обнаружено
светло
современное
летия
пораз
шеи
зачислен
благослов
рецензии
##утом
здравоохранения
перебрался
леонид
##лои
принуд
конгр
##ностям
пониж
##едов
сделан
груди
пошли
##идные
друзьями
богом
опров
монографии
пч
грен
установления
вамп
современном
заход
александром
меньшин
утрач
внутреннего
деревянная
чернов
семеиство
лесов
гун
база
##тоне
super
##угу
супруга
яна
палом
пэ
этаже
##енка
зеленыи
определяет
порту
правителем
персонажи
##вину
сентябрь
возникли
эпизодов
совершенств
волын
французском
девяти
бород
предпис
освобождении
жит
##тоном
##очное
сит
сни
##арию
специальнои
##ившимся
использованы
##лиг
причаст
заброш
распространен
кристал
столкновения
тав
историки
##ракта
##ink
угля
повер
бараб
посмерт
литературнои
испанскии
her
бенд
плаз
трансформ
церковно
столб
называемые
сторож
образа
конструкция
снялась
железная
приобрела
опрос
филиппа
затоп
промышленных
велосип
японского
выбора
##ующую
продолжала
исланд
фильмом
амстердам
присутствии
наж
привет
поселился
выдав
родине
различия
глаг
##ованного
дил
успехи
парашют
##дал
политическим
анаст
правительстве
лечение
нарушения
являлось
##олод
апрель
различным
верхнии
##ерского
будущее
##ляла
перевел
##олета
рассказал
мембран
противником
принимают
скотт
определенных
метода
##егион
оппозицион
расширения
прессе
взрыва
считаются
сестрои
местным
тум
повреждения
##фаг
##ife
существовавш
закончился
террорист
стру
конфиск
работая
равна
вынуждена
судья
личныи
астер
просьбе
сервер
периодически
эндр
кафедру
##орош
упрощ
частнои
лучшая
верховныи
micros
судя
##кли
##ланда
102
успехов
обман
годовои
мещ
пациентов
##овская
изменить
анарх
##ican
слухи
функция
преимущество
##кевич
детских
бургунд
фабрики
##енностеи
##шеися
падает
обобщ
традиция
преследования
знать
крупнеишим
ищ
откров
##яль
подразделение
подвиг
ленинградскои
наполн
##ческого
аи
двигателем
5000
древнер
осажд
деиствовали
воздухе
возможным
крупнеишии
алексеев
ввел
##янои
музыкальные
возможных
михаилович
делал
проектом
##ner
продвиг
образца
юсти
конгресса
возрождения
метеор
##ционная
литовского
распис
франсуа
##исон
##ождению
гипер
потенциал
алюмин
##физ
нижнего
##ile
возглавляем
освобождение
путешествен
##имое
луган
статью
глубоко
художественных
последовательно
числом
высоком
открытого
реабилит
путешествия
вад
понес
горького
установили
mot
феном
краю
заднеи
повыс
правительству
браиан
цилинд
петроград
учеником
уот
маск
вера
цилиндр
##way
фигура
русское
сохранения
##узи
проведя
луис
пенсию
международным
концепция
коллекция
понятия
пасс
торон
заглав
продукты
тока
красных
носили
султана
##шина
заведении
рут
советско
отличался
мезорег
##глом
судьи
осужден
послал
немало
аудитор
единои
конь
соперника
самыми
радиостанции
эры
изящ
старому
спутников
магистра
установка
просуществ
интерьер
сои
##дела
прокат
открыли
экспедиция
доц
##ичества
уволь
лучшую
проекте
французским
юрия
собрав
##анде
сотрудничестве
французские
нхл
##ичеи
##вили
члеников
лиз
ученик
vol
снес
варианты
абсолютно
весом
изаб
телеск
позиция
умеренно
##шу
##онского
частиц
боксер
огромныи
нарушение
переименована
##увств
эрик
спартак
гэ
заменен
архитектором
одноименнои
алгорит
недо
сознания
отош
учитывая
потеряв
кэт
полут
продолжается
состояли
существовал
выпущены
самому
comm
##яно
##ицев
##тек
общую
беларусь
незам
молот
тысячелет
собственным
##ивы
основанныи
ярмар
какого
дун
ограничения
##ирующих
##sk
##еском
растет
формировании
муниципального
травм
контак
маньчж
##pr
открыть
золотых
##елев
##расс
##ывающих
областнои
##атого
возмущ
национально
отрасл
ведущии
мысль
афан
##нута
мотоц
бухар
рождествен
теил
эдвард
top
пант
заводов
внешнии
греческои
отдельного
пенз
воспоминания
демобилиз
жалоб
россиеи
драг
##ямую
объема
учебного
рубеже
гимназию
##роде
gre
личнои
ленин
автомобили
колумбии
##етта
##ованным
##арище
студия
россииские
конструкт
вооруженные
кнр
изображении
расследование
вез
туб
повышение
томаса
микрора
грех
меб
оставаться
принадлежала
##енца
надписью
кала
##атыи
##ечнои
зиг
обз
специалисты
поездов
туркест
потерпел
юниор
корпорации
1814
методом
аудит
результатив
ядра
times
вр
спроект
позволил
низкои
полковод
##ывающеи
верхнем
поддержкои
изготовления
##рата
долю
стокголь
окон
##ark
испанскои
профессиональнои
прикрыв
посвящен
александрович
микрорегион
лонг
зону
раков
политическая
##шегося
##штадт
самцы
вспоминал
##роц
совмещ
открытым
пест
офицеры
жюри
называть
1831
японскии
патру
синдром
мезорегиона
упол
посполит
списку
##авод
##глись
строения
девушку
прикреп
гад
##рова
##овит
джин
формате
выдвиг
предъяв
##года
дошел
##енед
распоряжение
сельскои
##ыщ
##ьяв
интерпрета
заявила
поток
теме
плит
популярным
рит
обеспечение
заменил
##хим
белорусскои
останки
интелли
младшим
стип
##ография
безум
оставалось
римскии
##овет
дума
моя
избирателеи
##лино
контракта
аргентины
##штеина
выиграли
заболевания
##co
северную
напрямую
родителями
предположение
##обереж
детям
успешным
скульптур
выброс
##ai
##енская
##олеи
реальности
сегм
##андо
занимала
вель
событиях
предыду
единого
##лар
чувство
снять
состоялись
##динг
1200
штатах
происходило
маленькии
золотом
##елям
131
горожан
замке
экране
ами
товарище
окраине
пусть
##иленд
объявлен
потребовал
техника
##есси
поконч
##yn
уроки
леди
пищи
вариантов
фарм
антис
достигли
благополуч
##стра
реактив
колледжа
посвящена
бала
##sch
ше
филадель
1852
спортивных
крик
официального
ab
стамб
анатом
fe
американцев
сложных
ленинграда
ванд
##шев
##алями
##аси
орех
авианос
гард
##изациеи
##охим
приняло
сно
фамилия
охлажд
увеличить
фрг
мексики
дифференц
уточ
поддерживать
##розы
открытии
ущерб
другому
репресс
монре
администрация
крупными
художники
публиков
девушек
воинои
казани
ассоциация
авангард
del
перевез
процент
видно
квартиры
ибо
военнослужащих
fre
заново
скал
##олем
выпустили
предполагает
колом
чисто
дано
практику
достичь
промышленность
##ьевич
профессионального
##тип
моч
учение
летнеи
объявили
##иша
открыты
мотивам
games
##uth
препятств
мему
угрозои
журналах
прочие
квартир
codice
аквар
киева
фронтов
населя
уаит
##ise
десятин
нур
##евом
141
отпуск
шм
владелец
турок
здоровье
стоян
пытаются
##ьих
деревья
приверж
быстрее
обязательно
уполномоч
официальное
ричарда
обрет
подж
интернацион
надписи
библиотеке
кев
миссис
венециан
дид
##ler
углу
##иальным
смел
стоп
##нение
продолжать
стаж
##ленном
преоблад
подел
таино
оркестром
рент
декабрь
священнои
ноябрь
1813
иных
депорт
билл
##эна
##лаго
показан
собственность
расширение
еженед
tv
изделия
воссозд
близко
скандинав
золотая
дальнеишее
дзю
##чук
дино
фрукт
знании
панк
обитают
джонни
бис
ассоции
леснои
шестои
вавил
рассказов
реал
артиллерииского
консерватор
колонны
упразднен
##ыслов
##tv
предметом
##студ
военная
сверг
взвод
государственным
духа
коммуникации
поко
1847
рукопол
##ингов
амур
##тами
##олл
направил
варшаве
гонч
металлов
известными
фильт
называл
наличии
вознес
электроэнерг
валл
племена
атаковать
тибет
врачеи
излучения
работами
студию
кабинет
полную
нераз
##невосточ
жу
mac
##per
местными
##шер
последнюю
ошибки
ганд
галереи
анонс
отцов
музыкальное
112
##tr
литература
1846
умирает
полтора
образованию
актрисы
##рап
евгения
вят
журналов
дверь
джован
##иску
александрии
регулиру
company
цска
вступила
вступления
##преки
целиком
гри
источника
участниками
##ann
деиствовала
улицеи
мек
сувор
вытянут
##еиро
советом
покуш
столица
мяча
средиземномор
сильнее
литературного
справоч
##ернои
сбора
##еиского
##ивного
##нулись
рассел
сознание
филарм
архи
генеральным
бывшие
##ссон
основателем
западную
травму
корабле
потеряли
дья
присоединились
коллекцион
эшел
##сками
временного
исчезнов
повстанцев
двухэтаж
определенные
людовика
ока
##огов
очки
искаж
##ольные
периф
журналистов
расовыи
##por
особых
устроиств
рафа
землев
измерения
знамени
осени
братьями
приват
древнег
сражался
рс
разворачив
прослуш
формои
экзамен
городке
рукописи
##анее
##опот
##ящиися
выполнение
1837
германскои
ке
французов
царство
орле
курт
входа
##ton
подтвердил
оператор
##етнои
серебряную
##ings
##арные
##идзе
источникам
американском
древние
киностуд
##ирующие
хард
предложили
сибирского
важно
microsoft
шля
##чу
##икса
июнь
рядах
гости
сопостав
туш
##ba
толк
человеку
убили
забол
##анович
люксем
##ывающие
широкую
орудие
эквивал
##жен
учения
великих
имелись
крыло
проводят
дальнеишего
лондона
##иман
red
парус
сделала
затрат
##тинг
заранее
po
абст
факторов
киргиз
##утов
фал
буквы
##еиства
городок
##ana
почетным
повесть
##ical
перевода
сокров
корпусе
опух
ударов
соглашается
спрят
иезу
подлеж
ольга
телеп
дополнительно
лодок
бронзовую
советника
гимнаст
ряду
реконстру
центральных
американцы
критика
стадиона
сиб
ансамбль
раннеи
строить
достои
##зас
облада
разряд
##ецких
занимали
завершить
ех
курсов
символом
##инии
##унда
варвар
валерии
шахтер
оценкам
сенат
явление
оболоч
пруссии
##дс
образуется
пруд
ги
рока
обосн
##варда
почт
показывают
вячеслав
##тв
##хар
крес
длине
обнаружен
1817
lo
швар
джоном
ранения
супруж
квартиру
перемир
ответственности
1839
издательство
##полня
выбрал
планируется
южную
жанров
перекрест
нагр
шин
предст
полком
сотен
церковнои
собственное
тринад
искусстве
законоп
граничит
антип
бывшая
юар
корни
технология
барона
доступа
навиг
пробл
константинов
колхозе
##иджи
допрос
##костью
животные
калибра
совету
обозначение
дало
противопостав
населенного
особеи
гостеи
надежды
сожал
уничтожения
##ческии
нехват
гум
облик
замед
храмов
ставроп
роскош
намерев
семеиств
современная
удел
берлина
всад
судом
обвинению
детство
кув
парном
будущеи
##ечныи
примир
приема
кислоты
конг
сельскохозяиственных
##оборуд
##дачи
##ольфа
социалистическои
сосл
шед
помощника
сената
прозрач
билет
водоем
углуб
##яну
закавказ
##аев
##ибыш
сцена
##ичев
долгов
заключении
гю
овощ
образованием
видами
новороссии
бакалавра
управлять
танц
командующим
недовольство
##опер
##енец
##арп
трудности
полноц
отъ
1828
##ube
определеннои
навс
тка
особенностеи
##yl
##uss
электрод
железнодорожного
пресвятои
выр
туристов
380
новеи
##фов
рабов
отрасли
крыл
##ерси
политик
выполнен
сыграли
врачом
перехват
##ерного
##прим
четвертои
er
tw
сборника
цветки
управляем
зимних
сельских
лига
##оться
энн
##отехн
достижении
##идом
##берге
вмф
##ующем
характерно
##измы
техническои
di
сью
щел
повсед
детскои
квт
1834
серебряным
кю
##очную
танки
личных
помещение
иох
##хаи
спар
бунд
матрос
пластинки
снижение
повседнев
имеющих
полным
##усы
##раться
##елин
хип
беженцев
запол
четко
проживают
певец
болезнь
верхнего
небольшого
##регион
##итации
начальнои
оценке
плато
проезд
##ечных
выглядит
обмена
##stem
предпринял
##жуаз
симферополь
1851
1796
поднялся
домом
советским
кре
полномочии
##стрела
рису
##идои
##ировалось
образцы
берт
внешне
введена
ворв
волна
черед
выполнены
берг
антропол
хаз
##кович
окружения
партиеи
признать
отправились
прекратить
1845
преобразован
торонто
советник
отдан
половинои
выпущенныи
проиграла
##атур
корид
желтов
нападение
кишин
чине
финансовых
разграб
командиров
принципы
присоединения
вражеских
каждую
##отом
харрис
##арным
ближаишие
per
ведения
молекуляр
фат
обр
проявил
фавор
деиствуют
подготовка
произошли
построили
стене
больницу
220
санк
##ири
брюсс
чарли
##онова
##нуты
##цова
замк
мастером
величаи
легенда
отказалась
univers
кинотеат
##рациеи
зараж
вошло
##нологии
защищать
содержащ
джексон
##ps
##уждение
интеллиг
раздраж
##зр
стрит
протеста
курскои
хэн
арно
национальным
лодка
cap
чаиков
прибыль
попыток
##рама
историков
бест
учителеи
ветра
защитить
1826
кампанию
женщинои
гидр
дивизию
eur
галь
божествен
дорогои
рум
##унт
вывез
роду
высокое
положительные
петербургскои
анастас
res
издана
нил
согласия
суббот
##чен
литературныи
фамилию
##uk
взяла
хаи
##наж
объединены
##чатые
науке
позднеи
1825
экстрем
общие
цивилизации
таим
галер
родного
родственников
обособ
построенныи
бенед
азербаиджанскои
##for
##алин
точку
фрун
юли
самих
аркт
обычных
саи
студенты
крестьянских
вроде
составнои
##нуто
телеком
сооружение
средне
альберт
1832
организов
баик
озере
джеин
метрополит
написано
возникло
расстояния
вопреки
##новес
поступает
##oph
##оя
##ропетров
оставшихся
бельг
двигатели
деталеи
близких
вступили
трудоспособном
девочка
##осл
##зив
##лея
егор
общих
весен
оппон
богу
англия
защитник
1835
поединок
рыба
достижение
ерм
невыс
запасы
##евое
нато
никит
ремонта
юрь
расследования
пользователеи
вокал
##бас
медицинскии
pa
##цева
забаст
богов
яг
военноп
приж
360
древнегреческ
памятники
##совета
##ерман
семена
важные
салон
##обещ
450
прочит
хабаров
днепропетров
##аряда
царем
##ake
акуст
дие
постоянным
##окко
близлеж
защитника
объясняет
листьев
снялся
показано
содержится
краевед
квалифиц
главными
профессиональных
ведущим
рисунок
рекомендации
##едо
##чус
самоуправления
онлаин
транслиров
победить
возведен
##арина
формат
повторно
введения
робин
звукоза
популярностью
глазах
преимуществ
секс
осады
атам
эффективность
##етс
включал
включили
глазами
образец
поддержка
имелось
ареста
пиренеи
##пур
##pl
называются
вещеи
##орж
таив
библеи
хранится
митрополит
##ратить
электроп
арене
медалеи
геор
опасность
потоп
артем
олимпиаде
сессии
##опыт
дрезд
##еску
##вен
##атье
леибле
владельцем
плак
городские
минуту
преступлении
куибыш
увидев
##стиг
поиска
хро
##эфф
профессии
говорили
перевозки
нападающии
корреспондент
максимально
вечера
двадцати
позади
водоп
репет
гранди
важное
драмы
влож
риб
дальнего
сувер
сыграть
продажу
##лош
узнать
гнев
стере
##ированными
остро
насилия
иорд
##sh
квеб
инженеров
##осков
пеп
пригод
орбит
никакои
эскадры
ваи
постановлению
публицист
##era
подробно
автоби
выясняется
реглам
##aster
мартина
закрытия
тян
серебра
спектакль
трофеи
расправ
массачус
западные
настоят
феи
фэн
актером
силе
проведении
навсегда
##уба
##ini
отделя
британские
морские
народная
объясняется
предыдущего
галл
сумме
замечает
хода
##ессу
игруш
##арактер
обитания
фабрика
наполеона
обслуживания
##унов
вытесн
армянскои
инвестиции
##ичном
обслед
отправиться
проблему
массу
телеграф
футболиста
читать
прочего
пятилет
гвин
взаимо
фирма
сильнеи
отступить
1805
автоматически
шарлот
##uct
редактора
знакомится
пролож
наса
шевченко
##вит
юстиции
казалось
сделаны
хмель
встречу
композиторов
поднял
знаменитыи
застроики
императрицы
общественности
разрушения
коалиции
дно
##ляция
полук
духе
традиционнои
графство
занятии
вокзала
внутрь
сестер
британская
жаб
##ываясь
противодеиств
##de
немецкая
##док
цепи
тщательно
использован
смену
одежду
приступил
выходить
##здоров
участках
1836
заказу
возникновения
##знач
активнои
заключение
длинныи
ниш
##евыми
хоб
##истыи
служили
ознамен
написать
зарпл
великая
поставлен
джозеф
сроки
разрушен
##endo
тиражом
технике
насиль
вдв
авиакомпании
защита
государственная
цыган
интегр
ежедневно
лого
полгода
##ятое
##бир
##ляд
вопроса
импорт
##ющаяся
личность
энергия
оказал
ваз
икон
вторг
вызвала
вермах
упл
расстреля
отправилась
балтииского
псевдоним
##чаи
сталин
созданием
встро
##бии
прии
арбит
клана
родила
являясь
закончилась
пшен
албан
##ечного
превыс
сектора
получение
немецкими
мобилиз
историка
кандидатскую
разорв
появляться
принесла
снарядов
панд
фермер
кром
императору
верои
флага
зарубежных
концерта
международная
die
старая
питаются
иисуса
тег
имение
брату
поражении
бомбардиром
пирам
##ельскои
знаков
коротком
реаг
синглом
виктория
деления
поэтов
экономическии
введение
закону
венесуэ
высшем
грэм
аграр
live
конк
архим
дивизиеи
социальные
аудитории
нои
америку
присутствие
официальном
хоч
арс
краков
железа
серебро
софии
авиационнои
##тан
коров
польша
гап
местном
летию
нока
##уми
пользовались
кипр
вологод
жана
##фюр
##енберг
несчаст
подавля
русскими
насчитывается
заболевании
york
фрагмент
##ott
##ls
таган
жене
километр
ev
лас
миром
баланс
ste
упал
##отнош
time
##альц
анк
устар
продолжалась
избег
воздеиствия
насколько
современным
завершился
композицию
вымышлен
##лами
##ологом
буддии
агента
франкф
вулк
посполитои
геометр
1843
олимпиады
большее
возможностеи
золотого
записеи
находиться
санитар
жак
передаче
базил
торговые
буржуаз
метр
прекратил
единицы
преподоб
традиционных
комнате
выросла
положительно
адапт
добычи
##евском
##ругои
культурных
чиновников
сближ
культурнои
рид
атака
стилист
мультип
эвакуации
##аша
меняется
греи
стояли
##ившееся
поощ
возлюб
##етти
следов
мечеть
132
##анном
древности
##носит
величины
коми
унаследовал
спб
##gr
четверо
испанского
книгах
религиознои
##укле
юниоров
отпечат
##шиф
деление
архиепископа
балла
чудес
мимо
субъект
гибель
lin
##aw
отправили
1841
ходатаи
1806
вызов
признается
маниф
небольшую
пищу
##примеч
##аже
женских
сообщении
обсерватории
атриб
сибирь
fil
рив
радж
отвод
возлож
причина
портреты
##овато
транск
пеналь
доп
свободнои
1815
фре
франков
мрамор
идущ
лучшее
автомобил
многочисленными
мучен
roll
потомки
уголовного
знаки
рабочим
ствола
евп
моза
петрович
владивост
альфон
любил
боевого
синхрон
болив
практик
кадет
иниции
теряет
победила
##еркул
##опод
маршал
вспых
египте
эндрю
3d
расстрелян
международные
признания
региональных
объемом
экономике
московских
достопримеч
канада
корруп
переворота
реставрации
репрессии
опуст
куш
сень
##амы
акцент
развив
любые
##ираются
расположенные
большевиков
che
старшеи
токс
юрисдик
##носят
##европеи
каждому
сельскии
индеицев
##box
elect
##енци
awards
парод
необходимые
снг
кембрид
##енциеи
плюс
биографии
агентства
вина
сохранил
машине
подхода
муст
уклон
формулы
структуре
серебряные
артиллериискои
раскрыв
##нях
начато
1784
1838
выполнить
спасения
##арат
##имая
отом
подводных
чьи
отн
издательства
преемником
делом
int
верб
млекопитающих
итальянских
металла
музе
наказание
неблаго
уровнеи
англииских
##ехан
каменныи
упраж
буэ
подраж
состоящии
заявления
станислава
##ерах
##иска
недвиж
##аемое
статуи
потол
точке
княжество
мечети
оскол
##улятор
лучшего
кандидатом
юности
дочереи
поколении
свидетельствуют
##аио
органа
1844
кы
##70
##ena
французы
отсутствием
мифологии
fin
##лером
кач
англииским
полученные
дядя
опроверг
вошед
важнои
рассматривается
молодая
кавер
исторически
потеряла
деиствием
закрыта
##ельная
деревянныи
мюзик
бин
##дия
писем
бурят
ассир
##нула
шок
##ония
длится
бывшим
япония
чисел
служат
написала
имеющие
башен
бригаду
обрабат
болезн
сапер
углер
восточную
способствовало
##iel
беис
джованни
публики
спортивныи
пенальти
убор
средствами
##отоп
последствия
##ману
sl
сеч
мэра
латыш
##оначаль
почетного
называемои
свобода
карав
составило
демонстрации
конфедерации
life
адресу
распоряжении
китаиских
варианте
димит
внутреннии
ски
улучшения
челябин
аглом
зато
эпизода
проводился
заявили
антиох
отыграл
##иным
раннем
появлением
митрополита
рожд
##лс
сочинение
воздушнои
плоскости
оригинальнои
представить
##произв
свете
ib
устарев
##аппар
хорошие
леиблом
чешу
госпиталь
секунды
январь
##кок
декла
задание
кноп
крымского
хельс
поднож
##агнит
палат
##ательством
изучать
принцесса
созданная
пала
##соном
страст
решить
дуглас
носить
значительных
1833
достопримечатель
леополь
функцию
##оронои
музыкальном
самка
квин
тамб
исполнила
птица
##альскии
ника
добраться
вторых
бронзовым
молч
насыщ
королевскии
##стош
отмечено
##класс
сертиф
гект
дэвида
##ors
невероят
полуострове
болезнеи
раненых
равнин
нагор
##ионов
вернул
революция
змеи
##ательными
стенах
коммунистов
##гос
любителеи
исходя
приезжает
##ологию
директоров
эволюции
резолю
плацдар
биг
шлях
взамен
##ary
короткое
мировом
ср
пленных
слоев
историеи
##ылки
чтения
##груп
потерь
претензии
приоритет
силах
палате
воспоминаниям
подходит
эфире
волж
крестьянскую
варианта
давал
доступны
ял
##еско
покрыты
мясо
централ
##истские
забит
освободить
всемирнои
нежели
летчиков
федерация
стоимости
звука
частные
чрезмер
соснов
фрагменты
вовлеч
1821
бюджета
кавказа
луны
обладал
ерев
открытои
единственное
сдав
##uch
гитлеров
##ерм
##асом
пришед
обруш
пф
оперед
порои
правилам
русл
долина
воли
##рита
кодекс
севастополь
##орами
странои
венеции
прихожан
электроннои
аспирантуру
nint
операциях
десятилетии
условиям
поставлена
естественно
##ивно
позволила
выпускает
стефан
усики
графом
лез
ассистентом
##рости
отключ
волосы
задания
привлечь
эдуарда
##коз
лидеры
сброс
владельца
дама
выбрать
пыль
патрон
механизирован
площадке
двадцат
ранение
собраны
1810
сложные
240
помогал
техникум
ордин
##ящем
принадлежали
сквер
пехотного
nintendo
посвящены
поколение
адвокат
таунш
ступени
полки
разу
мировых
латинскои
широкие
диспет
сорат
мгнов
группиров
франческ
яковл
##лоц
диего
казаки
подобного
этапах
православных
совхоза
слад
моложе
офицером
течению
нала
фк
бумаж
наивыс
##порт
литературу
выг
развлек
деревянные
подвер
писала
дак
##илие
любое
музыканта
практика
завоевать
обитает
##енна
##исто
алма
рекои
взглядов
##муд
##ax
прогул
рэп
поверн
##ированную
чудотвор
катастрофы
##лока
поверхност
##ающаяся
строительству
движением
педагогического
независимои
комнаты
##инф
одессе
многим
блед
##лине
акул
##ариата
указывают
удачно
##онскии
кровав
##ивныи
семенов
разделены
ядро
доз
величине
##ези
небольшими
плут
французская
джерси
угрозу
коренных
##емуся
кирилл
монголии
подростков
продолжения
приглашение
game
##илу
ази
природных
заливе
##изе
колеса
религиозные
cent
молдавии
рт
водах
system
угрозы
##чь
##гроб
продано
встал
градусов
##рая
позвон
снаип
последовательности
габри
реалист
пропустил
##юры
неизмен
бороться
дои
сценария
завоевания
выпадает
реконструкция
up
воссоедин
кх
sim
тамож
академика
коррект
##ровыи
профессиональном
сроком
##нули
##мина
случаю
##баик
посвященныи
каск
инв
личным
дод
территориях
##енои
береговои
сосуд
опр
сходство
редакт
##улирования
вероятность
внешнего
##нать
сигнала
организаторов
многок
миллиард
жилищ
##альт
уничтожены
ресурс
всемирного
схеме
скульптор
даты
##агон
ивановича
активную
выходили
ковал
кеит
лицензии
выполнена
полуфинал
нормы
немногих
фреи
##ческие
замены
плотности
rev
##ационных
алгоритм
фольклор
##берт
иннов
грунтов
проработал
ябл
ростом
стремление
тх
альт
##ильнои
делали
ламп
##беж
имении
спраш
сборных
написанная
близнец
лине
##ологическои
барокко
заменить
пушкин
выражение
запрещено
рака
поити
доцент
##ney
мец
изыск
отправляются
происходили
посетителеи
##илле
следствием
расходы
пион
профил
хен
шиш
##иднои
##ерные
белыми
водя
комсомоль
тебя
представлении
минонос
покидает
джули
вцик
укреплении
несоверш
подобное
оценил
##овавшись
зеленые
знаменитого
du
выезд
краснов
ссыла
дому
##нины
организма
##анским
совершен
признаки
авиационного
##лох
увенч
взаимоотнош
разрез
ограб
электров
иллюстр
кенн
господств
##ыли
литературных
воен
изданиях
финансовои
##плект
мюнхене
##oss
существовать
становились
night
##мунд
##ровои
пугач
командном
продолжалось
##джер
##itt
пакет
mc
новог
обрыв
балкан
пушек
сочетании
хозяев
волгоград
##анк
ансамбля
##овском
ударом
смертнои
реакция
сквозь
сильнеиших
блюд
опере
второстеп
декора
организатор
гибрид
пенсильв
морт
##иваясь
sw
заклад
удары
##емент
актеры
наиден
костюм
полоса
##ирают
каналов
круге
зима
сопровождении
городском
dis
##ессион
налогов
позитив
типу
немецко
упоминает
соперников
шексп
неяс
спортсмены
человеческого
мурман
квадратныи
##кат
торговля
##ахи
елизавета
ташкент
белым
истори
##овавшего
дубль
уцел
километра
судьбы
##рика
##денбург
стремился
##yr
##ингом
размнож
загруз
##хат
полученных
бело
возвод
пив
трил
степенью
шу
космонав
соображ
пришло
передачу
балк
приняты
выходе
небольшом
наблюдении
##сот
##игс
видели
##овавшие
##енгаг
владеет
возвед
open
##кап
николь
праге
элит
зеленого
выполняет
крупная
спеш
##ower
инструменты
##ичен
изображены
##oci
стекла
концентрации
##усторон
##иске
расположенная
##ранс
испания
##тони
саму
оказали
сообщество
##опат
побывал
часовня
##дара
открытых
уильямс
неизбеж
крок
очищ
активным
цены
##ораз
удоволь
платформа
##фора
всеоб
##ологические
##глуб
антик
american
##жал
евреиских
##ируемых
##есе
посты
отказа
пош
1793
неудачно
дьяв
##ционным
поздних
этажа
горныи
##арах
сложно
пилотов
##ескои
свер
занято
стивен
списка
илья
##цер
метрах
близок
татьяна
ec
называемых
ожив
размещения
хмельниц
ворош
обзор
призем
футбольного
копенгаг
победе
веса
финскои
видимости
прогноз
сатир
##онскои
продвин
производством
суммы
встретились
гель
суть
##ee
камчат
продолжают
##ures
гнезда
телеканала
кашт
европеискии
победив
мыс
вмещ
##af
площадки
избирался
жем
##иу
помп
сферы
##ализация
замужем
##нознач
равновес
монаш
христианство
рассматривать
наука
литург
##олия
селении
регистрации
подполковник
происше
преобладают
##стить
передача
хоккеист
разработчики
лисс
##рались
##бар
самод
1824
поляков
уя
красав
нападении
новости
выступить
глеб
туман
греческих
примере
проголос
##нулась
##арю
лент
##емои
опуск
церковных
увеличивается
1811
1807
клар
массои
контакты
удав
первому
##иальную
делах
решают
орденами
вирус
близости
температуре
достигают
стабилиз
##ицкои
коорд
суммар
температур
полоц
антаркт
отмечен
театральнои
горнои
##ушке
##рида
девочки
интереса
купил
##илд
сторонником
охарактер
триумф
парф
оставили
проверки
понял
лишения
внешних
квадратных
bbc
1823
аля
##еврем
самоход
дискв
григория
##еист
открылся
##озе
характерны
ульянов
##янского
осуществляет
этапов
духовенства
ящ
##раны
##штаб
патриарха
македонии
культуру
совершить
хозяина
750
ревиз
снаряж
##цк
средство
берд
утверждают
##ont
направлены
слияния
простых
обращается
заводы
сложнои
##оморф
тыл
перешло
пожел
человеческои
##ционную
участвуют
хозяиственнои
кавказе
стратегии
немцами
штаты
узел
штабе
уим
волги
разработаны
соответствующие
##чжоу
зме
отправить
доходов
урожаи
рих
##инова
корпусом
обостр
питание
китаиского
греко
регионального
свободное
героем
su
аук
ды
четверти
##ade
животновод
короткои
домашнего
австриискои
экспозиции
##отерап
консерв
строение
ведущие
merc
##ухи
выруч
##меистер
земледел
камеру
своиств
1827
наимень
##ольная
полуш
олимпииские
партнером
переворот
##омы
энергию
использовалось
дож
старших
важнеиших
независимых
##пут
споры
легенде
пнев
турки
визит
усадьбы
усадьба
##48
##озефа
федеральнои
вирдж
##крот
товары
водохранилища
пояса
стэнли
ши
полная
корее
перекрыт
небо
жанр
зная
вызвать
комнату
мистер
нечто
схема
узбекистана
белгород
греков
германиеи
облом
##истая
горного
отдать
вызвали
филиал
серебрянои
глю
##que
далек
произведениях
внуч
показатели
фокус
круш
рин
юбилеи
уме
##щины
дохода
концертах
выступают
грани
##ett
месторождении
печать
поня
строительством
##руется
оценивается
компьютерных
определен
требовании
сумели
произраст
платеж
бросил
##лест
крос
##уша
старом
способствовал
##ирал
##шаяся
кгб
буэнос
халиф
праж
массовых
основали
относился
агентство
монтаж
оценка
схемы
ушли
направлению
суперк
звучание
трассы
всесоюзнои
слес
неком
плацдарм
хант
покинула
штук
утро
основанная
боеприпасов
##илин
давы
бенг
бактерии
карам
советском
кинофиль
четвертое
царицы
прибытия
созданнои
##ехт
частот
продолжались
парижскои
эш
##осов
разочар
артер
минск
знамя
ирон
очереди
##города
афин
кинок
словом
возникают
##ool
ингуш
продаже
национальное
применяются
телом
критику
подготовил
проблемои
магазина
преобразования
дефиц
##ision
домашнее
##унду
последовали
##онами
##лоны
женскии
ценности
мировую
больница
выпуске
значительным
вращения
билли
##ушку
семилет
двоинои
прап
ангел
шахт
юпит
сформирован
двенадцать
весовои
##овар
личные
##ечные
безуспешно
##ичны
низмен
метрополитена
##озы
состояло
142
выделяется
группах
дина
крю
убитых
рукои
кода
пить
##стями
##ывающая
##енья
расст
музыкальную
дальневосточ
успешных
химических
##ободе
симметр
пьесе
знати
абрам
бульвар
листа
##евы
дроб
расположения
##ентация
##джи
воздушного
магазинов
известня
введены
##онои
##ория
зарабат
свидетельства
тах
##искои
##форт
вспыш
принесли
распоряд
трагедии
попроб
проводили
домашнем
бронзовые
телеканале
посмертно
тауншипа
преодолев
рыч
иосифа
генд
эвер
газету
трети
##зин
##иванию
самую
языками
развлеч
кел
##ицами
занес
##ологического
литер
кампания
мадон
алмаз
##ныне
солнечнои
контраст
##лир
белом
процентов
##бюро
пообещ
казанского
опасаясь
судоход
генералом
федора
звучит
##геб
##планет
дистр
ники
тез
упр
синаго
##летнии
саф
крымских
рои
отличались
str
загреб
китаискии
митинг
кузь
##лями
затвор
студентом
берегах
промышленного
маикла
представлено
руке
развел
батаре
##анья
крестонос
фит
парков
находящихся
##ционном
##ынов
весны
убедить
поставить
1809
упоминания
аноним
раионом
##употреб
звуки
ханства
##ze
струн
народные
манип
настоящему
уязв
приур
главном
##31
плану
раскол
присутствовал
пулемета
ass
некогда
камнеи
гонках
гат
пятер
шен
немал
восточные
ампл
килограм
##пен
веру
соответствующих
матве
общения
присутствовали
неизвестна
поручено
##оник
##улов
погруз
##испол
городская
разработчиков
римско
успешнои
зооп
дион
открывает
незн
театров
маркет
посвященных
последовал
искрен
причис
манг
парламенте
херсон
паулу
христианскои
##ныш
раздела
титулом
ленты
##ицизма
##угуб
альбер
бомбы
##анн
##илом
отмечают
стипенд
##авлов
##имова
себасть
национальности
гражданство
##its
министерстве
падение
бумаги
##ельскии
преподавателеи
отражение
##чак
##br
елизаветы
ip
учреждение
отдельным
норматив
##ins
маньчжур
согласие
заряж
with
тверскои
носят
летняя
крестом
гитаре
моеи
примитив
обычнои
предводитель
системах
личинки
ang
##eth
вдруг
разделен
железнодорожных
лорда
коричневого
смотрит
бре
венч
сжат
дань
кард
влады
##rag
длиннее
sn
орел
словакии
##ильных
##сис
торговыи
латино
перез
любых
алекса
1816
стихотворении
соединя
британии
тбилиси
красным
зависимость
gener
ps
нис
яру
неуст
##еспособ
покид
захвачен
##анна
##ужи
заведовал
опу
##ущен
рекоменду
репутацию
традиционные
волеибол
образы
стеклян
шведскои
сделав
нарушении
четыр
экономика
заложен
давать
холоднои
сз
##work
дона
хань
примк
наталья
##ац
посольство
##оот
##анш
##идо
включала
отсутствии
подвергся
вершин
знали
амф
##da
завершении
параг
полуфинала
##аемости
признана
##рует
велась
ученым
короткометраж
нежел
##ообряд
евров
##истам
##лоу
случилось
inc
монголь
##ысел
навар
постановке
огромные
шеих
##коб
##хард
переведены
джерри
сильнои
человечества
##ождеств
резонанс
вдвое
сера
юмор
ширину
определенного
заявив
свадьбы
##оведения
военными
белков
носителеи
звездои
эстрад
клич
##вардеи
молитв
##игура
собаки
##еход
210
зарос
##корто
эмблем
##лета
столетии
проза
##ital
модернизации
шри
жилои
сражениях
beat
##циям
языку
отделе
празднич
злоде
жертвы
##дет
##тером
добыча
архиманд
флотом
посольства
гавр
камни
великом
аранж
брах
проидя
##ope
индустрии
##yc
##анские
постановки
разбир
новоз
##освяз
совершили
марокко
##нин
степан
тяжелого
англичане
напряжения
предотвратить
городами
барьер
договору
кочев
окно
целост
драфте
##ерныи
успев
атаковали
башкорто
жидкости
##еха
размно
ливии
рукопись
##жит
##ави
энтони
экономические
1795
сплош
углом
христианства
чертеж
джа
ben
особую
ролях
1822
нидерланды
лер
обществом
погибает
проживания
местное
мрач
сприн
прыг
советником
допущ
смесь
молодости
японские
обнаружения
##фельд
несет
вступить
##ельное
##утг
принципу
зернов
конвер
кариб
толщинои
tom
высшие
воздеиствие
##оти
мило
шак
##ирующеи
позвоноч
ведомости
дит
##монд
##атура
отождеств
длительное
масла
миссионер
деиствиями
постоянное
##сфорд
саг
изог
средн
энциклопедии
кладбища
сделана
##row
неитрал
евровид
out
##уди
намеч
обществ
присоединиться
1790
джун
технические
усиления
дирижер
шлема
проток
техническим
келли
сыгран
младших
вильню
боевиков
перестрел
##орода
требованиям
снижения
##фера
##анды
эффекта
множеством
постоянных
александру
##ографическои
il
деж
##ственности
оказываются
исполнительного
стояла
стефана
памятнои
##лес
##аве
подписали
мотоцик
##51
претерп
старообряд
антиг
несомн
происхождении
##err
толч
израиле
##кратныи
беш
развиваться
##если
хет
стацион
искусству
тарт
##ингу
князья
карфаг
гитара
лиссаб
##ео
##be
запуска
воспроизвод
петроп
выразил
диапазоне
посол
mtv
##ослова
высшии
технику
финансирования
##олита
tri
##рив
украинском
извлеч
##ubl
уверенно
вокзал
котлов
полус
аргум
фрунзе
последствии
красноармеи
основателя
доказательства
графства
комиссию
комментарии
шуль
плам
сохранение
физических
создается
##язычных
написания
объяснить
бэт
##ka
сильных
греческии
голубои
разное
позицион
энтузи
##рикан
##маш
хом
классы
radio
кои
##ull
флоте
цена
модел
исполнилось
дворцов
летчик
##продукт
##наг
испанию
скульптура
чаш
заплат
##ase
вызван
гоб
##илище
каменная
республику
дэни
стерлинг
nor
уит
##яты
##ius
club
челяб
терапии
os
телескоп
pc
продолжила
описании
массовые
sonic
har
игровых
гетто
гарнизона
##зии
полуп
белка
социолог
1783
##ирующии
общественно
отставке
организована
воити
послуш
признаков
концерте
подмосков
латы
##yd
транспортных
юридическии
креисеров
##ландах
##евская
ибраг
космос
##ованная
сильного
педро
дзерж
хе
показала
кабинета
правителеи
##ator
особым
космических
божиеи
##кал
спортивного
какую
ресурсы
проспекта
##аба
хозяистве
шамп
сочи
##ажа
обратил
##илием
##ime
адмиралт
dream
##асе
церемония
библии
нидерландах
чудов
##ированном
строительных
постоянныи
питера
продюсера
ганг
пересекает
домохозяиства
уимбл
завершилась
играя
князю
1808
##ровых
трю
превращается
национальные
изучением
отста
адольф
##лекта
фирмои
bar
астронав
простые
насчитывает
похит
арестованы
уступила
воиском
##ater
курд
позволяло
дискуссии
экраны
##атся
сказала
ногу
##ецком
##ившем
одержала
результата
##асштаб
энди
мировая
совместнои
коллекцию
обнаж
искусствовед
##емп
воспроизв
эффективности
##ger
хорошии
свидетельству
выделить
просил
дальнеишеи
численностью
паша
охарактериз
апел
списки
екатеринбург
албании
переиз
торговле
химическои
ката
игум
единыи
реитинга
эквивалент
##итон
заболоч
предприниматель
дяди
жемч
попадают
регби
процвет
максимум
ресторан
розыгрыш
финансовые
относились
днепра
состяз
чуг
##mer
##оговор
##пуска
##ложения
уговор
##33
погод
охоты
наклад
зерна
кинофестив
задние
делегации
##жеи
раиону
творческои
зубы
девочек
газетах
##мел
полом
артеф
утверждение
возвышенности
петропавлов
опубликовано
автомобильнои
рж
ся
кооператив
иные
публично
суз
##лениями
гесс
ть
передано
находки
танкового
показания
потока
сперва
пика
предков
польшу
кузов
техническии
летнем
ключевых
сценарист
разделена
нул
##деб
смешанных
пилота
##иского
ледников
естественных
##звед
детского
раш
снизу
означало
донского
##ационнои
проблемам
##вад
педагогическии
телеканал
неоп
делами
##носторон
рождества
занимаются
охране
##ющееся
законопроект
##глас
##иму
##идз
изменил
партиинои
бронеп
судостро
1801
ума
##феи
туберкул
##яны
селение
1819
##атлет
женщину
выпустить
##исса
олимпиискии
1797
реиндж
##ерное
восхищ
##полит
волость
тихого
джимми
ках
цюр
климата
ошибок
смотр
##анское
вступает
явлении
##ариат
интересно
ньют
анри
верфи
центральную
##кет
рыноч
заменив
tour
перерыва
цеха
муш
помен
##иско
богатых
вышедшии
россииским
прожил
называемая
народное
артиллерииских
мотивы
гут
##енков
заставляет
укрыт
учащихся
##рант
оконеч
налад
отмечены
1803
недостаток
короны
##ционно
исключен
##имир
русло
университетах
охватывает
##aur
волков
признали
кандидатуру
кист
каждым
вороб
наследником
идентифиц
мухаммад
забаик
ученики
сухои
интернете
шифр
тканеи
gir
##ческая
sun
переведена
выходом
свободных
надежда
брач
day
существовании
##очеред
медиа
четвертым
склонах
свердловскои
act
##града
принадлежности
комиссар
продвижение
комиксов
##рона
торгового
подавления
комнат
добровольно
##улировать
аккум
гранит
##нея
могиле
бывают
домашние
чехослова
эмигрировал
##юль
##икер
руками
риз
названы
линд
говорилось
применением
коста
##иния
косв
1818
властям
указано
мощи
культурно
заготов
##огу
возраж
ветеранов
подсем
драма
символов
арб
соотечествен
широком
джонсон
##сян
song
##иим
духовного
футов
хлор
полицеиских
германских
прибыла
полагают
##еином
политическое
компром
особенность
месяцы
перелом
древнерус
##очными
теми
знание
плавания
##нон
кофе
гро
##нинг
##ляне
облач
##инскому
конфигура
дополнительныи
полнометраж
минскои
позднего
европеиские
фрэнк
алан
наследство
жанеиро
флотилии
доказать
гара
##чеи
советскими
настоятель
хвоста
прер
##ичью
сказки
убитыми
наил
свит
заявку
ограничении
снаружи
отст
анж
доступен
размещены
миномет
##ence
четвертом
зубов
уроч
обращении
##44
саду
брем
##ескии
полеи
оставляет
латиноамерикан
соотношение
галерее
стоят
механики
суперли
госпитале
приложении
федорович
подпор
суфф
армянского
новгородскои
мирного
размах
побег
посыл
словарь
##шимся
биологии
покрыта
studios
ню
стилю
теод
сообщили
придав
манифест
субрегион
водоиз
кукол
переходе
перемест
первенство
широкого
жилые
юм
##кос
почтовых
космического
спасает
конференция
мишель
##ign
поэмы
ваку
произвел
британским
синглов
поволж
способствует
##прив
ура
##ирая
направлена
юлия
##ицент
порош
евпатории
мура
осен
манги
утверждения
гильдии
пешеход
маргарет
редких
венгерскои
играв
общественные
демократии
массового
явился
cry
##вара
деян
центральным
считались
доказательств
названныи
сербскои
пользоваться
подпись
##ane
попытались
сняты
разноглас
сверж
титулы
##сула
взаимодеиствие
кислород
смены
продолжая
округл
дубров
судьбе
енис
сетеи
епископов
блокад
седьмои
ушла
бетон
детские
##марш
##ектора
арабского
желтыи
заявляет
карта
хотела
прямым
плоды
запечат
приготовления
pet
реальнои
воисках
царскои
min
продал
##африкан
фо
крупное
синь
президентских
##семест
##исях
щет
органами
производителеи
1792
квар
##ивало
уничтожение
##иган
путеше
##иную
ряб
калуж
певца
осип
чаи
встретить
ul
совпад
телесериале
повсемест
торпедо
ари
карлом
точкои
современников
##емые
избы
открывается
собирался
хуже
##олгов
получается
велись
восстании
выделяют
##уком
типы
мвт
##имыми
словес
планировал
##ited
букс
##ьен
официальные
афф
неоднознач
##минг
4000
консерваторию
работник
гренад
проведенных
животного
свид
##комп
детро
народным
многое
экзам
кыр
франциеи
концепцию
дву
письм
наидено
высел
##ущим
хотят
сказано
велосипед
винс
транскрип
толстого
эндем
континентальныи
переулок
1600
окружении
призвал
вагон
сокращение
##рец
субт
артистов
посадки
ver
завершено
кызы
##олога
трубы
боковые
##гана
##евт
поддержали
кран
кид
подорв
газов
приводят
оказывает
##илер
##иве
киностудии
гава
маленькие
бегл
вальд
##евшии
##узен
формула
нун
требовалось
трассе
##ствуя
##ащим
номина
стрелковая
бизнесмен
всероссиискои
преданию
разделение
бессмерт
##ike
марин
##устро
принцессы
безопасность
посещения
украинская
ланг
депутаты
домашнеи
подступ
уклад
атаковал
эффекты
фле
создала
расположеннои
университетов
сформирована
осторож
имеющии
племянник
ниц
ценность
кантри
##роны
красное
контексте
##стины
афинах
территориеи
исто
этно
построения
равном
sec
городка
доктр
отделением
поздно
станциеи
1799
возглавляет
душев
инфраструктуры
sol
морд
чья
стихотворения
разговар
##ывании
реакцию
мэтт
расстав
авиаб
сингап
участника
модифиц
объединении
дизаина
впереди
превратился
##редка
грек
административных
шведскии
эле
##эп
изнас
подачи
королеи
абс
граждане
железнодорожныи
домах
колебл
орды
грудь
импульс
вич
государстве
##офиз
##ha
намет
датируется
дальность
вермахта
сзади
изредка
видя
девы
пожизн
проблемами
собирались
##ициями
сорв
арестов
производит
нищ
##еша
научную
медалями
созыв
ссылки
добавил
границах
прямого
удавалось
хин
герцегов
прессы
пропаганды
старта
условно
арабских
многократно
конструкцию
папои
теодор
клубах
свеч
хромосом
франческо
географии
загруж
##ouse
утоп
брет
менд
##вилл
##арет
##изировать
карач
##офон
парламентских
беларуси
инк
масло
спутник
цирку
баст
ревизии
платинов
образуя
готовы
надз
промышленнои
щита
##апт
артура
выставках
житом
повед
переоборуд
##инцы
##ласии
купол
сегмент
исполняет
##десят
строки
московское
пользователь
садов
математических
ирина
уэст
##анализ
сион
половои
##ологическии
возвратился
иллюстрации
колорад
230
хорошим
##ear
мама
##ющем
##нокож
глубину
выдающихся
передвиг
давида
маршрута
побежд
##hn
переехали
киевскии
впис
нынешнего
прекрасно
##еив
сборные
стартовал
банды
людовик
раскопки
шеп
мосту
компонентов
##усу
пекине
пиг
училищ
dc
hd
бам
черном
авторами
ландшафт
##gn
##ley
дмитров
снабжения
##иском
##оподоб
##юзеля
alb
магазины
зарод
##алам
поставили
fox
lib
##изер
приглашению
шара
турецкого
изнасил
конн
хел
##джа
неспособ
прапор
##обыт
верующих
органом
бокам
гел
давали
объединенных
ho
нд
релиза
adv
слоя
виб
##фат
пятого
невид
мелкими
созданного
океане
административным
наблюдать
пропорцион
содруже
эмир
кольцев
распределение
##оносова
злоупотреб
замор
губернского
нигерии
укор
хребет
преодолеть
fa
##хол
частицы
разработкои
ультра
бсср
суж
гражданская
обнаружена
боицы
съемках
добровольцев
фотоаппар
##ливо
маленьких
спортсмена
финишировал
галерея
##fc
джам
проявляется
коры
производить
интриг
tra
доработ
##иальном
метаб
##ato
огаио
важныи
stre
##денс
берегам
захоронения
одет
проникнов
хоккеинои
двусторон
##utube
пересечении
na
мунд
казанскои
сельскохозяиственнои
ага
наша
возможностью
предложено
предварительно
сожж
некии
торговои
хоров
##отел
присужд
верхние
##ягч
фиолет
особые
затрудн
зод
реального
##адо
продолжением
хиль
минске
драматического
тридцать
##остер
встречался
неподвиж
руп
соло
царю
мощныи
вагоны
интерфеис
уфим
монахов
видеои
шахты
водохранилище
розы
эдди
гул
##щиками
оксфорд
писали
кох
##86
##ранспорт
временное
tele
##35
составу
акр
праву
денис
диверс
пеи
эпидем
aut
##идии
плавники
##алью
управляет
приуроч
яма
скотов
кавказского
асф
фем
##имат
проведено
определенныи
исследованиях
отставки
мяса
трещ
хранятся
веку
пермского
пионер
считалась
мозг
отвечал
подразумев
продать
смол
водных
кузова
эскадрильи
маия
##образователь
издательством
ознаком
эстафете
тод
союзом
задних
сомнения
пророка
##онь
лучеи
генов
чик
карло
центру
##ose
физического
##идеся
желтые
ca
малые
встречались
куку
##емит
представлять
компьютеров
ломоносова
юст
неок
использовала
прошлое
суперкуб
изоля
энгель
козлов
xbox
##стреч
гоно
обязанностеи
мелодии
видеоклип
электропо
##одел
спецслуж
совершает
бонд
заменены
скач
лошадь
деревянных
миссион
пошла
сеим
московская
хореограф
sur
законодательства
гамиль
вывел
финансирование
youtube
аллег
сас
образе
расцвет
умел
носила
атаке
гитлера
сэр
##огл
боли
сделало
1794
созвезд
декор
заключению
cre
изма
chr
образовано
гектаров
рнк
утеш
заключить
карак
сестре
##форда
сдвиг
охотнич
хлеба
je
кб
сроч
собственному
архитекторов
феномен
врез
кес
сенс
маж
##вич
##етр
купить
дворянства
##анами
##asy
историческом
легиона
моц
голода
передает
орбиты
бостон
фердинанд
##осы
собором
депресс
##дрп
автот
атмосферы
##елья
милан
левых
##сып
номеров
тяжелое
созданные
сравнении
стартовом
кирова
финальнои
изображена
египт
сервис
городским
белорусскии
долгие
урег
велось
##лона
##алли
евраз
единица
разбил
трапез
wal
дальнем
зрителя
улицах
гас
##оидя
атмосферу
сожалению
абор
##арте
протои
скончалась
кенигс
вг
##адзе
представляется
поместье
ареал
туризма
андерс
тени
##уэн
гоф
##иен
опира
классического
суле
смена
изданы
государственное
однознач
ночнои
ошибочно
##яемых
японию
открыла
естественнои
экскур
##гб
продан
клер
переселенцев
клюв
кет
##атова
##ствовать
запах
тележ
оун
##имент
##ремонт
записала
бежали
news
моделью
хох
передали
мексике
русскую
послужило
пятои
##анки
геральд
деиствующеи
особи
ленинградском
подполковника
эз
трудовои
затраг
доброд
аэропорту
поклонников
темои
альфа
спортивные
пузы
россииском
показана
1804
снимался
виктории
злат
овер
каменные
дженни
##32
##стона
##опис
контеин
селения
##illa
канцелярии
атлас
##дор
размыш
виол
колокольня
свир
##няется
синии
конституция
багда
импров
предоставляет
норвег
val
навер
##ладе
австралия
##сповед
спутника
плодород
ответа
будущих
иконост
центры
акта
батар
##lass
лон
##go
страницах
управлял
олимпииского
приложения
лютер
продел
тяжелыи
полосе
вывести
проиграли
издательстве
##истская
посла
администрат
начальное
окрестности
чек
глуп
##лаи
миннес
защитников
должност
основанием
разделения
элемента
направлениях
##пов
ценностеи
сборнике
прибав
судьбу
чеи
гражданин
иммун
##uck
##евших
##ехать
графстве
вырв
##щина
##va
don
лишен
##ищем
##акан
литовскои
собираются
марко
кларк
люк
национал
периоды
ширины
льда
воспитания
наступает
##гард
трик
##ивным
##сса
фланд
доктором
германского
незнаком
песк
##идных
основаны
соединенные
якор
поддерживали
клиент
обол
подошел
##ильные
делится
требуют
1798
таблицы
буков
переезжает
поддержать
нашла
##играф
рыж
личном
af
##ыни
горные
sam
частоты
большинством
внутренняя
##еских
самос
специальным
достигло
соавторстве
северок
отмечали
##ировке
черч
ислама
паразит
бюр
##эг
##ащеи
третью
ведущеи
проводилась
кузн
необходимых
прости
скры
разбиты
демобилизован
##зо
##евыи
короче
орла
танец
##ave
невысок
вон
##оидов
среду
ведение
беге
щуп
##чера
##ична
застрел
усадеб
врачи
гнездо
юз
##ехи
полициеи
черк
украину
единства
вероисповед
отомстить
обош
выражения
почве
набора
мастерство
создатель
гауб
мужество
bre
столкновении
послом
##озащит
монастыреи
##мол
##идныи
##иби
##еиси
миссия
##аиского
музыкальная
напар
бая
##ислов
загор
мальчиков
застроика
pop
ривер
суперг
##аренко
известное
примеры
##нуться
дистриб
проезж
хорошеи
ставит
чаиковского
военнопленных
учебные
безуслов
богослужения
коэффициент
уничтожено
бассеине
ори
##ушев
арноль
скон
переднего
индия
отражает
периферии
риш
рука
пятью
леибл
васильев
вузов
##арная
комикс
преду
финалист
переводится
утверждению
отнести
эмили
наличия
символизирует
##истскии
рассеян
мс
##19
##истки
джорд
каменных
доли
прилаг
##оба
головнои
выставок
фасада
кристиан
жереб
историческое
империеи
пулеметов
heart
достоинства
уилл
сочетание
##хэ
##ks
наследника
##лянд
библиотеку
взрослые
миграции
обсуждения
##сю
нижних
расти
развяз
характерные
алгеб
солидар
##образных
игрового
вправ
паз
уезжает
брэд
безым
республикои
харьковского
воображ
заповедника
модуль
сауд
##итеты
защищал
синод
by
bank
капр
соцвет
##режисс
инфек
новорожд
кэтрин
куин
молекул
##идесяти
пья
старшая
классических
чемпионкои
прибег
##револю
##оэ
##ters
##ывающего
иоганн
турецкии
выдающиеся
##емесяч
упоминаются
хэм
##ерна
корпусов
публике
ежемесяч
напряжение
побеждает
##85
разобр
посадку
деиствующих
людм
желтого
вылета
дот
лока
шло
##инск
повред
административнои
обстоятельства
абстракт
part
##аня
декрет
отлично
ата
связывают
вюр
черкас
игоря
склоне
концлаг
древне
свободныи
иванова
осед
памятником
кислорода
актрисои
передние
факты
##емыи
##ериала
ливерп
разнообразные
альпин
##орда
мыса
казахстане
киз
обед
##ильныи
развиваются
гросс
росту
убежище
муравьев
нарис
белград
##удил
предлог
гравита
главнокомандующего
альбомы
индию
##чески
сообщается
обн
одних
##inae
прямые
##ugh
периоду
##енцем
правильно
рсдрп
перевед
книгои
танца
священно
воспал
маршруты
##анцы
непосредственнои
революционнои
мемориал
пожалован
перевал
хули
##ущая
сигизм
линколь
сект
раду
парень
саратовскои
томов
боковых
полик
рассвет
храмы
требование
##рике
начав
составом
избрания
клиентов
##ылает
хенд
подрыв
##ологов
иж
##гра
##rit
выходила
бессара
зажиг
срав
отработ
образуются
футболом
блоков
маршруту
иш
крестьянина
курсах
спринг
vir
клап
солдата
##ons
нанести
серьезных
эин
эдин
капитала
выделяются
ориентации
моллю
священником
прег
аэс
your
электроэнергии
доходы
цифровои
учета
черног
##ирами
екатерино
энтом
пунктом
губерния
эффективно
##ensis
армеиского
корреспондентом
излиш
##ительному
нюр
##ивная
авен
классифиц
выплат
лыс
гонс
слава
##ственность
##уждает
заведующего
##ксм
полотна
corpor
рукоположен
маин
1780
диаметре
ровно
ввести
родились
inst
сопровождал
ювел
##гами
устрем
выдвинул
##огли
даллас
театральных
судебнои
резиденции
каком
##очку
периодом
экспедицию
погром
настоящим
морем
произнес
стена
##истическои
малолет
подписания
глубины
инопланет
штабс
платформе
спектакля
ламб
sil
начат
карту
космическои
назвав
казань
народу
отправлены
##орам
графов
чжан
##34
сторонои
##изен
длительного
##ционное
театрального
фабрике
харькове
надгроб
##надцатилет
бэн
научная
инициатором
кеп
оран
сотрудника
осуществлять
предлагал
предупред
блог
продолжили
бич
потомков
необходимым
елен
##дорф
##лика
финальном
содержанием
европеиском
##ьон
разработанная
указал
##raph
пушк
циц
крич
треков
красоты
принадлежало
философию
пехотныи
опустош
шем
осаде
либерт
пыталась
тексте
тебе
not
паб
##енки
финальныи
трехмер
обычаи
футболистов
маршрутов
виск
внуш
существующих
отметился
перестал
гонконг
включил
выпускать
фотос
понимание
стихотворение
пещеры
##неп
##вшии
линиеи
республиканскои
интерпрет
прямых
недостатки
общежит
архитектуре
украшения
##етвор
каталон
стилем
славу
землевладель
##ератора
передних
геимп
280
медицине
1791
##ящегося
##иванием
заклин
трио
сравнения
штурмов
существа
блюз
##рехт
паспорт
церковного
пьеса
способствовали
изверж
##энди
фолк
продерж
известия
ракета
пригласили
завт
противнику
##ерса
двенадцати
химического
предоставить
летопис
поводом
конкурент
таблич
мя
##вшись
##ada
sony
нера
базои
саундтрек
##орачивает
проклят
легенды
кеннеди
напол
статусе
драгоц
таблице
##пир
пятна
определенное
аппаратов
индеицы
дабы
платы
купца
читателеи
открылась
реисы
##вел
включения
планета
учебно
внесены
истребителеи
хора
##басс
пруж
##икрат
колюч
высшим
вторжение
использована
внизу
морю
земнои
##ition
ударнои
фаил
инвестицион
кик
способы
зор
хитом
находящиися
знаменитои
##ождением
расходов
равнины
описывается
приборов
##пп
называемого
пользуется
стихии
мул
фюзеля
##илиеи
франш
освящен
гитлер
жертвои
уго
рады
орн
1700
ванку
флоренции
упадок
обычного
##уэи
мусульмане
дисциплины
рисунки
рощ
королевских
стояв
гетер
распределения
разог
##ательстве
англииские
наполеон
##арин
многоп
заброс
##ily
антроп
маршала
мехм
выдвину
археологии
окис
женская
лесом
создают
отчаян
справедливости
##исполкома
глен
арк
поездку
вылетел
октав
хватало
ханс
##au
старш
##чатых
попадания
чеб
молока
камыш
осуществить
будущим
##ковая
старост
отдельными
вдова
заведение
фрегезия
сары
являв
применять
1789
снималась
дружбы
собирать
стрельбе
ужасов
приют
колорадо
отошел
##игор
народы
наступательнои
воевода
прекратила
безымян
##чество
##ogle
san
женскую
обнаружить
последовательность
##ющимися
уголь
коротких
непрод
жертву
оставлен
красноз
хаг
высшая
служб
##иги
##ровым
сделки
сообщила
промежут
соли
казахстанскои
икона
##ующему
голицы
тенденции
уэльса
king
шаров
исма
театральныи
проявления
устроился
супружеские
стремится
непон
пакистан
увеличилось
татары
воспользоваться
гонок
физике
созданных
опытныи
цзинь
юнеско
храбрость
геб
##ившемся
лояль
одноимен
маиами
неудоб
симон
fi
##нх
обратились
кристоф
одноименныи
болельщиков
крокод
отпуст
работало
летуч
весна
иллино
жителям
белки
железоб
мстислав
республик
приобретает
kn
одержали
величина
##амина
планах
степи
дебютном
литературовед
нукле
зимы
кемеров
примечательно
вещество
набережнои
зом
московским
монопол
налаж
шуб
рядов
единство
указания
##овавшеи
воспитание
молодежную
пострадал
ветвь
хрущ
скотовод
##52
федера
булг
##орядоч
ke
луб
##za
исследовал
планете
идеологии
электростанции
##ыто
дач
саид
требовал
boe
подобныи
заняться
государству
принятие
наследие
бундесли
нок
местонах
ростовскои
##овку
полетов
разница
освобож
пе
##by
неба
##острел
старшин
легкоатлет
квинт
аналогично
##лара
извин
джека
требовали
увлекся
тунн
единоглас
средневековои
##ral
учеными
христианских
диалог
подруж
ректор
статуя
содержать
сотрудниками
eng
толстои
юношеи
вину
прен
##ичество
сезонах
посвященные
черепа
2500
проходить
шпион
##граде
##рано
вничью
##ерц
органах
распространяется
программирования
родственники
##равл
вспоминает
##вуд
катал
обвинение
общеобразователь
римских
капитуляции
пляж
гег
фол
##оуст
корд
дружба
чарльза
утвердил
##ингтон
поздние
эксперименты
##анность
новост
одними
названию
монархии
маневр
польском
хем
320
чартах
хельсинки
узла
хозяин
грив
союзники
апт
сирот
существо
моисе
##ившуюся
моль
черным
особняк
гроднен
стерлингов
##офер
муск
поручил
google
распад
цветы
робот
вестник
обстоятельствах
белое
движению
достигнув
сражаться
землетрясения
нижегородскои
пыш
привилегии
зов
мерс
##авшимся
противостоять
##64
программного
богатои
оригинальныи
##меист
активныи
смеси
греч
##хин
##fa
лавр
модуля
##илят
##аемость
изменилась
золотым
произнос
контролировать
разоблач
метабол
монитор
катер
инструкции
держит
##ci
путев
кирпича
##арева
##ованными
##учен
убииств
ареала
разрешено
uk
##арно
институтом
приходом
достижением
##ильного
##илля
записки
обстоятельств
##онтов
rolling
##оград
единственного
проклад
выделен
священников
хутора
древнии
слиз
замысл
трансм
техническое
##елью
высоц
руководители
кодекса
выборг
релик
##стом
данными
вектор
обычные
башне
##ute
конфликтов
переброш
заседания
рождении
##икии
конго
##янскии
батальонов
карлос
подверглись
политикои
оказать
контрреволю
шаха
##асп
##яслав
##осочет
самарк
банки
кантон
##езон
физиолог
доминикан
обкома
хозяиством
приемы
##авшему
писателем
сохраняется
севиль
последовала
усилии
указу
глубокои
имения
легкие
мельница
рене
##уча
бернар
сторонниками
огромную
псков
рассказывал
максимальнои
тоск
реальных
прослеж
успели
##lo
раиком
бригадои
corporation
камера
иностранные
замкнут
##нал
сообщалось
казнен
мостов
##определ
##алье
отмены
аравии
верность
тяжелым
##имостью
wwe
турецких
служащих
##ача
казахскои
персонала
препаратов
просветитель
брок
племя
возбужд
критер
трансфер
негативно
венер
вымер
высокими
##шуюся
сухопутных
колеблется
тув
установок
применении
гарвард
ухаж
спине
контраб
##ame
капитаны
месяце
##эффектив
крипто
cal
гору
родослов
##enn
реставра
негод
##рения
##54
##rop
зеленых
сюз
##72
вдов
переводы
похвал
самооб
##онок
##юм
пересечения
boeing
предислов
grand
дежур
принадлежность
кавалериискои
антиф
school
члениковые
##сроч
какая
##ero
##озав
японская
пьет
рудольф
деиствующии
мультсер
blue
нами
полимер
предыдущие
предыдущеи
мотострел
prod
нараст
дошла
огпу
барри
легкого
манс
низких
двенадцат
nat
челси
исполнять
присоединилась
развивать
кинофестивале
послов
sing
бапт
##стов
порш
словно
ленинградскии
деревяннои
площадка
воспользовавшись
вх
##ившими
неисп
бронзу
##ающимся
##тл
стрелковыи
принципов
рукописеи
оформление
риге
пятидесят
габсбург
эмоции
теилор
грот
сохранившихся
владимиром
авиационныи
вознаг
промысл
восстановлена
сады
##гоне
направился
исключения
элементом
добычу
скваж
расчета
##хв
##90
сдал
коллеги
простым
исследовательского
поднимается
##евер
черное
черными
повест
признаны
предположить
скуп
специальное
успешного
приносит
провозгласил
правоохран
печени
самолете
деятели
параметров
советы
точности
синода
##истическии
организм
разработанныи
простор
лента
яб
победители
мастерская
заставил
вашингтоне
комбинации
деда
полевои
##антами
объеме
тулов
big
влаг
иохан
расцен
домами
барна
возрождение
грамотности
gold
сеф
лауреатом
трилл
должностях
приказа
траектор
заставить
##ниб
##фом
##84
##ole
строчку
продовольствия
созрев
создавая
синтеза
синоним
правд
пожен
подверж
редакция
баварии
столкнулся
фул
дошли
##ингер
долину
виргин
лепест
неблагоприят
##естра
сбит
изум
православныи
выехал
героиня
1787
взяты
революционного
организовали
вопросами
подъема
##тем
высадки
##азиат
документа
механизмов
контратак
пуэр
sound
составлен
некоторои
графики
индииского
огромнои
ркп
корпоратив
немецкое
испанцы
иерогли
удостоился
##ябрю
испанских
алфавит
ir
чеп
##арских
мехико
президенту
наличием
заболел
виолонч
завершена
троиц
могу
will
применяют
постоянные
низкии
зел
серого
родоначаль
##ецкая
прорыва
осень
##ационныи
коричневые
##ival
нефте
шведского
монахи
регулярные
комбината
ходить
антисемит
##анга
##арит
америка
артиллериискии
алексеевич
напал
умерли
применялись
уин
##ежа
морав
антонов
акуш
##ухов
достигать
елены
балтии
головного
телевизионных
водоизмещ
однокласс
православная
аналогичные
даш
испано
колонна
псевд
расшиф
остановки
построику
миниатюр
тянь
воле
преступников
художественном
эгидои
архиереи
курфюр
киноп
записаны
фарма
ремеслен
подоль
примыкает
парал
появлению
гоноч
выстрелов
цюрих
##енское
##елле
зданием
богаты
торговлю
вызывают
урон
##ирали
##ровые
убиица
комментар
городище
среднегодовая
##ази
победили
характеристик
выруб
грант
сестру
архиепарх
sal
отг
течением
человеческих
никому
##ендж
малыш
хорошее
арсенал
выпукл
философских
электромагнит
##монии
поло
широким
голландии
фанат
##ленда
механизма
новозеланд
hms
вылож
новгороде
##онтин
биат
латинского
истощ
##ric
расположенного
270
доступна
экспертов
high
томп
альман
критиками
исключение
кругу
штурма
киргизии
##илс
##ипи
следовать
владельцев
свар
строились
дисков
журналисты
##нскии
караг
присва
обычным
художественное
id
##изи
потерян
приходят
костеи
off
термина
нс
##ановского
признает
добилась
##иляции
запущен
хара
разного
домен
познакомилась
мухаммед
продвижения
сив
тылу
руководству
католиков
воздушно
конгрессе
комбина
##буса
##еволю
##лава
восходит
средневековья
прокурора
четвертьфинале
грифф
придется
львове
pal
влияет
кругах
природа
обрам
скоб
карман
sport
##честве
удм
##авшееся
##дина
сумела
достигнут
автономнои
противостояние
дэвис
##анои
двукратныи
аукцион
es
олиц
новообраз
польские
фирм
усовершенствования
возрод
морским
##евидные
подчинение
следуя
кура
##иных
деформ
ренесс
такси
морган
двигаться
мастерства
дипломатические
заводом
досрочно
поднять
китаиские
ауди
##ino
советскую
верхних
блэ
капс
коммерческого
кэмп
##кера
страницы
260
публику
работающих
почты
приобрести
##нек
##яков
точное
римляне
специальная
крупнеишие
герцогом
андреевич
гамбург
кед
кончины
hist
петь
##уэл
вопросом
вручную
четвертьфинал
каролина
настрои
полуг
великобританию
ландшаф
путешествии
##отон
старое
##ara
размещались
перенесен
уезду
хав
##одинам
##уро
артиллерия
харьковскои
оспар
клят
пк
##меш
##ерон
австрия
дополнительного
роуд
##пин
##цина
центрально
железы
форум
праздника
##гера
макдон
корея
гранд
записана
визита
учреждена
избавиться
полях
содержал
носителя
поражением
рассматривает
заседание
квалификацию
зави
художественные
областью
отчая
мкм
##епер
желанию
борта
забл
музыкальным
папу
stone
chart
телесериала
биль
широкая
сибирскои
массовое
очко
предложению
литературные
нахождения
автономии
покрова
ведомства
##ельник
воздвиг
порох
олицетвор
жилья
повин
##вари
старым
хватает
обстановке
##нева
мальч
перекоп
##меистера
разногласия
##арду
##истое
анта
предложении
материалом
##пк
долож
грим
южные
судьеи
##ерам
могила
танцов
##ничестве
trans
патрик
бухарест
раи
фактором
присоединяется
навыки
##автом
депрессии
##энс
налет
конвои
судебных
##ota
едет
беля
срыв
##нис
##ницами
ведении
еврок
colle
##ja
сорта
троих
драгун
##чета
командами
становилась
розыгрыше
резерва
брилли
надев
##ищу
капитал
низким
зритель
двинулся
выступающии
лютеран
ринг
##енских
##роу
казнач
арена
марио
констан
лаф
дисп
организациями
сантиметров
мавз
маккарт
нареч
студиеи
первоначальныи
ядернои
лихорад
прован
смягч
казнь
улучшить
pre
осмот
##алины
дополнительное
думу
tech
отличалась
узна
романы
apple
переводчик
коэффици
алюминиев
##арском
номинирован
полузащитник
биш
сорока
подписала
грузинскои
фельдмарш
street
лах
природу
пластинка
берлинскои
вознагражд
##хаб
получены
скуч
попут
свадьба
московскую
редакциеи
шерем
ланка
создателеи
описаны
предоставил
сниматься
выглядел
каир
##усс
##есообраз
нагрев
возрастом
помогать
высказал
подводнои
кызыл
унтер
банкрот
душа
сарко
черноморского
мис
двер
##ладеш
гипотеза
событием
сельскохозяиственного
##енк
знаю
##шк
плет
основополож
открытое
бангладеш
духовную
исследованиями
происходила
камбод
полицеиские
сторонам
1775
водорос
дефект
##ильо
продолгов
##мада
обратнои
кирил
крыши
дад
историческим
флам
башню
маленькои
нестаб
##рупп
награда
соответствуют
одоб
окружение
зеленои
бухгал
моменты
ядерного
показаны
типографии
экспериментов
эссе
##осуд
переезда
окружен
платить
разбоин
коммерческих
археологические
вмешательства
форд
##вших
##раса
клод
точнее
кафедра
##чатыи
1774
намерении
##жем
##апо
различнои
продукта
колумбия
mat
pict
сельском
прекращения
африканских
##хер
имит
видят
заголов
последователеи
поза
знака
##уэлл
постановления
миллиметров
уехать
досп
##иху
водитель
##hel
думаю
характерна
солдатами
national
##port
беспр
софия
михаиловича
страс
крол
учебныи
шагом
##тои
осуществления
мэи
юридических
разверт
огнестр
юань
сокр
##кост
двоих
регулярного
маленькая
ископаемых
##устрои
обо
пересмот
усилиями
сырья
потряс
гено
ием
##евшие
смогут
вестиб
рукав
hal
происхождению
ветерин
вторично
условием
журналиста
воеводства
##уну
антиком
##ella
понимания
сербов
##иге
мордов
агентом
молодежном
знакомство
сюжету
обыграв
изящных
ляг
единая
муниципальных
1770
цифры
всесоюзного
##ольше
очередного
миц
получено
поступить
плавник
специализиру
##неф
синтет
цепь
земскои
солист
предполагают
зеленая
иоганна
интерпретации
иуда
прад
манх
возрастнои
распространена
рамки
духовных
отбора
способна
##lex
разброс
трост
геомет
выпускались
прохлад
телеграм
маркса
похоронена
энциклопедия
портал
благовещ
гонку
секторе
министерством
льюис
хеи
эпит
##иковои
попов
простира
##уться
шварц
написанные
рукоят
беременности
##гут
коренные
таллин
композитором
находящиеся
изогнут
гуля
компьютера
обозреватель
обычныи
торжественно
предстоит
люксембург
шии
эми
слез
перевели
учебное
девушкои
компьютернои
могилы
желания
миллер
близким
убииц
ои
туз
неук
тридцат
средством
грэмми
##юра
обвинен
расх
различного
##ations
заставили
сакс
прямое
орловскои
хос
##акам
организатором
императрица
##еинои
пушка
гордон
акулы
стремительно
выделил
пират
вывоз
огл
внешние
отпл
надкр
активного
##unk
преступление
вспомн
альпы
дерб
школои
увидели
любовью
бета
##уши
механизмы
ставки
отметив
кельт
вив
овец
социалистов
кронштадт
био
##озов
питается
полицеискии
титуляр
оплаты
bm
френ
юлии
начальная
фортепиан
лотар
фланге
сепарат
##илль
##икоснов
оторв
одиночку
сия
##формат
пустын
##цовои
##боро
альберта
психо
вершину
возбуд
владивосток
урала
остальнои
утрен
жестоко
калининград
профилакт
антикоммун
цезаря
боролся
si
выступавшии
полицию
ввп
угроза
кт
лили
считаться
волк
виталии
reg
бэк
следовало
##ановои
поставки
именами
бобби
##исовет
баскетбольнои
виг
ниль
прокоп
футбольных
уверен
зерно
аристот
стену
судебного
скандал
нагрузки
##варт
##ерских
##аемыми
лесоп
определил
молодежь
долгосроч
суверен
олимпиискои
держать
несовершенно
сконцентр
бред
чип
онтар
##ita
бедных
роза
заняты
спектакли
##зак
боевое
сказав
упразднена
летописи
опубликовала
динозав
агломерации
##спол
следующая
написание
агентов
охота
васил
онтарио
mor
черногор
служила
дворами
георга
преподавателя
дальнеишие
пустыни
##36
отремонт
станицы
глубин
исследовательскии
##язычные
скалы
греки
патент
версиеи
##нят
временнои
ива
прое
быта
##приим
##ильда
##иновых
inf
гуль
##кул
болон
северные
адама
приобрели
разыск
медс
янг
преподавать
исследованиям
уступили
укрепление
стенами
полагал
летние
собака
редкол
осуществлялось
внесен
разнообразных
энциклопед
боевую
художественным
черниговскои
pan
мирных
высокопостав
научное
внешним
1782
начинаются
архипелага
соиск
ha
быстрого
воронежскои
реорганизации
гря
мр
отсто
##урд
данилов
##ирующего
спортом
ходом
похожи
административное
вагона
ац
##лак
##ателе
командного
linux
##янул
тренировал
аэродинам
подпоруч
##ym
##янскои
местному
##рома
лаин
первоначальное
федеральныи
мастерских
##изом
подвид
скалист
использованию
##ury
подвергался
формируется
##ene
употребления
смотреть
##16
##истскую
оставаясь
свидетелеи
расширить
##енцо
кастилия
кембридж
бле
##укс
пригороде
видны
##ралась
изданием
помогли
мерк
дискрим
философия
##совет
##ффе
влиятельных
поехал
традиционного
математического
ближнего
независимого
чак
##альскои
низко
копе
джексона
высаж
святослав
ходили
##чатки
понимая
россиян
сжиг
ванкувер
назывались
уровню
рассказа
arm
археологических
dig
совершать
речнои
транспортные
катор
выраст
старался
русскому
близкие
танковая
разнообразие
бонус
обогащ
житомир
##сонов
подлож
##ora
институтов
покрытие
фазы
публикация
инцидент
опек
колор
невского
##lines
госд
методами
лэ
##цио
##овому
десятку
животное
одежда
груш
##очер
крупнеишеи
##енцами
местополож
картах
относилась
футбольную
##еге
видах
пассажирских
алжир
##еискои
аромат
праве
рух
стыч
конденс
стату
основаннои
природного
брюс
построенная
менеджер
барселоне
##ology
росписи
мошен
объяс
##ьяго
призра
антисовет
тюмен
общественное
врагом
пятое
##орского
##истскими
максимили
стандарта
услож
трат
сожгли
повстанцы
отверстия
##одюс
компенсации
оре
##щине
последовало
прибывает
петербургскии
длинных
дюим
даи
тев
##дук
олд
сиэт
тридцати
располагалось
ber
навстреч
электронных
бесплатно
##жет
##els
экономии
открытые
ветх
##элем
##зан
##ware
черем
данную
целого
поединка
арагон
ватикан
водорода
навстречу
апс
media
##иор
опуш
формулиров
лоур
нг
включали
двигателями
пользуясь
населению
жанд
вселен
оставила
пристро
##програм
##икуляр
сообщают
##umb
восьмои
отступили
повреждении
boy
щите
генна
нанесли
##ечки
усып
уничтожив
лох
освещения
marvel
ve
моряков
шестер
реид
взаимодеиствии
##ual
##ыванием
экстр
григорьев
гват
неог
катализ
совершила
программои
устроил
инвент
ака
растут
обязаны
белорусском
бутыл
сотрудничать
увлекался
шлюп
отель
переговорах
южнок
железные
объединить
воеводы
строится
##естров
большего
однопол
паром
##ерсе
положением
норман
выдвинут
представила
казар
кремля
постр
упорядоч
позволить
обвинил
сюжеты
экрана
сэра
хруст
региональнои
владимирскои
финансового
канадскои
приключения
преимущества
присяж
коронои
уничтожили
гонка
комиссара
флорида
ингиб
##ановскии
сенатор
венгрия
нравится
сбежать
обители
параде
телевидение
толщина
band
везде
пересад
комплексов
лопат
vo
##менно
корнев
##ездов
костромскои
сес
##стана
##ницкии
академическои
встретиться
венгерского
челюсти
550
посторон
проживающие
вылетов
raw
цист
##нама
##инген
холл
предназначен
супругов
координаты
##рофа
птолем
субст
смешанные
кинокрит
##берта
##асу
разрушена
знаменитых
наибольшую
компоненты
буз
##ura
иного
##вии
очерк
##адах
предложением
североамерикан
роману
##илен
чернокож
азию
критикои
вещание
перимет
общине
свидетельство
исчезает
всероссииского
хронолог
внос
мум
##14
событиями
архитектура
##иньи
сигналов
ненавист
##спорта
панс
баллист
героини
кинотеатр
швеция
ювелир
сульф
размеру
уголовное
плацдарма
броне
jg
##ts
делается
##хаим
вершина
лежат
гк
бруно
любую
японцы
отмечалось
приложение
грандиоз
народом
набран
компонент
##ален
карб
1300
##ознания
моррис
никого
окружающих
##raft
иерусалиме
хус
##ахе
скар
##лыж
гомер
уменьшения
параметры
цене
##альностью
2020
задании
эскиз
употребление
месторождение
вулкана
болота
компартии
частям
шторм
##ho
пользуются
убиицы
лондонского
коммерческии
##анду
следствия
фиц
родитель
продолжался
поддерживают
выпусков
борьбои
1788
ездил
репертуар
пренеб
les
водителя
##ливыи
переплет
собственном
участию
линеиных
##атых
частным
санск
способностью
содеиствии
священнослуж
лицами
низкая
николаем
визир
надежде
ценои
разгрома
молекулы
палеонт
валентина
разновидность
##дун
холма
##нуло
сыновьями
траф
отдали
депутата
руды
мертвых
##ооруж
непред
##аемую
длинными
едином
устанавливается
нано
клив
эллин
американскими
апп
профессиональным
квартале
##юсь
##ушек
поддержания
взрослого
белог
ведущего
мировоз
поэма
влюбляется
##ечная
тяжелом
совпадает
гуг
дво
обеспечивают
религиозного
персидского
russ
##етки
##кач
частота
апок
спров
трудящихся
луки
ханты
скелет
заменили
осаду
##осерд
##omb
удержать
споров
находившиися
правых
противов
хроники
тенденция
цивилиз
щерб
##енны
##ушкои
объявления
книжке
##енским
специальность
комбинат
охлаждения
настоятелем
вырабат
объединяет
расц
насып
цареи
обратном
кадры
определяют
уменьшается
##53
##етты
величества
назначена
мансии
дальнеиших
концертныи
снятыи
распоряжению
нюрн
комедия
##азе
шты
наркотиков
кинофестивал
скепт
клипа
освещение
##монт
##ииские
образцу
многод
мирныи
кораблем
преобразована
гитары
team
ирака
плов
умершего
тропических
mad
##бал
политбюро
инструмента
чук
##омощ
историческая
обширные
непродолж
ur
клем
селом
вывода
изготовление
молитвы
виновным
ахмед
фонтан
свек
завоевали
выигрывает
авеню
орнамент
##оевропеи
смирнов
размножения
дату
футболистом
show
навяз
купцов
хвои
гитариста
пх
каменнои
ничем
архиепископом
перевозок
нила
спровоц
mk
дана
срез
##ибор
сустав
тира
##вера
последующеи
радиоактив
сокращения
шмид
женские
квартал
посещать
противники
трансляции
##ификацию
##усп
лабораторию
фбр
аллен
детены
танковых
потерпели
##щеп
британском
6000
диапазон
##sche
низкого
вэ
##кара
планирует
##форде
airlines
допустить
аминок
##ельными
##ico
младшая
соревнов
soft
зев
правду
архива
волнов
экономическим
дебютного
усиление
темные
исследованию
лесных
несомненно
каменного
развиты
стоя
нынешнеи
прибытии
##рение
зао
формата
верховнои
##дага
учет
морском
дреи
меняет
помогают
киль
оператора
##ьянов
театром
максимальныи
сцеп
##изд
авра
наследовал
зу
##улом
родина
деиствиям
иране
антония
альфонсо
обруч
воинах
##няка
разделить
посвященная
присутствия
монгол
улыб
норма
чу
##андарт
работники
##авшем
массе
##pe
соперником
коричневая
историографии
##смен
##улировал
гостиницы
звукозапис
fant
деиствительныи
заключалась
уезды
горнолыж
эрит
##иши
красном
курсе
написанныи
святым
супругои
вспл
революционных
предотвращения
##ельском
средним
воров
центральное
построика
сау
промо
таль
монте
буква
стремясь
павлович
самарскои
##ановым
связывает
танцы
святителя
серебряных
дислоц
добровольцем
sega
государствами
определенную
предположил
power
##дз
хирургии
напали
##edes
интеллигенции
крупном
поступили
сахал
##имую
продукция
фанатов
смита
турцию
графика
внутреннее
биологических
раиан
материнскои
голосом
обещал
повествует
русь
трудовую
уничтожен
подобная
опытом
ближаиших
фернандо
регламент
голь
дью
сув
подз
крюч
командных
конкуренции
уолтер
хочу
##спор
орф
упа
отмечена
чир
спад
сложность
преподавания
победителя
сельхоз
650
cont
пользователя
##ожения
делятся
характернои
##еиная
гуго
сантьяго
чинг
самец
империю
экономику
кораблях
поселились
учебнои
ранг
возвращаются
фонет
фэнт
серьезнои
воспоминании
малаизии
снаряда
проходило
эрика
мастерские
инфекции
исчезновения
##66
##атория
простого
филадельфии
аман
ротор
одар
##атая
догад
стареиших
раль
##пои
##шан
##осу
выта
культурные
логотип
утер
##репят
##марк
секунду
жениться
недоп
легкии
способов
указание
королевском
закончить
трудоспособных
##ствует
##андер
похв
протяженностью
мэд
всячески
тихом
ганнов
##пися
##асел
томми
оказывать
трудового
записать
драме
повышеннои
паг
##унк
##ационного
британцы
лагереи
заметить
спокоино
wr
##83
реальном
эрмит
##кинс
подарил
одесского
эго
марина
валентин
ощущение
новов
олега
чистои
эффектов
воздеиствием
предпочтение
клан
языч
искусством
##iew
аном
новгорода
видам
культив
низов
фармацев
вилли
que
##оис
герас
статистически
закончилось
итальянские
##уте
безв
кинорежисс
потребности
принципиально
прозвуч
теоретическои
колп
##isch
расформирован
альянс
групповои
сборников
максима
рубин
длиннои
кавказскои
республиканского
разному
велогон
турками
манга
итальянском
измерении
ищет
гватем
##аши
указывается
инженерно
правозащит
##дув
##двер
плавника
юридическои
готова
субтроп
свадеб
атомнои
полутора
зачис
##ald
погибла
строительные
азиатских
##ерным
разрушение
музыкально
заключили
богатые
мужеи
изучении
прежние
транспортнои
гуан
##ознав
##екват
родным
национализ
выделены
приити
несовершеннолет
##хана
новостеи
дерби
##провода
социализма
непрерывно
нэ
##итс
мариеи
легче
премиеи
поступать
восстановлению
зрители
кришна
##амо
звезду
латин
разведку
диспетчер
tal
ant
панели
хаус
палату
выпускник
микроф
##oo
смарт
произнош
физкульт
трактат
чудотворца
украинцев
##еского
##еец
##ьяк
неудачу
ожидания
lim
своиствами
музеев
турция
классическии
мануф
андерсон
##син
камнями
активные
цветом
дово
прусскои
##улин
##уэз
подписав
мощным
остановился
хоккею
city
##оус
назвала
пункте
эксклю
форта
1100
##гров
##истических
княг
оперативнои
пота
каг
ford
механика
византиискои
цру
##фрид
мариан
ходил
вьетнаме
адъютантом
мук
якова
##ars
писатели
превз
наилуч
иваном
прежних
понт
муром
count
отреч
##окон
загранич
символы
неприятеля
церкв
директив
бронзы
спартака
подошли
##лоном
владели
фигурои
канадскии
blu
бранденбург
отвлек
феоф
остатков
подняться
юношескои
требованием
холме
нижние
штутг
промышленные
джонат
гетман
спектакле
выбрана
##инец
замена
затрон
тиш
скан
азербаиджане
музыкантами
чтение
платье
балл
револь
лицам
замерз
свободным
хорошую
благочест
астрономии
ms
реальность
помещен
маиоры
john
отверстие
##деля
##55
схем
##бери
любопыт
перевести
международное
мануфакт
ломб
##вик
ариф
закончила
юридического
гласит
земледелия
ефрем
удмурт
post
##емого
показало
##логод
отдельную
добавлены
категорически
выигрывал
толь
позволит
##хор
##tc
разбор
предки
томскои
избирательного
афганистане
ставшего
##исии
##есу
серыи
остальными
джуз
засуш
луна
древесины
афанас
ящер
довод
выдающиися
маргарита
ненавид
привилег
##иян
суду
правительственных
снимать
приступили
pp
por
шал
##мень
джош
гражданские
выведен
уменьшить
кораблями
аттест
манхэт
перри
совместного
введено
##дена
водного
баллот
расторг
полагает
адвоката
##хэм
перего
местная
силам
предложила
круглыи
ленно
помол
равных
варшавского
##ожане
заменена
меркур
сольныи
троицы
управляющим
быстрыи
##юд
пятым
филиала
свидетелем
антрополог
лотаринг
разделе
батарея
##анскую
##илища
говоров
поэтом
взятия
кустарников
##ъя
##енб
отдает
начата
творчеству
составить
литве
маяк
готовности
206
скел
перемещения
серебряная
аналогии
##осфер
франца
чемпионскии
паск
японском
##станция
кира
пря
##осистем
афины
географического
роджер
dark
иконо
##ермо
неизвестны
эпидемии
рпц
##иец
верев
уилсон
выключ
гест
соуч
доска
внед
формах
желто
каналы
мац
rh
лион
крыше
объединеннои
ассим
магазине
нина
конрад
демонт
покрытия
пастб
руины
##ектором
вывед
взятии
чк
##ляцию
плата
патронов
возрожд
тысячелетия
##ивное
самца
записали
##ируемыи
иркутскои
ассамблеи
крав
сне
##ечь
##ечье
##ающимися
культурои
применяться
мощные
персонажем
рязанскои
кург
##mat
милане
личное
hol
колония
размерами
##лз
##альском
льду
дракона
че
резь
закрыты
маф
союзных
утверждали
##нувшись
##еми
родриг
семян
членам
направлением
пятнами
франсиско
##ентии
##ерея
левобереж
прежнеи
##ronic
##ивающии
направляется
польским
культурныи
репорт
ядовит
украинские
плохои
рассмотрение
подум
донес
повсеместно
десп
##нить
полевых
компаниями
космическии
воздушные
полноцен
from
процессор
генералов
осуществлял
садовод
восставших
соблаз
восстановил
появлялся
устроить
впадения
##няков
удост
эрот
плотностью
бюст
дэвиса
руст
шон
##лоп
агита
спорту
фаилов
вишнев
благополучно
album
##еиные
##оглас
##ственному
городское
автомаш
обратиться
сомнев
пле
основа
евдок
возвращен
девушке
дождь
несправ
великую
##стор
назначением
кожа
зарегистрировано
вьетнама
ахмад
организовано
пробыл
неудачнои
кишеч
экстра
воскресенье
прибрежных
владимирович
бенедикт
наум
обув
специальную
агроном
исследовательскои
сахар
раскопок
предпочитает
сущности
ленте
фью
##зен
серьезным
народно
младшеи
пистолета
демонстрирует
носовои
путешествовал
рекламы
геп
крам
ритор
погода
интересах
перестроики
пуэрто
благов
схвач
преоблада
объяснил
севастополя
улет
##нском
##луж
собрались
целое
deut
уездного
скотта
напоминают
##ивыи
##пура
несправедлив
шн
вторж
женить
прямом
мечет
традиционныи
ранеными
десанта
немногочислен
товарищеи
нужды
##bn
конно
депорта
валерия
предприятиях
охрану
обработке
##анности
##имся
##няк
##озап
долгор
включать
биохим
чиновники
полуд
следуют
глубинои
короткая
принципа
аполлон
ze
электрос
спортивную
протесты
конвенции
могиль
встречаться
афанась
дзюдо
##атскои
разряда
##уло
запасов
стекло
##днев
произведено
##ирующим
обнаруживают
школьников
полотни
вратарь
##82
свал
ариз
транспортного
поляки
компромисс
##леп
родины
##ационные
##ution
денежных
профсоюзов
черногории
##зам
##ling
##елу
смысла
##атериал
пациента
боров
соответствующеи
эскадра
сборы
сблиз
##сион
##атт
орнам
заправ
реализация
леибла
кабинете
некоммер
bu
##исия
совершал
пьед
покоиного
шедев
ult
##роход
периоде
генеральнои
христиане
приехали
ждет
обусловлено
чаши
поблиз
либрет
массива
кругов
огромным
подарок
централизован
вглуб
брал
леин
сумас
пришелся
уникальныи
гренланд
улож
организованы
аэродрома
поблизости
##шель
разнои
карас
написанных
почтовые
подвергались
ала
иозеф
делая
двору
мюл
ая
вены
чи
связанныи
пробиться
православного
солнечных
гавани
мерт
##евшего
высотах
ацет
нати
##ольным
исполкома
##ремя
привоз
соседнеи
##набжения
##ольда
типограф
распространено
##анги
roy
жо
##енто
##узе
торф
уровни
подвергается
драматическии
неопредел
расшифров
зла
##ones
посмотреть
титулов
дук
хон
обор
россииское
минского
сбил
##юсш
походов
1785
бегство
экспериментальнои
пуд
поэзия
кевин
вглубь
пг
флав
дальнии
стремились
подножия
##бола
##шенко
организмов
находившихся
реформа
шерсти
##ds
накр
москвои
лео
атлетико
реально
магии
соседние
державы
сопутств
экономическое
приглашает
добродет
ауг
голд
уничтожена
330
rom
##оцен
решительно
источниками
донецкои
постановка
ссылаясь
талл
##еппе
патриар
мп
ци
отлуч
факторы
возглавить
сбрас
покупки
скульптора
шанхаи
обнарод
ягод
##зер
поворачивает
японцев
купеческ
награждена
превратилась
сужд
востреб
увеличением
независимым
раикома
##опровод
##ательность
увен
ручеи
казачьего
зонд
трека
##inc
консоли
комитетом
##алиеи
##дап
контактов
зинов
##жег
увеличению
доцентом
beatles
тас
##сезон
группового
производственных
презент
усынов
диагон
отброс
долгих
координа
колч
взято
отметили
лиза
##еискии
вере
исполнительныи
##pa
мелан
подчинения
##мод
плену
концепту
снизить
фосфор
землями
вран
антонии
глик
хаин
опираясь
##истики
опир
командирован
регент
##ереди
гидравл
микроскоп
сомнение
индиана
недоступ
морская
лучшими
углерода
дро
сира
##овке
##руа
компет
восприятия
sat
слобода
орудиями
обозначает
надеясь
правобереж
объявлена
вац
1400
купола
совместное
лабораториеи
мим
активистов
игроками
атмосфере
железобетон
хид
ценных
спод
рефл
затон
арханг
точная
ветры
захватив
комиссиеи
посещает
продукцию
брус
детская
маркграф
аргентине
настроения
отоп
планом
верховным
исследовательских
пакистана
убежден
глобус
миз
хил
желает
координат
нтв
сала
поет
##инги
##елюб
ждать
оперативного
##промышлен
эх
влксм
способствовала
заявлял
предводительством
##олу
##еды
##язычнои
ущелье
старо
1778
иллиноис
гая
усто
модификация
ввода
зимнии
эксперимента
савои
булав
leg
имевшии
боч
правам
правовои
занимать
михаилом
заговора
оригинального
пожертвования
корз
звали
эмми
бригаде
##езопас
популярен
будапешт
оболочки
датои
влас
дист
срочно
##овна
##ардом
ss
полости
ветвеи
алтарь
архангельскои
##ольную
получит
собственными
потребления
компьютерная
имуществ
порно
упаков
манере
комитете
кузнецов
уиг
послание
работавшии
частного
окружного
противостояния
празднования
##отур
актов
переформ
вопросах
увеличилась
защитои
жесткои
черкес
петром
боевая
стандартнои
##ованное
деревнеи
похоже
рисунка
используемых
нервнои
геннадии
##37
разговора
двоин
выполнении
ступень
publ
усугуб
исполнителя
микрос
ребята
ближаишии
гамма
регионы
единую
христос
class
угла
##аискии
политическими
концентрация
черте
добро
##ивающих
выздоров
строк
предстояло
mercedes
##надеж
посетили
ногами
1772
мент
##енок
возвращаться
соответствующии
разрушены
пехотных
##book
бабушка
возникновение
шилл
##ифик
великому
проводила
винтовки
архимандрит
##удить
колец
согласились
наибольшая
##цких
##ываемых
верхне
григорьевич
трасса
колебании
##асти
засып
топливо
##mus
объединились
луции
выдать
жемчуж
краснознам
джем
камере
выдвиж
священного
##пад
##дт
##ноты
##истого
классицизма
выстрела
имму
рассматривал
удостоена
выяснить
##иицев
фрэнсис
препарата
шосс
скуд
темнои
взаимосвяз
пач
работам
char
разворачивается
##окат
##опон
некоторого
осуществил
поставлены
клипе
театрах
ярославскои
сущность
негр
##истыми
направля
естеств
комсомола
главному
крупнее
братства
гамб
##ечка
смеж
определении
красными
менять
словении
проектирования
богатыи
страха
коллеж
любая
аквит
официальная
церковные
феликс
повысить
##имана
словаря
серьезныи
предв
золотыми
административном
обсерватор
##ml
##енди
##еиныи
молодежных
принципе
единое
кружок
дио
пудов
##олого
встречах
травян
швеицария
лаборатория
рош
бридж
иврит
творческии
магистрат
кля
небе
пальм
содержатся
счастье
##бом
передается
начальную
австрииского
дец
##our
##онте
провол
ранним
заводах
дуд
настоян
создатели
волод
оборонительных
автобусов
фредерик
##81
передняя
сборники
деятеля
уран
убивают
сергеевич
оснащен
good
метрополитен
доллара
волю
масон
гвардеискии
госпиталя
машиностроения
подгруп
профиль
имелась
выдал
##41
спереди
печи
династия
экспозиция
пожилых
rob
чес
соответствующего
чарта
процедуры
башкортостан
екатеринослав
##онтинент
фиб
полицеиского
разгар
оригинальных
труппы
##лана
##истским
желании
эдварда
##няют
учреждениях
тэц
зомби
##мента
политиков
дрож
скороп
аспекты
гист
выбыл
нош
##равшись
позициях
сохраняет
салона
католических
оркестре
абориг
гед
дольше
чилии
##шн
нечет
международную
сложилась
разногласии
анне
европа
мужских
##ффа
ученика
вскрыт
подземных
земледель
pictures
раим
##альди
герак
должностеи
признался
приказывает
бомбардировщиков
информационных
грибов
автобиограф
односторон
экспорта
##опотам
##цир
селт
##tern
построике
петрограде
иммигрантов
стокгольме
массачусетс
свободе
##ающегося
##хам
забор
успевает
##ety
сложным
размерам
восстановлении
отменен
техникои
розыгрыша
местечке
женщинами
ярких
маленького
мячом
мужу
административные
1773
вэи
сельским
дунаи
##алет
автос
##ki
##арио
джул
антвер
подобнои
кровопр
адапта
рекомендуется
дореволю
ролью
популярны
петербургском
сформировать
департаменте
##ианскои
ректором
континг
лесные
##монтов
строчки
сортов
product
клев
окончательныи
##энси
ву
##екция
кровью
max
иди
##лиру
декан
путин
саут
принимая
плотины
полковники
доски
##иальными
назначили
союзниками
выполнено
хаид
спродюс
отошли
документальныи
возлаг
убран
ассистент
северокореи
кровопролит
abc
почета
планету
нужен
богосл
трудах
tur
осознав
хед
новок
отсыл
непов
аэрок
неудачи
##яных
##zy
завлад
развал
милосерд
##выбор
присоединен
непонят
##циф
##ившему
укруп
свободные
батальоном
южнокореи
авторских
##lam
низкие
поверхностью
лечении
##укра
выбрас
помогло
средневековых
конво
предгор
искал
процессу
сокруш
пищев
mark
лицензию
искусственного
точностью
положил
полупровод
иерусалима
неудовлетвор
##сена
##56
##asc
песнями
эмигрантов
заработал
вязем
ставшая
многообраз
социальная
митч
приемов
федеральных
семинарию
bro
решив
кубков
ощут
гд
новатор
##регации
отступил
перечень
пип
стэ
мардж
можем
монст
янь
условиями
китаиская
локализ
вовремя
нм
##пом
литературным
сергиев
каскад
сеис
##шки
оказаться
развито
популярныи
джузеппе
бона
сла
чье
одессы
брэ
диасп
регулярных
взрослом
ларри
последующем
водород
королевои
ограничение
##фильм
естественным
рассмотрения
сиз
##сель
арка
стенои
чувствует
##авшуюся
light
фель
ханом
отпущ
##ковском
использовавш
великое
возможнои
географических
##eng
макар
акц
священники
саудовскои
перми
посовет
шире
коммуника
неизвестным
этнических
хелен
попол
сосудов
повторя
добрался
партнера
##янув
##ибии
##охонд
фундам
неаполит
артефакт
раннии
линь
перемен
воспитывался
составлять
гибрал
рэи
тягов
магистрали
нести
римским
воздерж
принести
оказала
мировоззр
##ислот
повод
окончание
демо
поступления
придел
##ement
стоимостью
обложке
вавилон
народе
поддерживала
1781
прекращении
экзамены
фемин
карлов
приведен
социологии
багр
подписать
донскои
комфорт
контор
улицами
##ille
греческие
арабов
дневник
робертом
##имметр
изг
назначается
испытывает
рисунков
сокровищ
sub
марсел
высокогор
артиста
познания
1776
кпр
хали
разоруж
имам
##очис
занимаясь
##ьерра
малор
информациеи
дюсс
основываясь
различие
пригранич
представительства
латвиискои
слушателеи
аар
икс
цинь
труде
нефть
##екоменд
конкретных
прокурор
резиденциеи
подавляющее
general
монако
обеспоко
настоичив
disney
ценные
##кевича
симф
титан
ско
выезж
макса
физиологии
технологического
предполагал
защищает
повествование
закруг
сообщал
##шееся
объяснения
ядерных
фифа
очаг
сделанные
идееи
беспокои
препарат
миллиардов
урочище
vide
джеик
перспективы
cam
##тах
склоны
физически
веим
чернозем
мика
##урс
образцом
##теров
наблюдение
творческого
крещение
##чева
##ничнои
потребовали
привлекает
неоднократ
партнеров
телекомп
сверн
трансф
изменениями
закончились
гитаристом
пурпур
позволяла
плотно
католическая
смертельно
бумаг
уделял
юноша
произвести
совершено
васильевича
досроч
сузд
west
нарез
предвыбор
текстом
референдум
хов
образовалась
пятом
рассматрив
##отроп
##андра
мореи
##манн
индик
мечами
андреа
распределя
network
вольно
мое
##ex
##ерои
дальнеишая
животными
содружества
крупную
авиак
проком
математике
устроили
заболевание
удачных
пресса
поговор
вероятности
африку
уровнях
электронов
партнерами
мультфильм
амстердаме
##идами
учении
способами
сложныи
филадельф
vis
красног
точность
доволь
насчитывала
преследование
собирает
эрнст
полотно
бронепо
##енаправ
##ьяна
канзас
пришель
рецензент
исландии
face
мт
западноевропеи
sum
аим
##ельную
альбому
индиискои
кпк
кавалерииского
диалектов
иницииров
оле
берут
номере
домашнии
полосу
контратаки
журав
##овское
определенным
конечности
убито
нападающего
сталкивается
венгерскии
богословия
уок
моды
сенса
наним
нужны
полезных
сопровождается
##уге
понимают
барабанщик
гера
##олинеи
##естествен
##окор
антит
богини
выставку
нацистскои
посчитал
потем
проектах
ученои
подчинении
конфликты
рг
##вис
##юг
сардин
миссию
теплыи
автобусы
final
антагон
##тя
провока
производительность
партииного
##ативнои
переименовали
##удж
##епа
болеслав
персонажами
никараг
шекспира
##ject
борозд
журналистики
рогатого
##еплав
значимых
оценить
соревнование
добились
инспектором
возросла
кисти
##ющему
снк
духовное
пережил
##печат
состоятель
обществу
нескольким
мельницы
christ
неогранич
##инду
##арская
звена
совершения
увенчан
картинах
беспол
концентра
одинаково
никита
общеприн
колонн
грозного
урожденная
mid
##исту
##истического
##коврем
современными
партииных
одесскои
чап
урбан
потребность
картоф
фехт
полете
подоп
установила
древнеиших
произведением
гидрок
леонида
нуар
##лоид
##орты
лишился
генералу
законам
пьера
светлана
вождя
знают
керамики
##ram
участница
часовои
всякого
раздав
хвостовои
##out
##ательному
равнои
долгого
чехова
пальцев
юных
##альна
##исток
##ечении
надзор
арха
королевстве
поручению
недостатков
дисциплине
санкции
##ble
помил
привык
формуле
перенести
операционнои
стенки
1764
инструктором
##зон
##оплаз
правосуд
религия
понимать
techn
отлив
##ительны
коллин
находившиеся
незамет
выпускников
соединяет
розен
салоне
лабир
кратковрем
биатлон
чести
##ery
фронтом
прежнего
тяжести
тонкие
короткого
паши
предшественника
еврокуб
##рель
раннее
соответствие
реализовать
встретили
противоречив
константинополе
алаб
##еишего
палата
торгово
грузовых
католическии
##юнкт
одежде
атлетике
##ынь
надлеж
пилоты
проверить
##оси
##звуков
демократическая
армянских
прекращено
организованнои
тревож
дна
тунд
шур
азот
синего
собранные
##цит
##анди
скором
##ораж
частныи
огражд
герцогства
товарищества
##кель
##сек
раицент
сохранили
редук
осуществлялась
лермонтов
##виль
воинскои
подстав
площадку
симе
уэлл
##изированных
орбиту
субъектив
попечитель
шиз
признала
радиус
обстановка
отстранен
анастасия
let
разош
плату
данному
одиннадцать
верхнюю
эпизоды
##инош
подготовкои
создавались
остаток
##януть
симбир
ударных
бюл
сергеем
получилось
галактики
magaz
расцвета
горюч
забыт
##вопр
управляющии
бирминг
##ируемои
ответственным
попав
однород
сумев
луиза
близки
сценах
беспоко
мышления
франкфур
line
##фуз
##ням
художественно
##ops
доставлен
mel
##ьям
установку
арестовали
роберто
##xt
островом
ополчения
##ивающие
##пор
состоять
милях
молодежного
##ьо
детском
тренеров
присвоен
крыт
показателеи
президенты
давая
придан
нормальнои
коллективов
автодороги
hom
hell
умерших
кружка
##дь
нападает
требуем
экземпляр
пострадали
настоянию
squ
посаж
##ицизм
доходит
повлек
замещ
евреискии
наружу
ячеики
bel
брев
известие
обвинили
##лоб
##щенко
прилет
серьезного
премьеры
##цзян
отрест
джесс
включить
##едоб
##андро
родилось
убивать
клетках
александровича
вегет
bab
рако
несли
изменилось
отвагу
посвященнои
перенесена
послужил
моего
##po
автомобиле
консол
хьюстон
сус
##олеты
спенс
возможна
##розавод
конституцию
эфиопии
##дера
возможного
трудился
выпущенная
киевском
наидена
послевоенные
##анту
затыл
кндр
показа
подверглась
врагами
геид
иным
усерд
итальянским
утверждается
объему
турген
игрокам
выбрали
прежнее
семеинои
улучшение
владельцы
##ируемые
##urnal
##хот
##42
алла
базируется
##ащими
переправы
дизель
слоем
уральского
уругвая
##press
чугун
круз
отреставр
выно
##рехта
авиация
гипотезы
гриф
фесс
##нию
прах
упала
несут
невел
резиденция
##ечение
содержащии
польско
отрядами
ремикс
константинополя
ign
##даче
начис
терри
конечнои
дворах
внутренним
кассов
выводы
славянских
диагноз
подсемеиства
хи
##маты
выуч
слон
слив
деиствующего
химик
творчеством
портретов
кении
осва
##ише
лидерами
лестницы
эсминцев
излаг
##itch
погибшего
тренировки
##оскоп
сесс
плиты
растительности
рассматриваются
держал
предыдущии
рэпер
jav
##ежского
сме
перешед
заднего
##онтр
бросить
перелет
демобилизации
квебек
элис
общение
индивидуальнои
бунт
уравнении
##елся
последующего
коно
абон
отправляет
достигала
land
##59
сильными
разработчик
распространению
прокате
австриискии
джоан
нин
реинджерс
jam
заостр
##киным
придает
джуль
богомат
небоск
учебном
превосходство
колесо
переверн
экзот
архиве
могилевскои
колебания
культа
филармонии
film
##оми
застро
подвор
объектами
сегментов
атлантического
##уном
стерж
##ново
амнист
оперение
журналистом
##есто
верно
##ats
женщинам
редкие
режиссеров
пенсии
обещает
устраивает
артиллериеи
каган
##ашвили
певицеи
выполняют
абхазии
ht
##евал
кросс
лесами
боксу
доверие
ливерпуль
издев
изменяется
австралию
значительного
канаду
планировка
рельефа
ibm
трез
##ательству
состоящая
очкам
вену
опасения
пеизажи
##цовых
##овским
##арел
##erg
питом
письменности
пряч
ард
роде
брони
крепостеи
серебром
фердинанда
людвига
тромб
##ившимися
журналом
выполняется
недостатка
рыцареи
устава
оли
тин
юд
завер
террас
группировка
построенных
геном
брауз
фальшив
##окан
физические
техническом
управляющего
##ожение
##ологи
громад
самура
запомн
бразилия
понятии
индивидуальных
запретил
учрежден
предлагают
кристофер
пег
##атым
##обор
малую
достигается
басти
доставки
переправился
эксперты
##46
одинак
##atus
масля
отдельная
копия
риска
протектор
почтовои
плавание
похожа
анатолия
кэмпб
городам
##быль
спектаклеи
ожидании
фрагментов
гонсал
забрать
боковои
ротои
функционирует
буб
выигран
реме
герцогство
леитенанты
блокады
язв
##fl
##евским
сош
окб
судить
порты
степанов
выборе
алфавита
тульскои
##новскии
марса
заточ
строительного
потеря
исчерп
благодарность
месопотам
fam
живущих
итог
отменены
начальных
микроб
вариантах
архитекторы
предположения
256
восьмер
попадании
##озвоноч
достоинство
риу
царствования
выявля
плеб
последств
сотвор
возрастает
угнет
намек
1786
аргумент
##шов
прел
правящеи
колокол
настоящеи
леви
dec
шань
##сан
переводом
корпорация
очерки
затм
изменился
носители
хранение
вадим
##фен
поцел
мосты
партизаны
хуана
коричневыи
передвижения
##расов
##илинд
рассказать
мятежа
урана
##ресса
душе
1779
предварительного
полузащитника
оказывал
грэ
зрели
прикладнои
беседы
книго
motor
пьетро
##икон
##кову
ордж
сообщению
гражданскую
потребитель
племянника
нуля
правую
почта
происходить
обслуживание
воеводои
декорации
##aurus
дается
корону
чемпионами
адж
ранены
способностеи
недостатком
убедил
tre
рассказывается
чул
##ольном
важность
наибольшеи
коллегами
транзист
mir
мтс
консула
серые
волон
возведение
радиоп
выплачив
спросил
маркои
##ody
глазго
гимн
возобновил
послужила
фраза
спрашивает
##атья
звучания
master
бь
##алат
обж
##лижения
алиса
местную
джар
##urg
удачным
рентген
второму
развита
торговлеи
проживающих
неизменно
##дама
##инку
противоп
карбон
помещениях
##ресе
мечом
авиакомпания
всеобщеи
норд
оставляя
толпа
кабины
гастроли
обв
помер
жертвопр
странам
притвор
кинет
мухам
грабеж
переизбран
чав
сменила
воронежского
заповедник
бронетан
тамбовскои
gal
##шества
живым
оказавшись
купец
гаид
локомотива
fire
дели
временных
боем
больного
спасение
огромного
болгарскои
трамва
налоги
являющиися
занимая
##ческое
написали
монастырю
пунктах
сотрудничает
даниэль
##уку
##атики
##товои
женщине
способа
стивенс
архитектурныи
реабилитирован
таганрог
совместных
демократов
документальных
сферу
водоемов
##огои
потря
характером
##ерьез
сенег
репорта
греция
флагман
поженились
либретто
кпрф
##ula
##тих
занявшие
михал
просмотра
жертвопринош
bad
луга
требованию
ближнем
старте
кожу
преподобного
best
последующим
написании
поздрав
заднем
мышц
крус
полеты
националистов
прослед
ростове
юныи
арки
литовскии
готовится
вих
##гари
##обои
310
четвертая
оград
увеличивает
европеиским
iso
##атно
##ange
расположенное
геологии
##ider
зиму
перестали
наблюдаем
лагерях
мюр
армянскии
версиях
мина
##уром
повеш
самолетах
юрист
товарищеском
лимф
хуторе
##бул
##иви
новод
левым
сетью
помогла
синтакс
диаграм
джеисон
поощря
иное
##еева
порож
экипажеи
атомов
апостолов
##линга
изданию
физика
низших
жертвами
отрицательно
портрета
##рек
марку
гражданства
социальныи
ворошилов
танцовщ
отсл
правая
инстан
спектра
справиться
предпочитают
##инке
бока
враги
трамвая
столкновение
лы
карм
мадриде
цим
##удили
##ечным
фламанд
##егаз
мастерскую
читает
бросает
чешскои
##эла
##олин
##итим
верит
замуже
женском
петру
художниками
обозначена
эллипт
военачальник
избыточ
##юи
победителеи
близкии
проблеме
утверждая
равнине
филармон
таз
излеч
ману
сиднее
извлек
зеркала
изъят
адаптации
фармак
mil
диг
спаст
расстро
установление
невин
агенты
тепла
дополнительнои
николаевича
уступает
привлечения
страда
внутреннюю
поручении
педагогическом
инфрак
кореискои
вологодскои
турецкие
господня
##рея
левая
стрелять
ярким
чум
##бард
медв
помогали
ненадолго
сахара
красноярского
чикаг
ga
##ективиз
роды
примеров
отвлеч
фирме
чистого
##оидет
законодательство
школьного
мягкая
альянса
##атнои
203
евангель
насилие
генуэз
описывал
кастиль
девочку
удостовер
202
получился
практическои
нужна
серьезную
эпизодах
чич
молодежныи
выделения
судах
рыцар
пустыне
юность
##iam
смут
связывается
морское
##enc
останется
медведь
предлогом
шель
развет
различаются
наследник
пруда
##ечно
определены
преподавала
убитого
рукопис
пещере
яковлев
сократилось
лэн
марком
значимости
прокоф
комплексы
champ
создавал
дагестана
ds
##ццо
предохран
деиствовало
деньгами
brit
рождество
пьедест
pri
системами
борец
225
винниц
самостоятельнои
подчеркивает
##маг
производились
королевская
идее
апостольскии
рождение
##яще
историческую
топоним
сидит
грегор
холодного
scien
оренбургскои
инженерных
компонов
схему
коротким
сократить
повествования
спецслужб
##урского
демократического
комиссаром
штурме
орджоник
##ano
американское
характерныи
отклик
таиного
выросло
бытия
##иант
раит
сельские
comics
вашингтона
пациент
фальс
февральскои
зрелости
стереотип
дюр
проектирование
характерен
magazine
ау
чх
##ицах
##сси
изменением
богатство
##бру
направили
выходцев
dead
учитывать
псковскои
доцента
##рую
горба
владик
мадага
древнем
афганистана
неотъем
оконечности
суг
##ленде
##игод
капиталист
фармацевт
доити
финского
гербов
перемирие
желтовато
бард
мавр
окол
распрод
многократ
цзян
warner
помешать
жре
##нел
##ствовали
проникает
заведениях
fm
ic
##мист
полум
правед
ева
называлось
картер
гермет
блоки
заложников
архитектурных
вратарем
коронации
гонд
глины
проезда
##ящиеся
одиннадцат
успоко
заднии
героиз
вишну
бездет
редколл
##нскои
##шип
##геим
опытных
гвозд
трилогии
aud
##там
наряд
сошел
радзив
верховьях
героями
непосредственное
употребляется
всевозмож
юпитера
яп
руководит
необычаи
традиционным
пролива
нормандии
ганс
сталь
мировым
соглашению
мадагаск
жуки
клэр
беркли
способностями
академического
указывал
толпы
джонса
пьян
ключа
всеволод
перп
спины
человеке
браком
spec
кинематографа
пообещал
ставку
простеи
воинских
дэнни
дюссельд
bra
пения
компресс
##няли
вратаря
ликвидирован
овладеть
пожилые
##аторе
петрозавод
катера
целые
профессиональные
##надоб
художественную
студииного
экспедицион
роуз
уроженец
невесты
баха
##жан
литературно
бежит
оригинальные
жительства
поправки
неравном
преимуществом
загород
вынос
##ona
избрал
исполнили
объединя
##измов
заз
буду
завоевав
заметили
энергетики
рефери
##пруд
##15
gra
mach
смест
признанию
интересовался
беспозвоноч
арифмет
##истым
крах
великие
просмотр
##шимися
захвачены
цифровых
уравнения
цезарь
амплит
пение
##нил
##оида
еврос
успешныи
автомобильных
багаж
исцел
деиствующим
##иновые
завершилось
произведениями
##акия
донец
жестко
углевод
закрыть
сериалах
рекордсмен
1768
##оусоб
бм
лян
сражались
соглашении
глубокии
преобладает
иерархии
междоусоб
позволял
rac
накап
боевики
постановил
гарантии
##овских
##оха
кубы
входом
улан
битв
образовавш
государственными
лозун
реорганиз
совещании
драгоцен
нестабиль
ast
хур
орнит
##ush
##ондо
поспеш
обстановки
зальц
чумы
образованы
почетное
четвертьфинала
кутуз
нанс
##mo
заблок
следующую
предприятием
нынешнее
выслан
пули
полуб
##улина
остальное
малое
ударные
отступления
удаления
заинтересовался
совокупность
инфракрас
широт
луков
появлялись
притока
##ющуюся
нигде
дру
ставил
оформления
известную
союзу
практикои
храмом
##roid
опасных
понятно
уважение
неотъемлем
are
nov
гек
сиф
играм
бордо
активная
позволяли
ошибку
владикавказ
денд
серо
получала
шерсть
истребитель
обсуж
прозвищу
наставником
таджикистана
аиленд
##нр
##лау
своеврем
названо
коллективиз
исполняющим
бюрократ
россиискую
##ирующая
доказательство
совершеннолет
мели
##винов
марион
журналы
тяжелую
халк
мх
##створ
##ичностью
специалистами
шестого
уменьшение
сигналы
катастрофа
##алях
выпр
участниц
регулирования
погоды
сумер
death
предприняли
перерез
сериеи
выбирает
вооруженного
сопряж
реиха
автодороге
шансы
гена
##етского
графу
мыши
##orum
расположенном
диске
fantasy
московскому
моментом
ограничен
ивановна
солнечного
metal
соискание
мб
решать
##ачев
энергиеи
вещания
запрета
поддел
популярные
католического
квест
разлож
##озки
возможны
классах
льшую
разделил
аналогичныи
тариф
кривои
накаплив
##ииская
скит
снега
отступление
изгнании
генералы
1777
дождеи
пассажирскии
подлод
донос
медресе
спецназ
изменен
шестью
южноафрикан
пианист
попробовать
обели
арден
тыч
залеж
гене
##шире
вестф
ветеран
мудр
##ульского
совместныи
соседеи
шарль
##ерская
распространенных
либеральнои
монарха
##ельеф
##унде
солен
отсек
немецкую
смоленск
##бель
##инк
##янами
##ates
давала
христианского
полтавскои
определению
переходом
вызывать
юного
##яные
##дп
удобр
сильная
арабскии
this
поном
##отер
летнюю
улицам
апостола
тяга
сопровожда
angel
##хал
##der
поясн
обрез
запут
джок
томах
западным
экономическая
подписано
людях
вариации
стивена
схватке
mg
баты
хэл
вычисления
уругваи
примет
голосование
одинокие
studio
иудеи
антифаш
##18
##13
мести
переза
провинциях
участвовало
подразделя
участникам
менеджером
down
меф
специалиста
крупнеишая
isbn
мятежников
специализируется
таиланда
венесуэлы
нокаут
лув
мия
соци
проводилось
монастыри
объявляет
##оподъем
benz
укороч
way
гекта
яч
##ковская
установке
дворянского
коммерс
варшавы
величаиших
коня
стилизован
костел
гетмана
загрязн
отслеж
fest
обож
окрас
##аискои
оставшись
тонкои
крымская
press
кардинала
приборы
ткань
экспонатов
фуд
##идан
##звель
ответв
грамоты
доставить
изгнан
стамбуле
латыни
бура
##чк
нарав
##перс
убив
сохранять
полковником
определяются
приключенческ
нехватки
гном
плена
##вшие
решило
белграде
долеи
уведом
распространенным
одержать
грецию
публиковались
god
даст
##line
выидет
надстрои
дальности
дополнения
снимает
одержав
дослов
препараты
созывов
##ique
скатов
образовали
переднии
волч
преследовать
мали
россииско
народном
фактов
анджелеса
бавария
филологическии
##пера
##17
будем
долга
растительность
мощных
латер
температурои
эпоха
квантовои
банда
валенс
пласти
отметила
отечественных
суворова
##уске
главу
кожан
телевидению
рузвель
боевым
суф
арабскои
ярус
зачет
шаги
шриф
##ерина
##аряд
производительности
княгин
преобразовании
школьнои
похороны
танковыи
снижается
##оюз
##ользователь
заявлении
week
ослеп
приведет
дракон
инспектора
ортод
неделе
футболе
иностранцев
живописью
капуст
пехота
брюшка
будапеште
таивань
бюллет
луз
##итои
несоглас
имелся
купцы
ложи
хроника
пионеров
##овину
челлен
##ишь
переше
олимпииским
сдаться
устоичивости
зеркало
челябинскои
##vo
территориальных
вооруженными
рассматривался
кирпич
вмешательство
шаф
##луб
подать
временныи
назначении
просматр
рабочая
выполняя
приобретения
континента
кировскои
##етии
реисов
необходимое
уехала
развелись
fir
##нополь
реим
романом
сняли
ltd
мариуп
инцидента
гусеницы
одесса
корнеи
##ающему
центральные
1763
бухты
костюмы
##оляр
организаторы
признано
индиискии
сформировал
впечатления
ever
##иню
слог
родителям
огород
поддерживается
профессоров
текстах
природныи
фестивалях
воспользовался
провозглашения
lab
##дут
образу
семант
дорс
десятка
испанском
притоков
обособленнои
back
##енство
##одерж
образовался
выбирать
армяне
вытес
dj
##ател
получившего
запасе
обновления
наземных
афроамериканцев
850
##ker
##имович
дополня
запаса
финскии
переехать
ракетных
наблюдаются
луп
узк
journal
##очеркас
##искии
колен
автомаг
комплексе
переводов
железнодорожные
1760
бобру
ступенчат
преемник
тифлис
миннесота
помолв
##маи
приговора
длинная
реактор
вотч
интеграции
чжа
##есед
правители
##ффи
широких
митохонд
флагом
переидя
воротами
бендж
##вальд
##uz
##ебои
большии
повяз
that
обновлен
гагарина
гряд
ола
стола
исполнители
преподает
разновидности
наравне
иннок
написаннои
итальянская
стандартов
уимблдон
##астроф
лицеи
отражении
таинои
продавать
категория
неустоичив
получившая
победонос
левые
залог
непло
размещался
гвардеиская
труппу
карабах
hum
##коль
узкие
##ets
избрана
anim
серьезное
занятие
сидел
полукруг
##фир
##иновои
крестьянами
оборудованием
фашистов
drag
##алья
экологии
дерз
arch
предшественников
##кса
активисты
шериф
внесли
кэн
хадж
посеред
французское
музыкантом
присвоил
настаивал
азиаты
сподвиж
полон
атаков
торговым
особенностями
воеводство
закономер
нефтянои
pat
старшина
обвинении
часовни
градостро
узнают
шка
приведены
процессом
богатства
отражения
аббас
крыша
иисус
геометрии
персии
монстр
казино
степнои
естественного
разрыва
адриан
сдачи
неформ
##ировкои
##ектик
вернули
планирования
340
space
фрэнка
финляндия
симфонии
##роскоп
летчика
частотои
холок
миссури
кристина
кожев
дикои
##ияз
##идная
стилеи
наименования
хасан
створ
экватор
производитель
##une
подавлении
подробности
просвещ
fall
тик
распалась
спастись
##ательности
англииская
промыслов
заруч
андреев
мадам
страдал
роспись
университетом
заводскои
окраску
выпис
временным
евич
раионами
флоры
гражданина
разрешил
мадж
заставило
вытекает
дисциплинах
посередине
rem
вуль
##ибер
##ащая
ветря
толка
1762
осетии
вюртем
жозеф
оплачив
рекв
завершила
песнях
керч
жидкость
извил
комендант
брюсселе
tro
##эконом
каи
невозможным
gm
ишим
##ham
##ific
пограничных
скрипач
процедура
подруга
мкс
амаз
##unes
бетхов
картограф
##лестро
##оем
близка
повторил
дисквалиф
нена
##аяния
городскую
убыт
##баев
железного
ласк
африка
подтвердили
одол
паров
явилось
охрана
впечатля
сохранившиеся
стрелковых
азербаиджанского
чудо
фантастики
алкогол
взлетно
вильнюс
mal
скала
настоящая
квартала
технологию
длинным
земледелие
жиров
шим
##вора
коул
условие
завершен
фабрик
склады
послужили
консультантом
ювент
тень
##ехали
производят
открытием
орденов
##бра
особая
задолго
играми
политехнического
франкфурт
реальные
странице
перевяз
указанию
применяем
математическии
притоки
собирал
video
##уар
##адз
разгор
компенса
игнат
##росов
труба
богатого
статистики
симптомы
коррупции
слесарем
aust
рлс
правым
надвод
попада
стоун
голландскои
дефицит
бус
гаш
окоп
##bus
приемлем
драматическом
исполняла
дэвидом
##индии
получен
значится
силез
записанныи
ежегодныи
phil
##енциала
мецен
истока
бром
категорию
##нина
клещ
литров
целесообраз
##ips
скопления
##юб
обряда
сохранении
говорила
речки
максимальное
николаю
берлинском
аспирантуре
пивовар
шеремет
дре
##wood
##иицы
парня
строю
##еллер
##бергом
праздники
электрических
охотно
гла
##асами
счета
месяч
приходская
заинтересован
##одобие
павильон
получении
изображает
##уэра
эрц
германские
гавань
материальнои
художественная
приеме
обладали
металлические
знакомых
листьями
уходят
гаврии
подтверждает
рахман
консулом
окамен
примык
убегает
общему
невер
металлических
диссертация
диких
водопровод
отныне
страдает
тюремного
дезерт
ошибка
ез
пыл
юс
##хват
противном
правительств
##улят
евровидение
еды
кеин
ушед
подписи
блаж
медицинском
педагогическои
диалекта
комната
предъявля
свергнут
##спред
осада
опеку
безз
используемые
сержанта
брюшко
самов
##анти
##евичем
кырг
mart
вряд
##гара
акты
советники
преподавание
наступлении
лондонскои
тап
маика
предпос
безусловно
##янка
выпуском
кубани
серииныи
гармонии
исс
##стях
постов
русла
забирает
пользовалась
зе
рабы
портов
шваб
когнит
пенсильвания
дура
рона
##ывающим
##ционными
компань
входящих
калли
вызвано
евреям
коммунистического
закрепиться
коробки
what
карлу
недовер
направить
ферра
мечта
вождь
рип
путина
ведущими
числился
рыцари
суше
кафедральным
мош
наведения
посетить
объяснение
##ихи
развил
невз
лицу
галиции
ивану
мусульманских
концентр
гомин
двереи
японским
обеспечил
обратилась
ведущая
поместья
вальтер
самоубииством
реабилитации
пэр
##гоф
##ратор
наподобие
задав
##ida
станциями
буквами
сценарию
гвинеи
бех
взд
фюр
исполнителем
германа
придерживался
энтузиаз
сумасшед
##мас
##альца
французскую
ограничена
прошение
врачеб
оператором
музеем
железную
льшая
фирмен
крышеи
леипциге
songs
проск
##егают
череш
посев
антона
азота
##арха
престарел
исчезли
полес
мирное
##lad
акком
обязательств
крыльями
инструктор
истины
##етои
работод
счел
##изированнои
подкрепления
иными
##форов
##ентр
##унами
будь
внешняя
всякии
петрова
украшен
дельф
america
коннектик
лж
забав
боевыми
игровую
львова
элеоно
раг
разуме
мерид
религиозным
бизнесом
главнокомандующим
гонконге
заря
рико
##юка
##елина
собрали
французскими
бронзовои
здоровьем
заложена
просьбу
излучение
анатомии
трог
колосс
##erm
похожие
орбите
монреале
ak
##мера
перет
1740
##охозя
жаркое
мюнхен
вокалиста
ураган
облич
конюш
##цево
миллиарда
плавуч
леонардо
тягот
бик
фет
рубаш
проститу
первоначального
занята
заслуженного
публичных
необходимостью
##завод
соловьев
кракове
уфа
##реди
появлении
задержан
дистанцию
противоречия
конгрегации
фуль
##сты
конвеи
цветами
пожалу
награждения
печатных
щед
##звезд
возведена
артисты
наполеонов
марсель
##освящ
инвалид
##еви
очерт
надолго
воднои
иностранным
вертолета
устроен
организациях
коммерческои
ставшеи
свинеи
нагляд
администрациеи
аэродроме
фернанд
кое
##ологиеи
медичи
положению
галич
оценили
муравьи
дзержинского
##ken
марию
пьесу
нынешнии
претендентов
sky
наслажд
умереть
целых
пассажирские
транзит
intel
примкнул
kr
##vi
изменено
##остиж
переходят
гамбурге
думал
артистка
наемников
фишер
нокаутом
ko
дест
##орч
перья
учится
велел
вступление
ирт
необходимои
потоков
вправо
кроп
##рил
пропит
акв
милана
соединены
лазар
фотография
##меистером
##ольное
существу
достоверно
людмила
дрозд
нив
##пена
##аллов
донбасс
прочно
творческих
термодинам
рукопаш
1750
исполнительнои
пограничнои
живого
идеями
захватила
названиями
владислава
польская
документе
беатр
расчлен
самоубииство
##берн
ось
заключенные
племенами
hor
куру
ют
##баи
##жоу
увез
##ативного
печатались
возросло
soci
##аск
черныш
истоков
различают
мостом
чешского
насажд
елис
##sa
большому
адольфа
мелковод
плавников
испанские
дистанциях
бумаге
glob
est
друже
##сторон
##сках
##етах
вторглись
возможные
выдающимся
любимои
мухаммеда
##вия
##актов
верон
кораблестро
преследовании
road
ираке
прикрытием
north
новочеркас
домохозя
чемпионату
универси
##аемом
умело
лицевои
##ируемого
бернард
мыт
кровот
сдался
инициатива
бессмысл
кэти
боеприпасы
##индустр
##ивными
последними
взлом
организме
раскрит
величину
ладож
краснодарского
кинофестиваля
pla
малым
досталась
знакомства
запасных
тольят
смонт
дэив
номинирована
##ляемых
воплот
стокгольм
повседневнои
уезж
##бс
##информ
##укер
существующие
эмпир
нижне
поисков
взята
кормовои
##хои
раф
тыла
маунт
введении
пребывание
аминокислот
хитов
##рина
отличительнои
пятнадцать
фермент
сербского
чешскии
мобильных
##ritic
джесси
##org
исследовать
обязательным
инициативу
пензенскои
##зь
изотоп
передн
малом
андал
традицию
украшены
снято
обработка
этажеи
террористов
зафиксировано
услышать
gn
пущ
хуб
понимал
бронзового
ваиш
набрать
левую
андор
хороших
футбольная
узнали
##прессион
кошки
выпускался
загражд
больниц
фольклора
эи
московские
сибирскии
мелодия
рта
армения
открытая
холдинг
##ианского
технологическии
уважения
портала
таины
обещание
единолич
выплаты
конькоб
низменности
гели
окончательное
планировали
характерным
одноименном
рога
##аида
оговор
неплох
физик
оборонительные
сверхъ
апостоль
пчел
##улеи
колена
стриж
современную
истребителя
аббрев
подтверждено
шо
заходит
своя
развода
молоко
включено
указан
обвиняем
деревнях
индииском
ташкенте
перпенд
арак
##цци
планта
англикан
категориях
отдельное
революцию
профессионально
достоевского
грег
##илз
##очков
##умом
выживших
гвад
временные
повят
возглавляв
доступных
опыты
изготовлены
думает
##ящимся
подкуп
разы
духом
закрыл
подтверждается
тед
##нак
##ащее
рыбу
облака
кислота
вертикальнои
исаак
киноплен
военному
##азов
##опов
керт
тона
обих
темных
морскую
305
измене
временам
яркии
яркие
православные
надежду
турниры
пещера
metac
императорскии
перегруз
вольнои
высказывания
овладел
ралли
сьерра
шх
##емонт
кри
треста
телеш
умеренныи
электрического
предпочел
прокоммент
министру
ann
снята
револьвер
арам
##имиру
содержащие
парижского
подняли
хватило
верстах
may
##заде
обиль
выем
вог
##истское
##истические
коре
##илищ
люси
количествах
строительнои
уездов
исследователя
снижению
обезьян
освящена
бестсел
##бека
##окз
окончательного
рассматривались
поездок
аудио
узбекистан
студенческих
скрещ
числились
пелопон
червлен
иезуит
сана
##итт
##слив
почувств
формированию
бывшем
византииского
дипломатическои
аллегор
златоуст
disc
понадоб
##ибо
темныи
точные
лесного
скорои
cha
экипажем
электрическои
лазур
сталинградскои
##игер
##ирус
праздников
##алова
скаме
россиискими
замеш
явлением
конкретного
имевших
пользователи
изобретение
скреп
джал
производственного
нужда
чеченскои
##цар
##аморф
наступлением
друзьям
билеты
болезнью
##икта
краски
построенные
шик
##45
праб
истек
люблин
тяжелыми
раскры
деник
короткими
понимании
актерскои
фондом
мнои
##оиды
кинокомп
коротко
освободили
леф
элег
перепись
ребят
мерз
спектаклях
изоляции
иером
отряде
спек
затраты
##cc
полин
симона
1648
прототипом
##роцесс
нэнси
уедин
205
некоего
приходе
испытывал
##ающуюся
скиф
предмест
ском
спортивная
регистра
##ische
декларации
гектара
полим
##унского
##улла
президиум
сообщением
мелкого
существенные
кировоград
седьмого
увольнения
шизоф
##мезд
##рящ
##ama
применялся
принесло
##ьером
метала
состоянием
дневнике
афроамериканцы
шляп
альберто
завтра
##арес
##касс
состоящих
собственностью
джеимсом
либертадор
van
##инин
разраз
редуц
подтверждения
стюарта
крош
пасты
эмер
минус
китаем
обнаружила
колонию
рекордов
контакта
медвеж
карат
суды
пятеро
промысла
валер
##розии
охранои
трансильв
аутент
томпсон
over
буру
##ивную
избрали
штурмом
турнирнои
воспоминаниях
крепостных
терапевт
мультфильма
mem
ценным
обстрела
поворачив
##едину
классическим
злоб
спиннои
вертолетов
bal
ветров
ангела
##овавшая
минералог
зовут
[...]
