[SEP]
[UNK]
[CLS]
[PAD]
[MASK]
!
#
$
%
&
(
)
*
+
,
-
.
/
0
1
2
3
4
5
6
7
8
9
:
;
=
?
@
\
^
_
a
b
c
d
e
f
g
h
i
j
k
l
m
n
o
p
q
r
s
t
u
v
w
x
y
z
{
}
~
¡
¢
£
¥
§
®
°
±
²
³
µ
·
º
¼
½
¾
×
ß
æ
ð
÷
ø
þ
đ
ı
ł
ŋ
œ
ɐ
ɑ
ɔ
ə
ɛ
ɪ
ɾ
ʁ
ʃ
ʊ
ʒ
ʰ
ʻ
ʿ
ˈ
ː
˚
α
β
γ
δ
ε
ζ
η
θ
ι
κ
λ
μ
ν
ξ
ο
π
ρ
ς
σ
τ
υ
φ
χ
ψ
ω
а
б
в
г
д
е
ж
з
и
к
л
м
н
о
п
р
с
т
у
ф
х
ц
ч
ш
щ
ъ
ы
ь
э
ю
я
і
ј
ա
א
ב
ד
ה
ו
ח
י
כ
ל
ם
מ
ן
נ
ס
ע
פ
ק
ר
ש
ת
ا
ب
ة
ت
ج
ح
خ
د
ر
ز
س
ش
ط
ع
غ
ف
ق
ك
ل
م
ن
ه
و
ى
ي
ک
ی
क
त
न
म
र
ल
ा
ि
ी
ก
ข
ค
ง
จ
ช
ญ
ด
ต
ท
ธ
น
บ
ป
พ
ม
ย
ร
ล
ว
ศ
ษ
ส
ห
อ
ะ
า
ำ
เ
แ
โ
ไ
າ
་
ག
ང
ད
ན
པ
བ
མ
འ
ར
ལ
ས
ა
ე
ი
ᄀ
ᄁ
ᄂ
ᄃ
ᄅ
ᄆ
ᄇ
ᄉ
ᄋ
ᄌ
ᄎ
ᄏ
ᄐ
ᄑ
ᄒ
ᅡ
ᅢ
ᅣ
ᅥ
ᅦ
ᅧ
ᅨ
ᅩ
ᅪ
ᅬ
ᅭ
ᅮ
ᅯ
ᅱ
ᅲ
ᅳ
ᅴ
ᅵ
ᆨ
ᆫ
ᆯ
ᆷ
ᆸ
ᆺ
ᆼ
រ
ា
†
•
‰
′
″
⁰
€
℃
→
−
≈
≤
≥
☆
☉
♭
、
。
《
》
「
」
〜
あ
い
う
え
お
か
き
く
け
こ
さ
し
す
た
ち
っ
つ
て
と
な
に
の
は
ひ
ふ
ほ
ま
み
も
ゃ
ょ
よ
ら
り
る
れ
ろ
ん
ァ
ア
ィ
イ
ウ
エ
オ
カ
キ
ク
ケ
コ
サ
シ
ス
セ
ソ
タ
チ
ッ
テ
ト
ナ
ニ
ノ
ハ
ヒ
フ
ヘ
ホ
マ
ミ
ム
メ
ャ
ュ
ョ
ラ
リ
ル
レ
ロ
ン
・
ー
一
丁
七
万
三
上
下
不
世
东
中
丹
主
之
乙
九
也
乡
书
事
二
于
云
五
交
京
亭
亮
人
仁
仙
代
令
以
仮
仲
任
伊
伏
会
伯
佐
何
佛
作
使
侍
侯
保
信
修
傅
傳
儀
元
先
光
克
兒
內
全
八
公
六
共
兴
兵
内
军
刘
利
則
前
劉
力
功
勇
勒
勝
化
北
区
區
十
千
华
南
博
卿
原
县
友
叔
口
古
可
台
史
司
合
吉
同
名
后
君
吳
吴
呂
周
命
和
哈
哲
唐
善
喜
嗣
嘉
四
回
园
固
国
國
園
圖
土
在
地
场
型
城
基
堂
場
塔
士
壽
夏
外
多
大
天
太
夫
夷
奇
奉
女
如
妃
姚
姬
威
娘
嬪
子
孔
字
存
孝
孟
季
孤
学
孫
學
宁
宇
守
安
宋
宗
官
定
宜
宝
宣
宫
宮
家
容
密
富
寧
寶
寺
寿
封
将
將
尉
小
少
尔
尚
尹
居
山
峰
島
崇
崔
川
州
工
左
巴
市
布
希
帝
師
常
干
平
年
广
府
度
康
廣
延
廷
建
式
弘
张
張
彥
後
徐
從
御
德
徽
心
志
忠
思
性
恩
恭
情
惠
愛
慈
慕
慧
慶
憲
應
懷
懿
成
我
戦
戰
房
所
手
承
拉
拓
拔
提
摩
支
政
敏
教
敦
敬
文
新
方
族
旗
日
昌
明
星
春
昭
時
晉
普
景
智
曲
書
曹
會
月
有
望
朝
木
本
朱
李
村
杜
杨
東
松
林
果
柳
校
根
格
桂
桓
梁
梅
楊
楚
業
榮
樂
機
權
欽
歌
正
武
歸
段
殷
殿
母
毛
氏
民
水
永
汉
江
沈
沙
河
治
泉
法
波
泰
洋
洛
津
洪
洲
流
海
淑
清
渠
港
湖
源
溪
溫
漢
濟
火
烈
無
燕
爾
牛
物
特
獻
玄
玉
王
珍
珠
班
理
瑞
生
用
田
甲
男
界
白
百
的
皇
盛
盧
直
相
省
真
知
石
社
祐
祖
神
祥
福
禮
秀
秋
科
秦
程
穆
空
竇
立
章
端
竹
第
等
節
紀
純
紹
統
經
縣
繼
罗
羅
美
義
翁
老
者
而
聖
胡
能
臣
臨
自
至
興
艦
良
色
花
若
英
苻
茂
范
草
莊
莫
華
萬
葉
董
蒙
蔡
蕭
薛
藏
藤
蘇
蘭
虎
處
行
術
衛
衣
裕
裴
襄
西
見
親
覺
觀
解
言
記
許
詩
語
誠
論
謙
護
谷
貞
貴
賀
賢
赤
起
超
越
趙
路
車
軍
达
通
連
進
運
道
達
遠
那
郎
郡
部
郭
都
鄧
鄭
里
重
野
金
錢
鎮
镇
長
长
門
開
關
门
阮
阳
阿
陀
陈
院
陳
陵
陸
陽
隆
隊
雄
雅
集
雪
雲
靈
青
靖
面
韋
韓
音
順
頭
顯
風
飛
香
馬
馮
马
高
鬼
魏
魔
魯
麗
黃
黄
黎
齊
龍
龙
！
（
）
，
～
##b
##c
##4
##k
##i
##d
##s
##a
##m
##p
##n
##t
##h
##α
##γ
##ι
##ο
##ν
##ρ
##ε
##ς
##g
##l
##u
##r
##o
##e
##y
##τ
##η
##σ
##φ
##ω
##z
##3
##9
##7
##8
##6
##j
##f
##0
##2
##5
##w
##v
##đ
##x
##1
##q
##の
##た
##に
##ナ
##ウ
##シ
##カ
##ร
##ส
##с
##л
##е
##д
##о
##в
##а
##т
##ь
##к
##и
##я
##у
##м
##ø
##х
##р
##н
##ا
##ج
##ی
##ک
##س
##ت
##ن
##г
##ᅡ
##ᆷ
##ᆯ
##υ
##リ
##ー
##ス
##ᆫ
##ᄉ
##ᅵ
##ᄋ
##ᅳ
##ᄅ
##ᄃ
##ᅩ
##ᅴ
##ц
##п
##ł
##ょ
##ᆼ
##ᅮ
##ᅢ
##і
##ต
##ı
##æ
##ト
##レ
##ム
##ン
##า
##ว
##ล
##ะ
##б
##з
##ы
##ل
##ɪ
##ʒ
##ɛ
##រ
##ា
##ᆨ
##ᄇ
##ย
##ม
##λ
##ζ
##ᄀ
##イ
##タ
##ห
##น
##ค
##อ
##ก
##º
##ᅪ
##ᅥ
##ᅣ
##ب
##な
##い
##て
##マ
##さ
##み
##ᄒ
##θ
##ж
##ч
##オ
##ノ
##キ
##ʊ
##ᅦ
##ᄌ
##ᄎ
##ᄐ
##ᆸ
##ш
##μ
##κ
##ᆺ
##ᄆ
##י
##ת
##ר
##ي
##م
##ɐ
##ा
##म
##ر
##ו
##ן
##ش
##ق
##ק
##ß
##แ
##ː
##し
##と
##つ
##ה
##ヒ
##テ
##ˈ
##っ
##ち
##ゃ
##う
##ろ
##ロ
##ホ
##מ
##פ
##ש
##א
##ニ
##メ
##و
##ᅱ
##ᅯ
##ท
##เ
##ข
##ง
##ธ
##ə
##כ
##ल
##ف
##ʁ
##ز
##フ
##ラ
##π
##δ
##ɾ
##ソ
##く
##え
##د
##ة
##ᅧ
##ᄂ
##ʃ
##ɑ
##ɔ
##β
##ำ
##ป
##ช
##ד
##ю
##ξ
##ك
##ح
##ク
##ð
##พ
##ه
##ང
##ط
##サ
##エ
##ん
##す
##け
##ᄑ
##ᅨ
##ミ
##ル
##ᅲ
##ि
##ᅭ
##か
##る
##ด
##ไ
##ב
##も
##ى
##บ
##ᄏ
##は
##ʿ
##ッ
##ャ
##ъ
##щ
##ケ
##خ
##э
##ф
##ל
##غ
##こ
##ŋ
##χ
##ュ
##ས
##न
##ァ
##र
##ʻ
##ハ
##あ
##れ
##þ
##ศ
##ョ
##ع
##ア
##り
##き
##ა
##ი
##ら
##ま
##ע
##ན
##ס
##ी
##コ
##ᅬ
##œ
##ʰ
##ふ
##จ
##ィ
##נ
##ם
##ほ
##โ
##ษ
##ա
##セ
##チ
##ј
##ญ
##お
##ח
##ひ
##འ
##ར
##ე
##າ
##ᄁ
##ག
##त
##བ
##ヘ
##ལ
##ད
##ψ
##µ
##མ
##よ
##क
##པ
##ng
##an
##uo
th
##ie
##ong
tr
ch
##ai
##oi
##ua
nh
##am
va
##ac
##en
##in
##ung
##ang
##uoc
##ien
##ay
ho
kh
ph
ng
##at
co
##au
##inh
la
mo
cua
##uc
##uong
##uot
gi
##anh
quot
nam
mot
đuoc
##uy
##ao
trong
cac
đo
##ieu
lo
##uoi
the
tu
đa
##uan
##ap
##on
##uyen
nay
##ia
##ic
voi
cho
đau
quan
đe
su
loai
nguoi
##er
nhung
##et
an
##iet
so
vao
đong
thanh
bo
cung
19
##ar
to
tien
hoa
khi
tai
thang
##ich
đoi
khong
kho
cong
đen
thu
ban
##iem
hoc
ngh
thuc
con
sau
vi
ve
bi
20
ngay
ong
ra
chi
gia
qua
ta
no
phan
dan
nhan
tinh
ca
nhu
hai
cu
##im
dung
chinh
##om
noi
anh
van
##al
nhat
trung
bao
lai
vat
##uat
do
nha
tren
thi
quoc
##iec
lam
##es
ky
##iep
##or
##ach
đai
khoa
moi
tro
##el
ma
##is
đinh
chung
ba
chu
bang
thuong
hien
hon
du
theo
mat
san
nhieu
ke
thong
luc
truong
tuong
thoi
phat
##eu
vien
hoi
##os
chien
song
##us
khac
tri
viec
lan
minh
bat
le
##it
nuoc
đat
đao
hanh
##il
phu
phai
cao
dien
ngo
##ch
đang
18
hang
toi
200
##um
am
cau
##uon
giao
bien
##ieng
binh
vu
tan
len
se
thay
luong
phong
thuoc
tran
lon
tay
rang
cuoc
đoan
##as
pho
viet
can
lap
giai
tho
chuyen
##ol
đieu
lien
boi
ly
hinh
he
tong
sinh
bac
cach
đay
ben
xuat
hop
biet
te
ten
201
##00
tam
truoc
khu
phap
##ep
##ur
tham
gioi
cap
than
nang
tang
##em
##uyet
trinh
bay
đuong
tiep
##uu
al
phia
xa
ket
nguyen
nen
si
##oc
đia
nu
bai
##ot
##id
tap
đi
tieu
ngoai
chuc
##ea
hoang
quyen
han
tac
mau
tao
ha
tieng
trang
sang
muc
##ut
hoac
ap
canh
gian
mang
vung
kinh
toan
goi
vo
đuc
đanh
loi
cai
##le
gom
##op
may
trieu
huong
chua
chau
nho
nhien
tau
khoi
khoang
cam
tich
hau
thai
duong
trai
tranh
yeu
10
rat
giu
tuy
điem
##ra
##re
phim
đon
##and
che
##hi
phuong
hieu
đien
tuc
my
me
nhac
truyen
cuoi
hay
##un
vuong
kien
mua
##ul
pham
thiet
cuu
##st
vuc
gan
di
danh
tuyen
đac
hat
ty
giam
st
nghe
phuc
mac
chat
mieu
vai
đoc
12
tin
thien
199
chong
##ad
giua
tim
dai
ung
nhau
quy
truc
roi
đua
##ro
vua
nhiem
nghi
long
duoi
hoat
chan
ton
sat
thap
##acea
in
ngu
trien
phi
vay
##th
toc
de
##ter
##aceae
nghia
qu
choi
ro
nghiep
be
tra
hoan
xay
##ui
##ag
tuoi
linh
huyen
##ing
11
##ig
giong
kich
tat
thuat
cuc
nhom
vong
huy
chiec
ngan
dich
tung
lanh
ngoi
manh
gio
ham
luu
##ed
sach
lang
dang
chuong
lieu
đeu
kha
194
apos
tru
rong
chiem
xuong
day
ne
br
chay
kiem
##ak
man
nao
đan
thuy
##ip
##ion
mar
198
km
pha
ar
mon
that
chieu
mien
197
17
##ll
##od
bong
quang
đam
15
cay
amp
quyet
thao
gay
xo
thieu
alb
xe
it
chet
đung
nhap
##ent
sao
au
uy
tuan
##ne
lich
##ell
bieu
khien
##ard
000
##if
lay
196
sh
em
neu
##ir
benh
mai
cham
##ian
##ov
##av
lac
xu
tre
sung
lua
chon
xac
16
huu
toa
nga
het
nong
đich
nua
nghien
195
##ill
##ab
khai
##ran
them
hung
tot
cat
giup
album
kim
thich
gap
đem
hy
goc
nghiem
nguon
sai
bon
buoc
suc
nham
cang
nhiet
nhanh
##ry
muon
##ine
##ii
193
sac
##ber
##ens
##iv
vang
re
hong
son
luat
phep
14
##ow
##ist
thuyet
lenh
##ik
phien
coi
lau
93
13
ghi
duy
thuan
##ue
nui
91
quay
##ok
##sk
##ae
dau
luan
ngon
đot
pr
xem
phao
lop
met
##ton
gai
##de
chia
##tr
trao
hiep
khau
dong
ai
192
##ers
da
cha
191
giang
cuong
xung
bau
nien
sch
par
##ph
##og
mong
vinh
##ium
car
rieng
xep
##ss
30
gianh
##all
new
troi
chuan
thua
go
tiet
##enh
gr
reu
ki
##man
giet
of
##io
on
phe
ao
25
dua
keo
khach
##na
chap
ngua
von
tron
lao
lu
khang
loan
jo
quanh
##ah
duc
sp
ay
and
##ina
##est
khan
doanh
đu
uoc
rung
cl
##yl
##te
##son
100
##ri
##ce
giap
##ug
đuoi
kieu
chiu
nguy
##uk
as
buc
is
luon
##ub
nhi
ac
##ta
chang
ga
nhin
phoi
##he
##ind
rut
niem
tram
khuc
190
mach
muoi
##ib
ex
##iaceae
nuoi
gam
sa
nan
hoach
##se
##ld
sc
chim
đap
21
vuot
hiem
##az
##bo
xi
uong
24
##lo
ii
##ly
189
sua
xuyen
##ud
##ge
luyen
bar
##per
##land
xam
##aw
giac
22
##dr
un
##yr
lung
uc
##ier
##ff
##ec
pl
##ack
##ata
##ant
lat
for
en
dam
##oph
thoai
##ess
50
cuon
##hn
nganh
thach
sam
thit
trach
com
loat
suy
##ation
2011
23
fran
##lor
2010
tuyet
##ev
suot
doi
kem
huan
bl
el
2000
##don
##ey
2006
##ts
##han
cr
buoi
yen
fr
soat
2009
##eb
##to
doc
##idae
2008
186
rai
diet
2007
ninh
ad
or
ser
som
rap
28
##ick
mal
##ler
que
har
mi
sap
gui
ti
moc
tuoc
40
##ius
187
26
27
gop
us
##one
##ern
bach
sm
##igh
ngam
soc
##co
##ica
188
##les
xanh
luoc
2012
##und
##ork
xet
pol
2001
##end
hom
##ana
##urg
cal
##ada
giay
##ene
phil
mui
rom
##iz
##ma
suat
per
bom
##sh
thoat
cot
##ain
##ock
##ord
2005
khung
john
##ara
ran
vuon
col
2013
##ek
phut
at
thac
2014
lui
29
khoan
hut
##cn
ab
luot
2016
184
2015
min
ed
liet
xuan
vide
ge
185
khap
gang
cup
##ein
yo
##oth
thue
video
soi
loc
sieu
xin
##ies
mu
na
##ka
##ver
nau
##lin
31
nguoc
##ya
##der
2004
##ore
##ob
ngai
##art
##iss
##ate
boc
tach
183
##ico
ber
##yn
đep
##va
tiem
##ull
##ensis
##ast
##ipp
##ust
##ke
muu
thuyen
##ha
hao
game
##ros
hap
##oid
thinh
##ass
khao
##ex
ang
cm
##orn
trich
##bia
banh
nap
##ham
##uou
will
nor
gon
##yll
hen
##ley
cor
60
hu
gu
buon
##aul
xuc
1999
##ith
kenh
paris
mem
bung
##ve
##ca
nhay
khuyen
york
##qu
gen
##ym
sot
##br
tcn
ngoc
##ba
##ula
khanh
bot
##ania
nhe
doa
##ct
her
ep
##burg
phieu
truy
kham
##xit
giau
gh
##up
ich
tha
2003
2017
triet
##ost
##bon
canada
mm
##da
thung
chr
ir
500
hal
ven
er
sal
nem
nat
35
##ck
usd
cum
char
##ort
##era
luoi
thon
##nh
##eph
pal
##itt
80
##ice
tom
uu
wal
khoe
kar
##ight
ngung
dinh
2002
##enn
##aria
##ide
ngang
##ys
##anth
inter
1990
gre
don
##ino
182
##ite
pet
ruoi
mer
##ity
thoa
##ath
##ama
45
70
kg
non
##ish
chac
wh
war
##rad
wil
mor
ag
##mer
##ott
##ney
geor
##ary
##sc
90
mao
vet
rad
wor
top
gl
##tor
##eth
li
##onia
sing
mich
fl
##ole
##ashi
##ifol
jam
hue
vir
ruou
##bert
##yp
men
##ward
ox
1980
32
##ime
1945
##iana
##eland
xua
philipp
hoai
##ague
sanh
lot
##ger
ngot
dav
rob
mus
mieng
##ft
##la
quen
ot
camp
##uch
##ky
league
##go
##unt
bal
alex
mic
iii
thom
ram
59
##ans
##iam
##ines
pro
##uth
hit
2018
hi
##ner
300
##xico
##rag
ghe
##ito
ros
mc
##berg
kr
menh
web
##we
tua
##ophyll
rh
##uom
world
##pl
prot
##ena
##do
180
coc
uk
##iel
fo
##sen
kia
bui
bill
##ane
65
##ont
##ace
1970
sl
##esia
##istan
181
##ix
bu
arg
chuoi
dao
dr
##alia
##ez
chin
##ura
##ester
##rai
##uop
mag
rock
##ker
ur
##ima
##sky
del
##kh
##ett
all
##ella
##eg
hook
##old
mull
36
calif
hot
je
1998
mexico
californ
cuop
franc
nhuong
soan
1960
william
##ala
mil
we
##wn
##aya
huyet
air
net
##ood
bia
iv
jos
california
##ida
##ive
chep
##uz
dut
pop
af
38
quat
khe
##ile
##ash
##nt
bor
mart
33
1975
nuong
tia
##men
1997
ps
bur
##opter
##uis
dc
oc
sw
##net
ngheo
sar
syr
xoay
des
sup
pan
po
vit
ranh
axit
##ert
##ji
##uel
##ki
48
str
##ille
est
##idaceae
52
vui
75
cy
##sa
##que
jack
##sp
##inc
but
##ef
hel
shi
tur
sy
im
đoat
meo
bel
##ita
34
kong
phung
47
1995
xong
##erm
##ero
ol
##za
cop
##wa
mam
rau
##sia
1942
hua
##by
1950
rac
##ale
##osa
##ko
55
op
##rael
1996
thiep
leo
dis
bro
##ola
1991
ant
##ron
37
##mar
rich
##shi
##sch
wind
dar
form
1992
israel
##ase
et
keu
eur
1940
nguc
grand
1944
bua
1994
##ja
hep
alexand
##age
ri
duoc
mel
1993
##ris
##att
##nes
philippines
dieu
fre
44
ray
ukrai
##lt
chuot
##ment
##awa
khuan
louis
##otr
benth
kin
paul
49
eng
ut
##ho
##ustr
mont
51
ind
##ari
sil
hor
42
##itz
##ga
chanh
##mann
ireland
christ
64
##eus
##be
sun
rua
xau
anime
james
##ows
champ
##oides
1941
george
nai
##gin
##ona
##ifolia
ele
##hr
##cl
##board
##els
by
nut
khich
##ster
lind
##my
val
charles
39
##no
syria
400
asil
ob
kam
chao
ko
53
khuon
##ini
1943
star
bam
thep
46
dep
##pt
##ited
broth
ken
kip
1930
bra
##mat
##po
ze
##ms
##ano
ver
##dy
##dor
##sis
viem
##ush
##iger
om
gau
1989
##den
##vel
##ila
ak
##ze
##ugh
##oss
sim
##ael
gar
trau
asilidae
max
54
kur
roma
đom
##che
##tic
1988
43
##gan
king
gal
frank
windows
vot
os
41
dat
ukraina
##mon
##are
billboard
oxy
av
##mp
##ald
set
angel
##arp
scot
pin
med
haw
david
sen
1972
tor
179
flor
ry
tour
##aland
gao
##ric
mad
chut
suon
schl
you
nhon
not
##atum
##gr
xich
rec
ec
kiet
##ling
##rd
##ei
##ny
austr
frie
ok
1946
##aur
duyet
##ski
indon
gua
##atus
quai
tiec
ron
vic
indonesia
protein
sec
dip
##bi
vanh
pat
ua
maria
##kin
enter
##bs
1986
london
điep
malay
chup
##ora
diem
##oman
1985
united
formula
buom
ret
62
ruot
say
##tv
bras
58
mik
west
178
sol
##ox
1987
##ford
##olf
argent
sel
##tain
vach
kep
treo
##ago
##gn
kon
1954
56
##su
##ory
##asc
1939
kal
##ence
##use
##uchia
##me
##ngton
##ser
##vis
amer
##ield
nghin
up
mung
##anda
72
duyen
1984
super
57
campuchia
xoa
##tron
gat
brasil
##ial
washi
robert
##aph
ngap
washington
singap
150
1920
zealand
1979
##stein
##ure
##way
##ann
henry
1982
vol
##ye
ger
##eta
suu
##ect
singapore
francis
##drich
mun
huynh
1965
1981
1973
1968
##ead
pe
saint
suoi
nhuan
##aka
##iver
##ston
tet
bol
lin
##ios
1978
michael
inch
edward
nar
poly
##ami
##oma
bul
rao
##ican
nob
schltr
nep
lit
600
ter
ru
1974
##aga
61
wat
los
hyp
85
mark
eo
ts
hungary
fe
1983
shin
colom
lee
##esh
chot
friedrich
1976
mod
##ense
phang
nhip
champion
1967
berlin
scotland
malaysia
trac
kn
đeo
##ere
mit
dry
ath
##oto
bry
##ire
1964
jon
comp
black
fer
sut
1963
city
##ty
##lad
den
trum
##vin
az
red
##dro
##kyo
mur
##wood
gieng
##mm
gro
music
1971
soai
bun
##uss
##orm
dom
phau
hitler
##ville
jun
##uri
love
cent
##pe
ass
##ato
tw
##int
76
2019
jac
##gen
khen
##har
95
##ani
##ota
pak
##ps
lun
##ois
1947
show
argentina
cuba
63
##aki
thau
##chester
lib
nguyet
internet
66
124
1936
tokyo
quet
##air
1956
##jo
##alis
play
bit
polyp
wall
sur
sub
##ks
##ult
hac
jul
due
##rop
cast
##lan
one
nguong
tar
ib
richard
1962
luy
##och
##emon
##act
##ade
77
victor
##ational
1955
elec
800
##elm
ast
jackson
entertain
74
##enez
cheo
##aris
##rec
gram
ruong
mosk
thomas
lut
stal
##hm
##af
sk
entertainment
iran
carl
1966
177
tui
martin
nic
kito
ft
tv
1969
manga
##ava
ren
micros
mitt
##own
##ose
##uki
khoc
##inn
##iflor
đut
##itr
##20
##stant
##her
kil
##ail
yem
les
tel
68
km2
aug
det
1949
ni
1961
lech
record
##itar
die
brit
1959
carol
rid
xv
peter
nik
##cus
barb
##di
##dw
1938
art
1948
##gar
##urn
88
##omet
##iano
phun
khieu
oly
nhiep
1953
stud
120
nov
cro
hol
##ram
colombia
tak
1937
##oll
buu
67
00
thoang
1958
##pha
polypod
venez
##ome
moskva
der
1977
1951
hach
with
virgin
##bc
jean
##erson
##akh
##ova
dic
##mo
##ban
beo
##bor
73
olymp
##uv
1957
##ons
1934
hum
##asa
##oleon
78
##gh
##ubl
south
far
karl
##cy
holl
1952
##urt
##illa
ott
##zo
ghep
ev
il
71
joseph
ira
##ech
##uto
merr
ic
##oft
ul
1929
##fer
##ianus
01
kat
##pa
pter
hydro
bap
##esc
gor
manchester
mill
##enia
dryopter
chen
##ple
1918
##ria
1914
##ogon
xen
##cel
tex
oper
##any
##gon
napoleon
##ark
##ocarp
##itan
stand
chem
guong
##naceae
wales
##amin
gir
##qua
georg
py
ngac
virus
##hl
buong
miss
ngat
96
69
##inus
##red
##elle
##iff
##rt
1912
chile
##dan
eu
por
bas
84
##ury
##zil
98
ottoman
jer
##ube
##din
heo
zh
##xi
north
radar
comm
iraq
giat
suong
pakistan
1900
diep
anton
green
1917
kan
##zy
##ti
1891
##dal
mass
##ied
uyen
##icus
niger
pot
win
tal
1925
seo
andre
angeles
1922
1905
guitar
1916
##eum
1931
rui
colum
700
bre
rot
ria
australia
dem
1923
176
pic
she
nhen
1913
##osh
park
##ais
khat
khiem
##ble
##ates
mary
##uela
phuoc
1924
dv
rach
81
hawai
##fo
latinh
kl
series
ion
leon
chai
##bai
trat
99
1935
##chi
nhai
##rom
##ring
mig
##opol
quach
##ream
cer
86
##hy
poi
choc
mom
##helm
disney
vill
##ele
hill
nop
brazil
truot
##eri
79
gold
##dl
francisco
records
mid
##ren
82
nhua
87
vieng
sant
sul
xiem
##can
gab
##ake
06
##ars
1908
xit
##ou
wilhelm
05
##ior
harry
##ias
##oster
##inea
##ame
##isch
microsoft
electron
stev
pap
1911
hawaii
fil
##ivers
##ds
schw
port
tambon
reg
##ator
##achy
##scar
97
gra
##ax
##well
1919
ped
ker
khmer
ball
250
##rit
##eud
sab
mas
1933
##fol
##ven
sin
cd
khia
83
boiss
pun
ngau
##res
##oshi
his
roy
##bl
175
##amp
##aine
cacbon
xao
92
##ych
##odon
##rov
kaz
##eur
radio
1932
##tar
gran
euro
mg
##ophyllaceae
jan
raion
wars
##dp
##ori
xoan
polypodiaceae
pott
xoi
liem
##abeth
constant
sak
ach
yam
bulg
lep
rep
map
##sta
##idge
off
##rey
texas
##icul
##iy
oscar
stalin
##ophyllum
ech
1000
pil
tue
bus
rub
##ics
##field
bern
1906
89
vac
##ette
venezuela
was
lim
##enz
##elt
1915
girl
chom
sav
pu
##iflora
fu
##thur
khuy
call
##aster
ye
##ilis
nag
##elia
dec
chum
##las
##anthus
gach
##ux
##alus
opera
##osaur
virginia
khoai
romania
res
##win
madr
##efa
lev
94
##iga
chiet
latin
##iev
##stan
1921
##ee
johan
##otrich
##ghan
khuyet
wood
##opsis
##ado
##bit
##pur
kai
##bin
1928
sn
eliz
pottiaceae
beat
florida
ss
chels
##ew
##oni
1927
nghich
kir
vis
##pr
##oo
chelsea
slov
card
02
diego
bulgaria
colle
rem
khuong
award
prem
160
publ
##ond
khop
trom
##cia
##ily
adam
nghieng
cle
##val
##str
conc
mcc
##nd
ann
dryopteridaceae
carib
1910
07
rick
##enburg
nigeria
tuu
dvd
uefa
##aly
smith
wr
nhot
univers
pen
##gor
xx
##let
##ilia
kra
peru
khiet
gac
##zym
04
##oy
count
##uay
##ning
dj
##ela
##ni
##endr
armen
american
##erto
130
##ife
1926
##inia
##mb
##ema
##atia
##oli
brom
kilomet
##ement
##ten
alexander
bell
fan
03
afghan
ip
##of
victoria
ell
serbia
dna
ghet
ngao
noc
just
pom
##ins
big
##chb
bayern
##kov
##ical
##chen
##zon
sas
chuoc
##king
##nis
pyr
rhod
##ragon
real
chop
town
inc
##tion
08
var
engl
pav
pep
##ater
##50
madrid
albert
dicran
cas
##olog
##idium
muell
arn
##uma
muong
hoanh
##uke
khon
1909
trans
andr
harv
aur
dal
3d
##rys
##pool
140
hir
##ogle
09
hall
##bach
##min
gener
fc
##row
##pan
bep
alf
august
##uka
##ij
ug
elizabeth
xap
plan
xom
##oz
##30
##fl
time
##por
quynh
google
maxim
columbia
armenia
afghanistan
live
##10
##icum
guinea
bet
kom
fin
kor
ara
intern
enzym
id
stan
##oln
cry
##rac
##esco
olympic
##aru
dap
penn
bh
high
##gal
170
##ika
ash
##hamm
##ylv
##cul
ngoan
##ther
##zz
standl
rol
##ower
##ifa
pra
fir
##ool
1898
pt
mtv
##21
##ichi
mut
brun
maced
schum
ku
##ops
beau
taylor
##ira
1870
night
neo
ore
huou
ganh
vom
pit
young
##yc
rchb
fa
gray
yout
##umi
jose
ill
##iii
##bus
boy
1904
##ywood
nac
##dam
##si
seoul
mir
##wan
mah
##cher
##ander
mos
##dd
##day
##vision
got
1907
gall
jim
##ign
##una
jung
##ball
##isa
ple
champions
fal
nhuc
##aku
are
##li
natri
brown
liv
##gi
##shire
pau
1895
cass
##ingrad
bich
164
piano
sax
##yan
liver
##esar
mak
youtube
fed
khuat
bab
hem
##ike
cyr
him
eug
gil
doan
##eda
##jeu
rio
tem
out
milan
##oku
##endo
copel
chic
step
from
uss
##kan
##wer
oan
110
dia
pas
##zh
hypnaceae
macedonia
liverpool
fel
##ony
##zer
##iensis
##ati
nobel
urb
panama
charl
pier
##fa
##achus
fun
##yt
1897
pers
##rod
times
##phor
serie
arm
old
lt
lindl
division
##jan
white
lip
myan
mol
##beria
pc
##ifolium
174
hun
##bar
##hol
##ors
uot
##ets
won
pur
tp
##ual
grammy
cre
gdp
arsen
mand
##over
##xy
##ope
##ift
abd
okina
maj
##rie
anth
gie
##amine
plat
thiem
1896
##nam
##via
##ise
foot
bin
santa
1859
jae
ecua
java
##11
##hing
god
##eton
ecuador
log
bob
1838
amin
##andra
pod
sum
games
okinawa
coll
##phia
nhuoc
1899
1902
chicago
glo
##yo
premier
international
##san
##amo
##port
##agi
kun
##ship
##fr
solo
pa
1869
alek
##opogon
dor
##ali
##lyp
hier
sir
##ids
##ington
1901
arist
900
hollywood
aqu
lar
##aud
aspl
nav
law
khuynh
kheo
boston
1866
brachy
##gg
##box
palest
ever
um
cn
way
truat
gin
jones
1903
stre
amb
wilson
##ete
single
es
williams
1894
nin
italia
kit
##lav
sic
##elin
##uck
moz
##eria
island
##van
##19
nhao
zam
roman
gun
nung
xix
vlad
##ese
##aska
##enberg
tok
##ison
##ings
##yte
nhang
##ello
##yd
asplen
philip
##ange
phot
hil
sound
1890
lb
##see
dance
club
marsh
sri
##kk
oi
uganda
##dney
##iform
##lex
orth
##bes
bryaceae
##usa
##oa
rum
xang
bud
##non
##rin
##ait
165
##igan
scott
fifa
lor
##eo
1830
kenya
hip
mess
##work
vii
daniel
dig
1878
trua
##ynch
robin
phar
##ylon
kos
##lv
brand
ste
nghiet
fab
##ovo
##mond
good
sult
model
cel
hind
168
arthur
arsenal
kenn
kunt
hand
fox
##chn
spec
1860
cp
bass
unesco
##ves
##sm
palestine
diu
1864
pseud
##cer
##aus
cut
##so
##ju
152
act
##ient
thieng
pip
pok
##rich
##uce
giuong
fern
spe
ny
arch
oanh
##thia
blue
micr
oliv
gard
congo
carbon
dun
##itch
jeff
college
1889
croatia
##ben
##agn
bbc
##bal
##ition
##andr
media
dur
alp
nint
##une
buy
trin
##enos
enzyme
chart
125
gris
juan
litt
##out
oh
boe
##ophylla
##icia
cir
apple
perry
ivan
##escens
beng
bos
bad
canxi
1888
kuntze
hard
int
school
##asia
linc
##emia
105
carolina
lept
pres
harris
##ovich
##mi
##sey
1867
cui
asp
land
##hammad
##com
##orus
##gy
##hev
xinh
jord
baker
##arch
##yon
##ism
##ioch
ji
##cz
##je
##uchi
##rob
has
##othe
mr
##iki
nintendo
##nel
166
uran
##bourg
ka
##ats
jane
nom
1871
wild
ins
hms
thun
##adel
khinh
##hana
##kt
sultan
##ogl
ix
pul
##omon
leg
marie
gt
let
##cc
johnson
back
marc
voc
cape
mey
ruc
cont
dicranaceae
##ason
1880
eth
##tus
wolf
##ogen
dev
under
##lla
lincoln
nuc
anna
##adi
##oko
##ident
##wor
trot
esp
##ters
##ges
phen
101
brem
1840
allen
royal
##kow
dim
life
##ital
national
litva
nick
kry
mes
##isc
##mel
psych
goth
bis
##nia
##arus
##ku
1893
group
anne
##ures
##achi
baltic
boliv
syn
##ales
phon
stone
##stem
sah
##azz
##gs
##80
##ifer
jin
1873
doug
east
##ista
##osaurus
##ume
##rah
##oda
127
steph
##inger
ther
end
##taceae
1848
sip
##gb
amaz
##antha
puerto
din
simon
mia
trump
nad
##ishi
news
ful
##folk
leuc
dream
this
thelyp
madag
brid
constantin
hein
##gas
##atar
las
1875
norfolk
german
semat
awards
line
##ns
##iro
##iew
spin
alt
##ranth
##olas
##ascar
thelypter
bir
##opia
stephan
cord
great
1885
##imb
uon
clb
rev
155
kav
swift
##rat
hymen
rud
##ianum
freder
##odont
##heim
1886
##cker
đun
##arl
catal
band
##osum
your
bes
##qui
dubai
ja
nit
run
vinc
##oe
inf
hid
chris
caesar
1862
##arta
##line
raf
167
barcel
meth
##xt
##eak
##rog
##iko
kali
##ated
##war
naruto
beta
##etts
1861
guadal
##imir
##book
##gu
key
154
mul
robot
pi
down
alger
jordan
madagascar
hist
jap
ridl
##nch
##uro
sv
phac
1863
1868
##opolis
##mas
andrew
road
lach
##ili
marshall
blo
lanka
pierre
cur
kw
mv
over
ing
##gium
hoff
##col
##vo
##anum
##ylvania
##bul
moon
stey
little
titan
##aire
barcelona
face
ax
##bu
##ations
lenin
##pp
##aro
##cha
cons
sher
prim
boeing
ost
##odendr
##ken
alaska
america
light
##oton
khuech
vitamin
blu
sulf
##dt
1865
##ques
lew
kab
##emy
##anus
cher
sz
lom
1883
nak
rose
##uta
vin
sydney
##aica
liban
ali
yak
tanz
hart
##lines
##mit
159
arec
jud
163
##tan
##tram
cycl
steyerm
gaga
rup
##rh
clar
yet
162
gly
loire
fort
sor
buyt
byz
##sin
##ild
studio
128
##ule
massachus
fur
pent
##ret
1850
caribe
nich
##zen
khiep
##kel
system
##15
gioan
350
##17
bank
massachusetts
##60
1876
pall
##iph
huoc
shah
vy
109
1881
att
alpha
metal
1854
tanzania
phaolo
1879
ub
##oro
##aon
##alem
##edia
##but
##fe
##agen
airlines
od
##anga
##station
iceland
grim
mini
russ
meg
fall
##bury
loa
sho
football
oxit
1849
alexandria
##arth
color
rib
##12
##urne
##aze
pteridaceae
1882
##cast
##off
1877
marx
house
ngui
nato
arecaceae
##eliaceae
gruz
merc
gies
num
batt
guy
georgia
##ska
1844
euphor
byzant
##ral
##gro
madon
miq
thoc
##ardo
did
##osph
princ
put
##14
##dwig
chrys
liu
##ival
best
##asy
france
##ocarpus
mast
1841
christian
dist
app
##lam
bim
philadel
1836
##vers
queen
leu
gruzia
lum
1846
kepler
##bre
giun
crass
turk
ethi
pel
##ci
104
beatles
ek
iw
157
slovak
hell
##18
open
##mir
##pson
madonna
##edy
muhammad
boh
slav
dra
mk
##mand
360
playstation
araceae
gn
wo
willd
##opa
169
rome
##ction
oregon
##etta
##ithi
joe
ein
bromeliaceae
pac
spring
dh
173
##able
1887
##ctor
penns
pay
##agua
aleks
malta
griseb
ghana
cod
team
emp
giesu
chuon
khal
batman
franch
cuat
ric
##bel
##ery
##usalem
##iers
##its
##uda
1856
##bridge
107
##rid
raj
amar
##agne
ptol
xiv
pennsylvania
xuoi
uop
sams
rico
##osper
##elli
##ister
##ode
1845
##ault
##oxit
##ersey
jacob
##ept
##canal
sudan
##con
grac
khue
sky
wwe
leyte
1827
brook
gung
oz
nghenh
pre
##mouth
fi
##for
shar
1824
libya
guadalcanal
vers
##bb
##16
chur
##kins
guat
tep
eric
1874
##ipes
blan
genev
##ious
jenn
mp
##nat
viii
vas
chui
nepal
sematophyllaceae
squa
cuatrec
wang
##roc
championship
domin
nikol
rodr
1892
well
hiv
prod
chal
##bat
##iner
kol
##atra
studios
ju
##neo
who
##zan
102
philadelphia
##kaz
sand
##oper
bartram
##awi
1872
girls
street
android
##13
beg
jerusalem
##odes
carth
ethiopia
ruoc
##icon
choang
##elly
pict
yang
##tz
matth
jaeger
kiev
156
anim
106
##ovic
##cra
costa
##ely
##bek
nhuom
bengal
jazz
##eld
sag
post
172
cav
115
##rol
clor
whit
##otrichaceae
sr
magn
##osp
##ingham
eri
hydr
ah
##ides
yu
nhue
first
##fi
##als
##ision
153
##trop
ted
##var
lag
fle
##arin
kazakh
fest
##wick
arc
##aba
kane
chenh
##acia
##enes
dol
mars
dark
company
samsung
##eno
ross
ngach
moore
jay
##etia
##ariaceae
##ando
franklin
lady
nord
##odendron
##ione
##ovsky
serv
fac
ahm
lig
hous
khep
viol
stock
pedro
baill
137
jr
##rogen
1810
och
sad
prin
thuo
lejeu
ludwig
kag
##gie
vun
1858
tum
##avia
##aca
##rence
149
lewis
heart
##ulata
feet
hann
144
tit
112
henri
alexandros
##our
melan
amazon
##ique
soul
pound
deo
1884
gluc
147
dub
##cin
##iol
khoac
145
hus
ern
##tsch
mep
135
1851
british
##nea
##ject
##orum
142
chlor
##bro
##fia
mind
sig
##ador
##ave
##atin
broad
123
sakura
albania
greg
astrag
##rick
laser
sony
stephen
pad
power
##oga
sten
tol
##otte
108
manila
dak
fiss
riv
toai
##oria
clo
two
oct
hems
##epp
##nik
walter
cia
sachsen
##worth
##hin
tunis
xii
##imus
dora
##ute
kind
##rot
##idi
solomon
astragalus
fire
##ilus
ober
thot
##enter
alice
##tis
##ople
lie
##osev
##owa
##imp
gol
jersey
##ific
logic
aer
gene
if
sym
byzantine
##ites
gas
##aco
khoanh
general
douglas
jamaica
antonio
3000
nanh
##eau
feder
pokemon
##isia
brad
sea
##nger
alan
belarus
kang
##ider
walker
##esse
kob
1832
davis
##hio
hd
inv
kavkaz
##oin
inst
krym
##uld
abu
county
##ru
##otus
1857
gala
##gl
##ław
piper
rand
##tt
carlos
ble
##aser
lux
mult
church
deu
1855
bush
122
##rix
ent
ford
xvi
aut
##kok
##jin
##erg
guam
lis
##ray
had
##ape
450
cactaceae
def
aust
113
acet
##ught
dend
atl
otto
##marck
huc
bop
##itaine
##ierra
atp
houston
dn
##rus
##odium
kras
slovakia
##esi
139
sasuke
thelypteridaceae
uz
wel
heav
occ
jum
euphorbia
exp
miy
nig
##ulu
158
##thec
norman
alfred
##iri
##ions
143
vor
raw
##edd
##oba
point
kas
week
hack
##aman
##iaz
vel
banglad
corn
##hen
129
urug
##zel
##ido
book
##eran
##40
then
cogn
benz
##000
##lles
sev
1833
##sson
##ephal
trip
##itter
##ree
adr
##cm
born
caly
mike
bangladesh
##mund
##yu
##igo
junior
paulo
gaul
sph
ign
##rent
pon
giuse
mis
##icola
harvard
##otria
doll
hur
##bec
thr
child
margar
steve
aquitaine
bismarck
kieng
nou
##idad
117
heter
##ous
##tha
weber
ibn
##aun
nito
berg
đak
leningrad
prom
part
scand
abb
myanmar
psychotria
uruguay
fai
hug
kent
##yria
##riel
##yle
matt
tiger
##cr
##illo
know
ngong
##cht
##iens
anderson
clin
flav
kot
##omi
brian
sche
##aux
##elson
monte
lejeune
##gue
queens
horm
christoph
sicilia
oxford
nasa
mob
118
guc
##uya
lepid
giot
132
schult
ce
wan
##site
sumat
ms
##omb
newton
verd
linux
##rier
dragon
gust
##ansas
like
roosev
##yeong
brachythec
1842
##py
bow
lejeuneaceae
xbox
carp
suyt
network
##opteris
##num
novel
proc
##ough
roosevelt
bangkok
ariz
fam
francois
punk
vladimir
ess
136
##pho
guatem
gle
bip
ngoat
103
##oidea
water
pyotr
lil
clark
polym
zero
##ulaceae
##abi
##ology
website
munchen
##essa
ching
##iella
##epis
220
franz
bull
tul
ballad
##olis
hedw
##eps
carthage
wy
channel
146
rolling
##ional
##ibia
1847
##ote
##ces
##hip
##nom
##iere
adolf
bund
thin
ferdin
gur
lgb
leop
gym
ig
##enko
main
ster
1843
goa
dick
mount
##apa
##ako
##ocarpa
justin
ninja
mikh
##craft
hemsl
fat
carey
assoc
produc
atlant
wol
##down
##ulus
126
##evich
138
visual
##amoto
lab
##osus
##oste
borneo
hub
yas
mov
agu
babylon
##oit
##enb
1800
codice
##esa
##trich
pass
##aban
proton
vatican
estonia
nucle
cra
kill
##inois
schles
##yland
tony
##ingen
##gel
1834
frederick
kazakhstan
io
cun
##rum
##eron
bog
hans
constantinopolis
pont
ufo
##par
##ifera
mits
phiet
##iago
nev
rox
lennon
mim
1852
abra
1831
kad
vil
phoen
##eller
luke
what
kiep
test
chd
ngc
##bourne
gabriel
lawrence
einstein
##wait
##osc
##enzl
kum
##sd
lup
##ylan
##athe
rhe
lgbt
file
kamen
work
yosh
oxi
oai
##tw
nguu
##eman
corpor
darwin
##iot
eis
ery
lak
##omo
heinrich
##omum
##awak
cross
rider
##raph
##uban
aires
nas
##sf
##yg
reich
warsaw
besch
marcus
ark
austral
eugene
##ras
##zi
now
hav
##quin
japan
buenos
ferdinand
ling
yun
##elo
facebook
arizona
burg
ohio
##stad
gm
##bol
nhoi
asc
##48
##fal
133
##reng
heli
hin
cole
lem
dipl
jong
##rice
cambridge
pag
đui
##pton
##gra
##eni
maroc
##ody
##ogne
acid
peters
##ager
athena
ov
rus
sierra
prop
kennedy
gel
griff
1828
mccart
fant
##burn
##usta
pictures
1853
kop
illinois
cather
found
jak
kap
wik
##kar
vut
1839
1826
giuc
adn
1829
##anni
clorua
conn
roger
ard
neutron
home
aspleniaceae
rech
mete
parthia
salv
nitr
yok
tut
beach
##ather
##dg
johannes
mend
luzon
qatar
##kia
doraemon
beck
##ente
yuk
##estr
lucas
qui
##ophila
senec
slovenia
ht
samuel
luth
nuot
pos
grande
mikhail
pir
vern
vap
loang
##phus
##iculata
begonia
catherine
jess
rey
guatemala
##iti
##ulf
antioch
augustus
ow
lav
##obry
morris
zimb
seb
1837
santiago
##cs
##hara
camero
dread
xiii
##mes
spr
fol
algerie
tunisia
aden
university
##furt
mb
202
##cnd
potter
dum
teen
##idel
##led
spreng
rica
how
mosc
##ifolius
digital
dead
##vent
phyll
maz
alder
##abwe
##inal
##urus
summer
##burgh
kamp
##ogloss
hud
kyoto
biem
##kos
##ouri
##ocer
bruce
ghen
engine
nix
roth
##esl
##ulin
##ally
grant
corporation
zimbabwe
last
quar
jacq
molt
ryan
uat
methyl
kak
ui
114
nees
sull
crom
##wal
##ieri
schust
##mus
116
michigan
##hard
##wich
##urai
##utt
119
##ights
associ
abraham
##pat
##ukov
pand
##bine
##car
thor
##omia
##lach
moll
##oke
crist
micro
denn
##wang
##uca
sem
##won
truu
##otep
1825
morgan
fly
jar
wa
chich
mold
warner
luxem
rea
tir
148
mazz
normand
bernard
orthotrichaceae
esc
##edes
bolivia
colorado
##cium
shim
mccartney
kraenzl
cameroon
project
flo
rober
chip
##stone
rapper
missouri
##press
chdcnd
kash
##db
lord
##ylum
edo
moltke
yuri
parv
class
1835
europa
##skie
sarah
hormone
##bral
utc
stephani
dreadno
camera
four
pharaon
cin
##emb
dreadnought
##aut
##owski
blog
xviii
nelson
##iety
galaxy
roc
zar
bour
##eto
azer
ibm
prad
roll
##zawa
ya
##ean
##amb
toron
134
isa
##phidae
aids
ll
##app
hispan
kle
##nan
cour
suz
##ibal
wim
##inae
##alo
johann
harrison
grimm
howard
state
iso
walt
galile
hymenophyllaceae
##atic
##idia
kaw
wright
myanma
##ved
songs
##ollo
##enham
##nah
##uga
valent
##lov
##ware
##opus
miller
meteor
toronto
##eim
bahr
1500
acc
yan
##aea
##ambi
##ience
##onen
2020
baden
240
1812
aleksandr
##aios
##encia
luis
tiber
christopher
fda
pix
joan
320
hooker
cit
dyn
fus
lanc
##edt
750
##ways
gieo
thunb
gent
toy
donald
##chin
##agin
michel
sent
dy
hugh
rab
carex
##tes
##onic
##rak
sarawak
cale
1820
nicar
river
cory
aud
jacques
gand
necker
##itrium
jason
lieng
ml
##sy
##hor
contr
##ugawa
isab
stalingrad
caribbe
parag
somalia
hindu
kv
##ever
boat
##aker
nixon
##ippi
singles
bup
fish
##ilton
miami
##eng
##osis
##oceph
brunei
##azine
brev
take
##ebec
bhut
urani
fisch
via
##ioides
phill
##eme
buck
cad
##umin
bryan
##kes
##kor
##vn
hieron
##etti
russell
qđ
phosph
##onne
conf
vec
anat
##olia
kaiser
adams
##fu
fuji
cost
##ipt
ptolem
sumatra
senecio
##iad
##ambique
lh
box
##omer
und
dendrob
a3
trel
ulithi
less
##cal
kevin
death
intel
##imi
##ensk
prince
hend
thes
##esus
story
##baijan
malawi
clinton
guom
##ml
mog
##asi
##elles
obama
gordon
trinidad
bremek
panth
##amus
more
melbourne
dylan
##bell
##ots
matthew
brachytheciaceae
hispanic
buk
##uin
##omy
rain
mozambique
##anol
vietnam
schm
pink
jav
xot
##hynch
gion
nova
##phy
tokugawa
##velle
spears
sie
lopez
cbs
dd
##shev
##jar
khoat
##agr
210
horn
led
hamburg
##assan
turner
azerbaijan
m2
##eon
quebec
##ikaze
golden
gymn
##mum
amaryll
iz
##pris
stein
prov
hipp
##onica
##ians
hiđ
ukraine
hoffm
juv
steud
claud
moscow
##iae
##astr
balkan
panzer
pp
nhuy
cand
##uru
next
##ianth
##sha
crypt
cruz
silic
plas
fut
##real
gad
##cas
angola
dae
##eter
macr
##thal
##ender
##gio
##feld
shan
orle
track
tennes
##irus
acad
villa
kindb
gem
belle
julius
fleisch
aus
antig
##borough
##holm
ik
##iw
##ouk
1806
nicaragua
##sman
##ution
dire
##ikh
hermann
athens
empire
kelly
##ocen
ferr
amaryllidaceae
fuk
og
mississ
anthony
margaret
tanh
##aza
aguil
##kal
gib
##rab
film
liga
head
manuel
euc
##zig
cook
nghen
##achys
theod
##hir
hyper
##dorf
wester
##kl
##pen
gott
##oh
##opatra
myr
final
nouvelle
schimp
yemen
##iformis
alderw
center
##tum
230
1819
dryopteris
tennessee
##form
chak
##oka
cyp
##atsu
##gorod
kuwait
asplenium
lyon
##abe
1803
1805
##iformes
##jeunea
vincent
dendrobium
c1
lion
rp
bolshev
queensland
pax
rug
haiti
ontar
##icol
##idine
shaw
sparta
rel
##raz
##hanna
bryum
ruiz
major
orleans
ontario
field
jag
kay
##lie
they
barr
osaka
##ible
eun
math
becc
miz
5000
konig
jimmy
hunt
iss
##town
##phone
praha
font
rna
boys
hisp
eryth
ptolemaios
sebast
gagn
jtw
kid
jtwc
nm
valer
mats
280
after
1789
cleopatra
das
sit
sankt
malp
##issa
hamilton
##ize
atlan
konstant
pow
cover
noan
clem
eff
gibral
##osia
organ
obl
##bir
phero
##omen
metz
##ylus
nhut
##ossa
maya
##skaya
rhein
luxembourg
aw
koster
##kie
fuj
cairo
##tric
1821
torr
guard
tig
##inum
namibia
##asu
cyathe
xvii
zen
montana
##hydr
andy
syzy
mississippi
phach
bah
guill
aragon
##bay
##anger
baby
##ahl
delhi
gagnep
fair
##ullah
twitter
sene
tab
1801
mariana
maryland
patrick
aff
yar
alter
sahara
cyatheaceae
naz
anc
zambia
gustav
ns
##aldo
##jima
##asaki
earth
kiss
nur
##gia
##ance
lad
##alaya
plut
##iesel
master
##otis
dean
spir
clau
brandenburg
wes
##gus
latvia
serge
aki
##wig
##apur
bolshevik
##sel
metro
##met
##ifrag
##fat
##ellow
ring
mora
##illes
jen
wu
syrphidae
disc
ave
##alan
theodor
##ips
##shu
frankfurt
mitch
dakota
amm
##attan
kosterm
ea
hlv
peg
carter
heavy
abo
wend
##icill
mario
bie
##ress
##orph
atlanta
syzygium
ult
##zia
santo
hak
ars
##entus
gamma
slam
aeg
ey
guan
##attle
saxifrag
conne
hec
hunter
navar
nicholas
term
##athan
##etes
munich
cyn
amster
sess
##eh
benn
##uncul
carn
##ophon
rhine
##uit
gill
have
##rox
##igue
##abad
##iva
abc
schwein
churchill
luther
amsterdam
kel
phys
techn
nobita
commun
clarke
rw
siberia
carr
union
abdul
ner
##vi
dos
apollo
rihanna
gibraltar
gyeong
zur
photon
ef
philippe
1814
bhutan
##dle
##ов
##iden
##adin
1815
festival
gong
mall
vell
tect
260
charlie
battle
natal
konstantin
kok
##lah
zan
##key
##unes
pam
##back
alam
##ocaul
macar
timor
##agar
##illy
##riaceae
leopold
iberia
nieu
rig
stew
malaya
again
tag
uzbek
atr
##sl
111
##ipe
##gram
hig
##uf
low
##sko
##ylis
mw
yah
##mont
saipan
samurai
nevada
kut
##apar
##eti
shak
##weet
##tom
##ular
row
medic
planch
neckeraceae
aar
phnom
sud
bil
##ckl
geneve
ole
there
##iter
online
##fc
raven
chun
mec
bros
oliver
peterburg
mobile
##etum
soft
universal
moselle
bohemia
nt
seattle
tamil
shot
hypnum
kis
##ude
parad
latino
##ighter
krakow
alpes
zo
##emberg
##house
kens
sis
were
##hua
##imo
##orts
hey
cyrus
paraguay
aguilera
##cio
steven
beth
##ulo
##roy
angust
year
tt
type
croton
##quer
get
##alum
##star
johnst
flow
warszawa
##lc
hold
##ermann
arts
##iban
nikolai
##wald
##unc
inn
insee
marvel
##castle
stewart
bug
muot
##iny
mett
##rius
##esses
free
##osterone
wedd
##acter
epid
deb
assyria
##ycin
gregory
caledon
chern
sever
afr
##optera
##ulum
plant
650
##nn
sex
habs
##hiaceae
##ctic
thompson
wak
##ceol
##olejeunea
jai
wag
xat
##eshi
orig
##othecium
##uard
đup
##osperma
mh
rost
yamato
##oglossum
##iya
clip
##lands
boris
concert
glyc
lomb
##ermo
kamikaze
grad
tara
##rine
##ocar
rosen
enterpris
stockholm
wer
thiec
##isha
hero
550
kant
##ailles
##uter
orange
calvin
habsburg
ae
##get
vos
1804
sed
##idens
press
##ogaster
blues
instit
vtv
##nier
benj
shad
rommel
1802
vh
yong
##isp
polypodium
newport
artem
holland
aj
never
engel
##los
newcastle
##issima
watson
caroline
venezia
greenland
stevens
wayne
lake
##imum
papua
weekly
vent
##eres
cell
nash
hyun
nutt
glor
##aust
danube
##ophora
270
reagan
thesaban
tb
##iac
##zar
##wall
cooper
taj
side
senegal
diesel
sukh
##stal
##ede
albums
##enheim
adel
venice
magie
juventus
palau
castro
lia
##fs
##ento
clement
1813
bahrain
lys
##uku
##witz
plag
##atty
midway
tc
tort
office
janeiro
##dur
##zal
##wara
##andez
dest
##icz
viv
##reg
rog
shog
##ovka
salvador
kath
mine
##cat
##gp
treu
society
edge
nass
want
##fort
##imon
alab
peper
pradesh
ud
##uh
##amer
hutch
roxb
cephal
jima
kah
##ilum
##sho
hiđro
teu
##mingham
silesia
cpu
dall
rhodes
inte
mann
graham
generation
benjamin
kik
##set
##ict
stra
stef
adian
polytrich
ios
pitt
stanley
##eki
hookeriaceae
##chis
cucur
herz
daryl
kurd
jura
oa
##acium
##roch
rod
##athea
sylv
##char
stere
##ental
schlt
lock
##aton
##ents
elip
arab
hannibal
thuon
1818
explor
schltdl
##ск
peperomia
choles
capit
delta
woods
cyrt
wonder
gothic
eg
iowa
##boy
forbes
england
seleu
versailles
yoshi
##uver
tott
##obium
central
hugo
##ether
birmingham
civ
##tal
##rap
##nge
sihan
europe
cholester
bret
##ffe
oklah
##otrichum
##amon
##abr
##lyn
cucurbit
jub
##ih
##rates
##yth
##ersch
##ennes
terry
seleukos
penh
##86
##onos
##omys
##tsche
##ylla
olig
fred
yokos
cran
yel
##tim
##atis
bag
quer
blume
##ethyl
liber
barbara
##bank
rin
tuat
vn
ward
brach
sport
##rost
factor
gs
ryu
rene
vegas
##asha
bart
gov
jang
sara
tell
##aig
maurit
##uble
polyn
##anthes
valencia
hm
kyi
sid
##hiro
##istol
nano
sihanouk
oklahoma
fm
golf
##bot
##ario
##cho
amoni
vul
manhattan
mira
desc
charlotte
##stadt
yokosuka
##zio
##fish
apg
##eder
thomson
1775
dollar
kaf
zeus
##dale
##eut
##edi
valley
##hman
##yst
cob
core
##iller
##ograph
##onso
hieracium
magic
people
ambly
robinson
eul
ronaldo
schleswig
malpig
cholesterol
wii
##kai
usa
remix
##apest
##acca
logo
marl
asia
pseu
surv
gilbert
tottenham
##hu
code
schwar
budapest
dre
gy
lith
##oven
petersburg
cucurbitaceae
sard
nhoc
most
boul
curt
##isb
holstein
global
##recht
ia
##pi
dop
place
##izz
minnes
scandin
##steg
dion
bed
force
turbine
##ror
acacia
austin
nab
##uni
##ffer
julia
kunth
fernando
khuoc
jungermann
jab
ww
##ative
mack
nefer
gross
christina
garcia
jesus
itunes
emma
estrogen
opp
hills
idol
jma
##anthera
billy
woo
##sburg
##acht
camb
beyon
utah
bundesl
cec
china
##inho
##arn
##chan
second
telev
ernest
##fur
cous
louisiana
ruf
rodrigue
phoenix
alabama
bm
pao
##atz
hex
##idt
asean
association
rott
pia
##tra
murray
bundesliga
cich
##mah
frien
nicolas
##miral
##ril
##uct
vik
##idum
bond
berber
ramesses
##ushu
gw
kod
##yss
khark
tasman
phanxico
als
quin
gregor
1798
zhukov
hudson
aja
istan
mn
xui
##lem
chav
##eshow
beyonce
##xon
saf
circ
production
minnesota
niel
page
##yi
maine
oss
##nie
##ayo
##orro
hampe
##ugu
philippine
kosovo
qlv
##imet
daily
wrest
istanbul
##bold
##uar
nhuyen
napoli
kansas
our
##cd
##kare
##gang
lex
##fford
blake
qlvnch
neg
##azi
flash
link
hidey
caribbean
uan
##endor
johnny
andrea
mozart
##iber
aph
##ives
quark
malpighiaceae
age
edition
lindb
market
fay
jas
##uart
soph
mali
1822
cardot
jefferson
bosnia
dag
##fen
bran
polyst
jennifer
nah
sd
##nell
hok
theu
andes
##couver
##oshima
##ones
##edo
gren
cacbonat
miet
bast
##ovsk
330
command
##hat
##aido
name
georges
##mler
##zsch
##aise
temp
##roe
lact
pec
##oon
bak
##enhagen
glau
burk
este
ace
dw
jor
##ssk
##ocl
##ulosa
##ste
##ellan
claude
ail
##die
##amide
##angel
##ipedia
iron
about
##rell
cosm
##arum
vancouver
##ffy
airways
montene
##du
##more
##orp
express
ltd
isaac
ceo
tip
science
riu
##found
poir
1a
##icata
cichl
gog
sham
joy
##ization
##etty
britton
vecto
sebastian
eb
nk
thia
203
ref
knight
seg
sean
##unda
rhynch
service
fem
pus
##mal
##lk
##ostr
glas
1817
iot
kuk
##eds
##phin
rwanda
triple
ngoa
##ograd
foundation
rodriguez
neph
##tel
lob
##urea
##idus
bridge
##undi
broadway
wikipedia
epidendr
muban
xon
##rough
chamber
samoa
##evo
admiral
1808
gaon
schweinf
iuc
nied
party
scar
##oziaceae
sens
##ausen
##orhynch
made
server
herm
1823
montenegro
mt
vv
##athi
##aso
sign
newfound
##sei
switch
montreal
past
hood
conan
stream
sailor
turcz
mercury
enterprise
cs
iphone
##wat
##ink
##oros
##reb
orient
glenn
rhin
##urnal
aristot
ubnd
fiji
newfoundland
##mu
##etic
hoch
##ablan
small
##rose
indiana
kirk
rest
##pc
when
rhone
##umb
##ostem
rydb
747
revol
nach
##yad
vienna
braun
carac
joel
imp
evans
hik
lic
##jon
##uala
bird
libert
pays
sq
nhim
sofia
tank
giov
##alyx
turkmen
buou
##imar
bec
beatty
##iflorum
himalaya
galileo
iucn
nokia
grace
erik
##aparte
epidendrum
ferm
##wi
##vir
neol
which
rosa
luna
republ
movie
fitz
oak
##jab
loet
meis
marse
gav
hern
jut
muk
##head
##less
ana
##itus
shel
standard
sheeran
blood
fantasy
fbi
##bn
##naeus
##identaceae
lombard
##iman
maurice
copenhagen
secret
felix
square
occitan
##face
##23
tun
heath
##ural
##rez
##illaria
##ugi
doctor
portland
animation
explorer
nil
three
seine
comics
smol
jump
pasc
mori
##ichum
crete
desv
pept
##ablanca
ehr
mph
##tist
gig
bod
bonaparte
schne
##upe
2021
italy
##court
shik
full
women
gomez
mail
##iani
whitney
tes
lucy
leone
edin
cousinia
lily
##mun
##xac
cant
haben
metac
silver
fissidentaceae
navarre
uzbekistan
##aid
motor
gaz
prof
normandy
plagioch
mum
must
pug
##uen
phinh
đola
alph
##igma
1811
##aurus
oce
hob
##oline
manstein
khr
lax
##chev
##tern
lud
aurel
meteoriaceae
ajax
nero
xien
marcel
grey
brothers
##sol
thing
aux
##rios
oricon
afric
##otrop
##onsin
germ
hp
##cock
##aa
##yama
saud
hondur
short
shonen
##ensen
spart
hcm
witt
toshi
macbr
##igl
cath
##uko
1807
##ws
##osm
marg
orn
magazine
putin
plasma
habenaria
louise
pyrros
australasia
thut
journal
barca
jonathan
nitrat
rama
##iq
nod
##oloch
stad
##ahu
sunni
novgorod
##phaer
jerry
giovanni
##dom
thebes
match
##hiz
##ularis
##anti
cichlidae
##eura
##ember
roon
##hael
##play
knowles
##urs
deep
225
##bet
cannes
##olepis
##idiaceae
##unaga
##uli
only
##minster
##icolor
##del
##ering
1799
glucose
western
oman
xanth
##oque
##ikov
space
##upp
erich
1809
human
gary
##inin
##etus
1200
xoai
asper
block
##aulis
##ega
simpson
##oxide
##brew
vosges
fro
##xh
soo
tech
mans
ophi
santos
iwo
bella
##olo
##beri
1792
sabah
gul
casp
singh
christmas
jessica
##bie
##ls
also
break
bartramiaceae
##cell
##ness
##gow
##gger
tup
##chy
radlk
stark
english
trotsky
aaron
cena
dac
##kir
##nar
##ен
##elis
family
byr
cv
mina
taxi
hebrew
##eva
##icket
hs
##lis
##aten
##ogy
damasc
rachel
##ritic
akh
gb
tch
##oine
205
##alin
lyc
emmy
##ebu
vie
##erta
##aran
hee
##ogram
legend
polymer
wisc
##ioid
##oslav
hamp
arena
florence
mug
mith
niet
wurt
zap
chieng
##osome
amy
hitch
1816
raymond
ronald
voice
##esis
alc
chev
bert
mountain
television
kao
##ер
cold
coast
herac
drama
480
britney
crassulaceae
eisenh
nim
alm
121
march
##iful
email
steroid
##kong
##icana
tad
##matius
winter
see
##alla
mcdon
zurich
wisconsin
pai
vick
##core
##kas
louv
bristol
volga
synth
metacritic
nation
##wana
hab
money
its
seri
buff
ecole
panther
honduras
eisenhower
cis
pv
pab
vam
chit
##itis
bailey
##entz
front
koch
1786
devon
aster
nbc
##25
leip
capp
campbell
380
linda
rafael
ailen
piet
canad
hanover
clay
##uba
fraser
hideyoshi
ct
##dia
##ucc
##uge
cyan
##dge
##vor
##ст
235
berkel
helen
eugenia
ds
##alt
##itsu
##ilian
##owe
##iston
##track
taliban
country
liveshow
collins
garden
lov
##opl
##reen
##dee
##khov
miguel
kenshin
pend
##yra
banks
##rostis
kurt
smolensk
dent
kul
yoko
##erat
cameron
##ovina
grimmiaceae
damascus
phanh
ank
teaser
##ulidae
##ados
1600
erica
4000
ommatius
hydrox
control
m3
other
pang
wit
##yx
dave
oda
##ieg
tric
##tria
krasn
edinburgh
yellow
##90
bazo
##aven
##atti
niken
baptist
dz
lima
rz
##45
luang
saw
grev
1788
verm
suez
sep
frig
##mark
##actyl
ports
console
sherman
##vier
##inth
hangul
##toch
moraceae
demet
beaut
##lia
thuot
parker
##hampton
##ght
aristoloch
##iazep
##hium
electric
fujiwara
dallas
##sar
##shan
##iness
voy
spl
ryuk
falk
szlach
sphaer
xp
cald
add
adele
ahmad
ernst
woman
##jal
##imoto
hatt
stars
insulin
octav
##zak
##ares
cab
##olin
pach
##mail
##ienne
chir
##ader
##oker
loph
370
1790
colombo
dalton
dniep
connectic
kharkov
leipzig
connecticut
hq
mick
##nus
##apolis
angkor
herbert
palm
##beck
gud
##lus
chase
##inda
shiz
bobby
eph
##22
##ор
vall
##encer
##err
kyr
haf
##lei
scr
anti
castile
fast
piz
##ος
phra
warren
##kinson
kerr
amblysteg
kau
kub
pack
word
##ayan
hog
sey
spar
anders
airbus
cerat
hass
sweet
tart
##ht
##zu
##ono
206
##utth
cheil
truk
shep
baroque
lisa
##dad
moss
đoai
soy
viking
##ores
##ushi
hotel
##ropol
morrison
kate
xach
##erre
lym
##tec
maggie
westminster
public
bourbon
ain
db
hokk
##olone
diana
stuart
forest
minor
madison
jur
rim
##ced
dot
cann
megal
afc
helena
athy
snow
##rahim
nile
sbs
##aj
diaz
##fried
muller
mecca
gut
##rest
court
sok
endl
imper
charleston
punjab
wurtt
nes
##ause
##acher
devel
marco
305
fissidens
verdc
wis
##ucky
tall
##eli
laura
alexios
krist
casablanca
mitchell
khrush
tie
##gom
##insky
##arius
today
##illon
dahl
##sein
scapa
flet
beautiful
cf
pub
sind
trap
##euse
extr
##athon
burn
##rict
antonius
ian
vs
##etok
##oming
alep
##ogue
ayutth
310
morning
nobunaga
wurttemberg
##etz
mare
glut
liti
##say
##hai
##aide
cos
tog
##omor
##alp
chech
##iku
sports
franco
industr
bolivar
eriocaul
fighter
pant
ris
##yang
##jer
bened
340
tectariaceae
zag
reed
laurent
half
oslo
schwagr
berkeley
##zyn
##andro
##akov
215
mcg
fergus
alternat
scandinavia
dmit
eva
##yah
phich
dioc
##okawa
prix
scy
mix
##cheon
selagin
tvb
geneva
academy
##acy
##astic
##raine
jol
##dar
##ful
susan
##tone
common
soundtrack
kentucky
fletcher
ory
##wl
##onium
mafia
barry
rocky
euph
species
##orussia
uranium
athyriaceae
gate
yale
##haw
dui
bath
##epend
aren
campyl
basil
jakarta
ayutthaya
đec
##itum
chateau
into
tatar
##riz
berm
urban
limited
violin
tajik
##lon
trick
vig
##esp
troy
alps
brest
##ubishi
atlet
philippos
nadal
algeria
acetyl
meisn
guoc
goku
vich
##32
##iense
##hik
##oki
ord
rocket
johannesburg
view
##65
##alth
##ocol
##stro
shu
happy
centaur
owen
schwarz
marseille
portsmouth
bf
giem
kus
xyl
##enov
trop
honda
ami
alg
bey
##igen
abram
##assa
electronic
rhododendron
bornm
sentai
whe
yor
yus
##sor
nhong
phr
##auss
nol
mez
station
islam
eniw
##ucher
allian
brother
demo
gandhi
eniwetok
##47
##anao
tax
##ache
##achia
penang
polytrichaceae
hokkaido
alternative
##jah
lamp
londt
hope
aria
##ove
garay
ibrahim
##ianthus
oth
note
mex
bron
monaco
comte
independ
850
gp
koi
##achya
mant
##berry
athlet
quercus
f1
socorro
nathan
derby
##icillin
tasmania
ocean
atletico
dens
ges
xan
touch
##igu
##aeaceae
greenm
rosenst
sophie
auto
fidel
##bau
##aan
##ango
khuay
boong
baham
##emat
lub
federer
jet
kara
list
##oire
##ench
ral
base
total
##estan
##ibar
dendr
##borg
mue
nakh
##ming
ves
laur
##iba
##other
##quel
indian
##bledon
##iyah
lagos
mitsubishi
mauritius
kud
ova
##km
##ан
##ief
their
##apo
body
vector
##omat
api
spencer
perez
koh
kursk
computer
constantinus
jungermanniaceae
##ej
trut
sus
##ellia
maxwell
kiel
209
days
action
##lando
geoff
milano
district
hecta
##vat
states
cyathea
##mannii
planet
ashley
masters
glasgow
celt
##kat
chuy
suk
bav
clap
##lob
graf
echin
messi
guardian
2m
jal
208
##chu
##oly
nex
##lly
poepp
copa
barbar
eugen
dil
faso
m1
sassan
stor
samar
ship
##staedt
abbas
arkansas
##ophonotus
neolophonotus
1m
##arman
kyushu
##itor
smack
##ostoma
##ospermum
yahoo
aq
teh
##otide
##the
##ingo
##akura
comic
yorkshire
##ostylis
liberia
moldova
macarthur
yard
##iji
need
##aha
290
ghost
hash
qa
sout
##isen
##azaki
##evsky
1791
edwards
burkina
eag
##light
##onom
##arat
##emann
crim
advan
perc
herod
adelaide
bretagne
md
##bas
##70
saudi
##ulatus
dir
androgen
flag
##iels
pomp
pomer
arnold
read
##hal
tann
six
britt
##ists
leonard
ahmed
path
##bur
##tu
##hotep
##jet
##ин
bots
##omit
##eux
stav
store
##sec
serb
warri
harvey
rudolf
schmidt
scythia
niz
##lock
##fect
cool
##etown
##ococ
trailer
diam
tyran
##teri
##odiazep
emil
256
aco
ext
elis
frong
kashmir
pseudo
##jord
coss
##enson
carlo
##seng
##ffen
##oxin
history
##falz
phyllanthus
powell
foster
ist
mck
##gart
##acet
ald
shield
asen
##ostomum
dres
saxon
lorraine
jeffrey
llo
wight
zepp
##fil
chand
##erl
##agawa
orch
strong
helm
wallace
##odontaceae
roberts
caledonia
seu
amen
haute
##quet
campan
##tych
pacific
brooklyn
fisher
mirage
rotten
pascal
fland
##des
##mac
##yar
##aps
marathon
century
thunder
wimbledon
ely
lv
vald
##aric
special
testosterone
bess
ez
vnch
##35
##veland
loranth
##icester
##olph
##otham
##oldem
##itzer
champa
linnaeus
##ringen
falcon
shakes
mhz
develop
thal
##oic
##itas
debut
abel
burundi
1776
augus
southern
gardner
challe
hughes
##zow
host
##icho
##umo
pros
chaplin
advent
greene
opioid
murphy
porto
dennstaedt
ear
eum
troc
lec
##oland
gaara
365
##strong
fernandez
louvre
##sr
##top
chad
sats
##obe
prog
eleg
##romis
actin
khet
tob
kyung
##rav
stell
##ipa
##deb
##esta
1794
centre
riaa
aristotle
##ostemma
botswana
luom
##zburg
##omitrium
duke
sanch
hadr
emily
##ivan
275
fourn
gabon
stanis
atlantic
5m
ctv
right
##amura
##ating
captain
neil
clara
lindenb
ekman
aleppo
aver
ily
voldem
xop
##hem
##gun
##rand
nancy
##yros
kings
abdullah
bosna
henderson
##mahon
jutland
ile
kov
pes
##had
nghieu
quac
emin
orlando
mald
##ype
contin
hussein
nielsen
bp
riga
thuidiaceae
dog
lane
##awan
forst
238
##enda
decne
living
##oideae
ferguson
bermuda
sassanid
##wr
##iton
jules
rese
cleveland
everton
germain
hull
##nor
##gne
##acio
##inas
lour
##iso
tennis
daw
##yrium
pale
hipper
ptolemy
smackdown
voldemort
ice
##gate
##lay
##ngo
##alyp
rangers
sond
donn
hornet
gorbach
##works
cinn
dhar
##hon
##ener
##iah
sophia
rex
##heed
org
##yllum
325
julian
talk
undert
shakespe
kre
lus
##46
##ility
##ulatum
scler
scotia
1793
busan
calym
zeppelin
##enstein
suff
##esian
##asp
anglo
tommy
##esterone
josh
starcraft
pasha
princeton
saxifragaceae
fasc
hul
pd
tib
##lar
##amar
vaug
##acaceae
look
##itu
bruss
asian
316
##ustic
knot
nagasaki
mithrid
finn
##mia
##etsk
seven
brisb
amph
gaza
##inder
##derland
gonzal
himmler
brisbane
korn
##inosa
sta
stap
berry
modern
takah
winston
##hab
##hire
##ogo
harold
cola
tomato
##ocephalus
cz
##vol
##iera
inde
hannover
blech
rif
##fire
##oir
holt
ras
order
alexandre
440
granit
hiroshima
bloom
spruce
rabaul
theodore
loranthaceae
shakespeare
##gt
##55
##enca
##atan
loes
dow
##iday
##hiko
inca
saladin
watch
denis
anatolia
shogun
nassau
research
gorbachev
koln
oval
diosc
sting
##ipio
johnston
shir
430
##hammed
glee
summerh
teuton
##nc
tower
bagh
##ospor
đioxit
##illea
##aho
spiel
217
erem
salt
##radiol
fried
teresa
steel
wagner
polynesia
mueang
cic
##dic
##enza
leicester
season
##odz
compl
##eyasu
##aldi
crystal
armstrong
stefan
fame
double
##tera
##agon
##illus
cricket
genova
hercul
ural
##mari
freed
1787
##inness
##hydro
##kovsky
rumani
vocal
thelypteris
hinata
##orhynchus
hampshire
athletic
dresden
dm
gos
kass
wien
cult
stur
malacca
1768
leptogaster
dublin
ioan
works
aet
pain
till
##bow
##pot
##nium
##orea
honshu
##ols
dixon
##adan
##abra
scho
scarl
##uza
janet
bruno
princess
gracilis
benzodiazep
essex
amblystegiaceae
fon
frag
##ries
dord
##chon
##phen
pla
##shk
yoo
767
columbus
kobe
welw
antigonos
calymper
bub
hear
hannah
homo
petrov
michelle
montgom
420
offic
sicily
zarago
rogers
montgomery
aes
kuala
chester
make
##isto
##phis
richmond
ballet
ricardo
zaragoza
juss
send
##pop
##wing
rash
storm
##agh
emir
usb
fluo
stras
starr
gilg
didym
pablo
zel
##lid
##etto
amur
##epam
shell
##ophy
##ebr
##gins
byel
##nox
holmes
wasp
##aterina
kyrgy
lloyd
mithridates
bj
ieyasu
hos
tae
metan
exo
here
flem
krem
urs
drake
pomerania
tomatoes
blechnaceae
kyrgyz
đoa
maas
seung
##ularia
been
crum
salvia
turn
##hoe
indig
galicia
##linger
leonardo
undertaker
five
##41
##ket
loren
ans
##orst
##olus
marit
141
1797
holoc
stanford
software
rostov
hots
mason
##ahan
design
barbula
mindanao
ces
paz
uchi
##mor
trui
##alon
start
1700
hiro
augusta
speed
cromwell
chavez
a1
til
##64
##aces
##rans
nana
yoon
palace
sasha
##warts
wyoming
lle
ue
##24
##ии
##achsen
##ilaceae
meng
##ades
unix
plagi
##shop
corse
yorktown
##ushima
creek
infin
adiantaceae
cil
diels
nipp
pum
uv
zyg
ال
##bian
##dn
##gir
##fta
vista
##utin
##odor
ish
naples
volt
rhode
scheff
xiec
##rina
##roit
##flor
##onn
danny
##ardia
webb
1783
felipe
##ocephala
dwight
bahamas
eus
kbs
lp
seth
##uensis
##enium
##emont
price
##othy
agr
drum
1795
pyth
business
ligue
uae
##zt
##idas
monroe
##hei
crep
calc
##obon
weiss
mccain
##ismund
viktor
tyrann
acoustic
cesar
ody
mahm
##ocalyx
ghz
sarc
##ocarpum
concerto
wolfgang
phillips
ced
pachy
zak
##iat
##yat
##aoh
leeds
##emum
luft
minut
minsk
pterobry
odessa
##ergic
ryukyu
clapton
aik
drag
kand
nir
##arov
##tsin
##lins
obi
##yeon
##icularis
institute
lockheed
dniepr
##bm
##enc
chiov
##orr
sept
stam
troia
219
barney
croc
palermo
cornwall
turkmenistan
odyss
chae
cox
bazan
siberi
##rae
##undy
memor
shinichi
basic
falc
gonzalez
kung
wing
##ngers
mode
207
schiz
##shin
allium
countdown
systems
children
tesla
##cine
##iell
##eric
##oles
satur
span
asa
acumin
##ophone
elbe
serm
##ideo
drac
##hria
hogwarts
ust
##idis
##lee
##thy
monica
later
##obi
cyt
cyper
horus
nacional
lipid
spielberg
mnet
pm
rip
##ayev
anal
cafe
styl
##ifor
davall
1758
gaulle
woodsiaceae
sanchez
pim
vert
##xin
mother
chil
##iland
##emi
##eae
##leigh
##hii
true
alberta
gros
255
##issus
guyana
wellington
lupinus
effect
bavaria
rt
vla
##ар
thym
##oprot
deng
saar
smart
baltim
program
desm
sunday
detroit
cnn
titanic
hubble
mbc
##bos
##kut
##far
lead
haj
myc
brig
acanth
patric
beauv
pharaoh
constantinople
folk
bic
gum
wein
dort
lyn
##uria
##hiza
##igny
carne
turin
ellen
scarlett
eich
ou
tito
##pus
204
heidel
##oco
xeo
131
craig
##ebe
262
guinness
jamie
##hyun
lumpur
ci
joker
##erus
chiang
ital
indre
sheikh
africa
ralph
baltimore
fey
ficus
kes
##anensis
##adenia
alberto
itachi
shock
torres
shepard
eminem
aa
eup
gund
ply
push
lost
togo
sib
schar
##ophor
##leri
abyss
karen
##ansa
antwer
lorentz
blanco
yeltsin
vichy
pio
zay
##anes
cow
bourg
cuenca
level
dex
arach
##loa
swan
disco
truman
number
sigismund
amoniac
hochst
gale
oro
##aic
conquer
##opet
##igne
manag
##ornis
chrom
##otti
pohl
##quez
porter
ioannes
wai
zey
##ол
##idd
marant
1400
goeb
galium
moses
espir
dominica
deutsch
suzuki
isabella
occitanie
dennstaedtiaceae
uchiha
bum
nd
nest
wake
sedan
ine
##abal
##rant
reyn
prote
ester
##matia
voyager
tern
##isi
haut
##thr
atlas
##iflorus
activ
kakashi
heidelberg
cym
prag
mae
dew
said
percy
##anthe
tsuk
gnu
scheer
ornith
flanders
c2
htv
##itsch
##ellaceae
1785
pteris
integr
saturday
gry
##nos
##auer
noah
##stedt
##arpa
##ndvn
nieders
hotspur
gieu
gord
wad
phone
lower
##olit
##idan
manus
sharp
308
scipio
##iza
##kee
henr
shiva
640
guantan
peptide
phraya
fang
gne
naka
sop
boss
##oclad
diosp
##adys
carmen
spp
scut
come
edmund
palmer
burser
sunderland
##ushin
720
jonas
basel
##iferum
##ground
hokage
dordogne
cebu
##zin
##anc
##onis
maker
hebr
##pert
caliber
where
icao
goring
guantanamo
diec
##gard
lehm
capital
##stre
neck
month
sha
bari
venus
obser
gates
maximilian
##kkim
barrett
konstantinos
shadow
aston
zach
mohammed
nog
maha
nhoang
tyson
stutt
##ige
reo
##ween
##hou
##bled
burseraceae
vamp
##tc
moham
thess
##etsu
##arab
##andi
bef
##agus
mono
monster
##odo
214
##weight
##oxy
direct
capitol
byelorussia
niedersachsen
ptych
sint
wed
##vik
##immer
##usse
khuu
aleut
##hig
##ulia
##ellus
shane
227
##max
##ctus
petr
brah
hawk
akira
nis
vuoc
##100
phay
const
hector
myster
##stra
tyler
minogue
micron
magnet
obtus
valentin
pixar
demetrios
fry
gag
##hood
keith
macrom
bonif
barth
epic
wei
britann
jorge
brussels
nym
vest
##ady
marina
##enta
##nev
##manuel
plus
orton
michx
##scher
polyme
nexus
coca
lucius
212
warb
shing
##mannia
mikhael
737
katy
films
##astern
dortmund
##ices
##alay
##osorus
##olle
onc
virg
darius
kingston
glouc
productions
rooney
freedom
pup
##caceae
##ante
holy
##lev
dioxit
##aev
graph
##sons
frame
qđndvn
severus
gloucester
bts
##iata
##hra
##atre
loth
##allene
##rib
scn
interm
##ectin
khrushchev
pie
yg
honor
sikkim
##anto
234
##icks
eddie
##itrich
pyrene
ekaterina
diospyros
citr
dys
hess
iata
tn
##jas
vienne
tenui
macqua
##inga
hye
berk
##quist
helsin
silent
wimm
herzog
##lemania
mumbai
frigate
southampton
omar
wiel
##low
##rs
##ка
##eppe
##odus
schist
##allis
##loo
##izer
bali
1784
santal
ixora
iwats
tiberius
european
pf
wern
##sberg
##uana
inuy
##igera
cris
1760
pilg
funariaceae
destiny
helsinki
##bra
##rea
lass
##sten
rovers
xoang
crit
265
##brand
karate
mccl
belize
silva
pedley
##ilding
##tropis
friends
lg
##38
##aia
##aceum
##arium
ames
teo
khun
still
margin
##abo
dawn
##tex
211
somet
randy
lepidoziaceae
3m
duan
dacia
fig
##sing
##pic
hoh
coel
phantom
lucia
##robi
bee
##ellata
homs
commelin
1740
##chnya
minaj
centaurea
eagle
marantaceae
aber
cinc
quo
yes
##44
##95
phos
triana
mons
##dafi
##uzov
bogota
##obryum
lympho
##bang
##kers
##27
##uction
sos
##umea
##emer
mekong
neutr
##hama
wald
martine
##escu
bryansk
elegans
fav
mund
patt
pfalz
##akan
##rique
223
some
youth
##inique
bremen
roberto
bc
đh
bayer
stop
becker
cron
miranda
marcos
axet
mercedes
cloud
rca
##kig
lara
sumer
quadr
tah
cabin
chechnya
228
630
republic
##water
lasi
thet
##imate
##eling
##iler
##lera
##onezh
##rington
pulch
meyer
##unculus
dopamine
profess
hercules
2d
aim
eiff
niv
qf
qgp
rush
ðai
##bah
##hae
##enne
bok
##islav
alv
##odar
shang
304
machine
coron
walp
410
polygal
6000
gaddafi
elisabeth
cinnam
##iu
##37
choan
mab
##strom
##igidae
marne
##ifax
shia
cors
miles
pavel
voronezh
sevilla
avengers
euler
alliance
satsuma
jedi
##bard
##28
##apan
##osth
harper
##ostemon
engelm
elect
leslie
roland
ribosome
vasil
antiochos
tehran
hđ
xuoc
##anor
anast
##eles
monter
clav
##eka
hits
champagne
pauc
bremer
pixel
##oprotein
aqui
wid
##gam
##asis
laphria
hed
tree
##antan
##icki
halifax
sword
strept
##waffe
1770
goldman
ochyra
equ
eckl
wur
##36
cond
##oser
##ilon
##ocent
##ulina
choice
sain
##ffield
flam
musashi
poz
530
560
module
gunn
dhabi
sphagn
aqua
cyl
rit
wine
##lu
##otov
haussk
##berland
rein
##ophyt
franche
seroton
homer
##ishima
milne
cyc
oxytropis
waters
pyg
middle
pilotrichaceae
##estris
cten
tnh
wi
##kn
##uania
boot
##ussia
##ithe
##idon
deg
marian
##berra
##ensky
##istr
##istor
creta
user
##endra
herr
bale
##wei
kingdom
pots
yeon
hardy
review
hurric
oblast
artemisia
cyperus
inuyasha
eiffel
meuse
vera
##fast
##icaceae
dup
beeth
brock
##odia
##dec
xiu
##load
kron
antoine
##aphyl
pear
broadcast
rugby
marketing
gigant
nakhon
espiritu
data
qur
##bull
##200
vass
##imaru
kyle
sega
army
schind
josef
sarat
horse
leske
phenyl
scharnh
stuttgart
kuz
pah
sle
tz
wemb
đt
##amia
coch
sui
todd
dante
duu
canberra
appl
langua
##azole
elaph
##olaena
##omanes
950
crow
evil
##iculatum
tajikistan
holocaust
cb
ment
nice
vl
##mea
##yer
hoe
dust
satoshi
ino
##ardi
exc
218
##boa
serp
##ains
levi
vernonia
scharnhorst
yi
##band
##cos
##ving
gius
##erin
batista
##odi
##ants
239
blucher
pete
##opterigidae
zhang
klot
mandela
plymouth
bb
cc
nara
pog
wander
##fly
##ᅡᆫ
summ
amino
beast
##ogn
elat
harmon
hepburn
460
northern
every
tripoli
beethoven
oran
saga
##oint
##acion
##oloma
mangan
##agos
##ires
##asso
##ostema
##ostachys
1796
##lington
olympia
collection
kenneth
legion
rivera
provence
chakra
maldives
##kara
##33
##iei
##acbon
##agram
negan
luffy
saff
pleur
late
perth
memphis
turbo
racosperma
curtis
thutm
hitchc
strasbourg
tnhh
##sium
anthur
##cham
brac
acut
herb
##myo
bulb
cordoba
##brough
sevast
klein
theodos
wembley
anthurium
hib
nc
##gem
##99
##uoka
voiv
hama
metropol
param
andalus
##orno
wilco
selena
surin
basque
planck
diplaz
mendel
caracas
tankobon
potsdam
rice
winn
##sal
##aem
##jung
anion
canon
hancock
schul
joon
213
barn
burton
sims
kure
##aphid
springs
schlesien
spirit
hermione
##bledore
hersch
np
##cair
##wy
##iese
cori
moran
candy
vooc
aubl
serr
285
##oleaceae
francesco
nairobi
540
angela
neptic
nicol
telenov
##ference
##dlitz
casimir
dumbledore
dennis
sevastopol
hes
##hito
##atur
anis
viz
paramo
ramos
alexandra
pitcair
ethyl
rpg
giuseppe
nepticulidae
eld
sb
zah
ðuc
##sun
##oise
vij
##omar
amor
aless
##avir
##estra
##ierz
educ
omega
tsun
humbold
flying
claudius
ultra
tortula
oppenheim
seydlitz
away
bea
gland
ned
sase
cote
##iar
contain
case
andaman
ruth
blizz
salix
rhaphid
drive
koz
kuros
1780
sheffield
larry
##boxyl
lancaster
heracl
herschel
brag
jyp
siem
zy
through
##ineph
mash
baek
ledeb
stern
##roz
beh
trafford
mari
alba
##bour
plaza
strauss
##ialis
660
lleida
management
diplazium
dad
nal
rinh
##nion
##insk
mohammad
tuber
##ches
##aden
neb
##abria
saigon
kirov
adri
hara
secur
selen
plutoni
civil
diamond
sphagnum
humboldt
jesse
race
umb
##dis
##hausen
##zman
##inensis
lamb
##ities
aman
lena
transp
##opodium
diff
arct
sonar
barack
##rador
verde
kalinin
gerard
assam
##chenko
magnus
soyuz
commelinaceae
sasebo
hello
##iod
##acle
##atha
both
vist
tass
diva
quint
neur
##avarman
##lero
glen
symph
sergei
govern
polygalaceae
nuu
##cina
##oud
##aguchi
grig
##ceg
ismail
264
celtic
sphag
havana
burgundy
gogh
ilex
naga
##dich
##26
##icaulis
noct
##achim
##eun
##ilo
search
div
quyt
maru
216
india
390
torino
nept
1774
##cyphus
##ranthus
verdun
##cklenburg
taraxac
luftwaffe
klotzsch
wł
wade
laev
##asse
priv
garc
econom
610
nicole
village
handel
##iforme
hitt
rhiz
##kom
soon
vandal
##org
sande
leban
##chlor
marine
##ivi
pret
258
tuabin
shinji
punct
guillau
barbarossa
pterobryaceae
serotonin
ruk
ðong
##hs
thpt
##inov
tonight
171
orion
##ission
vendee
802
##ottis
estradiol
cyph
betty
flex
kwa
suyen
yuki
##pel
##gle
##39
gis
rag
##elot
##opon
brong
##iru
##rya
##dehy
para
smil
##asty
menu
##nette
bruns
mimosa
silicat
development
vaughan
macromitrium
lund
vp
##kon
##anas
##aptor
anom
taek
##umaru
mecklenburg
hamm
forever
guine
##rons
torre
levant
ambrose
##ostegium
connor
sullivan
kutuzov
dioclet
hich
hui
pg
ril
##icin
##isse
keys
##ils
221
twice
ridge
1763
##folia
##self
rzhev
##ococcus
phosphor
hurricane
sphagnaceae
kuc
board
vito
##omyc
mehm
indo
xoe
##iane
malcol
petit
glass
borde
##jou
castle
original
lexington
schneid
mcdonald
canadian
lebanon
hz
wong
wahl
zone
alk
mega
2500
245
toment
kerch
purpur
umbr
blizzard
tf
##born
##ruz
##qa
trust
##uang
khom
##alym
##umab
teng
cheng
##then
bedd
151
exper
##erno
tomas
##jiro
crown
evan
##four
gaba
greatest
brooke
lisbon
dynam
phillip
wrestlemania
hydroxyl
auguste
calymperaceae
vampire
adriatic
jp
##til
##rem
cub
##olk
ala
##ocene
reinh
lauter
222
312
musc
##ophyllus
garnier
hydroxit
pitts
pleist
tobago
martinez
taraxacum
m4
pele
##77
##anch
##inis
##ilov
##olobium
tango
macma
inu
claire
nature
silicon
medina
kanji
roads
hispania
heavyweight
kikyo
polystichum
telenovela
aro
plo
##law
##vet
##ᅩᆼ
##enk
dod
##athus
maori
musta
aspidium
promachus
phosphate
wesley
sergey
oppenheimer
piec
yer
zir
zab
##wo
##enze
loew
##odic
##phylla
254
##yris
##cob
naj
irene
##inese
boruto
idaho
invinc
nashville
##endorf
nippon
before
kern
tusc
mahar
##chat
##chwitz
amanda
saturn
##igm
joachim
french
orb
ichigo
mussol
olga
valle
kats
vasily
puget
bs
fib
kish
person
##ydr
##erian
##eler
lanceol
reve
##alli
##izard
ghenh
microst
##aisal
adrian
nucleotide
gibson
pizza
brittany
baghdad
hwang
##dles
##lic
motors
conrad
sauss
baz
hopkins
##otin
##unk
##teria
spect
##tech
rail
##ross
palais
##erty
##itrea
britain
cirsium
##force
mussolini
cet
zing
##ал
##ency
baha
bafta
stol
##tress
acin
silesian
1782
evol
saddam
##jalein
santalaceae
aquifol
kwajalein
jug
knox
odon
zerg
##coin
##78
##ør
##inz
noel
leigh
bear
aram
##ogan
##mani
acaly
somers
406
cornel
depart
##world
lightning
bradley
communic
f4
hc
ror
##lich
##ript
##jos
##fel
##amba
##erd
##ipal
arbor
##ukan
##ynia
butter
nott
takeda
andreas
vision
##ijk
##iphon
montev
leopard
##ythm
bordeaux
invincible
eastern
ioc
##nst
##lain
##atr
##uche
cash
##iech
lei
sikh
stich
roem
cation
clus
social
polo
##obar
##olds
avi
aven
580
funk
crazy
pyrenees
##qi
##ᅡᆼ
thorn
##amensis
##acc
##opp
myrt
##adoc
##entin
243
229
fritz
minamoto
coral
eritrea
nats
miyazaki
bennett
liberty
hausskn
fah
nia
tuot
wick
khar
cock
theatre
khit
bid
cabr
hae
brug
isis
radcl
singer
student
##ktop
yunck
##isenau
oec
pell
ses
xyan
zig
##baz
##a1
##pet
gim
bolt
bolero
beograd
##ssen
386
570
##active
sinai
##enbergia
rheinland
surviv
wwf
fayette
aul
df
faw
gps
kui
rs
rf
##gens
##ygium
mour
bik
typho
##permum
224
226
forrest
atom
iris
return
elaphoglossum
hassan
mens
uh
##76
mok
toulo
vega
noth
##imer
##alty
##iscus
##chet
##oglo
gould
herceg
walk
520
grav
makoto
##rantha
would
prinz
leskeaceae
nv
pelle
raul
slo
ðo
##ом
incheon
##ovia
##owiec
karst
##dwin
hirs
beauty
templ
sulfat
attack
heaven
technology
revolution
gneisenau
wilcox
acalypha
dl
##ayen
rahman
##ocom
161
##ension
crot
calceol
abe
##ynes
willem
senior
blackburn
pycn
kazan
rollins
firenze
##ything
keyboard
adren
liliaceae
marlborough
schefflera
toulouse
dran
gdi
siet
wide
xy
xxi
##fon
##enland
cohen
rak
##acha
##ocoleaceae
hanja
shay
##iris
##tsi
miner
virut
milit
psil
helic
##hrer
byte
620
bolog
years
hydroc
hornsch
antwerp
cylind
aquifoliaceae
kitt
##kad
##34
sour
baba
bakh
amenh
##idin
##sto
##ellum
shev
##rano
cart
##ibo
ener
eleanor
##ofera
bieb
typhoon
vf
##dra
##tam
##luk
##enna
bosch
##isk
leh
rogue
1300
##loch
ort
bolton
960
##folium
1757
savo
kabul
vyaz
pounder
##skoye
lysim
cobain
yokohama
eriocaulaceae
nymph
duat
dart
drey
oy
u21
yaz
##cing
##nica
##96
##ая
##ᅥᆫ
##acus
##ayer
logan
viola
leng
emi
scor
286
295
rockef
uttar
1778
maximus
eber
jov
##ße
##ayashi
##ature
##onda
aneur
##elii
auver
chapman
andros
cler
nheo
salic
desktop
mission
jeremy
##oyan
tulagi
normandie
discover
indigofera
theodosius
ether
yoga
##hov
##long
##ues
##85
##ет
sog
##elic
ngoac
##oten
tina
bever
bruch
##akin
ito
rebec
schle
gambia
krupp
680
##cycl
gamespot
preston
wells
zeyh
eud
nina
pong
zomb
##side
##nius
##uff
hoon
##atea
lomari
tail
##eley
trid
##ument
heat
health
benin
##uire
carm
joz
calcio
##ostok
salon
rhythm
tetra
jeanne
##ophytum
amenhotep
ler
mama
wings
##oul
##quat
moor
loe
##imation
##itte
##asus
nubia
stelis
beir
arr
area
##iram
luz
spot
##azar
##obu
davies
meliaceae
gerald
hydroxy
gabrie
khuyu
catalan
dynamo
lithuania
brunswick
malcolm
rockefeller
nba
##eid
##vd
##onga
sei
##hane
barbados
khuya
ricc
deutsche
fairy
sessho
takahashi
##inephrine
gest
jaw
jake
pem
wet
##okovic
303
occident
ceylon
craw
guderian
language
imax
oder
xiet
##dh
##ycl
nghet
tonga
alen
##ellaria
emile
bucking
scorp
##aware
fries
##ainville
edgar
##quil
##bonne
whis
470
horik
christie
achaem
djokovic
molotov
tiberium
auvergne
beirut
bxh
ere
##kha
##rup
hyl
##ikos
236
315
##artes
jeong
indie
##gress
solanum
##blem
gottsche
duncan
##oween
buckingham
bt
kush
kids
##mos
##uj
phet
##apura
bing
casc
honey
##usc
strai
##rana
##loe
##eck
##toon
colin
salzburg
michonne
baldwin
weas
stress
without
resp
bowl
toyot
paramount
aneuraceae
nie
oto
##iidae
##од
tray
ches
##auld
##itsa
emmanuel
##avan
249
perfect
eury
1781
annie
towns
hoffmann
khalid
faith
auschwitz
medici
amiang
axetat
nine
pb
rele
watt
##coni
##m2
##vey
##anov
tret
##omin
theoph
##ocoma
##rax
stir
daimyo
mancha
##iant
trevis
##aeng
parsons
kiy
##tawa
eden
318
epstein
steam
altai
liege
lingayen
pagan
glauc
neutrino
rolf
##42
##gau
##ayama
theres
khoet
lambert
caud
##aver
goet
erd
##ennis
weimar
juliet
1777
##odontium
waterloo
vilnius
access
eve
gyp
might
pis
momen
taira
leaf
seym
##emis
mew
stau
##ifrons
##avi
saito
##yla
crisp
constantine
majuro
aristolochiaceae
bieng
fight
foll
hr
jup
##juk
##xo
##xes
##ев
##uary
bae
bacch
hampton
bonn
##cee
polit
mcmahon
delaware
antip
westfal
novos
million
santander
alfonso
ethanol
szcz
gracill
austro
##astrum
admiralty
something
dale
mell
mist
##lim
##fica
##vus
##qg
##ayi
boug
trigon
vogue
##ages
brass
scout
324
kerala
elli
##holt
saxifraga
alsace
diocletianus
auth
fy
ori
riz
tiff
##horn
##gae
##vana
##он
sandw
##unya
ono
andres
323
pearl
athyrium
denver
bitcoin
winkl
ruby
savior
cardiff
defense
ossetia
things
vickers
##street
hercegovina
ete
fen
fund
faisal
gus
ming
##frey
##nga
##oix
toul
1080
style
briq
schel
30m
##sev
elae
##enegger
norwich
chronic
irwin
halsey
magellan
psy
375
tetr
arafat
##anderen
festuca
eyes
zanz
plagiochilaceae
lophocoleaceae
kyrgyzstan
patricia
iq
yon
zeno
##sang
##79
##72
##jun
##vara
##unga
another
##ilio
seem
alaw
##utra
##andros
tyr
##berger
prol
davao
ottawa
peace
khalip
sriv
##music
angustifolia
montevideo
westfalen
ask
dell
nago
rik
sia
tik
uly
##zai
anac
maur
hag
##unov
incl
##agan
carb
251
plum
poll
gear
herman
allison
miley
borussia
stric
fabian
durban
frederic
nigr
pasteur
tchad
b2
ditrich
eh
igor
kess
pich
##rock
##zcz
thrac
##iest
##ieve
howe
anno
sold
chul
honol
cheval
##uno
inh
parn
markgr
pitch
1644
hubb
cyrtandra
vlaanderen
wanderers
pittsburgh
sesshoumaru
bard
fior
hesse
mud
nish
wir
##pin
##pes
nhet
tub
bishop
sirius
##occo
##berl
metall
joo
donetsk
madh
savan
kuhn
1648
platy
sulfur
labrador
jenk
falkland
independent
zanzibar
juz
kost
pill
tess
wah
##75
##88
##ᅵᆫ
labor
##apov
baja
xavier
nebr
spath
##eya
##obia
355
richter
sunfat
8000
acetate
schwarzenegger
aikido
władys
honolulu
gwang
pick
sell
##lau
sug
##than
##ivo
cly
##teb
plac
plata
berger
##rado
magdal
racem
510
linden
brahm
yamamoto
photpho
##odeship
ochnaceae
pagasa
kampong
##alanx
abrams
cinnamomum
ida
kro
##iences
cozak
##imov
##oras
##ilde
canter
alvar
##uts
rok
speg
##ugin
##ishna
mild
engels
silene
##plex
ipad
messier
industries
elatostema
toyotomi
fate
hast
kick
mers
tq
##tin
lazio
##osin
leib
nup
haz
bonpl
sonic
##sso
johor
scud
barne
elf
calamus
colch
memory
##uze
gaudich
tracy
hindi
presl
nickel
cordia
future
termin
władysław
gone
wich
##rium
##onii
##etamine
soder
thuringen
vesp
maeda
luca
seas
seych
##olev
alej
emb
reunion
##ffel
seric
hij
windsor
1772
region
jenny
aphrod
hikaru
elliott
b5
oahu
vđ
wish
laz
##onville
velv
##omac
amun
benfica
##terdam
##iplex
buch
elena
crus
perm
worth
solid
618
castell
inform
andrews
floyd
paradox
gloria
vyazma
ditrichaceae
nebraska
arag
elo
kall
rend
##iola
chel
hof
theft
##erb
noumea
alert
siph
##eah
tyros
##ryu
prun
chaet
##udo
unc
cortic
allah
525
shinseng
julie
valentine
fontaine
jubulaceae
aurelius
macquart
voivodeship
rebecca
shinsengumi
##hom
##run
##3a
phalanx
leb
teph
quinc
arau
##skov
afro
lesnar
##garh
novor
rotund
goldberg
##atsuki
kadokawa
html
fischer
lionel
cincinn
##ding
##xis
##utus
hats
albrecht
shaki
306
##bohydr
plato
frut
edwin
##untu
imf
sunda
player
777
rubin
plect
hindenburg
furious
jolie
mohamed
cili
fif
gien
hodg
mask
xavan
stade
1100
##abar
##naz
machimus
246
frances
butler
guad
mariah
constantius
callip
penalty
catalonia
hartmann
factory
vulcan
brotherhood
suffolk
auck
find
pn
sg
zu
##pm
##ucle
##erst
##phat
##ssel
jour
spa
barnes
unit
233
232
walking
##wehr
andrei
mendes
cappadoc
saussurea
fos
##blo
##jec
khay
lah
motion
tudor
visc
tanaka
dioxide
degen
coli
petra
florua
korea
##opsidaceae
##rodium
thrace
wrestling
together
xyanua
pellegr
auckland
aero
dab
##kot
coco
chor
kyo
##ilin
stem
round
hammer
252
elle
##obus
jeju
##opterygium
imm
watan
rotterdam
##ignon
phoenicia
friend
algiers
velvet
bd
lille
##bant
##ра
##ayn
##icans
trib
macroc
reim
##eyer
cruis
malaga
263
##issimum
morton
##erous
##gaard
##harto
middles
chopin
digimon
histamine
springfield
pompey
cg
nr
wadi
##lava
##xc
##enae
##ici
constan
##umen
##idase
chuck
train
many
spit
isil
##hny
adult
harr
335
mamluk
seljuk
1773
bromley
ipod
dicranum
japonica
sukhoi
pubescens
##omorpha
nagoya
820
rita
##iatus
##master
##litz
vader
gior
##alea
trag
arth
bauh
##eco
enrique
genoa
warwick
patton
superman
##annon
1750
##zhnev
digit
mpeg
arcade
wyatt
gottingen
berberis
lobelia
metropolitan
fag
geb
mf
pogon
uom
##buk
lagr
third
##idence
##stown
manche
##ogly
joa
elsa
fres
colon
halle
halogen
krug
shiro
aviv
volkhov
1779
snap
olivier
germania
hymenophyllum
isabel
rainbow
qaeda
warriors
##srau
rashid
dash
pred
xer
zucc
##mart
##ners
##ел
##ны
chass
vita
seng
canal
canyon
lynch
##ocort
treb
prime
##ogeton
scop
baron
frull
mortal
##neri
etienne
domingo
##tenstein
##otheidae
gnaph
ammotheidae
plagiochila
octavian
stapf
carnegie
nakajima
mehmed
dro
gork
tard
##phi
##98
##61
##fin
##west
too
khosrau
##ilab
##rei
##ules
quest
##allus
isere
norte
landes
gleich
##grade
classic
ravenna
baptiste
stanisław
benzodiazepine
lomariopsidaceae
quincy
ciner
hk
sakh
tver
##vie
##đe
##icau
##uman
cache
thames
##otaceae
##opy
##opot
giul
krong
aircraft
pour
compos
teleg
achilles
liparis
trinity
fuller
hearts
saviors
kt
oroch
vved
##lass
##ич
tryon
##amid
loki
any
##imbr
keynes
taub
##redo
stoke
roch
bean
chamae
##trum
##ahara
##este
##ibu
sci
enc
willis
eria
##ypt
popul
desf
pann
490
670
humph
faroe
1762
kaito
penicillin
pseudop
sematophyllum
brooks
dolich
wolver
koppen
yaroslav
kafka
beu
ide
pig
za
##df
##vard
trim
amal
giant
room
shine
acroc
##ecom
501
blade
##ernet
berez
##rosia
impat
very
##tics
ryholt
nagar
rhodesia
dalmatia
between
mahat
kagome
##ification
instagram
scandal
ardisia
matsum
kafr
challenge
vistula
aphrodite
shakira
odin
pue
##nman
##wish
##anium
##enidae
##atos
coul
##iard
nolan
lehr
lycee
##ocus
##opoda
muang
##terson
marin
##ersh
grum
257
help
hawkins
assass
##kovic
cassini
vinci
primula
daltoniaceae
makerere
jupiter
canterbury
frullania
ats
bicolor
cep
ozon
pine
điec
##kea
##enka
theory
##oru
##urv
quinn
brux
gaius
301
244
##acker
malik
gujar
salam
karak
##anthum
##uzu
gauss
galap
tsub
##ollah
aurora
schumacher
##heimer
falls
audio
##uardo
chamberlain
peso
feynman
bologna
9m
fury
pash
tm
wta
yuc
##tle
coun
cul
thiu
mater
caucas
stay
neon
kurz
##iffe
kitam
eucalyp
memorial
impatiens
kota
pamp
##xx
suharto
sobek
chilos
cune
baku
##utsu
##ipet
hybr
##iste
##ikon
paralym
sciences
pali
interactive
silv
australis
##actus
winchester
pompe
##otheca
abbey
##ogyne
shizuka
dahlst
analog
reynolds
acinodendron
dransf
gdan
łodz
##ged
thak
##enus
hohen
taey
amyl
ranger
##oller
deir
253
linds
talent
romanov
calypt
griffin
avenger
heroes
stereodon
chirita
amenem
tyrannosaurus
asahi
deutschland
somerset
eye
vc
##bao
##kus
##ting
khieng
sushi
cabo
##ische
##reich
martha
##ovii
##ikan
buchar
##izu
nahi
313
ichi
dutch
sarre
turing
huang
##ection
watts
novo
brezhnev
president
##archus
stenopogon
gesner
neckera
brongn
novoross
faust
prec
sime
yp
zem
##cion
##kau
##h30
##yana
##arina
kyu
##oso
heian
##uron
##ocin
##otsk
stella
nef
reign
##ylen
##antes
polemon
eduardo
corp
salmon
food
345
##ariidae
even
##arkand
snape
beatrice
hiern
catalunya
sulfua
yakov
nazar
vh1
artemis
gregorio
benedict
geoffrey
early
mustafa
orochimaru
gore
lm
riet
saya
##ær
##opod
##abol
930
##ized
trichomanes
heroin
formosa
grandiflora
inches
resident
download
##ithii
khalifa
autom
wanna
progesterone
cincinnati
ks
odo
##uet
##jaz
##acon
codon
longifolia
##istic
pras
orbit
guzman
interc
belfast
mamm
kinase
tarn
potam
ellis
##rysum
letter
##rhynch
mindoro
ardennes
rowling
werder
grevillea
campanula
fow
pied
##rio
##jak
chain
##ination
##auri
conference
nhun
dob
cappar
alicia
sibu
albany
sergio
271
warnst
##ashire
olive
395
##mee
masam
djed
heinz
attila
services
golan
##omyia
##kigayo
saratoga
lauterb
3g
della
fum
nb
##cula
##fall
subs
vip
2030
lucky
amber
canton
bactria
daisy
##entum
joey
##lint
##rosa
guild
385
heldr
avic
flores
1767
##rovich
##iysk
##flix
funimation
olivia
vocaloid
crepidium
poznan
kurosawa
hwa
pgs
sne
##nic
##fox
nhs
##angi
lou
biss
##ilda
##emus
##rex
inkigayo
##ified
shost
sonny
suarez
##yrus
268
278
atm
##quia
##ymenium
knock
granada
bernad
dorset
ethernet
nitric
cyclosorus
aleksand
ville
australian
engineering
toyota
##ocarya
krasnodar
bracte
bikini
clyde
cappadocia
fau
fashi
kore
mcn
pisa
##cott
##kam
##wen
##acanthus
hoth
moment
qual
laptop
lythr
##idion
##thys
brett
ariel
##abilis
hypo
reev
luk
acer
##ophil
##ophilus
blair
peruv
299
irm
greater
musa
progress
##imax
upper
7000
##eltis
esper
axel
lavigne
lancashire
claudia
community
scutellaria
container
hittite
kp
mx
xieng
##uidae
##rain
##ridge
##ays
sugar
##etin
trent
alto
aparth
mayer
stat
##owice
hapl
natural
morbi
joshua
333
esther
garr
840
charlem
primulina
sorbonne
atlantique
lhq
##endorff
crotal
seychelles
cef
foss
jau
##cp
##wh
##orio
##osi
##olam
apache
marino
shen
shop
##okine
pratt
##tris
carre
##riy
242
cren
279
sms
polys
##vere
warf
miconia
hawking
nothing
##strum
pavetta
pleiku
sharon
oberonia
euclid
against
cannab
riley
bougainville
bruxelles
apartheid
fell
gpl
jeb
oud
rb
wait
yuu
##iosa
##gm
##len
these
vida
raja
##ocal
mei
tinian
##adh
bresl
##ipur
##isser
##oids
##asser
##bruck
##khaz
wilhelmsh
justice
arcad
posit
direction
erythrox
micronesia
jozef
dx
eut
ff
gek
##nak
##qq
moh
ley
##emar
##otes
macro
bedo
##ionaceae
elias
405
##quest
ramon
maguire
pope
##marine
verr
1766
royce
glob
ozu
krasno
ascii
beckham
kahn
lorenzo
avenue
kont
ndt
##vall
boer
##alensis
canaan
alain
##leb
stip
timberl
sato
##igami
care
andhra
##senger
##awesi
philon
sala
milton
425
##zew
hawker
naraku
jericho
##rodom
theresia
fortune
bieber
prague
taekwon
lythraceae
morbihan
wilhelmshaven
ava
kato
kuban
##korn
##she
##tre
##inna
##iak
##erts
raff
norodom
##otic
##utta
##stoy
ganym
marm
albion
##irin
##ogi
302
ada
balf
590
burtt
brabant
ground
croat
sulawesi
rubus
vargas
kombat
1661
dido
pelopon
moldavia
wendl
hernandez
weasley
ure
yers
##sum
##ит
##amu
momo
anch
thur
20th
##omori
bash
##uti
near
259
barker
##ffre
calais
ranunculus
tomo
336
helich
1771
renauld
980
ubuntu
gracil
entodontaceae
restionaceae
index
thracia
2a
kaul
own
pose
sf
##31
##eny
##erc
dul
taman
##raf
##hira
tyra
grau
kira
##ugo
##azepam
unic
elvis
harley
karab
##bergia
bureau
555
paula
##hru
581
richardson
farm
##foy
aspar
teddy
melanie
sigma
wolff
labill
rolls
ladies
selaginellaceae
garcinia
zombie
hmas
riem
wave
##pei
##vc
##anea
##anica
##acin
give
biz
cag
caes
calo
##chuk
timur
##entina
paras
abkhaz
vitt
##aphne
polygon
880
780
midlands
pedicularis
lhasa
nerv
temple
reinhard
fashion
gett
sinc
tg
##mod
##ping
##hall
##66
trias
veg
##ledo
deal
roh
neville
##oge
elong
##kei
bux
allmusic
##zech
760
playoff
870
ltte
judo
nikolay
pounds
cunn
drew
broadcasting
cyphostemma
fyodor
eucalyptus
chiloscyphus
capparaceae
rham
tikh
tivi
##mitt
##zn
##fan
##view
chh
hod
tox
cull
##imia
##oter
##igao
##skii
client
edith
317
357
biał
shiki
akbar
##boro
sheh
universe
pepper
##colo
ultimate
descartes
reading
davalliaceae
around
barneby
breslau
bhar
cred
nurn
rue
skin
xf
##29
thy
##atory
##omir
vanuat
##orde
range
##olla
##oca
adv
corinth
##quis
herault
swans
kongo
silica
seti
subc
electronics
##ydos
amazing
parviflora
tectaria
stamford
pitcairnia
charlemagne
timberlake
peloponnes
cern
gd
##zb
##fjord
hout
sod
boom
stones
shun
##hey
##eca
dame
##leria
cyber
feel
##iculatus
halloween
mozilla
1660
inside
mainz
cinema
bmw
caspi
##osthenes
andalusia
elaeocarpus
galapagos
fic
rr
##buri
##kis
##dah
##pell
##amate
coff
##ucker
anem
casa
cusp
doha
amad
ined
##edr
##iros
##owo
##pern
##eville
273
##ighton
907
lotus
osiris
##eira
kalim
peng
aztec
1765
sulu
report
pitbull
oldenburg
durham
dreams
##nanensis
oblong
selaginella
holttum
kuiper
paralympic
crotalaria
helichrysum
lights
xh
##jang
##jevo
##acaf
sov
bagr
alle
brien
##phan
307
joao
latifolia
malfoy
276
luigi
298
356
##ansen
##ragona
sele
twin
subic
regina
save
fedtsch
firefox
wendy
paolo
gdansk
lcd
##bara
##mern
##gara
##jn
truth
##acer
##eren
caval
##imura
##ential
parma
##ibor
##eke
384
476
vicente
azur
murad
730
##oux
regel
granite
resort
devil
##osphate
books
lupus
ammoth
kelvin
adiantum
dmitry
tqlc
oil
sae
##hart
##amea
##enth
##angensis
khas
suss
toh
toro
##alam
##ilv
hopper
nec
##istry
248
somali
merino
angelo
florib
##action
hillary
##endron
nichol
##eptide
ascorhynchus
kissinger
glycos
sardinia
buffalo
stavka
desmodium
werner
sakhalin
vanuatu
hf
ping
##onie
cube
seiden
maui
##utz
hauts
1715
prima
ens
perrier
muhl
agnes
##annad
##mour
democ
sinatra
casino
sagitt
ahmose
yasha
pandur
##kirk
habana
tallinn
euphrates
lampard
infinity
nottingham
cabrera
nurnberg
cuspid
ahn
dass
iod
tj
wied
xian
##tcn
##aceus
##arak
dozy
##usha
lydia
much
##ulose
##royd
##berto
spee
281
293
311
hermes
krishna
protoss
burch
swaz
belgrade
415
mitter
carlsen
callic
reser
##ijaya
rumble
federation
acuminata
vassil
##oglobin
lindsaeaceae
bucharest
a6
dactyl
fuch
hbo
jah
pens
u19
waw
##bh
##43
##kop
loud
tobr
dancing
sexy
alien
##ocamp
rating
mycob
dingo
stri
arv
##elling
schwe
forssk
##tsy
adenos
orm
rapun
##endens
abydos
geh
##baatar
natur
##icef
magma
swing
strate
kamakura
##ptis
ectrop
juncaceae
770
##leton
underground
neuroptera
3ds
koid
nib
##ик
try
viteb
##alium
##ishing
##ocław
##otos
##opeltis
stil
carrie
burke
475
##iyo
##osauridae
##eee
maximianus
streep
messina
hardcore
bandai
cornell
glory
clemente
hmong
aviation
oecd
baccharis
spitfire
grumman
mycobacter
rapunzel
vitebsk
etr
kde
lid
ppp
##bran
##n1
cody
coban
sou
chik
keep
##itomo
sider
##agoras
##iper
luga
unicef
eduard
epis
ghita
morocco
imag
343
brahman
kondo
groß
musical
##ropogon
woody
##ements
##kovo
1640
islands
romanos
hasan
backeb
##mitis
judith
blechn
passiflora
cosmopterigidae
crimea
emirates
kesha
phosphoryl
microstylum
swaziland
ieee
uri
zimmer
##biaceae
##benz
##enii
laden
##uyu
boll
bourne
amd
##hion
rouge
begin
##igoth
##ipennis
##ryn
kib
##ieres
##ophys
##ophorus
237
societ
polt
hubert
rossi
pops
astron
holly
##bli
1759
firm
beaufort
creative
##oglottis
gmina
##walk
mahmud
kuching
ganymede
seidenf
earl
kb
nino
poster
wie
##ders
##ses
##ams
##along
maf
##osoma
##osuke
##iloba
1650
prat
prost
isbn
acre
247
401
corr
##ricius
compton
mills
rotor
clear
intell
mrsa
therm
##brev
mustang
aristolochia
extreme
hebrides
mourinho
discovery
ade
b1
lif
rivers
##tun
##tii
##ubert
##ucia
toat
toledo
taeni
dud
##epan
vod
macle
intr
##enty
##deon
cros
##kaf
protocol
##skyi
akb
telecom
contem
##kowski
welsh
ttg
vhs
herzeg
coldplay
ankyl
mickey
advanced
sainte
pretoria
irmsch
pik
wc
ws
xai
zack
##rome
##amaru
##arm
##alm
##uata
kimber
bonnie
spy
##azu
##ophen
samp
288
267
314
##anthemum
while
virid
326
prob
druze
cygn
junkers
##ropoda
kanon
1769
elliot
molk
kwang
think
agripp
gujarat
ectropothecium
gue
mea
osho
pud
ziz
##bis
##bun
##dm
##pol
##yin
##wad
##ayana
##aper
dopp
doyle
##olate
alz
stro
##ads
dei
nect
aron
isle
319
erin
flower
frei
christine
galer
visigoth
##ological
komn
large
method
gaston
fatima
gundam
education
noctuidae
seymour
aichi
iu
liech
oph
poc
rust
counc
chiba
##umer
lynn
macdon
shab
schrad
##sheps
gliese
krapov
delphin
utrecht
avatar
volume
wallachia
poin
punic
echo
mandal
mesa
pentac
brachythecium
cinem
pvc
sparrow
aesch
nirvana
piece
e3
fw
lik
tuon
##bad
##nitz
##ieux
sule
constr
##eline
bates
##itel
##epr
baikal
gomph
tats
brack
reh
309
once
luf
jobs
##toum
calam
455
##gerald
provin
##egna
##ashtra
512
asilus
talbot
##enzie
##osauria
romance
distich
carpenter
cunning
kampala
bahia
cranmer
imperial
##stroemia
herodotus
corsair
suriname
aid
era
huss
x86
##kawa
##đa
trad
##atari
##osch
##osta
sekh
cantor
##otea
brea
shre
elite
malv
malin
##endi
edison
##obot
bock
guide
robbie
338
christenson
sunf
tours
polyc
athen
740
reggae
mp3
invest
multip
liszt
msn
schneider
odysseus
dengeki
neptune
cornelius
mitterrand
koidz
cream
m19
pk
sver
tnt
wire
laf
boson
camar
albac
hyuk
schisch
cartoon
##gean
287
merlin
glabr
wenger
helg
veronica
akatsuki
##feron
middl
callas
concorde
aquino
archim
fulham
animal
rothsch
ferrari
paradise
cecil
kodan
fitzgerald
shipbu
advance
hessen
achaemenes
novorossiysk
esk
egg
lines
nico
renn
xuy
xesi
yai
##49
##eros
anjou
##omus
##ilan
heis
##epala
arrow
##rani
##ryum
buchan
isopterygium
241
samarkand
minne
##break
flight
burm
strat
strig
strike
##saea
##scha
madame
625
hyposm
casting
nike
##dance
##eurs
daniels
durand
clarkson
##zynski
bn
c3
feu
jod
jurg
kann
mest
mbar
sien
##bels
##lang
##yas
##fun
##fors
##acan
coon
sue
thir
##urat
capill
##ovision
reid
lauren
gamb
408
nauru
norep
rosita
##ascript
mgm
browning
anthocer
megap
append
tolstoy
fusc
macrophylla
sleep
tiffany
hyposmocoma
goss
jad
lipp
odor
pskov
##anna
##anta
##amy
could
bani
##aldehy
##elma
sanct
##osit
##ilyn
##aday
bez
##ingway
dangerous
such
##ensburg
carly
unity
entrop
encycl
505
els
404
407
bomb
coloss
abs
##artz
salerno
agath
muse
copp
huawei
maxillaria
madara
patterson
##ocha
pilos
##racantha
glycol
sorry
euphorbiaceae
bedford
thutmose
poseidon
kalimantan
fk
iber
kach
##put
##hill
##lm
tris
##aim
##amel
##angelo
##aum
##icet
##eul
##opt
##deen
eleph
283
harms
burns
##cheng
richards
northum
wassh
wrocław
rioja
linear
mexicana
author
assassin
liechtenstein
jir
wto
##mot
##life
##jong
##jor
##fred
##vas
##ро
trunc
##acs
anakin
left
##chel
lonely
tec
alma
vogel
stachys
rousse
marion
carbohydr
aya
andron
plate
##acki
enr
combr
harbor
266
johns
irish
331
strange
imbr
##ksin
710
justicia
celeb
douglass
catalina
##guer
vernon
##ography
campylopus
adventure
nestor
schulz
alejandro
taekwondo
date
jade
oir
pectin
ride
yap
##kamp
##ridae
##jm
##woo
##ат
##eniaceae
loas
##arian
rav
caps
##unde
hatsheps
##edon
maratt
##ellii
shap
elton
karnat
##scan
davy
museum
rambo
border
desmond
paulus
akkad
assad
filip
##ampton
transistor
aureus
hemingway
aspart
vincennes
phosphat
mogul
##bird
moravia
kaoru
hafiz
fleming
prunus
council
hatshepsut
hiet
pino
wies
##dong
##fus
##wia
##ия
phl
tuva
##arro
vander
bend
##ocles
##opyr
camus
##rada
##andar
dianthus
231
272
angels
##brun
lindsaea
399
pinus
june
julio
nihon
pleopeltis
saxony
abdel
sitcom
aegean
institut
oryz
survivor
poltava
contempor
nđ
oun
pfe
sieng
zander
##pak
##night
##tos
##lair
##jad
##но
trist
##aye
ano
bout
during
canis
##urr
alonso
##eake
emer
schott
clan
claus
sco
scap
scream
samantha
##evan
blind
##tob
284
romeo
perfor
erg
palawan
dress
##efre
435
self
picasso
variety
stephanie
fleet
gustave
justinianus
tutu
mollis
sardegna
zagreb
cossack
heraclius
maharashtra
bedouin
loasaceae
wig
yal
yur
##quoi
phiem
##atro
##atta
##ucci
##erul
anastr
caf
vanessa
doom
benson
##emie
##oce
##ocephal
being
##akovich
##ellin
emilia
parui
gru
gamep
scab
xiao
##lorua
291
whose
virt
hookeri
334
riyad
obov
mikoyan
juno
libr
##otricha
platon
hacker
dynasty
lviv
tubercul
energy
lagrange
lester
nations
ruy
sno
xim
xibia
zulu
##som
##hime
##reu
##angan
cochin
copern
##elieu
alo
##ocos
ratch
myst
meyr
divers
brent
clannad
##ukh
##ubal
269
used
usagi
epip
natasha
agerat
329
##weig
kinabal
##elsbach
galact
avon
fear
##ropet
cardi
##strea
##ranthes
1592
carpath
bartl
cambri
andersen
friedman
didymodon
spaniel
hesper
source
gesneriaceae
tobruk
blechnum
cunningham
f2
fug
gyn
nava
senn
xoc
##mind
thre
sumo
viva
velas
tenuis
stry
bratis
albus
sacram
##ske
spider
change
screen
dietr
admin
296
##anthaceae
warm
topo
milimet
##opterus
panicum
##arpus
achelia
hiroshi
podl
everything
wolfram
##iewicz
rupr
##ocereus
nkvd
##amarca
tahiti
kuznet
reigns
rothschild
kodansha
fra
fide
pione
sally
tl
witch
zw
##hel
##xq
lox
##onse
##iceps
##eris
lamar
vuu
khufu
alch
sidd
steg
##igata
shannon
##ineas
##aek
##dez
barber
same
adul
gonz
ghaz
354
donna
322
##plic
shinigami
compact
affinis
joyce
##ogramma
lublin
##flora
reims
##alongkorn
shipbuilding
karnataka
cello
fimbr
wool
##kham
##hwa
##ᅥᆼ
vad
khz
colo
botsch
curac
##iment
##achos
##euffel
##asm
##asim
##eptor
breton
amphi
neumann
trevor
hyks
parkinson
close
##heng
gamec
##ecin
pleu
soccer
##anax
##izumab
294
bering
ghim
eriger
707
why
morph
morales
micha
oxal
buzz
##ettia
opt
polyg
renault
olympus
papill
830
1756
penny
nakamura
thriller
pandanus
survey
cecilia
##umbens
manteuffel
transport
telegraph
yersin
herzegovina
norepinephrine
hyksos
isk
niep
nishi
paw
tweet
zid
nhk
##orter
amo
mean
marius
##ivostok
schon
splach
barrier
##hner
somme
perr
352
glad
glab
slow
shib
antio
torch
upd
munic
dome
surigao
##ghur
810
860
busters
vladivostok
hilton
ivanovich
nadu
nucleic
fields
tigris
gradient
circle
sokol
chandler
schindler
archimedes
ageratina
dill
erag
fri
osh
rc
vr
lastrea
##area
tale
##urst
##leben
##hiv
thatcher
##ryl
parl
trichostomum
norris
rosario
build
366
##ticus
centur
astur
##opolskie
brachyst
dominican
oakland
mcgill
arenaria
##write
dioscore
cytokine
abkhazia
intellig
4k
dara
fine
kae
chinese
đop
##iser
mata
##itia
siam
##adus
timothy
##aburi
schiff
##udad
##ophia
sami
##auli
##ostigma
krause
webster
allan
saropogon
shig
559
antilles
richelieu
verona
patag
complex
katie
pyong
historia
shotgun
brachyp
hassl
##girl
mycenae
toulon
entropy
diss
lc
ots
piston
sith
wav
xl
##dalis
##pos
##57
trun
##icula
rasp
tav
kylie
leav
lega
##chio
phoebe
nun
##stream
##teris
##ionale
marr
scient
comes
605
##eroy
tvxq
katip
greenwich
savoy
hirt
invol
griffith
##ocarbon
dionys
##ocortic
erigeron
fans
wen
zac
##uw
vaz
##inski
##iend
##ondo
toe
casey
curie
masc
trig
##olid
nueva
cambr
longipes
beech
##ify
##aby
metric
##ogor
ascl
##loxac
crem
403
##shine
hertz
netflix
337
757
346
coppa
kuril
astoria
holst
690
##blatt
1688
grimmia
confeder
akhen
##othamnium
inoue
summers
templar
wichita
shostakovich
riyadh
bratislava
eragrostis
idl
nand
sart
yao
zol
##city
##mine
##pal
##ture
##wau
##enbach
hooc
lal
suther
banda
bian
##ismat
##osidae
seal
apoll
##tham
##ovir
##phyllum
##away
commer
##eba
282
##linka
604
moritz
agar
383
solom
known
surf
event
peduncul
890
augustine
ingrid
welles
javascript
daegu
lactam
calderon
voltaire
##ithecus
revenge
philonotis
minneapolis
asclep
ata
kell
kier
kather
##kata
##kaku
##nagar
##omis
sibir
apoc
stage
satan
roche
1620
rebel
rewrite
parana
spac
asch
##ubo
acon
excel
scri
cruc
297
cupress
erwin
antoi
darren
##mons
takeshi
hollow
cassette
messersch
dimit
vinyl
appal
squam
bartramia
lieb
huguen
tcp
strabo
because
sendai
grossh
brahms
alessandro
potamogeton
kaulf
sussex
gamecube
cissus
ecl
jing
pony
vt
##xa
chick
##inii
##achal
seed
##opo
stipa
##akia
eman
##abh
parsec
274
##coy
genesis
irving
tomor
705
robusta
helium
brow
tetrac
aziz
centauri
leonid
bernhard
##therus
saxophone
sounds
##outi
##waites
beyond
eupator
dartmouth
crawford
chesap
giorgio
fowler
carrefour
swansea
cj
czech
iau
ison
##bak
##niz
##jav
##54
thwaites
##enas
moto
lori
task
danzig
##ilev
##chl
capcom
thani
##emet
##oti
##abat
carson
blow
elmer
adobe
calathea
geomet
huff
herald
salem
cumberland
##ships
eurovision
429
feed
dominique
electr
grammitis
kraj
aleksei
messenger
synodont
titus
tripura
cryptocarya
vtv3
www
polystachya
fermi
mcdonnell
evolution
albacete
schischk
helgoland
sutherland
antoinette
a2
cfa
demon
ionia
zoe
##dat
##zac
##82
trem
##ayas
phal
choe
##arii
triu
canary
april
camille
##sters
stigm
marilyn
##rane
910
911
gobi
##ibus
bombay
##ontin
brave
##vinsky
##garit
1764
sinensis
1701
##zzi
presley
cataluna
clarence
altern
terminal
jaian
wittelsbach
follow
sulfuric
sinclair
nicholson
lufth
pioneer
chesapeake
oster
writ
yev
##time
##gent
##zko
##ᅧᆼ
##arh
lance
##itin
##eption
ale
##ocy
##idor
##ande
hayes
##igi
##iped
arap
1550
shr
shok
sheph
hyde
joffre
sperm
bark
##otho
##leyi
guer
donau
321
367
wehr
airport
bravo
787
kerry
##ytes
mrna
##arthy
bradford
theodora
theodoric
holdings
african
pietro
activision
goethe
reeves
##schaft
messerschmitt
dard
lilly
ritter
##cea
##hd
##rim
##67
php
gilles
tula
##ietta
raz
sek
##asin
heck
cary
##uden
friday
261
locke
corle
corre
##ysis
glac
kris
proto
jeon
senna
tarragona
jerome
concacaf
rupee
magnolia
kleist
gentiana
##ophyta
kremlin
joaquin
meyrick
fao
fad
gasc
silla
uoi
wizard
##bius
##pie
##pers
##gos
##yna
##84
##wel
phineas
##icom
tales
duma
cain
caill
root
hamas
marta
uyghur
##sses
local
genji
liam
alexis
##weg
cocaine
sarko
##erox
montes
obsc
535
412
pinn
##ochtherus
970
sabre
##eurum
##ologies
##ozia
princip
sharing
bleach
gibbs
zenit
cyrtopogon
##ographic
##laren
##orrhiza
symphony
##odicty
kitty
##ollern
amenemhat
cw
fue
gok
gulf
umar
##mur
##hidi
##jillo
##unge
anfield
##alov
##emen
11m
dayton
itf
aubrev
##bers
##ivka
gaia
unter
minas
##dera
corps
328
rhett
magister
479
##rise
surface
astracantha
derek
##rovsk
lepton
##oyo
pomor
better
gallia
1745
purvis
hilbert
nyus
corydalis
polymerase
vermont
eriocaulon
##film
dioscorea
professional
herrera
guillaume
tomorrow
cen
ips
kano
nts
ula
wett
##amas
##acom
##actor
doo
maks
##champ
dehydro
naomi
marguer
1730
gael
##undo
##izia
berth
karol
musk
argyr
417
medved
volks
based
andrey
graz
1753
mccarthy
illyria
marxist
violon
igles
reichs
natalie
sindh
weissia
hohenz
pleuroth
department
vđv
cct
evel
gova
hn
hg
jop
kaga
liz
oise
##bil
##cata
##uor
tristan
covent
##arit
bison
##omycin
tener
alone
##otta
mucron
myri
aral
shue
##dei
##ffin
serena
harrier
usher
permi
##assi
##assia
guerr
359
sarada
bentham
pech
murak
##intosh
nikita
transform
axetic
draba
empires
guatteria
konigsberg
doppler
4x
rise
tis
u2
zwing
##body
##come
##kur
##sby
##tn
##ια
##yk
##53
##wah
gibb
taiga
vid
cage
##ilius
##asar
differ
stick
manager
##uddin
##fflinger
289
409
##obacter
bergen
sales
351
billie
339
swag
528
##space
371
##hound
indra
431
osman
##skiy
tsar
castilla
1761
##osteroid
djib
cassius
esco
archit
leto
##ospora
dakar
##dgers
flynn
siebold
tomentosa
leibniz
plectranthus
yakovlev
province
contemporary
corleone
dasy
hime
hwan
mead
osk
puy
pyl
whig
yos
##tig
##wagen
##iegel
##otoxin
quick
##nee
100m
expo
##udi
##tou
402
romero
atari
karp
karelia
karachi
driver
534
volta
grove
##aille
cerc
annam
oldroyd
hilde
jacobs
version
blanche
nigel
atlantis
shawn
wielk
lanceolata
dioscoreaceae
akhenaten
sarkozy
nyuserre
marguerite
govaerts
dp
nica
pung
xyris
ying
##rel
##68
##inson
hori
khwar
label
##uco
##anha
loz
##etan
boles
visa
bihar
takh
duran
triang
triton
##chia
##olome
sidney
tacitus
hathaw
stall
##roft
tone
tonkin
##agrostis
negr
##entan
1630
schol
grolle
bare
ples
walther
urdu
racing
532
##tical
libre
nicola
artist
jimenez
please
kenny
##verse
nuremberg
sarajevo
grenada
kerrigan
eumenes
euseb
monthly
oncidium
security
mildbr
tsubasa
suleiman
synodontis
sly
sister
##kg
##tur
##h00
##game
##69
lago
loop
boo
hochr
veo
chiron
##orra
##orchis
##elet
kei
##ases
hezb
##idos
hagen
apec
##unan
toni
##thus
##dek
androm
encel
calabria
peres
edmon
guetta
palico
palomar
karao
grewia
##torrent
balak
cyst
copy
515
derfflinger
humilis
ulster
940
orthotrichum
backstreet
ethan
##color
nakai
michelangelo
shoten
mackensen
madeira
ludendorff
rising
python
pushkin
goebbels
dewey
communications
fiorentina
gleicheniaceae
pannonia
hathaway
ie
pock
##bred
##fighter
chach
chag
##icosa
##etime
##aroo
##elope
##asak
hansen
habit
##unch
divar
macau
travel
arun
mona
schal
acrop
##azone
frisia
philos
goni
interferon
453
drop
borne
helig
oposte
##hof
465
727
novj
##borne
hume
dicranella
financ
gallon
##azzi
hades
blogger
myrcia
##ocolea
dawson
pohlia
valentinianus
bremerton
simeon
elephant
curacao
zwingli
palicourea
fog
oat
qt
sist
vd
##mec
##macht
##rica
##ouse
pheu
phre
coa
theater
conser
##osma
diane
dear
deck
manit
emper
##mans
saqq
lunga
combat
poland
##araja
dram
381
##ganj
upon
robertson
faraday
demosthenes
korth
celine
pulitzer
velut
ppm
tchai
dmitri
yusuf
warrior
continental
hulk
government
rizal
korean
akb48
copernicus
nicaea
6m
kie
keller
tk
##case
##hia
##jutsu
##anne
mohr
lodge
##icl
bohr
##arine
chirac
dana
thionville
makh
semit
##ased
##olep
teatro
##idula
hahn
haven
##ulosum
rouen
##agiri
hyptis
spence
clair
##yns
kgb
wilde
gladi
krai
369
jackie
372
notre
##oxylum
augsburg
nikeph
poit
schwab
kazim
sakai
##ddie
1741
kosc
nitida
process
ciudad
verruc
##loxacin
huguenot
atrop
d4
kc
kashi
lions
##bent
##tana
##oun
##тв
##ᅪᆼ
chenn
hour
##icat
hanna
megan
dihydr
trujillo
manti
mara
carmel
newman
##estre
forster
506
277
##ished
##egia
francais
##ashita
imam
sunshine
flora
##eiro
589
solen
##ascens
terra
doming
##genase
675
007
968
commod
felic
gotham
melanesia
reichst
heyman
##ostris
stadium
stafford
honorius
sandwich
savannah
watanabe
##ilvania
kuznets
hohenzollern
saqqara
geun
pran
sett
xml
yag
chess
varia
ngom
tutsi
tos
##asta
##emo
infl
trav
##igal
greu
509
samara
serg
mixt
##ended
gees
##issimus
##ymus
451
327
##eza
francaise
popular
borhidi
##opteryg
398
##haru
##ocharis
operation
visayas
kunze
dorothy
##bulin
sandra
1368
galilei
guillermo
boulogne
intermedia
rukia
adenosine
middleton
hafizullah
sacramento
tchaikovsky
bmp
etern
pae
pob
poss
wiss
##dna
##dha
##mill
##eong
##zes
##oia
##amol
vale
##acantha
hogan
##aug
suite
##iche
nora
##imes
lear
##ilea
amiens
##asan
hejaz
benito
tamb
##otype
##abd
goes
##ribut
malag
##undai
gondw
guil
lotte
burj
445
##gren
geranium
linkin
domit
skr
demi
schumann
mirror
1642
globe
1527
hoffman
riviere
kangaroo
##amanca
cristiano
kvit
tigran
##apuram
nephrodium
gpu
official
gestapo
rolfe
includ
cruise
credit
jurgen
katherine
emanuel
karaoke
aas
dros
hide
jensen
rund
vnd
wise
##sworth
##het
##ла
##acchar
toei
##oloph
always
hague
##utum
##rof
##igua
amphoe
dah
##phal
grind
spice
fore
hare
norm
salins
##untia
342
##rono
##schm
422
432
416
julianus
massa
790
radiohead
##icularia
##kings
pavl
creed
##friend
poker
frederik
ostrog
1570
liebm
federal
kobayashi
ignat
plasm
tracks
orientalis
##osmith
tupolev
delphinium
kinabalu
shueisha
920
gug
naw
rm
##pitz
coult
motown
##onde
boa
##icht
saur
vevo
bask
heim
heights
bent
alad
haem
##lew
rochester
##arda
shosh
##ahar
ayy
actor
##tax
##gee
##ffenberg
calig
##shaw
epil
tomb
petrog
##etho
##ypogon
magna
syrac
believe
sund
torn
##gratz
##psich
basile
981
zambo
japon
mattf
edouard
bilbao
crane
cambess
spartak
yellowstone
burnley
pearson
siphocamp
constance
##ныи
polemoniaceae
shehbaz
siphocampylus
ais
cri
ew
fn
jagua
okh
rfc
##rard
##acent
coen
sob
boule
##araceae
##ichthys
rah
leont
##opal
arp
aret
17α
reese
freud
bunge
salazar
cocc
##ashin
557
377
freetown
468
548
##grid
eccell
tetrap
lutzow
olympique
##laskie
1603
illustr
podol
brandt
microphylla
produce
jessie
technologies
streaming
odont
gracillariidae
information
thaksin
hezbollah
geum
oerst
rights
swe
##mut
##hus
##lea
cout
lowell
sukar
suvor
##etii
##etland
noether
haifa
##eless
##euil
##chant
##change
##ocaly
maire
##ables
##ranj
##tri
enix
eli
cricet
raphael
intersc
##laf
ramsey
376
##mare
ryo
superieu
azov
jacquel
surrey
takumi
##hlen
concept
transilvania
ident
oldenland
yourself
turkestan
gnome
rajas
sharif
caledonie
shogak
##hawk
##othamnus
clusia
adrenergic
metallica
journey
gorky
komnenos
andronikos
pleurothallis
swagger
manitoba
nikephoros
eccellenza
ee
fub
hurt
kog
kup
lur
m60
##400
##suke
##ес
ankh
##icha
##isoft
duv
sans
##osine
##itta
tangany
##ulse
timb
000m
kimono
hyundai
##skj
isop
##hex
crime
sappor
charts
mile
cytoch
belgorod
499
439
411
josephine
northampton
achaea
lepanthes
callisto
adamski
counties
photphat
blanc
gentian
sieg
koniggratz
aegea
sporting
mackenzie
mniaceae
shikamaru
heracles
tiegh
culture
britannia
beverly
djibouti
eck
gak
puc
##cana
##uill
##amm
##inius
giza
##ared
tosh
##alda
bahn
##olip
benning
alyss
10m
meh
##adio
ney
ari
ares
##iantha
##ovan
rei
##owicz
##deburg
carin
##tega
##ukas
##vez
whitt
etanol
indies
397
konrad
kalin
##meister
bolus
tarawa
925
remember
cleist
arnell
hidro
sulfon
cherry
lumia
payne
hydrat
yuuri
##eddah
mazowiec
tirpitz
nasser
sensu
clayton
macdonald
pentacalia
carbohydrate
combretum
asturias
enceladus
financial
kvitova
mj
##khan
##rata
##ем
phase
##icy
bose
veng
2050
nos
##omic
##oran
lego
mys
chatham
archer
prist
##lycer
##drick
##eback
##orkis
##vert
##ethys
ramsay
361
##ashima
552
378
obcine
obcina
##ption
pinnat
territ
castel
niu
novae
giray
kanye
1683
bohem
##actyla
bonifacio
vasilevsky
bauhinia
piedmont
##pellier
amadeus
velasco
wehrmacht
schalke
cert
gens
ike
ipa
jeddah
pea
rota
vff
yul
##dz
##det
##nya
##hun
##lac
##rist
##oza
##øy
hosp
##onius
doub
amat
##olens
hedge
##emin
##opidae
diph
brighton
##aval
schro
male
##obal
corv
irkut
robust
##onti
draco
347
montpellier
##bee
577
karls
yamada
xxiii
dalz
divisione
logrono
1680
multic
vince
sanders
justinian
##sdale
##omoea
negros
mckin
aetius
berkshire
pleistocen
yerevan
marattiaceae
update
gondwana
shogakukan
eragon
kart
ried
##his
##lat
##89
##amycin
suneo
banner
convent
biu
##elium
##eleum
bois
heather
benny
benzen
meet
1720
##entia
##ovna
##illas
##bern
rece
schre
ashik
##hein
##izo
##ostep
chrome
salisb
##tori
362
weir
ivy
387
##bye
discolor
anten
391
##chewan
gerhard
617
##qual
villosa
stevie
saskat
underw
picture
cavend
krasch
yahiko
gibbon
afrika
##opetalum
vijaya
chulalongkorn
sarrebourg
oldenlandia
saskatchewan
fever
idr
kj
kana
pard
rts
ting
tsh
##iopsis
##gary
##zeb
##zek
##300
phyt
co2
giles
vani
##aline
##aches
##ilion
##urik
##opop
stu
1610
totti
937
daes
reuters
scol
pluto
serra
haruna
smile
##izen
atten
##othai
bertr
ichthy
salamanca
454
balt
##istance
##raina
332
belg
darth
##myra
simone
##iosaur
wallonie
holiday
antony
antonov
999
chocolate
reporter
ipomoea
1707
pierce
##kkonen
celebr
speciosa
micromet
kwaz
1492
dolly
##tricht
jakob
sessil
origin
iaaf
neferir
##uctase
protease
vespas
tribune
performan
polygala
caillat
fs
gsm
use
##ед
loch
##eras
bole
anhalt
lama
##orth
mahan
##otia
mein
monet
reut
ofc
isla
##awara
507
richie
kinn
544
westwood
solar
terran
619
feng
portable
##idgeon
alfredo
kitag
gunther
1526
1672
curran
judy
##iphyllum
ubisoft
##varman
lisboa
auxilia
dirty
bissau
karabakh
##ontinental
iglesias
phreatia
suvorov
bv
btr
focus
jel
npc
riff
tethys
wyl
zeb
ðang
##das
##tail
##right
##zilla
##into
##iennes
ane
bore
vivo
seong
going
chance
##agu
methan
gron
clif
clock
nantes
##lya
##awar
##hnu
trichost
norton
##scape
poa
kamchat
garib
621
mikania
brasiliensis
nicot
evangel
vaccin
##bins
1407
phenol
shojo
woj
ozawa
jenner
1453
abbott
dicks
antiochus
fukuoka
##vatory
maastricht
butterfly
occidentalis
stauffenberg
corticosteroid
gnaphosidae
nefert
syracuse
dess
ebert
oerl
tx
yum
zer
##jack
##wide
molyp
##iav
thuidium
bantam
caen
##orpha
siro
##stand
##agata
brain
kmтв
##tei
gaert
expl
combin
palmyra
karim
warcraft
glabra
419
628
635
cerv
##iyev
ellip
highland
perseus
1742
dickson
auster
antigua
clematis
birds
##espit
nizhny
middlesbrough
wiedemann
dudley
alzheimer
buchanan
antioquia
sapporo
cavendish
dk
iro
nel
oe
pid
pgp
umm
##sil
##62
##øn
##ᅮᆫ
coburg
moq
##onte
##oneura
##arg
saul
##isle
benite
alive
##aghan
mansf
monkey
1520
##illin
##istus
laurence
metyl
job
spd
##teo
frau
homal
norr
##ymar
rhabd
chinensis
magdeburg
389
syng
349
341
freddie
horace
427
394
392
##poon
##ilax
pinyin
miko
576
volk
mitsu
ferry
centr
768
##alism
subsp
923
platyc
1689
fernand
aspirin
jaff
dominic
juve
hydrocarbon
laguna
posen
quarter
eyed
kanto
sedum
stories
mahmoud
mabuchi
ortiz
schelte
alawites
magdalena
alvarez
composite
sunfua
zidane
idlib
spermac
horizon
aladdin
jacqueline
ashikaga
kwazulu
neferirkare
ait
bett
bint
cnt
eust
kans
yav
##kum
##pf
chas
##apat
anand
##alur
landr
amelia
sepp
##idone
##utnik
diog
##adar
daimler
1521
##ovis
reef
##estes
clare
##tez
##indor
comoros
orph
##ekt
hera
peterson
mercy
robson
campo
swiss
344
oliu
##sche
freeman
424
428
kohl
545
438
413
565
villar
portman
woodson
guadalupe
kolkata
1471
husky
randall
##eshiba
tbilis
mannheim
rhynchostegium
pygma
mendelsso
hybrid
nazareth
episode
societe
medvedev
joplin
interscope
benitez
mendelssohn
1b
aal
dt
m48
site
ueshiba
##mam
##pta
##lep
##rena
##fork
##enec
giron
##icatum
##ersk
##erina
##orrhynch
trifolium
##eper
alta
hana
##leck
check
rodgers
1712
##istip
938
##ersdorf
spike
##estin
##ector
crater
##ynet
membran
mclaren
melissa
496
##arioides
akagi
farw
winfrey
990
050
kirch
ricky
pavlov
platin
matthias
dubrov
teenage
velloziaceae
odyssey
srivijaya
sobekhotep
panduranga
sekhem
sukarno
gaertn
aoi
easy
mie
punt
syl
wigan
wiki
yom
ðinh
##gui
##gopteris
##yam
##51
chandra
##aira
##aci
##uyama
##aos
##aram
conner
tashk
##imori
##orium
amorph
hevc
tenxo
##eaker
##eaves
dio
sto
##odym
##entius
hyo
hydra
sputnik
andal
##dron
##shav
cotton
cololejeunea
##ippo
cortes
353
radi
##good
hookeria
duty
ocotea
551
indica
valve
549
terrier
hypn
takao
##feria
limpr
publishing
cleom
xxx
transva
harvest
idf
charlton
creole
dreamworks
numidia
guru
##ledge
bukhara
cheilanthes
styles
aberdeen
cronquist
szczecin
vegeta
sverdl
lufthansa
2pm
9k
mst
osp
pais
zip
на
##bok
##beg
##dock
##zeg
thcs
##iela
logarit
tod
##alle
##elea
##euve
##chus
macintosh
chanel
dee
rodney
aryan
shark
##avid
regin
##istylis
daun
sphing
acry
gawl
ucraina
##fferia
angra
##yme
gloss
micrantha
##bergii
kriv
##eze
388
477
depp
622
616
wallis
lesotho
artab
1204
ulbr
smithson
1645
1748
purple
soundscan
1540
1598
mastaba
bohmen
squar
federico
dnepr
yoshits
reyes
##walker
schmal
pusilla
bourgogne
arachn
winehouse
ulysses
tyrosine
degeneres
cricetidae
lst
rn
vend
xia
##cis
##sley
trade
##atae
tuiler
##imedia
lever
##itsky
##olol
myers
staphyl
##ingia
brenn
##illand
bauer
lug
##indo
##ophallus
##hani
walsh
karnak
mort
902
menkau
cocos
broken
object
domain
assemb
##ochromis
zhong
1602
pomeran
joseon
collagen
scottish
goodman
yoshin
gmail
courbet
kawasaki
wisla
tephrosia
taeyeon
rousseau
pocket
tuileries
cx
gutt
mendo
rop
rules
##tia
##hler
##rath
##52
##ос
##acum
##enco
tow
##oric
##usai
hew
hegel
##urb
##ems
hank
rouss
tate
cayman
catap
936
##okes
prion
##phon
lukas
isar
##drik
blas
called
natsu
tomoe
agency
flat
magh
rockstar
vittor
756
shift
belt
379
396
obito
trautv
holub
germanicus
birth
yakut
fallout
1427
##brook
multiflora
killer
corymb
a320
higgins
alsophila
spartan
byrne
bertol
pathet
calcutta
anastasia
kishimoto
minerva
chronicle
colchicaceae
yucatan
cagayan
aeschyn
##ocorticoid
tanganyika
tbilisi
gusta
jeu
mugh
pern
##nais
##uosa
##aign
##acola
hoover
cora
chow
toma
##esen
##elina
dusen
##umba
##thor
neill
parabol
duch
cliff
##heart
barton
frisch
292
##kegaard
ghb
452
desert
antimon
373
mika
comput
ferb
georgetown
northrop
potent
potomac
877
1755
1744
leucodontaceae
inga
fiat
magnol
jayavarman
bundes
havilland
##rakhan
hippoc
arsaces
hollandia
##oclada
scarbrough
mcclellan
zigg
lahore
oerlikon
duo
nus
whi
yui
zor
##map
##hang
##jk
phyl
quad
quart
cable
##omera
##alai
dool
##chik
semin
cannon
##olith
benev
alem
sio
##opanax
mechan
ston
macmahon
##room
tungus
lange
prize
##mania
anderb
##antas
adidas
pert
waltz
psp
554
format
##hoff
kou
533
avar
azores
playboy
775
tele
784
ulm
midnight
pilea
levine
ellie
pepi
##therin
makarov
paso
altair
##patine
macrocarpa
mizut
##ocaulon
africana
nationale
orchestra
dracula
lasseter
electra
mauritan
intercontinental
warfarin
kontum
mycobacterium
coppola
eupatorium
sharingan
ntsc
bertrand
spermacoce
cip
esa
hille
##dard
##tag
##tama
##rip
##zuka
##jaw
thyr
##inet
hoss
lol
bou
nghinh
bilo
taksin
##itra
##chine
##chium
amir
sein
tenu
along
##idea
hazel
##opilum
##sted
dijon
nghech
ini
sachs
monoxit
##nek
bonin
succ
##ikt
##okee
metho
##ersen
scha
##drubal
##opha
elam
eliot
crai
haru
##astatin
##ustry
hale
salis
palpatine
foch
argon
alloph
stranger
471
374
541
twist
636
faramea
porph
breath
schwartz
cdc
yamashita
pcr
umay
1655
dunker
sahel
1533
flavius
kotsch
molly
jenkins
rigida
jabal
fitzg
##baum
indianapolis
thessalon
bazaine
theresa
peruviana
imagine
oirat
library
kierkegaard
molypden
amorphophallus
cgi
fx
ict
jig
k2
nz
pure
sass
u23
zub
##rong
##rach
tres
##aike
phry
##etch
aneura
bov
tori
bacon
##stock
##tero
##agna
tata
##iptera
maron
shetland
cathar
schubert
mongol
##awat
##hnikov
peron
perkins
##eini
glam
williamson
octo
##ginata
393
avignon
volog
632
667
lesq
commission
brevis
yeong
nagato
plei
funaria
mesopot
trumpet
hartley
##mites
nitrit
paxton
cellulose
jungermannia
ophiogloss
complete
benzodiazepin
tsunade
gwangju
positron
tomoya
vassilcz
kazimierz
mendoza
8m
hl
hpa
huck
kow
nme
uta
yug
##cano
##lio
##vae
##aing
##amic
##enaica
##atter
##atine
##augh
lask
given
bofors
bantu
##omorph
noir
sandy
keane
phuket
##olata
##emic
##idy
##lehem
##opil
stett
arms
parthen
caroten
asd
##lox
uno
##antia
smilax
coleman
500m
campagne
486
529
521
formos
kami
613
watford
fee
##psala
##ocarpaceae
1754
1643
##lexa
##andraceae
putranj
schultz
ovata
htc
owens
bernardino
javier
bethlehem
stravinsky
downey
thymus
piero
umbrella
mahathir
soviet
emperor
2b
ahl
derm
f3
htt
lw
##pu
##pis
##gado
##laus
##fre
vasa
##ienus
coup
loh
##arrh
##omal
##omide
##elva
mathe
##itation
haydn
##unct
dioxin
##ensin
plc
fortress
blitz
elim
frost
fresh
colt
mino
geisha
##obyl
noron
character
##ephone
##mere
glomer
rhomb
fool
drepan
martinique
support
paniculata
556
oprah
window
industry
##igerum
maxon
kurita
oswald
angelica
##grass
selim
uppsala
668
nikki
humbert
farr
levy
##otrichella
concord
linearis
glycer
1285
symbian
kappa
##appus
providence
ringo
battlefield
jaime
braunsch
mugabe
script
emilio
ezek
tilland
pythagoras
mystery
##omyces
trident
rokoss
coventry
fubuki
fok
pq
pelt
u17
vtc
##mers
##tit
##이
##ła
##anz
vari
##inos
coupe
moy
caceres
bif
notron
##isson
nub
hanoi
chew
diod
initi
rov
neom
mani
spor
##tek
oracle
ortega
perak
##bria
458
##meria
worc
problem
##plan
vitro
527
indomit
obli
418
guaya
dipter
572
narc
nepeta
terr
denise
##harmon
libell
681
vaccine
collect
##flot
##sanne
lars
##ggs
aspid
hasdrubal
1662
contest
madagascariensis
pentaphyl
byzantium
lejeunea
1428
##ibaltic
antigon
vulg
frodo
teutons
evelyn
slytherin
greuter
mixtape
ostrogoth
performance
dunkerque
indomitable
4m
cđ
cid
ij
kast
weg
##hine
##log
##rito
##wai
##vs
##amata
##icap
cholin
##arou
vidal
matter
trium
lef
##chak
##asure
canaria
##emp
apc
##lec
1250
rojas
marac
##ardy
##iante
theme
lausanne
pribaltic
scholes
##ogam
grun
gaming
##udes
502
sapiens
caliph
minato
##assar
huper
808
greek
muschl
483
481
valois
547
436
585
##ective
reductase
979
1752
##rovirus
wrangel
##mbh
collie
1653
fabio
active
present
1670
cherokee
1627
1625
##iphora
1736
jared
chakri
mathemat
morava
##скии
circuit
motorola
asperula
acetylch
wheeler
bessarab
livingstone
shirley
gyps
aconitum
##odictyon
trichosteleum
worcester
fit
nj
pw
ura
una
zion
##aar
##nard
##has
##ᅡᆨ
##enic
namur
lola
##erv
sof
chibi
table
node
door
##ulp
##igas
mano
1530
hungaria
##ivaceae
phegopteris
plastic
##loro
adi
##icke
malo
##obolus
eps
interst
agua
campania
755
348
melon
koen
466
omaha
542
626
volg
rupert
murder
tars
882
humb
965
johansson
mahal
persona
godzilla
sumner
aleksey
blueto
rupestris
colegio
connaraceae
provinc
pegasus
ankara
flemish
amanita
smilacaceae
stichopogon
seleuc
pensacola
taeniophyllum
crosby
calamagrostis
commodore
pomeranian
allophylus
putranjivaceae
guayaquil
bluetooth
aem
eocen
h1
j2
kend
liep
##ρα
##fram
##ungoo
lok
bory
bisc
chihiro
dobr
##achne
##iles
ngop
200m
##olobus
tears
capensis
hagrid
##regor
inuit
trajan
brick
##ibir
exec
exchange
##perm
##ecker
caladenia
minami
##othrix
##xita
milwau
popov
helene
493
chaos
433
medellin
kono
julien
recordings
hydrogen
gorod
savage
concep
livonia
platform
1651
pulcher
running
1623
1536
chernobyl
##xhcn
falkenh
cilicia
dreyfus
cascade
wcw
carlyle
timbaland
transvaal
umayyad
braunschweig
a4
aaa
binn
c4
fact
foli
ld
lbs
mub
m10
pek
td
zinov
##kney
##hak
##haus
##anis
##ament
##amori
##enis
moro
trouble
##oside
leia
##epid
sidi
##otai
##otica
apink
##leen
##unari
stack
1260
brutus
manetho
albu
##iob
barak
sama
cresc
##ebus
abig
358
petron
905
rostr
delphi
368
airy
saras
488
478
tournam
guar
bunker
juncus
##airs
wallich
885
kommun
lives
fedor
1658
pseudoc
dimethyl
rupp
distribut
yukon
pampl
innocent
neferefre
oryol
bronx
maritime
tnf
goulding
hodgson
odoacer
avicii
guerrero
ezekiel
hw
hens
risc
sval
tian
yuz
이
##czy
##kii
##ql
thier
##aiya
##enre
##ungs
##atore
cony
##omel
baoti
vatutin
does
##orf
##uren
##ocn
daigo
beil
negro
arya
artax
1560
itv
##irostris
xue
935
##allah
##estogen
exeter
scors
##yrand
trachyp
comedy
blaz
bleph
miocen
pole
peroxit
abruz
##obr
tome
petain
merry
rosal
worldwide
syri
444
hormon
valk
414
munster
lithium
dryp
castillo
##ochilus
##onsan
782
text
jerzy
##aiso
ashanti
pershing
pipt
##othec
fulv
dominion
mattheu
1442
oberm
partners
eryng
2022
relig
macaranga
freddy
##furst
mossad
anastas
hirsuta
calceolariaceae
krasnoyar
katipunan
caligula
jaguar
rajasthan
baotixita
aol
nst
pind
venh
##bey
##sea
##rut
##zone
vahl
##enke
##enzo
hosh
hojo
##inha
##icano
toba
ngheu
dogg
batavia
##ilat
hedwig
##ulis
tyre
sts
##rofen
brie
marquez
catwalk
pridgeon
##ogatari
##tein
##lord
fram
dock
raikkonen
seren
perg
luiz
natalia
microm
kram
##week
rocks
485
522
##dorff
gareth
546
722
tsushima
639
695
committe
repens
##ofen
prabang
everett
sahure
1635
russian
1697
lessing
baht
pamir
sukhothai
dagestan
verticill
electro
lysimachos
nieder
##icaule
progressive
virtual
intelligence
zamboanga
kamchatka
scorsese
bg
biel
gmbh
miel
nights
oed
wey
##kol
##kul
##pong
##naya
##een
##xley
loy
tutan
bold
bouch
bij
caj
hain
trophy
amc
lens
##ocyan
mauser
##raj
myth
myspace
meir
##ulariaceae
##ulifera
mariner
monts
##iran
prz
andorra
##yrin
pli
else
quezon
harald
##erness
atac
angle
602
epirus
##ephala
pala
flick
598
364
raynor
hors
426
simcity
medusa
schlie
narvik
##afar
hydrochlor
cerro
poinc
875
paper
921
remy
pomacent
messiah
1258
##omonas
kwon
1629
rodrigo
austen
japanese
sprint
mogami
fukushima
organization
atriplex
pittospor
pachyc
goeben
observatory
aeroflot
rundstedt
irkutsk
magnoliaceae
rokossovsky
bessarabia
bk
ck
dit
eta
niss
nct
pest
ska
une
zui
##gea
##iez
##ongo
dota
kech
batu
lek
##ilic
##chain
ammon
##olic
điot
hands
##lez
##andia
meer
##ulation
tyne
stag
thapki
deco
decl
neal
neander
neymar
armin
1714
##new
shil
pring
lubeck
##perma
##ffindor
envir
miura
police
##endan
perd
muj
berlus
philippin
ukiyo
jews
psg
shire
galle
davidson
skyr
nicom
kanagawa
dvina
ceres
kerama
yaman
repulse
transfer
gallery
1641
hemoglobin
fabricius
dunkirk
##jeong
##rogesterone
curv
1638
pallas
lupin
##inaldo
plutarch
wanted
ehrend
byron
split
kauf
industrial
##omitriaceae
koval
henrik
pauciflora
counter
yuuki
dassault
ayyub
aretha
austerlitz
angraec
gustaf
pentaphylacaceae
berlusconi
aung
bly
lill
oua
wort
wlad
yin
##card
##acruz
##enet
moton
dulles
amak
sioux
##ocactus
nud
quentin
rodin
##agal
langdon
neh
##abet
##ived
gohan
ise
scan
barcl
elisa
atv
angus
601
palai
petros
merit
##ishu
morphin
gla
microp
hirag
milner
turg
558
scots
peer
615
murman
##ogonium
regional
gloch
aquila
legacy
##office
title
tolk
ponce
yunnanensis
associated
hamburger
gotti
weser
##ehne
branch
refle
toshizo
mexican
gryffindor
userkaf
fighting
floribunda
malagasy
tashkent
assembly
mauritanie
tillandsia
huperzia
drypetes
eros
hers
jive
lj
lies
nn
p4
pov
yuan
zoro
ст
##kova
##mak
##lers
##uber
chief
##accio
coh
lajos
moth
##uyuki
##etana
hockey
conv
cus
##algo
lands
heine
hedy
##urium
quito
bright
##aken
artic
##ellite
##ardin
##ivent
##okan
schub
parac
grat
spach
androp
##esti
##estic
##ylate
ruther
##azan
coming
blum
adolph
perce
epa
thomps
slim
jeep
pool
byak
538
okres
konami
gerais
##ected
##actin
ulrich
zhu
piccolo
pune
anthem
1659
circus
vasili
##adores
##graf
isaak
mogilev
director
ladoga
carroll
intef
boulton
dzung
ilyushin
monterey
rhaphidostegium
experience
chevalier
inhg
lafay
navajo
oposteg
eternal
thessaloniki
aida
eos
heu
hashi
kf
kata
peu
yek
##cam
##song
##hot
##oensis
##zny
##vili
##anza
thyl
##ieh
cherm
chely
khua
##uced
##icher
##eson
lea
##reis
##hian
stab
rook
##igon
arte
1580
##avat
chondr
sonata
ghibli
gob
##teen
##ibald
##awk
##ophis
504
##hany
crepis
2600
socrates
3500
rosyth
363
milk
desp
melody
441
horror
champs
gaule
543
madele
maduro
bolsh
narva
612
bittorrent
887
##ramine
978
nagano
gilmour
violet
cundin
futsal
gottfried
alamos
doping
paige
lovato
extrem
briggs
elder
siemens
private
alkyl
dfb
calceolaria
fifth
xerxes
pinochet
summerslam
ulaan
chennai
dalziel
sphingidae
abigail
committee
madeleine
aure
lelo
mio
miers
m16
pull
puya
qantas
rd
tierra
##cent
##ija
##sai
##ον
##eed
##wak
##vill
##ои
##ان
chxhcn
lada
lazar
mole
##etica
soda
tas
mał
baza
duby
tanyst
seph
alstro
##opithecus
haumea
##ipinn
##ioni
arkh
##ifi
shuk
shakh
chama
catania
##okr
partic
asgard
isp
##ibur
508
element
cologne
##ostachya
salad
wilkinson
agm
901
otaku
disch
frey
442
423
643
valeton
pinto
ecw
##orax
627
725
575
##anning
gerrard
showcase
634
castan
##moor
976
1709
stepan
molina
1685
sheridan
oste
1596
attu
chalons
1127
ifn
craven
##bolt
however
##embang
gyeongsang
zanpak
medicine
synthase
dioctria
##hikawa
aquat
helmuth
##boxylic
sergeyevich
wolverine
nahiya
##ercops
tohoku
agrippina
fimbristylis
scribn
karlsru
vaccinium
tournament
svalbard
neanderthal
lafayette
zanpakuto
7mm
fax
hcl
pesc
sgt
zin
##mc
##gaon
##ек
##на
##amatsu
##angu
##ayoshi
cowell
moj
boomer
conse
tagal
##esby
##orca
##elos
maver
bazz
sands
kedah
##itude
tampa
bayon
##opappus
cheong
macrost
##roku
marad
monde
1516
saiyan
sons
prisc
baum
isu
dietrich
pereira
hert
iridi
venera
806
agrostis
##etheus
bald
595
##ashq
swed
##zej
sets
661
astro
711
merrill
graff
achyr
djoser
ellipt
hirsch
1704
faa
function
esmer
archae
hassk
##odontidae
sulfate
nichols
1572
yangon
sterling
yoshida
pandora
##aloosa
takeo
glycoprotein
kathy
eulophia
##zsche
shikoku
alphonse
pendragon
lyndon
cymb
racemosa
terminator
castellon
treblinka
raffles
cullen
alchem
petrograd
salisbury
milwaukee
tutankham
duot
dea
f6
fellow
gora
joint
ness
twe
##sit
##wyn
##ри
##anae
##ually
##inel
##inot
##iente
labs
boud
caespit
##omu
dolor
##achis
lons
##olor
teuc
aly
apat
dior
stard
hammond
bray
##ellius
##iker
918
pride
meta
schim
reuter
nann
503
##evic
adj
harp
polk
polotsk
editor
##oble
597
##rague
building
netany
buri
brod
514
##eusz
sundar
akm
kurfurst
retto
skyl
nicotin
672
antonia
brew
papar
saba
puber
945
universit
casco
transylvania
arabia
9000
speer
alpinia
##imbri
1735
miyako
2025
cristobal
oleg
oriental
lombardia
africanus
nietzsche
ordovic
challenger
cowboy
##gemein
bragg
stirling
acrocercops
riemann
northumberland
epilobium
stettin
beilschm
poincare
lelouch
tanystylum
netanyahu
czer
d2
each
jf
nid
pry
ql
uw
wyn
yv
##hazi
##qt
##ngen
phym
##atio
move
##aoka
##onucle
##icornis
##eru
soh
saunier
##omyr
dok
duff
##ilob
seok
transc
chey
chef
macrop
##uir
bring
sucre
pren
pritz
grap
clive
gamer
##ophan
cres
##eburg
mih
##undum
polar
cali
nemo
wilber
##oleuc
ramen
rosenberg
fouc
marty
helios
louisville
pauli
##houn
verne
vicia
reticulata
666
685
recording
781
##iedia
##achyum
gravel
kirib
vishnu
1703
##androlone
eastw
svet
##ostegia
kumar
lucasfilm
moller
aegyp
niels
jasper
glauca
devonport
schindl
novosibir
hastings
caucasus
eryngium
andropov
rutherford
ej
g4
g3
jem
kard
kory
mica
oasis
r2
role
wb
##bone
##bla
##91
##ог
##enan
##atron
##etics
anpo
##arct
khos
taber
calyp
##ombe
##orin
##oralis
##isetum
matxc
matilda
##itol
section
lonch
heng
##epal
sik
##ocyte
haag
##utaka
tucker
##ulare
monsters
1710
1713
sheps
##illera
hyder
917
##devall
luer
speak
ayton
##riol
ishi
##seong
50m
##tsia
adap
romano
corb
801
##inoe
704
baloch
prokh
shih
image
443
494
simplex
742
carlisle
tvn
785
712
ulsan
katak
decip
penins
pepsi
aurea
##ggio
rudolph
bandaran
hidalgo
skywalker
kaneh
marsden
havre
gyeonggi
kiska
sylvester
bastille
hobart
##igues
adventures
abyssin
ptychomitriaceae
brahma
ragusa
pashtun
yalta
centurion
bennington
smithsonian
ophioglossaceae
murmansk
gmel
hsin
jy
mba
nelly
pz
saka
yugi
zal
μm
##bys
##ped
##niss
##name
##list
##lund
##fest
labr
##etter
bode
##imac
##imat
dory
##isei
##asek
photo
tent
havel
voor
##adotrop
travers
1180
marche
armee
shal
shaf
1380
##tres
spiegel
##estosterone
acrost
maluku
##ustin
##upa
jammu
campus
kramer
##ixel
francia
psv
649
462
veracruz
avril
taranto
nicobar
nih
commiphora
kanak
since
927
895
##oglossa
1593
russo
facto
sympl
dnie
yasu
fourier
meteorium
jagiell
sisters
zapor
pizarro
bulbophyllum
military
erectus
polygonum
malinovsky
##ropetrovsk
oskar
khwarez
edmonton
tigranes
##accharide
cntt
libellulidae
krasnoyarsk
wilberforce
ctes
gory
jill
jaya
nip
nsa
oem
pena
peak
rie
##mud
##last
##rika
##ης
cheshi
##aill
laval
bouv
duk
##asium
mays
##raea
##rade
mev
arro
arles
##oderm
ampl
##neb
trek
1619
1615
newark
##teng
##teau
##riya
como
##evi
##evra
##ebol
guiana
##haan
angiot
##upta
rosea
pauline
421
sundance
##clav
624
561
takes
within
icon
basilis
843
926
##odonta
augustin
##racte
1702
makino
aquil
glyph
shahr
##orough
heterophylla
parvifolia
confess
metzger
kahlo
siding
capparis
amphetamine
fluoro
drummond
hedys
cyclo
coriacea
khartoum
aragorn
humphrey
letterman
vodka
pomorskie
alyssum
potentilla
pamplona
matxcova
fix
hino
jog
kage
lte
mies
sj
yue
zn
zara
##pom
##actic
khuoi
mouse
theaceae
##aras
toby
conde
chips
cabot
##esie
##orak
##achu
keng
##chur
##asco
bayan
voj
mayo
taurus
##reau
ding
neji
bram
ariana
##abyte
1450
laurie
pron
prison
preah
spas
sprague
##inaw
##estro
click
##uginosa
##ukai
gamble
ucla
damon
damalis
crin
perox
##shah
willie
ghat
erp
nemat
palembang
petiol
457
moreno
alexa
rosie
652
##saf
##hract
537
531
469
simple
centropogon
##actylus
774
776
victory
electrop
astrakhan
santana
##ators
calli
decade
publius
pasta
lorde
mrs
##gues
primor
kagoshima
1470
booker
movement
hendrix
clemens
vivaldi
euphr
cicero
hajime
virgil
schistoch
saffron
beagle
dodson
garrett
shepherd
zinoviev
cundinamarca
bazaar
novosibirsk
cheshire
angiotensin
dino
gcc
koss
nf
pius
##cini
##dow
##gers
##lide
##ride
##fran
##xia
##acas
##enq
##etaceae
##esch
##usion
tea
##idze
macc
brus
xeng
audi
shut
treat
reap
clovis
##ects
enigma
##hnia
soca
naudin
eras
##ittle
agric
kral
##ertia
##atten
hort
vali
kenji
verdi
seliger
championships
groot
##ropyl
886
719
cerast
yamagata
pilosa
premium
mccon
bromua
ipiros
transl
nightmare
buddy
1656
dunn
alpina
benghazi
psyched
kabuki
1690
heliotrop
##agrion
valeriana
stereo
safari
nephrol
ephesus
infinite
davallia
##ophoridae
kessler
tardieu
enrico
mesopotamia
thierry
opostegidae
tagalog
kiribati
bandaranaike
idi
ldl
rv
tna
whip
yat
yomi
zang
##lana
##uus
##2c
thorough
##enkov
moo
##onment
suess
bobr
bosp
borough
tosc
torah
caffe
cust
##osed
caul
aleg
xavie
sirac
##otts
##rava
brau
gaya
1616
##skh
daug
10000
##indi
latakia
croix
##urgan
beria
veneto
drom
526
obs
kofi
recon
##oxys
571
fearl
groves
domino
ridley
kaname
goldblatt
janus
bhum
praet
##ichiro
feld
sirik
larsen
everest
dunst
1634
##osphere
drago
aleksandra
teams
randolph
bergman
deadpool
luxemburg
audrey
lesser
ausf
cephaloz
sylvia
impact
gavin
kristen
lothar
brettell
jebel
colossus
authority
tenerife
escobar
shoshenq
ulaanbaatar
fearless
cite
gec
kaun
nusa
pbs
puss
rer
t1
wea
yt
yves
##tro
##hop
##hoven
##lag
##rang
trna
trier
##angium
kheu
cocker
ginger
##iales
chitt
baj
##usan
cauca
##epalum
bayes
##otion
##idol
dirac
stachy
macros
##aged
##ignis
##edj
bru
shill
##abl
##iven
1460
912
daunt
schn
schrod
asano
##seh
##azy
##awad
forum
##ophorum
##tsu
philharmon
##aint
minig
gangnam
boca
petrus
sars
754
shirak
turbin
belong
heparin
447
498
516
koord
osmund
ecc
##nyder
okita
623
582
solskj
bulow
bulgar
ibar
novak
olympiad
717
katrina
katowice
winner
##romycin
1749
naval
goodbye
olivin
alpine
1637
1582
margarita
bullock
igua
lutheran
##oceros
gillies
ebola
cathay
ophiorrhiza
nesom
otho
schoen
bjork
framework
lothringen
pleistocene
masamune
fiction
##ocephalum
rasputin
reichstag
andalucia
beilschmiedia
solskjær
adon
eas
erys
jis
jena
jez
oost
##kun
##mium
##hog
##lane
##ouch
##ᅮᆨ
##anu
hox
mous
lod
##ication
choson
ankan
soto
khoach
nomen
hair
cunon
##omena
dover
dussel
vient
##itung
siv
##idates
##lean
##ophe
dihydro
##igable
##ipus
shima
##illi
kimi
##iket
##phetamine
##ibol
##ibre
##loud
barrow
##ecki
##ophobia
##eye
rapid
mujah
huelva
palma
##arias
oxalis
655
argos
487
523
cope
disne
melale
##bei
eleven
536
garfield
schlothe
##lingen
selene
pew
knights
745
##oshin
1751
1609
##ologos
paull
alekhine
brando
##rogl
1636
pentium
crassus
##inervis
1723
llc
clemson
##fatigable
arsene
##roxen
splendens
##eliu
indefatigable
septim
zayed
lasiopogon
gigantea
barnard
chamaecr
##kusen
unicode
glochidion
tutankhamun
foucault
ctesiphon
electropop
ebay
tsu
##bop
##pil
##lenz
##ил
##uol
##amis
##acta
cowan
lager
turan
##onov
cuban
##omaru
##esy
sansk
sandin
leeu
##china
##olm
tezuka
##idian
traianus
macron
satellite
langley
neigh
nevel
arlington
##ifene
hyuga
pretty
##toni
parap
##phalia
##allenidae
##ugal
frusc
adal
somal
##eko
##ephalus
701
musume
ps2
449
frankie
medical
retrovirus
578
614
twenty
##herr
study
katniss
millenn
821
##achyov
yamaguchi
bernardo
ella
ghetto
generations
miracle
1743
tokus
celest
105mm
1279
nitro
bloch
ericsson
1725
cavite
sphen
cristina
cyp3a
##metz
physical
##querque
cherny
##ская
cobra
ernesto
fermat
hitchcock
addis
##brandt
harmony
guillaumin
railway
fahd
gabriela
pitchfork
callipallenidae
yaroslavl
anthocerotaceae
##urrens
michaels
municipal
dehydrogenase
cleomenes
leverkusen
volgograd
falkenhayn
bazzania
shepses
hedysarum
siracusa
schrodinger
dusseldorf
frusciante
f5
gj
jat
nell
nio
pago
##mai
##tp
##tland
##quan
##amat
##apah
##omeria
##oram
##chang
canxit
alum
siri
appe
##lech
came
hayashi
macrol
hamlet
##odiaceae
layer
emm
saigo
bone
1350
919
asuka
isan
##ibe
sommer
hutu
viridis
menz
boriss
524
bela
grandis
oxyt
senus
retz
583
587
567
superior
tets
championnat
twain
##pso
ibadan
moskwa
888
##oshenko
klaus
babyl
pharmac
garde
insignis
dimashq
1556
##odendrum
dhaka
prefect
1370
##glia
webera
scandens
yankee
carnival
stevenson
brachymenium
rhynchospora
octavius
gutier
tropical
augusto
rifamp
ursula
dexter
sosn
shanghai
torrejon
purpurea
khomeini
shevchenko
straight
tikhvin
ormoc
murakami
foreign
siegfried
decipiens
dauntless
cunoniaceae
chamaecrista
auch
fd
iup
lign
oen
oka
pesh
xum
##rima
thales
chino
chloe
##aima
##iene
phy
##atch
##atica
coqu
mott
surab
##erville
sora
vila
##aler
doris
##oris
matelea
semi
lyg
##epine
##otit
##opodon
1280
inner
nehru
monogatari
shou
shapur
hyal
reis
chapter
accra
gama
unas
crunch
##izuki
colonia
gontsch
corpus
charon
agam
menken
copt
569
763
951
741
chemical
794
876
masdevall
bello
ipv
pasp
##holic
##jeon
1664
##ogenes
axill
judea
1631
1568
carpet
rabbit
bukit
gemini
flowers
vivian
aceh
scarborough
signal
##chyov
##kirchen
cheilosia
valdiv
smartphone
dustin
civilization
personal
natsume
scorpion
whisky
release
encyclop
adults
velutina
basileios
hiragana
aytoniaceae
masdevallia
dms
father
goto
jelly
tic
zoll
ða
##dae
##mission
##jana
trie
chnd
khum
##onym
##etine
haibara
troll
maw
kear
lucifer
##usand
##itaka
canescens
heil
bresc
bruck
maroon
phae
aris
1718
shore
shishi
hyak
##tonii
parry
clas
##ubi
forces
mirab
##orkon
abba
608
halo
donets
mord
burs
484
472
ols
brood
rij
446
497
645
434
osorkon
mikawa
1509
centro
762
##ochia
kilogam
896
bromwich
varde
betula
1649
hunz
brandon
wolfsburg
bridges
1677
current
pacif
1728
titans
stenophylla
thrash
reyk
rothm
cynanch
##watch
cantabria
khrushchyov
chromolaena
##straße
hydrocacbon
hylocom
material
djedkare
anchor
bagration
wielkopolskie
vespasianus
mughal
environment
motonari
maradona
elliptica
arroyo
disneyland
cien
fes
hb
ipt
jes
tbs
vind
vries
wonsan
yay
zoster
##kaus
##suki
##hau
##oor
##97
##vation
##anin
truon
##inalis
pher
namco
mago
keitel
tripl
amami
##idai
hayek
##stead
##edin
nee
monoc
1519
aub
xup
##abor
regn
##trong
scher
schinz
kiz
joong
##uginea
##ibr
xiang
caltech
##ipped
meme
halley
flair
alexei
krie
##doch
##ezh
desire
poul
758
##ermont
495
montmart
christenh
641
patri
588
568
##asciatus
638
dicty
845
klep
944
##riere
sirj
aristida
fabre
juana
harding
1667
dimorph
nicki
newsom
sherlock
peleliu
1694
blanca
1565
nigric
steinmetz
daewoo
fujis
holden
hmcs
curtiss
jasmine
legends
tadeusz
cheilolejeunea
tenuifolia
crisis
pulchella
riccardia
sengoku
pueblo
calyptranthes
galerius
obovata
patagonia
glacier
thoroughbred
sanskrit
surabaya
7m
deus
dlc
mish
nera
oax
poni
zola
##bua
##kiewicz
##93
##xel
##ᅡᆷ
##iero
chandr
##aiss
hole
khem
khent
moesia
moody
gideon
loll
lover
lowe
tull
sulla
taiwan
chiap
chihua
quao
cave
##alore
##oszcz
lantan
##chys
sedg
##epi
aloe
##otii
##idius
mek
##adas
##adendron
##rok
##agong
##igin
aran
1511
parc
##ylat
ishikawa
##hee
##inders
until
##yrphus
##ffle
hari
##ainen
petro
glaz
michele
flame
balk
##ezi
olimp
disk
518
726
modem
grow
target
barbary
##phaea
poirot
828
gable
##valu
wildcat
judas
defin
confert
claudio
##aigne
##waters
cathode
lymph
helmut
staff
constit
cylindr
lysimachia
reserve
administr
dardan
volkswagen
habitat
sverdlovsk
staphylococcus
angraecum
tolkien
##iventris
heliotropium
vientiane
senusret
paspalum
montmartre
5mm
g7
wanda
wesse
zwick
##kv
##a2
##aq
##nay
##git
##grad
##rama
##92
##сь
##atif
gild
ante
soll
rae
tabl
making
##euk
levin
thoan
teg
tama
##opf
instr
quidd
arb
ems
emerson
1621
##abinsk
##ikata
baut
onobry
samos
elio
edmond
salsa
karin
merck
456
warhol
druce
syrrh
##alee
448
silur
464
562
855
955
tarim
678
katsu
966
papa
masan
892
nagumo
internation
ashoka
1646
armand
podostem
hilary
celastr
aspal
piotr
principe
1737
jude
1490
gmt
prado
brevipes
pamela
higu
kensington
shamrock
aurelianus
densiflora
pumila
marginata
crowley
thutmosis
stricta
crusader
sartre
cctv
diogmites
albuquerque
melaleuca
wessex
bind
bust
ebro
eaton
gc
gyll
hick
jus
mersey
ssp
vm
woll
yud
zahl
##bing
##kina
##aal
##uum
##ни
##ır
throm
vaj
##apon
##onna
anab
sole
##arc
rast
nhum
##usus
bataan
##itaceae
semen
thousand
##urum
capello
alme
alves
##ocau
##idou
haku
##rew
##hib
##roup
roz
beer
khabar
brum
##akon
1517
##nez
shai
##iance
##ovy
##aveta
##istics
priest
##phe
clad
univ
pliny
lath
##toed
ades
calanthe
perl
perib
edm
##link
##ynski
gonna
##yllus
607
##ucho
##uchea
balans
buh
473
648
642
akita
simplic
629
584
gertr
shink
shinto
bunko
664
tarant
artigas
814
stevia
nagara
december
johanna
snake
lipoprotein
brachyc
zamora
1657
dinamo
rudd
downs
pallium
grimes
pelag
hellcat
gracile
prev
1024
carthago
animals
nasir
phospholip
matthews
gemm
bagdad
nimitz
##tochilus
watchmen
drumm
dragons
alvaro
orbital
gettys
elongata
stilicho
pikachu
rehder
ounce
anastrophyllaceae
poitiers
hospital
mstislav
ziggler
benevento
http
concepcion
palaiologos
teucrium
katakana
dhr
daphne
equi
ticon
vse
yung
zucker
##kit
##rung
##rig
##enem
moch
##api
##onin
##ictus
sobie
conte
rada
raleigh
cusc
kyory
honn
leder
##itos
rangoon
##leyrand
##unia
##adia
huygens
neva
ampel
1618
hym
reason
##owii
915
##decus
##allow
duck
##ylic
ruthen
##gev
##ecia
blak
haruka
##ocke
##araj
##ulli
805
wilkes
flacc
##dou
751
553
engler
sunny
463
ectoed
857
blackberry
sutton
grohl
##joy
leskea
688
967
talleyrand
cdma
madras
woodrow
kirin
augustino
1708
boyle
saxe
platinum
larvae
lbf
archibald
heinkel
cordata
1558
aerosp
calypso
minecraft
wants
polytrichum
rufescens
hikari
kudo
herodotos
stavropol
wahlenbergia
released
laboratory
ciliata
erythroxylum
##zewski
caesalp
houten
ammothella
beginning
guevara
##javik
andromeda
boleyn
hyderabad
ectoedemia
aime
aech
buot
dsl
fet
igg
js
sinn
wot
xm
yester
zanth
##cke
##nin
##niaceae
##lace
##risser
##yav
##incourt
##ayu
mout
lovel
##arca
condor
mako
bazar
kea
##osiphon
leorio
##ilos
hanks
tacoma
sango
##utes
apt
1010
stig
travis
share
##iraptor
hyst
vanguard
1330
granger
##sees
barra
##yroll
##ophilum
raider
809
##bergen
##enaea
url
uric
airplay
382
sarmatia
pout
jacks
sychy
lindsay
467
verb
simmons
##cheong
westphalia
##oxylon
americana
579
noble
litv
ruhr
mitanni
rede
kilo
881
001
893
beats
cardamine
1605
annona
korsun
highway
firth
podcast
##fries
ginny
fabaceae
1682
micropterigidae
inflex
1673
1545
1288
1066
1729
1377
dendroch
ceaus
bowie
product
escuela
escape
cities
citric
dyck
cyprin
zoom
straw
aristoteles
lycop
frontier
independence
shingen
spectabilis
psyche
matsumoto
guzmania
construction
splachnaceae
mazowieckie
groningen
priscilla
dolores
euphrasia
millennium
menzies
crunchyroll
reykjavik
##watersrand
onobrychis
ticonder
020
9x
auc
bsd
cve
kig
koku
ning
nfl
qut
sesse
uch
wijk
zon
##sud
##pon
##point
##nick
##jara
##ᅵᆷ
##주
##oil
##atros
##erman
bourn
##arion
dann
##alf
##achev
viettel
alaric
##ocon
vochys
##opis
##adu
inari
##thong
quis
quir
##abine
hunger
##oware
913
preu
##allo
chapm
##ugged
##iburg
calophyllaceae
peroxide
##ainia
normal
sale
##ysz
agost
agave
##geri
mccoy
bury
482
estr
##queen
immun
medium
ecm
miku
grozny
987
breed
busby
cleome
penelope
cordillera
1555
##guin
1543
1632
fallen
falling
jennings
squad
1727
dumort
sentinel
morav
gyeongju
alameda
lowry
mountains
tartar
##ransfer
observer
citrus
schistidium
beaver
townsend
scudetto
seasons
transformers
architect
boomerang
hsinby
cerastium
erysimum
quidditch
syrrhopodon
sychyovka
b3
ceb
fung
ged
gnaeus
hh
imer
jc
jerm
kaka
kult
lse
nq
pei
rar
rhip
sense
tph
wow
zl
##tai
##hide
##ued
chl
##atrix
lae
chol
suv
##etorum
bound
##ichho
dani
caerul
##aling
doukas
##orensis
bax
tanya
algar
##otoma
##unin
diamon
##adena
##roud
insp
##avod
##ensa
lauder
##okh
##okia
schell
schill
cara
ayn
##cek
##ubin
franck
blau
orin
harwich
aten
norma
gond
gupta
##anthrop
merida
wilbur
moresby
##toria
ramire
proxy
airpl
disulf
492
513
bye
bydg
galat
avent
seto
konev
563
munoz
rule
takashi
986
fuhrer
betulaceae
##front
navy
lawson
##lavl
gotha
rudy
ribes
##itsyn
##odeon
chloro
aerosmith
dnip
1185
kawaguchi
accord
nsaid
deanna
carrera
medicago
olearia
innoc
gradst
##uhotep
marcelo
trotskyist
witwatersrand
##acetamol
pdf
plagiothec
##alayam
clerodendrum
bernadotte
aleksandrovich
kimberley
meade
landrace
doolittle
chelyabinsk
gravelotte
balansae
ceausescu
bw
cine
cuom
dll
ei
escher
guo
kst
kama
oj
pien
qp
ske
t2
wij
##dington
##pold
##prom
##lab
##ressa
##zano
##jia
##amt
##enau
##iaria
choshu
tou
conm
bioware
##alos
##orhiza
mabel
##umn
seiy
##olensis
tamar
alth
almat
alkal
##opi
##opegia
myung
##ulam
rode
##oder
##illac
newt
goal
trond
##ukaze
nani
blom
elm
serj
smithii
yorke
bottom
erie
petrie
muscat
populus
##schach
darm
christi
kochi
verbes
omsk
galba
avant
receptor
bulld
##ladbach
779
684
artists
883
diction
715
##quar
863
graves
929
##osaurid
##ozione
bhag
boboi
guns
runner
1547
1590
1622
shoot
leuthen
blanch
kagura
##iptin
bukhar
##rabang
glorious
katharine
civic
rhynchosia
caracalla
stadio
vicksburg
kulak
shizuoka
vesicularia
sturm
shocker
tsukasa
economic
nickelodeon
megapixel
##chengladbach
kuznetsov
##ocalycaceae
mckinley
##orrhynchium
vittorio
elimination
arkhangel
karlsruhe
phymat
gettysburg
ticonderoga
hsinbyushin
ramirez
dias
mbit
oll
pyeong
rsa
senh
snyder
u18
wash
##base
##cot
##sam
##zim
##ир
##acao
gioc
tobi
thui
biwa
20m
taki
##elman
amip
dix
typh
debor
trab
langrisser
brenda
##ionate
15m
reach
carbine
grass
spurs
comeback
blond
orang
##count
perug
geocalycaceae
willy
henck
genn
##bright
walton
balan
653
jeolla
panch
poj
olsen
opuntia
darling
christophe
lindberg
729
gatsby
brasilia
tetram
611
markov
637
castille
taken
olympics
klatt
##axis
pilot
897
dalbergia
higher
1705
##phorus
purp
1522
1559
1674
crassifolia
aeron
entodon
dolls
promozione
fairey
##ombang
mazur
ready
joanna
bupl
hispida
plutonium
arslan
efate
enterprises
##timer
gwen
sdf
packard
ainu
flagell
elysees
mundo
mentuhotep
summit
rorschach
gypsy
mighty
shinee
waiting
erythroxyl
mafic
stigmella
superieure
kaliningrad
garibaldi
mielichho
caffeine
cynanchum
drog
guk
gast
h2
iap
ith
iec
ipo
ues
uber
zil
zorn
ðay
##bic
##fone
##vine
thori
vau
vault
mosch
tuvalu
##aploa
##onian
##etas
quam
dojin
kev
##itensis
##asion
benzo
thank
##lein
##andan
##hiđ
##nefer
shout
shape
sail
regen
##owitz
##okai
paracetamol
isid
##ibracte
damian
comiket
elaea
cott
minako
##astra
willam
##quid
ages
656
651
militum
491
644
##oxom
sutra
662
786
ultr
##bleau
827
bernab
##young
##smith
##jean
cordem
kabuto
sorbus
1497
padme
1392
lepidaploa
gabrielle
courage
mogad
pantheon
yoshiki
femme
##orhynchidae
nizam
zelda
##ophoraceae
professor
ethylene
tuscany
austrodecus
1080p
etrus
##quois
eclip
divaricata
dubrovnik
reginald
tyreese
atacama
bhumibol
gyllenh
almeida
sobieski
tphcm
diamonds
plagiotheciaceae
boboiboy
csa
eco
prey
uj
yf
##kala
##thi
##eaceae
##zuru
##ур
##anik
tria
##amara
##inella
laff
thel
##erxes
soap
boro
bohm
toac
ved
bios
bith
taka
anhydr
##eso
##achian
##isco
sana
##euron
tril
tand
##ocaine
hatus
stokes
rowan
1150
hamid
##edra
##ne1
shake
##avirus
##dean
schie
goo
gour
grunge
##taw
##landia
##evka
sapp
flak
##oleuca
mcv
delac
delux
##opteryx
strau
rios
##ments
##ustris
646
torp
573
gerd
compet
twil
wallenberg
773
lute
artes
farrell
##foot
villers
825
cryph
prav
nightwish
grayson
armor
kitchen
zamb
kostr
uranus
fulro
battista
heller
1588
mitsuki
ppv
hyperion
fujiko
mallorca
marlon
##steen
cabello
nathaniel
paint
##phenyl
ishida
eichmann
dextr
boniface
favor
pattaya
##ocentrum
glandulosa
zirconi
##lochromis
schiffner
asclepias
fuego
pungens
cholinergic
artaxerxes
peribsen
aechmea
yesterday
zanthoxylum
bydgoszcz
trondheim
verbesina
mielichhoferia
2ne1
aong
b41
dham
fas
frog
llor
oyama
puk
qi
ruka
##bund
##mad
##med
##gat
##gana
##zik
##vka
##xton
vaclav
subr
bisch
ragn
rabin
##esii
##isth
##osu
triph
amit
##uring
##utilon
maynard
##uloides
tyl
apost
brendan
##ardii
layla
1611
cato
reina
##iks
pri
print
daemon
grup
##mana
macha
machiav
##ibi
##antic
##donia
##tshire
rainer
adak
harpsich
guianensis
tiu
##ighters
perdic
##ekh
guido
##quine
803
warsp
agincourt
908
flan
659
657
estadio
474
mamoru
##koye
##rond
darya
511
secam
ferre
polypeptide
tarzan
##ochi
arturo
icc
##celidia
846
woodward
remote
##culus
##culum
mirza
majapah
zamiaceae
consider
1639
pallida
1739
random
miyamoto
beckett
moldenke
cynthia
alamein
lactose
fermion
tunku
listen
hashimoto
kreis
mengsk
##opetala
reinw
gabriella
pogonatum
salaam
points
cinemasc
optimus
maghreb
paparazzi
schlotheimia
aspalathus
twilight
harpsichord
warspite
majapahit
cels
cech
ddr
eđe
geta
guss
hx
jatr
puz
ruom
ull
urey
zai
µm
##bt
##croft
##pils
##nov
##rc
##wind
##ᅧᆫ
vaux
##acional
##inka
##iento
phor
##atensis
couss
chodat
##erium
##etian
analy
animax
borod
##ombo
##alen
##achen
among
##asaurus
tenor
meij
mecham
1220
manning
##ipper
marques
arras
monchengladbach
##ellatum
shack
1613
albumin
hyd
rewa
sonia
daugh
carchar
ones
luit
luhan
2100
##ffic
elag
minus
##othea
angles
guett
##ostan
##cki
charge
palae
karzai
merkel
agn
worms
glomera
roses
mcqueen
##ezia
helsing
melic
539
deport
586
##suit
##ulture
nikola
674
718
gorb
985
leonidas
ceropegia
##tenberg
pommern
##ignac
cyrenaica
diaby
mandalay
1654
1687
##andrum
entente
laksh
arkham
##oceras
panthera
candida
cryptantha
ferruginea
myrist
holding
rufus
margad
techno
yoritomo
ariarath
extended
hadrianus
swordfish
tuscaloosa
rotundifolia
evening
shrek
heisenberg
pfeiff
##somol
wyler
cataphract
tokusatsu
gutierrez
bernabeu
dial
esch
furn
gorn
kais
rings
ritch
sake
ðao
об
##kle
##kreis
##div
##hyl
##αν
##gny
##ᅡᆯ
##łow
##aila
##amen
howell
horiz
mogh
chola
booth
toang
##ichia
khor
viss
taffy
noot
##omoto
masa
makin
lucien
##umaki
phobos
canning
heiji
##epa
##otto
nhoa
ungern
##rodon
1140
mond
##odina
chamorro
hett
##enso
prep
##iou
chapelle
luisa
##ahawk
spell
spiro
spitzer
ayumi
extra
orsha
malabar
smok
polis
minamata
##veau
chron
venom
palatin
jamal
balansa
593
591
rhea
urum
##ilee
swat
swah
##shing
eurhynch
rayleigh
silk
kamien
koan
avila
angelina
terror
851
domen
663
665
winx
815
midi
schwerin
835
924
mcclint
pyramid
gallus
naver
philipin
devi
vincenzo
consort
chrysler
##lamys
erios
tedder
ligularia
##broke
benzyl
boxing
a340
izu
carnot
wedding
muggle
ceratostylis
##volod
teutonic
soprano
thessaly
gagarin
kernel
hcv
jiraiya
snoop
arunachal
tornado
iroquois
acrostichum
chittagong
philharmonic
minigame
pouteria
mogadishu
ariarathes
5g
cind
cma
cinder
eight
fimbri
jia
jansen
tser
vine
xb
xt
##bage
##tok
##lit
##jid
nhinh
##angor
lof
anax
bora
rakh
noz
vaniot
dumas
leach
leiden
sejm
thoth
##epe
##leg
camel
bech
beard
arund
emblem
##ovirus
lactic
##abas
1415
934
luanda
prain
prostr
prayer
oni
##sonii
##ugan
scene
scabr
##azawa
##udin
plug
samo
malac
philodendron
romulus
ababa
609
##veolens
herpes
salz
salle
palmas
wilm
wilder
morley
##weiler
##ophyllon
654
##egan
josip
martial
swiet
stripped
##arpur
guang
patrice
munsu
peel
feat
##inthi
771
713
katz
katyn
georgy
porellaceae
zhao
klm
sulph
##blue
898
pavonia
1406
komsomol
ashur
everg
buddle
1525
ending
1675
1624
1732
marsup
##iazide
alphago
gulag
cisco
haflinger
commons
echinops
kandahar
##ocladium
dusty
behind
cocktail
brugge
fontainebleau
##icauda
##ipetala
a6m
schwaben
epsilon
achyronia
aegypti
erasmus
brescia
klepacki
podostemaceae
adesmia
erythroxylaceae
jatropha
swahili
4g
aig
ezio
fath
finger
g8
goli
iasi
jax
kuchi
munt
uf
uth
wann
##sim
##mul
##nina
##tas
##zinger
vard
khuou
##ieur
##erle
boerl
thulin
##imental
doh
lampr
##esong
bashk
##osol
trance
thant
alec
alla
mangut
hauss
megh
diap
##igator
hamad
brno
manipur
##aburo
catch
saitama
##berus
##ensch
sonder
1418
prior
##phea
##ahn
acyl
##peri
plugin
forward
trachy
##evsk
blast
orc
calv
percher
absol
erist
##yslaw
mercer
mortimer
##yprogesterone
599
prox
poe
poec
strik
freycin
freiburg
horst
kurama
##monevra
kalmy
tsang
bitter
barbit
##olls
848
943
##oyama
kujaw
illumin
temper
umno
vladimi
introd
pulau
revers
curc
cyclop
1626
slavo
slave
gnrh
dolnos
kaguya
1429
tulip
pontus
jagger
huntington
liberator
sql
mansur
vieill
crimson
krebs
3166
wiener
euscelidia
madhya
guadelo
fossey
mammillaria
triglycer
browne
heligmonevra
##millan
fokker
isaakios
##epalanthus
chihuahua
sedgwick
honneur
rhipid
bulldog
##ombangara
uesugi
willamette
gyllenhaal
deluxe
luitpold
mcclintock
dach
hund
jw
mpa
pond
yad
##cup
##aja
##pad
##nant
##was
##iega
moa
anita
congress
ravel
##eser
mabb
hech
alata
macos
mana
armani
##odaphne
bongo
shuri
shaun
maid
catarina
kimmel
laut
paran
caritas
##manii
lato
##ophthal
fremont
adler
raptor
harbour
603
##ctum
halder
804
walcott
interl
warburg
wiltshire
balik
##ettes
darje
indicus
sunset
valpar
kamiya
##zei
torrent
madre
853
##ussy
artois
studies
677
793
971
keratin
lepidium
##aterin
##flur
finals
internacional
maked
cirrh
jiang
contra
eastman
catalog
1542
primetime
judah
1571
ricci
kolombangara
dolby
1225
kaspar
mimi
fusion
boxer
hyperbol
dasypogon
arsinoe
stefano
scandinav
pusan
##otropis
demetrius
taxith
esterh
hijikata
arcadia
feuille
leaves
hillebr
schaff
interstate
abruzzo
hoxha
somaliland
trieste
serjania
deborah
cryphaeaceae
guettarda
dolnoslaskie
cites
eind
fill
fens
jed
mito
muop
pike
qal
vx
went
zaw
zhou
##yuk
##wu
##vig
thim
chie
chlam
varan
##enol
hou
cov
mou
moul
moulin
lose
##ichte
quasar
taft
vana
##alk
##iska
bagram
trif
lana
lecy
leave
##umu
amman
semy
laplace
tecn
##utu
haupt
dein
rous
rough
behr
##agena
##iona
alban
shaman
1612
hyang
##bera
##berman
rever
aizu
cars
cargo
ludl
saad
##azir
##uder
##udge
giacobe
##ophth
##ophosphate
##hni
samson
miu
##izan
##izon
atkinson
abid
salman
charter
702
904
906
daven
krom
krum
slas
759
broz
517
##cliffe
437
florent
gatling
linn
ruff
tarenna
687
holm
788
698
commelina
##atorio
836
bernstein
891
elizaveta
1604
1601
1402
hirta
1706
ashken
beaumont
boyd
miriam
mandel
globo
paepalanthus
dornier
nyu
##ogenic
eastwood
spinosa
overlord
wook
1698
dht
1724
1440
aerop
deuts
gurion
dickinson
associaz
waffen
##ambang
a380
fairfield
terminus
capitata
licinius
##ogramme
dharma
scleria
saarland
##ocladus
zachod
##emeriaceae
marianne
harmonica
grigory
guinee
gravity
nvidia
cartier
scorzon
eberhard
##jects
##oglycan
wolverhampton
cygni
##aldehyd
cupressaceae
krajowa
plesiosaur
lohmann
schlieffen
alstroemeriaceae
symplocos
khabarovsk
caesalpinia
aongstroemia
darjeeling
done
dillon
jep
jell
kuy
lust
mca
nxt
yog
##cor
##ijo
##hic
##roix
thrix
##oichi
##acanth
##atowski
moe
theor
##apia
sufi
toki
toho
##uster
leader
##ilar
ambon
sequ
seead
##olt
lyric
teij
alop
sida
sikor
ina
inae
##igyn
manny
##ellen
shao
sharia
maison
launch
933
1340
916
presc
proper
carboxyl
grub
aoba
spark
barran
lattre
##linia
happ
angl
herak
palud
dona
morse
agap
##ypnum
##khet
weibo
stronti
belorussia
monticola
sunrise
garros
##arpum
florian
markgraf
centimet
633
castor
##recta
##afen
884
gorilla
813
hilltop
824
##bleph
ruben
pavia
cyrtoch
allende
1271
1679
rajah
versace
1722
multi
flavon
flavescens
products
aguinaldo
mitsunari
ascorhynchidae
mikhailovich
euclide
rowley
kathleen
sdk
shelley
coelogyne
caudata
alawite
digitaria
population
marmara
ammothea
cuspidata
bareilles
borneensis
staffordshire
##ostephium
elliptic
corazon
perceval
thylak
esmeralda
primorsky
daugav
cyp3a4
shinkansen
##ransferase
ragnar
cinemascore
lecyth
seeadler
aene
d3
d1
equat
kac
kiki
kido
sina
wand
##biz
##captor
##dag
##roi
##yun
##zhi
##wski
##ав
##ам
##aichi
##enay
lash
theron
tune
##onan
sumb
sueton
coni
quap
##imba
##esda
maar
matrix
leary
amomum
tanac
alas
alumin
nuevo
apra
camelot
thailand
##uny
tyrol
longic
##agaceae
bride
1721
1716
##odos
itto
##abara
##ability
dual
##ylepis
acule
##sevo
##azzo
unpl
##ophrys
crush
##ebody
adp
somebody
abus
above
##ulla
genie
charac
paladi
interrup
merle
agatha
worm
michiru
flinders
594
rhaps
jeans
weis
borges
panic
489
752
cyb
cyath
##kou
antim
519
lindau
galen
osamu
rondel
62x
linaceae
shinoda
bryant
blackpool
murdoch
junction
telem
holi
732
983
villan
hilliard
823
822
sabha
yeom
resour
947
##prinz
##nders
##zyme
080
cyril
create
1665
downtown
1599
ribbent
riboxom
1738
servant
1234
##osevic
1328
mainstream
piranha
floor
audition
mls
gymnasium
steiner
ntfs
bethesda
destroy
yelnya
kharkiv
kubo
allianz
bubble
hosokawa
critics
wurd
phenylalan
serrata
zircon
nervosa
penguin
callicost
different
actors
gentianella
schmalh
success
toscana
iupac
dendrochilum
taxithelium
thrixs
thylakoid
suetonius
ribbentrop
a5
fak
fitch
liss
ohm
ogas
qad
sash
tsch
wada
đuom
##nas
##nicki
##tica
##gum
##yut
##juku
##vald
thys
tremat
##atana
gif
loss
loves
##apika
##icaria
##icifolia
đet
toch
toky
chill
kyiv
##elen
##elag
##elyn
duna
matak
##iling
##chua
##urpur
alco
##ocr
apopt
1050
tuyp
route
##ipo
1617
catot
##ivis
1420
pray
sper
ayl
clash
##ylia
##tee
##heb
baran
##dras
blonde
##ebn
orkney
malaxis
socot
pere
angry
cork
606
##ideen
moray
morotai
robbr
robyns
bala
balboa
slant
allyl
milosevic
weather
poet
strut
##doria
garland
garrix
##grim
ruh
murat
764
954
skotts
889
733
736
731
##zoa
714
##ogonum
847
812
792
879
maslin
839
janssen
894
cardcaptor
penicill
boyz
mahab
outer
podocarpus
ambros
1652
ivanov
##gyong
meson
##gsn
nadia
1549
ingeno
ostro
1628
fallon
battambang
didier
weberbau
igf
pontos
fantastic
jacquou
associates
shimizu
bhutto
wakef
piast
chambers
kauai
geoffroy
perciformes
pseudoch
lecler
kremli
lorenz
viktoria
virgata
communication
cartagena
precious
oblongifolia
bolesław
##acheslav
acetylcholine
gypsophila
hainaut
khosrow
leeuw
babylonia
zuckerberg
machiavelli
cindy
bashkort
guadeloupe
tanacetum
thrixspermum
ingenohl
1st
cib
cdo
dsm
d3a
eto
fand
faul
flint
gyr
j1
rural
vice
##bab
##hurst
##yne
##ystem
##fah
##ᅯᆫ
##anon
##ungen
##atai
##atom
lakh
motif
load
##apu
##erte
touv
tohru
noy
##imal
##elier
##isand
babc
##uso
##usei
ama
sech
heide
hewl
##eptic
##uridae
alkan
##otron
##utake
apod
aphan
gomphidae
meiji
##thofen
brot
##akarta
naoko
##ipl
##odone
##ellschaft
##abel
request
1360
914
##ogie
gras
##ibana
##aziz
barros
baryon
orenburg
##eneg
romney
colony
geographic
correa
member
##brac
erz
menzel
delav
martel
##opterys
strel
753
melville
eleocharis
brahe
garage
kurapika
kalas
728
1504
peach
shinobi
groove
jacksonville
briton
##ometer
673
735
##gonium
commodus
866
villen
826
papillaria
regia
township
alfa
ashman
anthology
1681
##agnan
osten
distrito
networks
nasda
galilee
kaiserin
rpm
jagd
grossulariaceae
rzed
courtney
percival
zygophyllaceae
grosse
hajj
pearce
winners
sbd
wickes
nahiyah
salmonella
peloponnese
firmware
ankylosaurus
sampdoria
bartlett
shibuya
geometridae
learning
hedgehog
pomacentrus
maverick
administration
internationale
henckelia
perdiccas
cinderella
eindhoven
unplugged
bashkortostan
bier
cie
eid
fps
guth
gosp
nandi
nandrolone
puck
rms
sng
zeph
##bott
##cial
##muth
##nen
##now
##fell
##von
##ли
##anak
coum
suzan
chisin
cuphea
##elow
##isan
bangalore
dug
##usuke
##chai
cause
##urin
thanos
##emite
habr
gomes
maculata
macrantha
tonle
rohing
margr
marvin
mariano
marquis
arf
arden
1711
##ention
##ivir
##istes
aizen
parra
##ogu
grb
gret
ond
spitz
spicata
clostr
safe
scabra
##azo
##lof
##yron
enfield
orp
socola
##eks
atago
located
##derm
##ullus
williston
corner
eris
tomahawk
karel
708
wilkins
slash
allele
hotaru
##ileen
burret
vitellius
shiv
shiba
##beek
461
##matit
frankenstein
rye
okb
modena
mitscher
taraki
gramin
skull
689
010
shear
864
975
graebn
##block
lepis
berno
clean
1408
kuhl
##werk
philipines
danielle
microcarpa
gardens
1678
sharjah
tolmer
bogart
becky
anatoly
higgs
sensei
greyhound
##aranea
words
wheel
hashim
ilyich
kassandros
##popo
minutes
memories
programming
integrifolia
gordianus
ctenitis
pahlav
saffir
hibiscus
shaykh
lerida
spotify
therese
chronicles
harriet
uribe
gameplay
xiaomi
involuc
potamogetonaceae
ipswich
indravarman
eusebius
##olophus
methanol
yoshitsugu
hewitt
vulgaris
oxytocin
dardanelles
dhruv
arkhangelsk
drogba
bithynia
gorbachyov
goliath
hewlett
chisinau
cestr
gatt
hdl
jek
kpop
llan
lizz
mello
pym
wulf
xing
yidd
zedd
##cu
##machus
##ρος
##lak
##fax
##от
##aith
##inor
##angl
##atel
##atidae
nami
thell
suse
##arai
##orh
matsu
sanj
##usho
amon
##emitsu
voz
##oplas
trail
##ulans
##rou
chant
debb
quill
##edith
nek
monday
##avati
##illum
##abarab
##ikawa
laudon
metrop
##boo
##ophanes
crack
frat
fris
frider
##lesis
##izi
ranch
guern
karma
##mert
##ypsis
robbins
coccol
##ezer
ivoire
##ashvili
sarge
destr
panay
ops
disa
gauge
##eirah
ronan
1502
kness
compost
subt
##actis
772
astana
skynet
novell
dicap
xenon
talmud
demyan
sheep
dvorak
817
##opoli
973
kaze
rept
##iyan
##bital
1607
##vali
pyruv
makassar
##rodes
podlech
specios
##comb
##comm
dreamcast
yakuza
guyane
sagan
rossini
entre
welch
jumeirah
ignacio
burger
##bolone
##formin
hispani
powers
safavid
mtdna
eriksen
spartacus
caspase
##osporin
rhaphidorrhynchium
daddy
laevis
punctata
nikolayevich
##kisugi
breaking
coonabarab
sanctuary
bohemian
##istipula
nissan
kaufman
psychedelic
nerax
conmebol
ogasawara
coonabarabran
euth
fist
fei
fighters
hina
jain
kurgan
m14
woz
##bum
##kage
##pro
##rb
##rik
##roma
##willer
ch3
##oist
ngum
loved
##oney
##onate
sochi
##aries
viu
rabat
cuvier
##imab
noise
luck
amel
sekig
##asch
##emble
aps
cheet
diver
tycho
1214
devan
bebop
##agl
negev
1514
##abit
catholic
sonora
carav
vonfram
acm
##ecox
##ophore
comet
##eyama
cret
##toburg
malmo
##endar
calle
##izing
napier
corot
corvin
gladys
596
foo
658
##ontes
jewish
struct
copper
richthofen
indus
647
##velev
maxima
osm
seconda
solan
##olfo
argentia
jonah
redem
grover
twins
765
743
niigata
671
katana
operations
795
keres
royale
cacbonic
sakha
limous
kirby
troms
ellips
pyrit
persie
buda
brande
pseudoles
landing
caesarea
histor
cherk
cyclops
1573
ozone
1569
1424
uzumaki
famitsu
kamenev
lakes
##rasan
griffithii
antiochia
ancyl
ancient
nsnd
peggy
rowland
several
teutoburg
bartolome
ouratea
aspera
frodin
britannica
puplesis
figure
beckerath
tzvelev
pitcairn
##iodactyla
myrtaceae
sericea
asparagus
distichophyllum
pergamon
byakuya
czerep
brusilov
dragoon
weaver
septimius
fujisawa
phospholipid
cuscuta
valparaiso
rhapsody
rondeletia
rohingya
yiddish
aiton
e1
fie
gull
hrad
jg
kipp
kita
nast
pui
pucc
qum
rida
ruz
tert
wm
zi
##buck
##krie
##sad
##nut
##tung
##uha
##zco
##ار
##amaz
##atu
cobb
##uctor
đomen
lokom
##aputra
##iaki
##icensis
##icatus
##ieta
##arts
kholm
conch
consp
viper
taz
vanilla
mate
amour
hopl
##0000
##eport
siauli
bain
cair
cheir
##ullo
staten
##roa
##rode
dekisugi
1130
##igno
cucull
bri
manfred
##odan
##entes
maiden
reza
hongkong
laub
##estradiol
asi
bars
plur
ender
##ophry
##tsov
crt
fruit
seriz
harlem
smash
##coun
polish
calcar
##shur
gangwon
haplochromis
angten
corvus
salah
saleh
tomoyo
meredith
whist
903
kiaersk
milady
borg
ps3
burbank
vitis
##incom
belis
belfort
##rones
omn
gauteng
maxentius
recurv
ronnie
564
superstar
574
munch
narai
muridae
1241
##actam
676
##ghini
millsp
breda
kluge
878
##iorum
nagisa
##insberg
mueller
bethany
mutant
gotland
1746
kitts
##rinka
fabron
ivanovic
1669
gtp
1274
fulbright
rudgea
##quir
1541
rupicola
crassula
slavic
1733
1564
glucocorticoid
1390
nigra
1587
procumbens
killip
bogd
ascension
rusby
gustavo
gregorius
scarlet
shelter
hobbit
buffett
##eratops
caldwell
tartus
thunderbolt
lvov
thalic
kassel
crocod
pfizer
bokassa
wahlenb
nishimura
mcnamara
jaub
chikuma
intrepid
oryzomys
fleetwood
aisne
clifford
maronite
blephar
lessingianthus
wladyslaw
mujahideen
rifampicin
lathyrus
almaty
bupleurum
elaeagn
sapphire
borodino
eurhynchium
feuilleea
villeneuve
tolmerus
dicaprio
siauliai
bland
css
cska
fier
gina
hent
hiei
kiv
leroy
pfa
qing
rune
ðe
##bana
##cap
##iopteris
##dok
##ου
##ρι
##uper
##fra
##wari
##vy
##anan
those
##acci
##enone
nama
tuk
##apor
##icera
sord
boz
khir
ving
radon
caff
##omai
dojo
##elaus
lez
##asone
cano
##olica
lyell
##idazole
hanyu
tactics
##andri
myo
##uly
bruc
##akt
##ipogon
monk
1719
##ellatus
maira
requ
schen
parton
##ogh
cleth
exid
scal
latina
damas
##ophyl
frem
fritsch
bombard
ranma
tachibana
napalm
noriega
##ostic
hiyo
magyar
urqu
psi
burmann
sarac
cytis
etyl
##beat
champasak
romaja
ryder
##rici
723
1506
gerry
nobody
nepenth
858
##ensee
jacinto
778
ftp
686
ilmen
691
988
commander
867
momb
040
##niya
faber
1666
##gesch
leucoloma
1676
downing
kwh
1699
1075
nikolayev
srp
yuichi
gastr
1399
prometheus
schengen
1189
fatal
shankara
finalist
mathias
fujimori
connect
cynorkis
rostock
polynesie
bmg
margot
legendary
vaughn
cesare
mysterio
hđqt
quintus
f4u
nigrescens
soldier
immort
middlesex
berezina
bernadette
peloponnesus
##aldehyde
oshima
yevgen
##emouth
okhotsk
h1n1
mubarak
shakhtar
inflexible
pojark
koanophyllon
domenico
lokomot
ahr
dwar
fb
hicks
joc
jeps
nx
nylon
pth
sill
wep
wifi
zaire
ðen
##kiss
##got
##jat
##jee
##woman
##еи
##ная
##ᅮᆼ
trapp
nhep
##acarit
##uyan
tukh
ani
tory
banshe
nok
troub
##olac
heidi
##occ
null
hanst
apulia
mangaka
##opius
camden
camila
##stia
##step
##adora
begins
hamgyong
bruchi
##ipat
##iputra
monon
monmouth
monitor
1717
itu
##ardino
##abin
##abalus
catech
1410
##iken
##ssons
goy
acap
##heid
scapan
##yrian
##econ
blumen
elst
soma
##ernes
perform
##artan
willard
##itti
807
709
agent
glazi
flug
592
##platz
francoise
weig
afrin
afonso
estrada
##beau
galois
oxyc
avg
hawkes
toru
patria
tsur
766
jacqu
showbiz
walls
astr
artagnan
004
##uvong
842
zhuk
talia
sheamus
816
rubra
rubens
948
025
premiere
1409
arakan
##zzar
cassidy
diablo
pasadena
armando
godfrey
bosphorus
lasianthus
1553
1546
sherry
1696
1563
koblenz
misaki
heteropogon
1327
mendele
cadiz
a300
valerian
renee
libertadores
peptid
mansfield
almost
pieter
hosok
hirohito
gloucestershire
dupont
najib
bidens
callipallene
cinerea
gracilipes
anemone
hookeriopsis
bianca
barkley
combination
norrl
computing
hoshino
paullinia
prefecture
nigricans
darmstadt
ritchie
moghul
ludlow
lizzie
2am
4h
gier
hia
jms
kund
kuch
l1
mri
nate
pey
rift
ski
yuna
zaz
đieng
##kb
##kr
##kil
##may
##nag
##hg
##lf
##wolf
##qs
##ระ
##도
##anami
trypt
##ayuki
##oniaceae
##arensis
tobia
tosa
conj
bio
##alidae
##isca
chungcheong
leah
leaven
tej
tencent
##reck
meigen
##stall
ink
##this
beyr
beij
##agher
##aglia
##iones
monos
monarch
##iffer
##ensii
rect
939
931
prze
spira
##estus
clamp
acr
##ibility
saab
##lyph
barlow
##ierre
##ecta
enid
blur
2700
smo
calgary
gehr
gangster
botry
agra
##merod
##ottia
##ashiro
rheni
buriram
etc
etta
melant
##matus
franken
linz
##iosaurus
litsea
knuth
azaz
769
reno
southwest
841
982
992
cerberus
798
834
busch
946
annapolis
1307
dicranoloma
muelleri
transox
stanton
spear
device
cordifolia
ostrov
attica
##mando
rodrigues
1567
1535
##iazid
familia
##ostega
kumamoto
yoshim
yoshino
kashgar
a330
nazi
connection
kelantan
senshi
shortland
synthes
tricl
ephemer
mcgregor
susano
falcata
ustase
kessel
pompeii
kyuhyun
nbsp
wawrinka
amateur
menkauhor
phylogen
antigonus
##pommern
chinook
cylindrothecium
higuain
zahlbr
airplane
freycinetia
cyrtochilum
wurdack
aed
dns
e5
fpt
gf
koc
koga
quoi
qar
s4
sava
vier
zika
##sii
##sbury
##lulo
##yre
##wiec
##winder
##их
##리
##anal
tryp
##enario
##inine
khlong
moroz
##onensis
chou
antr
aniston
anything
aniplex
soho
sousa
##omes
##elda
##usum
lean
lemon
##itine
##itage
##ilt
##aste
boivin
capra
##emos
alston
##ided
gomel
beet
##iginosa
ary
laysan
shino
emar
hygr
bonus
succin
sacchar
carla
##look
dammam
crick
document
homme
hutchin
##astan
henn
parish
salim
mert
706
gluon
mussa
##laena
druk
hotmail
netscape
psor
psitt
sarg
nutans
valens
kame
depress
florid
724
852
surat
746
renown
003
005
pterostylis
##escence
porsche
##icuspis
811
punch
pilotrichella
941
##ignan
jungle
temur
philips
##kken
1684
##veston
1529
gardiner
##itions
ohpc
pulse
krypton
infor
should
1692
magnif
1498
amazonas
##iolata
brady
deuter
entosth
autumn
1584
1434
1433
bowling
carpathi
essential
1469
passion
lingua
microch
valentino
##razine
plutarchus
alamanni
sudet
kurdistan
govind
mnium
female
byrson
gardneri
hadrian
tibouch
italian
obtusifolia
katyusha
cronus
saratov
dynamics
lehmann
androsace
clerk
coulomb
eskimo
gonzalo
iskandar
beecham
isoniazid
boulevard
pygmaea
vendome
initiative
kaunas
poniatowski
bukharin
melicope
lecythidaceae
callicostella
knesset
scapaniaceae
tibouchina
4d
b6
biec
b12
join
kosh
ls
misa
osc
p2
pect
pisc
tipp
u20
waka
##bass
##burne
##kay
##kion
##dragon
##pid
##lao
##lap
##obo
##ßen
trincom
vag
##inaga
##atas
##onoma
suit
soe
soter
soga
##arya
saurop
dou
dogger
trenbolone
##esuan
##elor
matteo
leila
##itania
amater
separ
tek
##epin
##emys
alia
alden
##ocline
##idic
sanguin
trainor
##hington
##hikov
1215
ungu
deoxy
qubit
roar
trafal
breut
manley
##ardt
shutt
##avent
##ably
hyđ
really
932
donghae
parade
##ssa
clue
scala
barit
forth
elba
cru
malt
smetana
beren
corfu
agrost
##uchus
balb
afp
martina
panc
estate
syst
olav
value
galveston
madman
##oxic
ferula
##ochkin
749
##ollis
iliad
northwest
874
974
832
achillea
rubidi
limb
incon
beaux
mosqu
goddard
dorothea
arista
brandy
therap
##imbun
1557
1548
1578
springsteen
##inerv
sandom
eriogonum
1534
1125
miso
margarit
gymnom
cypr
hunting
fujio
ladakh
egypt
sportiva
laxa
andersson
diloph
plagiothecium
eichler
wurzburg
##acbonat
##oulos
##ycline
hazard
oliveira
muhlenbergia
lactamase
including
villarreal
##odymi
lwow
conyza
graffiti
chipset
##aissance
jmsdf
entosthodon
byrsonima
trincomalee
trafalgar
2nd
ael
aji
cbc
dypsis
fuc
goll
kale
lili
neder
obo
rennes
suan
siss
tier
ux
vb
yume
zum
##cle
##caster
##nal
##haven
##gic
##gham
##ofer
##you
##zor
##zii
##wester
##vac
##ест
##ður
##aita
##uad
##inct
phit
mow
gift
##apol
suh
##erum
##etis
##etano
anot
##arno
taichi
vish
vella
caglia
cuf
##omba
bada
seki
laphy
##olan
benton
baird
haus
mya
macao
##adura
##thon
rover
huyt
##akk
manil
marley
marburg
arashi
##ifl
##ovar
prism
##ersee
luv
luki
andren
closer
scrin
barre
plains
##antis
##eve
blunt
frit
orsay
harmand
socied
policy
##enden
colbert
abutilon
##ateng
cortis
correg
irvine
erlew
palustris
donitz
whole
balzac
raman
dray
mili
wear
biak
popper
brody
darfur
##otroph
horner
selangor
566
linus
models
martins
pterigyn
962
697
cerd
869
filiformis
pedic
nagy
##bitis
andrzej
auriculata
cryp
gallip
himalay
rumiko
pseudomonas
1668
bridg
vyacheslav
draft
vasco
liguria
miyuki
1585
velen
veliki
severn
##yleft
##crip
dickens
wolves
pirate
shimazu
wrightii
##omerase
undulata
valery
navarro
survival
##zschild
##errima
shuffle
yusuke
kohaku
jalal
aldosterone
weinberg
htv3
shangri
bulbostylis
zahn
braga
menshikov
savoie
sogd
dalechamp
srivast
wireless
hodgkin
snefer
shokaku
duvign
weird
gibbons
nicotine
kansai
sandinista
hylocomiaceae
##friesland
eclipse
elagabalus
myristicaceae
kasparov
chlamyd
leclerc
delavayi
hispaniola
sekigahara
cagliari
erlewine
aoshi
aimar
celia
eif
lizard
mister
tuom
wart
xd
##lene
##zag
##jen
##fold
##đuoc
##ас
##им
##산
##ło
##uas
vash
##acil
khmel
phin
phel
gifu
##iette
vehic
bight
raza
taungoo
noord
nome
danser
##orosa
duval
mateo
luch
##usd
tanjung
bains
hattori
tatra
##ionic
mariam
##odice
##aville
##rance
bonap
prus
aix
parall
acb
##hno
##endal
pereg
atticus
yooch
##ostom
mmol
erm
##isher
fleur
ramadan
mcph
##dox
argostemma
ivor
button
copyleft
obitan
kojima
kendrick
zeeland
setter
patens
miklos
721
munro
nepos
748
telugu
riddle
venezuel
wink
996
796
791
midland
928
922
pottia
kirishima
collector
universidad
xxii
##nique
pyrrh
maximum
maximinus
gallagher
cassano
saxat
##ytus
##baraz
crew
gamespy
1686
##ientes
speech
nicky
nickname
synap
##arlier
histoire
cheryl
##mandu
ligo
1378
veloc
adriana
lepidopilum
carpi
gleason
1388
pontarlier
1336
kawan
citta
gandalf
cadimi
costaric
nsut
carnitine
plants
schwarzschild
grosso
jorg
phraates
ibrahimovic
eugenie
livingston
widow
nicolaus
governor
economist
giselle
purpurascens
spectre
aulacom
vfb
erdogan
predator
bracteata
qualcomm
sideritis
gomphrena
appendicula
threat
variab
corvette
acrylic
aeschynanthus
tunguska
biscay
pringlei
fabregas
perugia
castilleja
associazione
zachodni
puccini
amaterasu
yoochun
5s
ate
ake
cim
ered
fp
gass
kuu
luo
piem
pvn
tid
teller
tlc
ym
yulia
zeta
##bong
##bium
##bani
##mara
##tad
##oung
##73
##jd
##jam
##vre
##지
##amun
##angana
##aule
gigas
named
##icide
ancel
đenh
velez
bizon
tawan
##omene
##uatl
##isu
keck
##eukin
##itana
capr
bayinna
##opallene
hauran
##raft
##stin
dios
macg
1230
dayan
nez
mania
arnh
##odactylus
##entr
auf
1614
1413
##ueva
pram
methion
carrier
##sse
spur
asic
scale
barrios
uni
elv
##ebi
##eborg
harz
##coon
##arten
beryl
happen
yorker
irina
irrit
neman
internaz
microg
##neria
buena
drug
josep
butch
##eford
bely
silvia
kamal
akuma
retro
854
markus
tsuchi
murom
domb
##otaxis
skop
detour
1209
1206
679
738
716
818
klose
871
rubik
callaghan
deccan
rembrandt
##oform
##icales
1403
##cular
schumach
aquinas
streisand
buddha
steere
##robot
espel
hartm
hartford
chrysopogon
riccia
nikolaev
##nikov
vorpommern
1290
gurevich
yukki
pirlo
foley
tiridates
javanica
oppos
faye
hokusai
habib
ceratosaurus
glutamate
staples
cedric
analysis
corsica
kronprinz
serpent
thornton
atomosia
fruticosa
strategy
freiherr
hussite
lionsgate
pliocen
dischidia
hertford
seiyu
triglyceride
fenspat
abidjan
abusir
cestrum
burmanniaceae
bayinnaung
5α
7b
cimmer
eilat
fj
jahan
ozil
pella
pira
zb
zim
zell
##bath
##deu
##mic
##mila
##nath
##gov
##zad
##øya
nhl
##inib
hoshi
coph
##aupt
##uyo
cacao
##ietam
##arbon
condon
noll
nori
keating
leno
lonicera
##olu
##olly
##epolis
alvin
##oty
##idendron
maurya
hadd
##lebia
training
##ulae
stub
statin
stahl
daisuke
##akaze
montr
##nex
sacc
##ensleben
##istylus
##skap
##skoy
pritch
metanol
parr
spies
aclu
kemal
blatt
ormerod
quechua
eds
agg
909
radula
philippinensis
campos
roslavl
mcne
kreu
##wealth
argus
afanas
burmeister
string
olm
opus
antietam
grandifolia
starship
garry
gali
econ
patel
1505
peas
peep
feeling
761
958
wallonia
subd
november
783
portr
rachman
klong
klang
991
regis
cdu
833
rubiaceae
##osaurs
woodbury
090
kors
moseley
outside
majestic
##113
##amous
bosco
landau
kaesong
##oglu
legio
1544
1597
chrysopidae
1077
1726
##rolet
violacea
dubcek
padova
welcome
fatah
kaplan
courcy
tiberian
cyprus
erythr
valerie
buggy
glycogen
grosser
andreaeaceae
nils
frozen
caspian
tatarstan
laurel
fonse
petrovich
magneto
macquarie
privat
smilodon
fibrin
soderstr
snapdragon
coffee
wiesb
spacex
following
plasmid
koenig
dniestr
whipple
eccles
aerospace
rakhine
ashkenazi
daugavpils
##krieg
urquhart
mussaenda
gallipoli
dalechampia
arad
aachen
daly
fush
figo
kpa
lr
lue
lsd
pistol
rival
sich
zhi
zul
đit
по
##beth
##cch
##pse
##hid
##guk
##lot
##ων
##zol
##zlo
##jes
##jakov
##vl
##đo
##ønd
##ів
thrones
##ieff
##aibo
##acris
##enius
##inx
phas
choer
chokai
sury
##ervis
anzio
boas
tora
conti
ravi
chili
lambor
maho
##itai
lent
##asing
##epidaceae
capric
ally
nunn
##otensis
##andon
hayao
beit
tragia
##ingii
brat
1512
auer
shinaw
maia
coimb
##trol
##nax
chapel
ishig
barents
2200
rapa
perv
##order
geo
##rosum
##assic
epinephrine
ghar
erza
cumber
gregg
donnell
##radio
300m
krauss
##kerman
californica
butyl
held
darn
##nese
argentea
polybius
drym
juneau
taro
##actant
mitten
789
696
basin
massage
995
##ischer
ballard
repres
aurang
##ijah
##flp
##ycat
gallienus
diar
pci
mandev
gardenia
alpaca
1259
1663
contents
##kowitz
dimension
stephens
kabila
cherbourg
shoji
iwata
1076
magnum
darkness
##enoord
1425
goltz
ponte
1466
movies
working
seneca
thorne
buckner
##calibur
##razole
efeo
graduat
##losan
edgew
cephalosporin
apheland
naha
heathrow
##ogyakarta
chevrolet
dentata
triclosan
yoruba
##ина
ilya
fonda
mengele
someone
hwanghae
pelluc
political
pneum
salamis
multiple
kannada
##reuth
stuhl
p450
f6f
khwarezm
##awaddy
iptv
yayoi
##inthians
barbiturat
vladimirovich
debbie
coccoloba
redemption
fabroniaceae
bruchiaceae
melanthiaceae
ancelotti
lamborghini
shinawatra
2k
aiden
e4
erodium
lina
leth
o2
ota
sall
udon
##mei
##here
##yek
##đt
thro
trial
##ayat
khy
giuoc
cacbua
##ethan
banana
sauv
saunders
vibr
cabal
##omber
vanity
dode
##esha
##achevsky
mascar
matic
lancel
leather
##itive
##child
##ump
cauchy
heb
tenella
##epo
capua
aldehy
##otene
##iding
hanse
hagi
##hiop
##rous
longiped
roque
roux
##igia
brill
manuf
iturb
##iras
##enska
##ensive
##istria
prair
schae
schuit
ando
asylum
buchen
scylla
##dress
##yrt
latifolium
encore
damn
combo
blok
cracca
polaris
abhis
berlio
trichot
guest
##caa
##quier
irr
##ysa
donovan
459
mormon
rosas
slater
##khep
##uzawa
swim
sarr
##illed
opec
valenc
depth
akad
##ossi
westlife
supermarine
##aphus
josephus
missy
963
greenwood
picard
##foe
poitou
829
977
831
yamaha
limburg
limpopo
nagorno
1606
1308
030
bigot
sasori
jimi
gilberto
1747
anthemis
##itional
marcgra
theremin
spinosaurus
birken
1551
1633
1731
1566
ochr
glucuron
invasion
##rumah
phoenic
verner
citadel
gemin
##lieb
mizuki
kidman
##hydric
ventura
loving
##oplast
sparks
commonwealth
gateway
dendrophth
isthm
valdes
fasciculata
##ztyn
galeotti
hibiki
najd
niagara
fawc
ricciaceae
straits
##bukhin
##ель
silvio
automatic
kimberly
siena
filipino
morphine
surfactant
wellesley
pinnata
gladiolus
tambov
normale
borealis
crescent
pittosporaceae
palatinate
pahlavi
corregidor
arnhem
mandevilla
lancelot
iturbide
a7
c5
cess
k1
mishima
rana
ulan
v3
wulp
yub
yogyakarta
##dc
##sat
##mith
##nau
##hea
##luck
##fet
##58
##vil
##уд
##대
coal
giggs
##apha
ananda
sook
souza
boateng
toll
convol
daniela
cah
doof
dogs
trojan
tribal
lanata
leona
##umal
cancer
thouar
bender
aller
##ocissus
appr
##opers
##oplan
##opomor
mayten
tauri
tucson
mekh
##unen
diom
longis
roo
traffic
brz
ariad
shb
shum
shrop
##abase
##ively
##ikai
grid
clover
##team
acrob
exist
nanomet
##sek
giacomo
franca
elasm
diethyl
orito
orwell
haram
harpoon
##ernik
calophyllum
perrie
##ordata
atwood
mint
mines
geiger
naf
##ustan
trichos
gonadotrop
##veen
ichiki
greens
##amax
703
fleu
campaign
tuapse
daoud
urtic
burt
butt
imhotep
##erme
riot
verkh
gaunt
kurata
osi
ryong
##grup
retin
bolbitis
feature
juliana
carolyn
barbata
dicl
692
antonin
greenock
819
862
pilotrichum
fanny
sasaki
prada
1647
1528
fernald
microlep
insularis
##adelphus
stephano
##odendraceae
banksia
1734
##batch
kolberg
1532
1426
symphy
weekend
bogdan
chdc
crossro
jarvis
wał
phospho
costaceae
##ович
kathmandu
neferhotep
nahuatl
nkrumah
femen
license
laxiflora
kubrick
sokrates
shields
hadron
bloomberg
##iellaceae
antwerpen
zayn
dysmachus
##known
radcliffe
antipatros
fresno
cuneata
rhamnus
phlomis
gynoxys
lamarck
alternanthera
philosoph
vndcch
craib
jagiellon
adalbert
vriesea
courageous
consortium
buddleja
scorzonera
thysan
apoptosis
skottsb
nasdaq
nepenthes
lokomotiv
zachodniopomor
wiesbaden
zachodniopomorskie
4c
bbb
eir
fdi
gara
jua
jens
kola
m8
nw
nist
nanda
uman
ufc
wiens
yeah
##cet
##ει
##yong
##уб
##시
truan
hoehne
loton
##appa
##erot
anub
confer
danub
doors
masch
ngoam
lennox
phokion
cana
lyub
allo
##opian
##hibit
meier
hayden
dign
##adensis
inval
deid
quiet
marien
aromat
1515
saone
emo
treasure
prest
##deau
parks
##enhausen
kiwi
##ahari
clon
cleph
clermont
##yles
1005
across
account
gaeta
exam
gameshow
22m
uncin
damien
##ophag
crac
miya
miroku
smyr
##undus
##shasa
rankings
hutton
edson
##assie
nordr
##ithromycin
nath
walters
morgen
gloster
liang
robben
hiroy
fount
pohn
mamba
silves
##ughton
retr
mikan
westmor
ups
ferenc
lutz
carlton
##heri
682
niue
849
984
poison
##osterreich
##rese
##ychia
pilgrim
remus
bellini
varna
varieg
##flow
kuni
dorian
navia
1524
1523
newsweek
fulton
judd
amaral
chalc
tolbukhin
gasp
1583
1437
1435
juniors
essen
##grave
connie
ledger
academie
hispano
pegu
pegasi
vellozia
sidewinder
stefani
negima
tempest
shelby
auxerre
canadensis
pendula
cosimo
ezra
lecce
paleocen
cedar
feyenoord
sharpay
saints
everybody
grigor
pilosella
truncata
aspartame
pyongan
nunav
scientific
solomons
mucronata
solenostoma
kinnari
yavuz
methoxy
carotenoid
sporobolus
brewster
yvonne
hinoue
chiapas
quaoar
bournemouth
kostroma
coussarea
teijsm
gospel
bernoulli
mendeleev
tryptophan
tobias
aphelandra
berlioz
cies
d5
esen
gfriend
kain
lell
oort
ola
µg
##duk
##sus
##hav
##rua
##eche
##yy
##στ
##zmann
##wiz
##iej
##aip
nhc
vav
hodge
ngut
##iction
suri
sous
sobr
soba
soric
boun
bane
dans
caball
cuman
dumb
amos
##olum
sinhala
##emun
bayreuth
sidon
##ocyst
hanth
haber
##utions
apfs
##leya
camellia
ratanak
##raw
stuka
timoshenko
longiflora
instrum
ques
##agene
##edral
neoit
##akes
##ods
##odidae
shea
shag
lacini
categ
kimura
hyophila
##ivity
##oway
prud
metcal
##esty
clow
1009
aso
scylat
plast
##antsev
comb
comment
eleu
##enders
soissons
angu
##hammer
##quim
halford
erfurt
##yses
ware
campt
hitachi
##weh
sleu
##ezid
uruk
burma
swapo
helens
##ermis
hept
paulina
400m
akon
osborne
torun
tourne
##ricus
narita
polyph
litvin
terrac
859
marks
redd
744
kilogram
holocen
xenophon
porotrichum
columnea
##ouf
838
##rovir
warsz
decurrens
##oniopsis
##fluo
koran
ptah
false
cassandra
dors
rumex
kavieng
bandung
nitens
curry
kabir
1693
dolce
1493
##ours
octavia
##idioides
deux
1226
defence
##beckia
iguan
fatim
nucleon
reiche
1337
adenine
##hardt
1190
##patrick
semic
##metal
grenville
aureliano
simpsons
cvs
cannae
islamabad
aqaba
sendtn
cilunculus
abyssinia
vlog
##aturk
flexuosa
##ydroneura
##liche
sloan
stirt
bauhaus
puebla
gekko
getting
fuchs
prostag
coccinea
cytochrom
afrikaans
october
extremadura
svetlana
marsdenia
shahrbaraz
drummondii
anchorage
rutheni
although
dictionary
suzanne
clostridium
qumran
mombasa
synthesizer
hutchinson
laphystia
clephydroneura
pohnpei
neoitamus
scylaticus
2c
2x
bred
ciw
cfc
eben
f9
fold
jh
jj
jalis
kies
meu
mts
pult
s1
ufa
vlas
vostok
xiph
zheng
đum
##kaban
##uid
##yia
##yal
##71
##ад
##amil
hov
phag
##aura
namib
theropoda
susa
##erol
##etsky
confl
conquest
bisho
tabor
danzo
doumer
##orz
maki
badr
##osov
##iten
amu
lend
semp
##olimus
##uris
##utive
macf
1216
1213
##adze
router
##agana
cattle
hynek
reilly
dahom
isol
excell
2400
plain
elise
malibu
usp
atta
ataturk
##obile
angios
##leyman
corinthians
hermit
hereford
##inoff
agustin
##wards
##geru
balfour
##ragin
gheo
rho
ukrain
martino
swart
supers
butan
olacaceae
darrell
melvin
nair
##cheirus
patch
1503
narino
ruellia
azul
assist
##aires
july
##ochloa
victorious
astrid
detective
riders
artiodactyla
novi
##akht
girard
969
commagene
993
972
masashi
punta
janos
maps
pilar
##ievich
rhodobryum
oreopanax
cassi
outlook
platanthera
bloody
megumi
1539
1475
nucleoside
diplocau
sulliv
kashima
fourth
gentry
##omerus
##ianthes
debian
##ocarpha
iosif
kodiak
hernan
alphabet
octavianus
##lobium
##wright
eremophila
diffic
giulio
cytochrome
porphyr
blitzkrieg
montser
adonis
vsevolod
vochysiaceae
phoradendron
luhansk
weberbaueri
belisarius
maytenus
shropshire
lotononis
nordrhein
ciws
diplocaulobium
1g
ako
euon
fenzl
focke
hie
jaz
kros
kala
msm
ora
porn
paph
rold
tiss
wap
μg
##cil
##dog
##transferase
##him
##hpur
##rill
##zhan
##fy
##vius
##xen
##xell
##qh
##anos
chab
##aishi
##amaro
##angir
hours
tux
##iaan
##ications
chiy
notic
##ombr
##orops
bashi
matanik
kew
keeling
leandra
phui
amr
canc
canar
##uroides
thammar
capo
##emani
alison
siu
nuestra
##opoulos
rate
muam
##ulosus
##tery
roa
rocha
##edium
danger
##odie
amphip
xoong
##ellar
shimbun
##ovi
reaper
1320
1314
##okov
dauphin
spol
1001
asunc
24h
##geon
uniflora
##ophleb
sammy
##lorat
elata
frun
servo
haryana
romani
muz
##rosma
sals
salomon
palo
##ennios
donbass
davout
musee
proteus
chinch
suprem
strach
imre
##koy
melk
melioid
louisa
braxton
romaji
osce
avex
raoul
liter
shinjuku
azkaban
redh
telephone
telaranea
telipogon
niro
barbossa
holopogon
##echea
pyt
961
699
porella
brewer
998
868
rubber
899
justinus
##ijn
##ozh
ashlee
##theria
pledis
charlott
lipa
huni
pursuit
collin
message
meyers
krystal
1270
dinar
laszlo
1671
primary
1591
putnam
approx
lumiere
1576
1691
chalced
1562
1422
hemsworth
oberon
miyagi
1589
sevente
1329
salvatore
neeson
semper
1485
gymnogramma
bellev
cookie
debilis
gwyn
andreaea
grenad
vieira
##opleura
fragilis
zygodon
wednes
alvensleben
walpole
dynamic
ðoan
##fontein
jovi
occidental
brahmaputra
lebed
arauc
guadala
pompeius
ypres
rrna
fansub
commercial
excelsa
hildebrand
bentley
cleistanthus
lolita
phrygia
##gemeinde
vojv
calliandra
seligeriaceae
agamem
univision
tarantino
ferreira
alopec
thalictrum
requiem
acapul
cerdistus
hanthawaddy
sleumer
matanikau
asuncion
melioidosis
ains
aitch
b7
dier
ereb
erecta
nuou
nsc
ostr
odd
ogg
render
vermo
wach
wagen
zun
##ioc
##papan
##liga
##zzo
##jiki
##56
##vaux
##qen
##angay
cooke
molin
choco
solt
##arev
bihaan
taker
cabar
##uatum
##oral
##elan
chuuk
minho
ngoeo
amid
seek
bacillus
##ured
##emsaf
bayezid
aldo
alyx
##oct
hayate
manor
maratha
##necht
shind
##irrh
##abu
1480
25m
luka
##estown
##yline
##ylae
##ugou
saale
scrat
enemy
elaine
2800
tij
ushio
##izetti
##shar
muh
bertha
##haf
guel
erika
##ckenstein
##ysia
##anthoides
donizetti
##oniae
flab
musica
##untum
##ophylloides
rhys
##anebo
desr
stroph
impl
##hout
##claw
osn
pinanga
toure
##lings
secon
volyn
##yeo
grout
631
gramm
telesc
holc
##ischen
papuana
portugu
pedersen
##iyama
annan
annabeth
krav
incom
tempo
eso
espn
overmind
##bulus
consolid
sulfide
1042
1577
whitman
1227
1394
1295
1461
stercul
nuclear
pontif
linga
1333
cristata
1346
brevifolia
phillipp
costus
steins
physcom
mallotus
heydrich
plagiob
gyal
bakr
abramovich
othonna
orchidaceae
czern
loeske
complet
chilensis
saarbruck
barthold
vestita
nothof
dreyer
eudox
millionaire
orihime
lazarus
riverside
nectanebo
odorata
imbricata
hirtella
birthday
huckle
ruppelt
##okrzy
##agrionidae
balikpapan
makedonia
transoxiana
velikiye
aulacomniaceae
fonseca
manufact
ratanakiri
3do
4e
aker
dpp
jidai
muth
nuo
nsf
oba
panh
pans
panda
s2
ule
vk
viep
wass
xerox
zav
zane
zoo
김
##cens
##iifolia
##sdorf
##pfalz
##hw
##αι
##liss
##rast
##rass
##ysh
##zat
##74
##vit
##ус
##ник
##ᅩᆨ
thar
##oilo
##oica
##acensis
##inck
khash
khali
##ucha
##aoran
cacboxylic
sugg
suwon
##etalum
boj
boch
conway
##omochtherus
kebir
##euf
##osha
##oscyphus
trio
##umoto
sear
##emba
alh
alois
##utov
apis
##uls
##ulenta
divis
typ
strob
##thel
roe
bek
##aget
arian
arisa
##illies
##aber
bones
reiner
1430
##ogalum
gobb
claris
asan
isl
exodus
##drome
##yrie
enchant
samb
##ebel
sera
malek
##iuszko
edmont
norse
##vee
##bona
salm
flip
balck
balaton
##khart
hooke
swin
syaoran
etudes
kinshasa
elekt
vallee
similis
ecst
selle
##serl
1501
shinkai
showtime
1240
##lanc
ulrika
georgi
potro
cervus
poisson
##ievo
##otriche
fank
reality
##ologie
maharaja
lipsch
molde
##holtz
aristeg
ambigua
gunnar
buddh
pharn
1253
presby
pulvin
psycho
germany
altay
odisha
leuk
hellas
1695
1499
golgi
1431
adrien
yuno
kopernik
classical
courland
bahram
candel
candace
gottlieb
##bayern
akihito
clements
integer
##ystok
pseudor
codex
##oclea
revolver
asperg
fragrans
anselm
spanish
excels
anomala
indochine
##аль
f4f
eberbach
friesian
mellon
30mki
pseudopostega
ensemble
bollywood
malvaceae
apocalyp
appalachia
balakr
kosciel
artabanus
brennan
corymbosa
##igonum
mirabilis
khentkaus
##ivisie
leavenworth
sociedad
dombeya
cophura
fushimi
cumberbatch
perrieri
crossroads
crec
fond
hii
ikh
juri
kly
koto
lsp
oshi
patti
sick
t4
upt
udp
wain
xeri
yol
##tang
##lui
##zec
##ег
##aina
##apak
##oniana
suway
thuring
biang
cake
##aloo
laika
trento
##eston
kyoko
##elys
##usen
##olat
##uran
nunez
##idifolia
##opan
1221
##adae
longifolium
##igii
nevis
##akawa
managua
manzan
##ipramine
##ifida
neuf
##irm
trey
react
1421
prosp
##ersa
##ssens
lubel
spain
clao
clid
##ceau
entr
fras
ores
serial
##icker
usc
philopo
##sham
ganga
naut
##exia
angstrom
norrington
hendrik
corona
genus
thonburi
sargon
##jiang
olbr
olomo
olmert
freyn
starfighter
gaut
galley
avro
ryazan
solaris
hypoc
856
bryennios
956
002
739
iloilo
xenlulo
kank
talking
##hyuk
799
872
wilhelmina
register
837
sakamoto
##enzyme
calligonum
beatle
1608
pepin
komodo
kompong
ashton
##opsida
oreal
cnc
actini
1595
1575
1537
1449
1232
multimedia
calyc
famicom
igbo
##trichia
nasr
yuko
suzu
kidd
mhc
##ocarban
lysine
liberation
segovia
rhineland
##iegler
burnett
pantl
touchwiz
kovel
gosling
##girls
cochrane
aramaic
mistral
chassalia
trebiz
subsess
cannabis
białystok
anemiaceae
cygnus
married
hoocmon
appalachian
gugg
basket
##standing
liepaja
verticillata
kovalevsk
barclays
adolphe
alchemist
corbett
basiliscus
escherichia
##ibracteata
villanueva
aylwin
triclocarban
##western
eredivisie
internazionale
sarraut
nunavut
dahomey
euonymus
seventeen
wednesday
vojvodina
fenn
fnc
hj
hideo
kł
lister
mpl
m61
nyc
obr
qas
s5
ticket
vlt
yura
##karp
##iaca
##ply
##path
##nost
##lı
##zka
##wold
##ост
##ие
##ᅳᆯ
thore
##oim
##oika
##ames
mochi
giroud
lodd
##uano
##uance
##etala
sovere
boon
##arton
tov
conor
vitr
##alina
doe
dole
##acho
mato
keiko
lewin
phum
##umis
lapp
algon
hanko
cheek
meas
meizu
styr
macmillan
1211
rowe
beale
##inge
nei
neisse
brachys
manser
marais
aru
arias
aruba
1513
##arde
##oval
##avar
##uez
methane
##aller
pheo
spich
acron
##landin
unknown
ploc
enf
enough
blenheim
##hanus
malenkov
harm
harare
period
geng
##othera
##yaf
##ippus
angiopteris
cmos
naph
guise
genista
hertha
ers
eren
palme
karas
warming
flumin
##ashir
virgo
cocain
##ertii
strals
##spor
##efe
dario
melayu
bamberg
akane
mediter
henryi
litovsk
tsui
tsacas
colomb
junc
junsu
##otaenia
669
niccolo
crowe
takagi
hollidt
pteryg
goro
commando
antoninus
guitarist
##canus
lepto
decumbens
942
remake
premna
##ondyl
annab
kraft
##ofi
incred
085
casas
mutsu
maktoum
felicia
oldham
cns
##ydes
loreto
nomad
letters
krylov
consult
fallax
ricin
ricimer
versicolor
padua
velik
1170
1467
mitsui
nowy
propert
kampf
kampot
methylene
tirol
rococo
cours
toyama
caleb
isabela
##omeris
sieber
babyface
weston
physics
debussy
jaina
hollande
wonderland
wonderful
oligocen
boulder
switchgrass
licuala
vallad
hassel
jurassic
tropae
wheat
lecter
aetolia
##onnaise
##orrho
september
weinstein
ornithogalum
graphit
pulchra
dupuis
lambda
diffusa
luzula
whiskey
glaucescens
dxe
kibbut
daraa
biloxi
abyssinica
##church
shirakawa
shepseskare
shishio
gertrude
baxter
alkaloid
tecneti
ellipsoid
kippur
andrenosoma
prairie
guadalajara
takeru
saarbrucken
arisaema
gobbels
olomouc
trebizond
stralsund
2n
csu
ccd
kk
kott
odeon
rss
ubi
vina
wife
zwe
##bars
##batten
##tong
##gc
##ronia
##reme
##zumi
##worm
##사
##uous
##enid
coo
cove
##auk
mojo
loomis
##onik
##ethe
anaph
sow
sola
##arib
##arcos
khorasan
veda
vesu
rage
chiyo
doge
##esan
maser
chud
dubia
##usi
lect
amx
bienn
##asz
backh
tee
temari
##urabi
##urance
##embourg
nene
##occhio
##utch
apol
apiculata
meib
bres
##aks
1510
amplex
##ards
##arden
shat
shor
##ovesh
##avo
##avas
revel
prel
##trix
andrade
clos
clint
asph
gambit
suaveolens
unt
unlim
fork
##essori
bleu
##hanes
orlov
usm
ush
##ekhem
minuart
##linski
##artis
##ornith
##hamphetamine
huxley
##cken
wals
interpol
greer
gleaves
flava
##gour
rosem
##ieli
slayer
##esias
##opterix
descrip
cyborg
butyr
##zaff
melinda
silence
horthy
##ptodon
kipling
omey
akc
garvey
database
##nyt
secunda
argentine
terres
few
redone
grod
957
##adej
farc
##urtia
##celis
693
klack
janssens
achille
limit
022
##bachii
mosin
saxicola
creation
##sanul
fabius
ohashi
nomura
marcell
##kowicz
revival
sheremet
hartlep
cyclone
megaw
mastiff
rajput
sadat
1294
nouveau
gucci
guatemalensis
nevsky
vilagr
heliopolis
russia
1483
lancifolia
dyson
isabelle
##fuhrer
schmid
ikonn
rugosa
guardiola
ancona
circum
gazelle
##omataceae
androgenic
tannenberg
##ophyton
zakhar
acuminatum
fryxell
gagea
streptomyces
cochle
##ognathus
ruthenia
nuuk
euryops
esperance
siddhar
territory
nefertiti
cđv
cheyenne
schistochilaceae
alegre
##sudski
quisumb
algarve
pravda
urumqi
tukhachevsky
breutelia
sandomierz
bishojo
ecstasy
unlimited
hartlepool
vilagrassa
3a
bsc
cva
dts
fium
fanning
fiona
geki
iet
jian
jhar
kuma
kawak
nether
ncaa
obe
ohr
rfa
sł
uma
wgsn
yury
zebu
zerat
##bate
##pg
##nir
##rth
##xylon
##аи
##iele
##ende
##inat
##inato
coke
##onit
susp
##erae
ancol
sodi
tool
##ichthy
vedan
taf
taw
##oms
##ometh
vanden
##aloa
lucida
batgirl
##itica
amiga
tant
sekai
thamn
##emaker
aln
mauret
##lef
##opic
##raki
##rek
cheer
myself
macl
macco
arctic
##llg
1518
albizia
shunt
##owska
daener
carat
lugo
##ahua
spil
100g
##ibayashi
scro
##udaira
barleria
unil
##ackie
encoun
##hness
samba
##evin
queo
mihai
poli
calic
aba
naja
##obut
##assy
##ostachyum
irc
haleak
tomsk
walden
petrop
warsh
agong
allosaurus
weapon
sarm
panel
strict
jackman
imagin
display
montessori
indi
##anoate
aks
##ossum
garonne
osborn
recife
hyps
showa
astochia
##recz
skype
683
caroling
ridd
artanis
standing
georgios
964
694
sinyav
##blos
cardenas
##goro
1306
1305
incana
##onyx
persepolis
photos
1054
1275
heinrici
1552
hideki
cyclodictyon
##butu
##inervia
##tzia
dolph
sigmund
1398
vorosh
##omiya
thinking
##quinone
cristof
bukrin
hipparcos
fleischmannia
filmworks
yarmouth
##abruck
codec
zachary
mohamad
waldst
streptococcus
pogba
behav
umbellata
##kommando
zingiber
tetrast
zemlya
bizet
adebay
writing
ankhesen
wallichii
zuikaku
mcconnell
balkans
architecture
##hiđric
strauß
daemonorops
sikorsky
kalashnikov
guernsey
phitsanul
sneferu
irritator
mekhlis
dicliptera
example
fountain
zeratul
sodiro
vedanta
daenerys
2h
btc
cig
fuel
fare
jrai
kail
krecz
l2
nuy
ode
pico
pust
ritz
slob
v2
wœ
wiz
yates
ziet
##kind
##dos
##pia
##pros
##ted
##hack
##gye
##gabat
##lp
##lik
##rte
##zza
##qay
##аз
##ambo
##ameth
##inyl
kherson
ging
loft
suber
suphan
bohol
boragin
vim
cushing
##imos
dober
trenton
##elu
##elon
bagan
duffy
lannes
leet
##chter
##chow
tani
seen
lapland
##emines
##uud
##eaki
##eady
mauri
apd
##opylae
mayor
rather
##ulat
1219
##adium
timonius
##roux
##thera
rohr
beam
array
##entice
shoko
##bery
##phos
jojo
##estad
##cey
ennis
bla
elia
##tof
serrat
malus
using
sme
edvard
corso
guim
##ither
##quette
epim
interface
petard
3200
ramayana
rhac
martens
poor
pooh
helin
belov
melod
stargate
brazz
similar
kuroda
oxygen
medan
tourn
sayaka
selection
##annis
modi
murata
cents
twel
bitch
taras
##afi
sketch
microsorum
##itrichum
picta
994
861
villiers
797
060
reprap
eliza
kirsten
035
##nister
1404
maximil
finet
mosul
anthrac
globulin
paj
dorn
umts
syndrome
hoffmannia
ostrava
ostfriesland
genevieve
octomeria
eisner
connell
kampuchea
##ukovych
rabbi
theseus
gymnostomum
mathieu
obliv
guardians
nazionale
aegis
sessions
abdulaziz
ravenclaw
sukhbaatar
##regent
stereophyllaceae
lithocarpus
cambyses
hexaf
kodak
cosmos
hobbes
ahmadine
elegant
calymperes
marianas
winnie
cubensis
arborea
shevchen
trigonella
spathulata
colchicum
rendle
striata
astronom
thermopylae
lippia
anastrophyllum
wettst
yingluck
tonkinensis
kosciuszko
##ileaks
illustrated
idris
attenuata
jaffna
hippocrates
foliosa
hydrochloride
arminius
worthington
hershey
conseil
apatit
##ilobum
alumina
dnipropetrovsk
horizons
burmeistera
mittenothamnium
represent
muammar
cabaret
physcomitrium
philopoemen
spicheren
mediterran
minuartia
mauretania
wœrth
bers
celle
fis
fina
fail
fjord
hv
hsd
jafar
kran
kord
koll
lite
nyan
olaf
pian
s3
vga
yoland
øllg
со
##bid
##kva
##d4
##sw
##pir
##paya
##tusa
##hap
##rensis
##yuki
##will
##vash
##120
##ank
##anj
##aisia
vary
varen
##enal
##enev
##atte
##uci
##aoui
suva
##etit
##etsch
soth
veld
##omm
lantana
amt
sew
size
maud
mauna
mauric
haakon
ape
##leh
chees
dione
##agat
##inghouse
##igor
mane
arbus
shus
shurik
ema
##irang
##abile
##ensia
##enser
schra
schaf
parts
##phine
carval
grund
often
##ahual
anderle
clube
isothecium
machado
##bound
##pero
##lander
sampson
blumea
elbeg
croi
sapotaceae
usaf
##endale
perid
##shid
##otha
##isseria
##astes
willk
corall
corbin
ghent
##cky
4500
muslim
##pling
foet
##ettii
allant
##egen
milos
sargent
poch
pauling
eleon
kofun
depend
kurtz
avt
austria
kaluga
linea
fergie
waller
tarb
1207
120mm
ilocos
antonescu
wins
873
##ieved
070
xxv
1405
finch
areas
livorno
larissa
fernanda
psychic
gothenburg
syntrichia
##ranthum
##ranthera
methicillin
moonlight
titanium
consumer
vinashin
cyclanthaceae
sorbit
megac
1071
nordhausen
stockton
1371
##giella
1138
1581
fatale
1261
killing
cromat
course
accip
yanukovych
anatol
hippol
ferrer
aguilar
##birds
ventures
licania
lombardy
dacry
nimes
scroph
lourdes
cesena
ouest
ctenopteris
hammurabi
prinzregent
stricto
parnassia
kruger
##ilabrus
cannabaceae
toxic
glycosyl
blowback
huffington
deckard
makhach
japonicus
coenagrionidae
crespo
confessions
kriegs
strawberry
iapetus
wilmington
##aterinburg
slaskie
compostela
ancylorhynchus
banshee
beijing
costaricensis
##nexpress
darnley
lellinger
prostaglandin
frunze
scratch
osnabruck
consolidated
properties
phitsanulok
leeteuk
anderlecht
aere
aiki
b4
dina
fender
gpr
ige
jok
pda
qasim
sre
tarp
vj
vys
vfl
wushu
xc
##nae
##hya
##ολ
##rett
##ranger
##v2
##ак
##ᅳᆫ
vase
##acillus
##ened
hooper
phrabang
##uysk
cactus
lough
##icent
quantum
sovet
taino
bits
quaker
haiku
##omenko
##omphus
vann
vanadi
dov
lemb
##itriaceae
##itazone
lenny
##ashev
##olini
lyman
temm
##urensis
##emma
alat
aliz
##idate
##idulum
hanno
maugham
myskh
##stars
dian
strad
daito
##agara
##ingu
nebul
##ipop
maris
##odel
##odate
##ently
##irtz
##iansk
rees
metis
grip
spam
##estis
isuzu
gameran
##geot
barns
formann
enzo
##hania
advis
adhd
##icka
##icky
##leroi
philod
##ekage
minister
edessa
lockhart
##obenz
irons
charity
wilfred
fluv
oxide
proestogen
draca
delicat
jewel
martini
sari
desna
##jira
fredrik
valenz
##denko
##year
francisca
tereng
shinano
compan
compress
azalea
##harata
luneburg
ili
hydrochar
tali
997
051
papp
filippo
regular
registry
sakurai
incor
##tions
pepe
##ologue
##flower
arech
perss
armata
moluc
hilda
pulsar
underwood
attalos
##group
wooton
##fortress
mpc
##rocacbon
1448
octan
aeruginosa
voron
mountbatten
diplostephium
fantasia
htx
reader
awaken
natalya
natalensis
wagon
hiđroxit
ryujo
mauritania
##botrya
opposit
sheldon
hobby
triceratops
orchid
stellaria
maasai
italiana
vijay
atomic
mineral
length
b5n
fagaceae
rochelle
wiehler
kachin
shigella
mycenaean
wissembourg
isopropyl
crimean
convention
celebration
mitsuhide
pertuan
maracaibo
rostrata
jogaila
cephaloziellaceae
pussycat
axillaris
valdivia
bursera
agesil
deportivo
kaisers
interleukin
rousey
prescott
demyansk
berenice
gymnomitriaceae
cortisol
phelps
muromachi
khyber
gonadotropin
anubis
hiroyuki
westmoreland
pultenaea
enchanted
valladolid
sinyavino
myskhako
5x
9s
aomori
c6
cnet
een
eat
ebon
eger
ewell
hust
heur
lise
mime
n1
nfc
pipp
pence
pdp
rack
rare
snes
squi
udt
v1
xuyet
yab
zona
##mata
##ατ
##ικ
##gest
##lop
##jok
##2000
##wc
##vp
##vu
##voir
##uosum
##ambar
##enai
##inidae
laodice
mooc
mobutu
bount
##arah
banu
vigu
bizer
dane
calor
vand
##alu
##alit
##uation
dorado
##isma
chus
matyas
luciano
lease
amed
semb
benoit
tef
##urd
##emu
alismat
##otyle
1011
##raa
cheł
meiss
##ulan
##ulea
##roden
indr
##thie
negi
arrh
albicans
##avn
16s
sucrose
##ryon
##istat
1315
1348
prip
lopho
##dex
##ersii
bauxit
pars
pare
##ogamer
##estia
##hek
scoble
##udan
##antii
endor
kemp
blot
bliss
fruct
serine
smir
calci
romagna
perai
rank
##ekop
atalan
##queta
ichiro
haley
erlang
salinas
walke
petar
glax
liquid
michal
rosk
slos
hotch
ivory
##uzh
burning
strip
estriol
butte
helicon
syro
etat
##noy
obtusa
avc
pinocchio
torii
madden
recur
mikoto
##aphylla
peek
tsug
953
959
subp
skill
1203
novaya
006
operon
columb
demp
leonhard
goldstein
files
sabbath
eurofighter
##iculus
deceptic
wrong
universite
##ologia
idea
paus
##ytime
oldendorf
purine
mandala
mandarin
collina
esqui
pharma
microt
content
espana
##rahta
hidden
piac
ingen
lomaria
steyermark
clarinet
sorrent
1282
springer
aleksander
1561
promise
knowledge
tulsa
adolfo
##sdistr
##graw
thorium
citizen
hornem
##ianthera
daejeon
zenobia
theodoros
borisov
nevermind
sihanoukville
fitzroy
buffon
sphaerocephalus
pachyp
tartarus
tiesto
arenas
avery
cultural
fluor
praga
neckar
weiß
graphics
pieces
paradoxa
##model
callicarpa
solomos
guerra
heckler
berthel
received
dessau
triumph
##ilicate
stageco
małopolskie
fluoroquin
oaxaca
##ськ
orinoco
daughter
swietokrzy
percheron
pyruvate
shuttle
dilophosaurus
methionine
##skapsdistr
spiesia
dodecan
##yrtopogon
koscielny
thoreau
warshawa
sorbitol
makhachkala
formannskapsdistr
formannskapsdistrikt
1d
bette
b40
ditrichum
e2
fg
g2
gint
kuan
kino
mz
oles
pł
rieu
sør
utr
yart
yoda
##bri
##kab
##dai
##dium
##mie
##pada
##pachi
##gis
##gil
##gwood
##latin
##uve
##rinus
##zhou
##fim
##voi
##vulus
##ец
##anense
chichi
##acre
##enum
hove
gita
##icea
sudd
##eret
##eriana
##etr
anam
bodin
touss
vitex
bise
cabral
thib
##elton
maier
##osan
songkh
bathy
leander
amalia
sector
heywood
khuz
##embe
##otsu
##idual
##lect
##andria
mecha
hayward
##ulifolia
##stemon
status
macbeth
##add
timoleon
sativa
ded
roß
hamster
##eding
khazar
manson
marv
marry
marathi
17β
##enton
shch
benham
##rysa
##enshm
1414
##istas
metformin
##def
##train
schuster
##ogg
kiba
##gei
##dren
##ecan
former
##eyi
cray
oratorio
peric
abm
abies
##oideum
##hamaru
##uprofen
irs
cumbria
charleroi
karpat
##anthin
donnie
##inoza
petite
petrol
agre
radios
oxym
ramillies
slide
delle
weight
##uzi
suppl
strick
darcy
freeb
freya
##club
byung
koyama
verband
akt
garfun
maxi
kuro
ryuki
ryback
diplo
westinghouse
kalan
volcano
teres
terre
subl
lutescens
niacin
##itaro
nikon
barbuda
novartis
844
massimo
breis
villas
papilio
sinaloa
cdk
kaiju
dalea
##flon
illyr
miroslav
babur
felis
persp
platyp
specific
archangel
1257
##emiah
dimidi
birk
kavadh
overture
further
##agenet
colors
battles
putt
eintr
khaled
skyteam
1069
husserl
chlorophytum
1397
bipinn
1389
yoshit
jakub
lavochkin
folic
##chinensis
##formis
##razepam
tigers
guanine
yahya
angustifolium
##iacum
rodolfo
standards
amblystegium
courtois
eugenio
qajar
pompidou
kovac
schoenus
##phenol
tyrannosaur
arachni
swanson
orochi
wedgwood
cyclin
acutifolia
mashima
lundell
sticherus
salicifolia
juliette
riksd
mahatma
amyloid
warfare
reinhardt
anoect
mascara
dimitri
saurau
puccin
##enecio
diodorus
distribution
blazkowicz
syriac
zwickau
merseyside
purpose
schiede
zambezi
spirou
haussmann
aeneas
tokyopop
mahabharata
khirbet
phylogeny
cessna
deidara
soricomorpha
tournefort
cassiope
agamemnon
guggenheim
sovereign
omeyyad
haleakala
gamerankings
hydrocharitaceae
##enshmirtz
garfunkel
1c
4a
ego
eiji
famous
hsi
jt
jager
kug
kaki
pby
qh
roto
rurik
srin
vnexpress
waf
xs
xieu
yash
##bans
##cae
##kens
##iques
##testosterone
##gol
##ound
##efferia
##yet
##fm
##fert
##floxacin
##لي
chievo
##amex
vagin
mox
##ucei
lomon
##apine
choji
boone
congesta
bish
hainanensis
##alid
##orte
moines
bago
##usu
lecom
##ilsk
sejong
##asca
teacher
##uras
capes
alect
##otum
tapein
apic
gianni
caine
rath
chechen
diop
stain
intric
rohm
began
##agari
##akis
##ipter
arrond
emaar
##istrat
parson
##ioefferia
clot
##sone
asher
isor
##taea
gamal
barangay
plot
enn
enzim
##ession
orontes
serama
smoke
calm
##shot
edel
edulis
geis
##dero
##oreg
henley
cortana
##quit
heritage
##ostich
halim
palom
merri
mendez
mclean
bills
delt
borch
borbon
##opteridaceae
strand
75mm
##sport
turks
grandiflorum
frequ
montagne
indira
##matodon
##chee
madhouse
paton
peeta
assisi
castries
ibuprofen
astra
nikopol
1205
croft
derbys
olympias
millettia
##opolitan
cerot
regulus
##atoria
masao
resistance
trombone
bromus
bellamy
komarov
mahav
liverm
cassie
spectrum
cpc
pseudos
mrp
contact
1554
svitol
pallens
ribonucle
diderot
sagami
1538
saddle
henrique
1478
exped
1438
eisenberg
mbk
classics
joanne
corybas
##hynchus
daeng
myrmec
lyonnais
eunhyuk
hakodate
##unced
lombok
tbf
egfr
bagley
vnđ
peck
csr
toshiba
claymore
koichi
gesellschaft
##otherium
abbasid
lusaka
officer
turnbull
crocus
leviathan
ramosissima
laevigata
reveal
natsumi
achaemenid
kroos
pogonioefferia
fuchsia
astronomy
linearifolia
tuberculosis
chicken
gascony
##asaray
heligoland
##opterygii
seppuku
kotschy
vologases
gorodok
shiloh
peugeot
stardust
peninsula
shilling
considered
curcuma
cirrhilabrus
sashimi
guthrie
habropogon
immortal
agrostophyllum
aurangzeb
abhisit
fleury
juarez
smyrna
vermouth
apocalypse
voroshilov
adebayor
stagecoach
yartsevo
derbyshire
svitolina
aen
aum
bham
euch
g6
hing
kii
kwan
oulu
qw
sla
ulei
vcn
xel
yb
yaya
yami
yugo
zetter
왕
##cad
##dus
##dream
##munt
##pura
##eit
##eha
##fit
##wler
##wise
##ис
##ру
##oidei
##inen
mop
modr
git
##uanensis
##onanthus
##iast
anah
souv
toon
banco
veget
20mm
rasm
hail
##alamus
dood
##eses
chukot
dune
##usic
trit
triv
trilob
##itner
##itabine
phoc
##olon
##olob
bene
##revir
diode
tym
tyumen
stim
stenos
ines
init
manu
manettia
marjor
arne
##odyn
##odox
##odoro
item
shoch
champl
##enski
1419
parmen
carotene
spars
clydes
isma
acs
rutaceae
exile
##udine
##antz
forget
franxi
##eyar
crock
fract
##endia
bomarea
rancho
youn
##issement
##haj
trichom
huber
##veh
halal
##itten
merx
merchant
glow
mcf
##plus
cocon
delic
delgado
boronia
##uelo
imagawa
freeze
indiv
christchurch
verizon
##dorj
garner
mikkel
##oxetine
##ascia
peyr
murasaki
lunar
tarakan
grammar
novara
009
withers
##uvan
ics
katori
goran
067
portal
sabal
sabine
royle
949
woodstock
alberti
transit
dali
himiko
temn
urbano
creatin
abdallah
anthrop
podkarp
dorst
gunung
gunter
hiphop
spector
nyquist
##agnac
ethn
ethel
sync
jinchu
nader
leucobryum
##odontia
##buttel
##134
1155
1137
1293
1325
1462
producer
1381
propin
owl
2023
##walt
microdon
yaq
mlb
vietnamnet
kayak
erythrop
##slow
debrec
pittieri
mukh
stadt
##delphus
pangasin
witold
xylazine
##iguum
shellback
wadden
##ribed
critoniopsis
hohhot
pygmy
nalchik
rhizophoraceae
cornelis
arborescens
helicopter
lehmannii
pembroke
kiyomori
prolactin
tubingen
##utsuki
werderm
skinner
agrippa
colour
##ogorsk
obscura
yosemite
celebrity
orpheus
vologda
serenity
puberula
balochistan
praetor
galatasaray
blondie
lindbergh
trilogy
semyon
davenport
alcohol
vehicle
thouars
acrobol
cieszyn
montserrat
telescope
oblivion
mauricio
dracaena
hotchkiss
piacenza
eintracht
saurauia
3x
dhan
euk
fiv
gumi
h5
kerm
koshi
synch
tsk
vz
wess
고
##bles
##kah
##kido
##sak
##nu
##rud
##eal
##yid
##yantsev
##zing
##fir
##fahan
##ив
##장
##anski
##ongensis
##aiba
##acidae
##inj
##ients
hora
##atec
##atka
moder
##icas
sugi
suisse
##erine
##etra
anad
anaw
bogor
bojer
vigor
vitoria
##imilis
##omone
##orov
maham
sanosuke
##eund
trifol
minh65
leopol
##itata
##ilidae
##chal
##asam
##ashe
heech
##epubl
##emor
hanson
lois
maybe
mee
hathor
stamp
##adien
chanzy
intron
##thard
roder
##ediol
brachi
arius
argo
arcy
arpan
ararat
000đ
##avari
##abia
bonham
##ikin
##ogyn
goong
##techn
##indra
##ibut
nanami
##udai
blois
blavat
##eyn
cratae
fren
freak
##tour
raid
somoza
miao
calhoun
##maa
perf
attr
norweg
coruna
##veng
##quilla
sald
doncaster
gluck
jamaic
##gerd
mush
campestris
balder
krieg
rhy
worlds
slip
slava
borom
burr
melo
utopia
montmor
##noye
depot
##matum
garuda
osama
avalan
medal
senor
madura
vicenza
patrol
##ectus
polytech
feo
##eshwar
bunk
ibiza
800m
lutea
008
013
##ogoniaceae
porte
massal
056
cd4
##rovka
kazekage
rubic
rubella
calling
##asterone
resol
annon
pyreth
transmission
1401
##bachia
fci
bhas
mahler
makes
armia
rumyantsev
speck
microc
##ogenesis
dimeth
##guemines
kwk
1287
1281
##feng
ahs
ochoa
heartbreak
glucagon
##ruh
atlus
bergamo
sumatrana
wikimedia
wikileaks
spruance
##eance
fusca
javelin
##ianthemum
majoris
fairfax
affairs
bilbo
##ibank
plantagenet
mannii
shams
becamex
fullmetal
kaori
lauraceae
##km2
progestogen
leaders
lynx
lynne
constans
crispa
hđnd
returns
bingham
##lautern
amalfi
sarreguemines
xhcn
democrat
glabrata
encyclia
agathosma
surveyor
friuli
brachystelma
trunks
atropurpur
domingensis
##uillet
fernandes
##thorne
mathews
malouda
valkyrie
petrosian
bosporus
peshawar
ampelocissus
jermaine
getafe
eriosema
prostrata
proxima
trematodon
cheetah
valenciennes
angiosperm
erebidae
clidemia
nautilus
kibbutz
philodicus
terenggan
strickland
leopoldo
heechul
arpanet
avalanche
bmi
giec
gev
gnet
gaster
jb
kuo
kfc
knew
nii
nae
oke
pez
sø
sss
szy
tseng
wab
##cement
##iwa
##pec
##nm
##hung
##ερ
##gay
##lung
##word
##wati
##wijk
##ター
chico
##uak
##enot
hoya
phasc
##atifolia
##aught
labo
naya
void
suzy
converse
viver
biflora
razak
vande
dodo
dolan
dosto
##estone
##elau
ked
keio
lemm
sears
##olamine
capet
mayonnaise
cheung
##hiri
myelin
meat
mehs
hatta
mackin
##adori
chancell
##igena
nekh
bryn
manso
arima
monique
ampere
##ells
shk
hydn
saif
bonne
reb
rehab
laugh
##tonia
gaill
##trick
##oggi
caramel
##allur
goya
onna
ducati
spong
spic
spets
ayr
##teil
asuna
exe
score
enishi
##ophlebia
blaise
elt
elie
##hanensis
polhill
perestr
peristylus
##ocki
eddy
geog
gewehr
berne
##ynth
members
cumm
##enny
donat
moric
radwan
flute
ramsar
proestin
roshev
webber
protection
draper
delano
##khr
##khon
##khand
strath
estud
helict
belen
olen
opens
eureka
melamp
montaigne
horton
lindsey
##zee
recogn
##nyi
patent
mikasa
##oryne
teti
bolzano
tsv
ferro
domest
targ
telangana
recorded
crouch
derry
farah
##anyi
##qualis
winters
##isches
regensburg
sabc
sable
rubr
concolor
penrose
bellatrix
casua
##porated
korsh
daphn
pithe
miri
gotta
cassia
pursh
kunst
larson
larsson
mozdok
dancehall
pharrell
##benko
##identata
stonewall
1278
dreamgirls
bandar
rafale
axeton
1594
ribose
ekip
openoffice
khalkha
sagast
1443
hdtv
1586
weeks
hurley
thread
hormuz
1326
bowers
bullp
killua
kadai
sprucei
isoetes
dyer
##iades
##caloit
javan
moraea
lowest
glycine
shadows
udinese
##america
cosmic
canthium
zapata
splend
eagles
helmholtz
prosth
looking
bourget
figaro
##bahn
flamenco
kozlov
experimental
tyrrh
cocoon
quality
career
emerald
dressler
parlophone
kaeo
pedunculata
apocyn
##entanyl
vengeance
squarrosa
caliphate
kendall
pachycephal
skaat
nicomedes
reflection
lonchocarpus
ishihara
##dowell
ipv6
##onymous
lollipop
stigmat
mazurskie
ithaca
delacroix
torpedo
favorite
flavonoid
telemundo
blumenthal
cufod
saxatilis
ariadne
apfsds
##ophlebium
meibomia
carvalho
barnsley
chełm
riksdag
pangasinan
norwegian
3b
febr
hesi
lied
meph
mbs
pinh
rø
ress
resc
sier
uo
wole
ygg
zuc
zard
##cua
##cias
##hui
##gur
##lion
##eer
##yen
##fand
##xv
##xga
##ᅡᄋ
##ᅳᆼ
##aner
##ancourt
chair
##eniz
##angas
##athip
lagen
tusk
suki
suicide
##erovo
##ethane
boros
sauer
biot
rask
chion
cuzco
##imensis
doria
leak
##ilation
amol
tanin
boise
lyap
thamnium
alib
alita
mauro
hadi
vogt
mayday
myeong
diogenes
##adai
##adha
##road
satrap
inns
##thorn
beow
##igiana
dichaea
##edie
marble
areth
arno
ampicillin
##elloides
neuron
##iria
##ovin
hetero
##abil
hyac
##ivora
##skir
prasterone
gail
schis
schacht
parat
##ogone
offer
duarte
ducrot
##teok
##soni
100mm
##uken
exmoor
2300
frapp
adc
ors
rapids
calcium
##izh
##izei
bomber
##shut
##show
##aini
29k
abby
edit
berili
angers
angolensis
herc
ghor
interest
wildl
radetz
##ashiri
jami
allow
martyr
strum
belo
brogl
etoi
eurogamer
##manniana
valais
kenichi
senkaku
retusa
62mm
peac
tetsu
inchon
polyester
tsuki
groban
bunny
playing
subaru
castellan
skog
##herbe
kanchan
demid
demand
##romat
865
papyrus
kazuya
nagant
mccorm
krak
1301
##kovich
hiryu
rolex
mirac
fedex
himachal
godavari
collabor
steenis
pokal
insider
lincolnshire
nadine
sviat
numm
chrysophyllum
##brevi
pacino
1070
preview
1156
dolomit
1494
1444
melanin
1479
##cinum
1452
defender
1135
1396
huron
mobius
proctor
1369
1365
1385
fantas
##ocerus
thorpe
fuscus
##engo
takeuchi
lhp
matsudaira
origami
origins
yongsan
cephaloziaceae
juba
jabl
reflex
segunda
sawyer
vigna
bronstein
elymus
thalass
pdpa
dmz
bjorn
ursus
seungri
cornwallis
pimenov
##ocladum
magnetic
bartholome
yesung
coriolis
lanceolatum
alvarado
vđqg
taeyang
faustina
hodgs
glycoside
democrac
investment
mystic
schonb
##itinib
##kurov
plasmodium
doubs
robustus
fsb
membranacea
lasker
glomerata
obliqua
seleucid
executive
bayonetta
schimperi
neighbor
competition
triphosphate
bagramian
sumbawa
lepisorus
puig
carpathian
khmelnyt
ymca
skopje
hertfordshire
nollywood
microlepia
acapulco
seconds
elektra
roskilde
podkarpackie
beowulf
wildlife
a8
dsp
ezo
fein
fuz
gunt
iaea
m5
muto
nieng
poth
puma
rgb
sage
vg
voss
yona
за
##dj
##sdal
##pass
##post
##tf
##gad
##leman
##zit
##fp
##fare
##vay
##vern
##ац
##ут
##ᅮᆯ
##anzer
tricolor
##amana
##ungpaya
hound
coach
gira
thetis
##ethi
##etyl
anode
taisho
##iches
bix
bibli
tawi
##imoff
##omics
dost
##esque
##orld
##elta
maung
##itic
##ilianus
seon
seag
lyons
bendt
khut
aland
alten
nuk
##idopsis
maureen
hagan
##unensis
hate
chatt
1218
inver
infr
hamamel
##edrine
bruy
mancini
arty
shol
##illar
##ranos
toto
reit
1310
##ueng
prach
schom
schauer
carry
##tev
##sona
##rij
exon
exxon
excalibur
##bou
bara
##ffa
fors
##ophyte
elgar
elements
adol
ordin
sert
sapind
##iuscula
##urgos
romer
##linium
berwick
##ynos
60m
hermon
charente
peta
warmin
agl
flamin
tuareg
magical
popp
buru
poole
dise
antarct
etling
##hous
##noch
verge
omi
hawke
##grand
malayalam
##oxine
argentin
##gnon
##asciata
upc
henryk
voll
linum
narmer
shinzo
##ereau
bunch
##ocho
skid
skane
niko
artbook
011
gorgon
chenopodium
989
northwestern
goldwyn
##ampur
january
ssr
slovene
carduus
048
##rows
highlands
youtuber
hunters
pseudomal
durieu
ethinyl
nadh
jordanes
roadblock
mvp
##chaeta
1284
ribbon
opening
drav
dhah
kasper
1291
bergkamp
clinopodium
passer
pontific
eisen
crossing
1141
1162
escap
1349
1347
futures
ferrugin
relief
fontana
effie
nazca
kelley
kisame
chernenko
grady
##ethylamine
gaveston
gazprom
ronaldinho
kaolin
cappella
diazepam
echinopsis
kingsley
maldini
didymocarpus
##emontana
agrig
favreau
đtqg
##avirin
economics
alaungpaya
cluster
myrtle
survivors
heliconia
include
amylase
##fjorden
coffea
xhosa
seleucia
khasekhem
##dersfield
macleay
methodist
jodie
anthoceros
elsie
oxalat
maksutov
meadows
verrucosa
grindcore
japonicum
whittier
mikoł
seminole
thyrs
parthenon
##arrhena
mathew
dipterocarpaceae
trachypod
cohors
tentiform
niobi
eristalis
deutscher
fremant
saracen
piemonte
portrait
rachmaninoff
spoleto
bartholdi
edmontosaurus
ahmadinejad
kaiserslautern
atalanta
arachniodes
puccinellia
marjorie
debrecen
terengganu
bullpup
etlingera
2g
aka
aidan
baph
eton
faur
fife
figu
iheart
jawi
pimp
pupp
rj
tca
ueno
wut
wys
yau
yae
zend
##baki
##cab
##kino
##katsu
##a4
##a3
##nasse
##rp
##rate
##oes
##yz
##yadi
##3d
##600
##jae
##xian
##ре
##ᅡᄅ
##ية
##ßner
phage
coord
##auchi
lard
moly
mouth
##erp
anura
ancaloit
##aray
##arra
cure
##omed
dodon
troch
legn
cane
canaver
thought
heih
##emur
haji
apenn
giants
vov
##rage
hayata
stary
1210
##adine
chantar
deacon
roan
##ipas
arend
##llo
##oden
##odin
##nei
##abun
bono
##rypt
pruin
##trell
schiller
parach
grem
khanid
##sonia
##ugao
buchn
sawan
scir
undp
##ffi
forg
blender
elijah
crest
crash
somat
miquel
sapa
##sher
atahual
abelis
gangan
##othalamus
mujer
##obl
##assus
cortex
##veer
##quea
botan
erhard
salacia
tommas
walmart
##ighty
##athin
morinda
agon
radulaceae
glover
micho
##laq
microd
jew
mille
borland
swain
sarus
shirin
shigeru
syd
immanuel
antides
utd
montpar
##hram
kour
##pty
akashi
kuribayashi
galatia
maddie
##auria
##olfia
##aphyll
##ioscelis
terek
große
1248
lutetia
skor
kiliman
auggie
[...]
